{
  "version": "1.0",
  "truncation": null,
  "padding": {
    "strategy": "BatchLongest",
    "direction": "Right",
    "pad_to_multiple_of": null,
    "pad_id": 0,
    "pad_type_id": 0,
    "pad_token": "<pad>"
  },
  "added_tokens": [
    {
      "id": 0,
      "content": "<pad>",
      "single_word": false,
      "lstrip": false,
      "rstrip": false,
      "normalized": false,
      "special": true
    },
    {
      "id": 1,
      "content": "<unk>",
      "single_word": false,
      "lstrip": false,
      "rstrip": false,
      "normalized": false,
      "special": true
    },
    {
      "id": 2,
      "content": "<bos>",
      "single_word": false,
      "lstrip": false,
      "rstrip": false,
      "normalized": false,
      "special": true
    },
    {
      "id": 3,
      "content": "<eos>",
      "single_word": false,
      "lstrip": false,
      "rstrip": false,
      "normalized": false,
      "special": true
    }
  ],
  "normalizer": null,
  "pre_tokenizer": {
    "type": "ByteLevel",
    "add_prefix_space": false,
    "trim_offsets": true,
    "use_regex": true
  },
  "post_processor": {
    "type": "TemplateProcessing",
    "single": [
      {
        "SpecialToken": {
          "id": "<bos>",
          "type_id": 0
        }
      },
      {
        "Sequence": {
          "id": "A",
          "type_id": 0
        }
      },
      {
        "SpecialToken": {
          "id": "<eos>",
          "type_id": 0
        }
      }
    ],
    "pair": [
      {
        "SpecialToken": {
          "id": "<bos>",
          "type_id": 0
        }
      },
      {
        "Sequence": {
          "id": "A",
          "type_id": 0
        }
      },
      {
        "SpecialToken": {
          "id": "<eos>",
          "type_id": 0
        }
      },
      {
        "SpecialToken": {
          "id": "<bos>",
          "type_id": 1
        }
      },
      {
        "Sequence": {
          "id": "B",
          "type_id": 1
        }
      },
      {
        "SpecialToken": {
          "id": "<eos>",
          "type_id": 1
        }
      }
    ],
    "special_tokens": {
      "<bos>": {
        "id": "<bos>",
        "ids": [
          2
        ],
        "tokens": [
          "<bos>"
        ]
      },
      "<eos>": {
        "id": "<eos>",
        "ids": [
          3
        ],
        "tokens": [
          "<eos>"
        ]
      }
    }
  },
  "decoder": null,
  "model": {
    "type": "BPE",
    "dropout": null,
    "unk_token": "<unk>",
    "continuing_subword_prefix": null,
    "end_of_word_suffix": null,
    "fuse_unk": false,
    "byte_fallback": false,
    "ignore_merges": false,
    "vocab": {
      "<pad>": 0,
      "<unk>": 1,
      "<bos>": 2,
      "<eos>": 3,
      "!": 4,
      "\"": 5,
      "#": 6,
      "$": 7,
      "&": 8,
      "'": 9,
      "(": 10,
      ")": 11,
      "*": 12,
      "+": 13,
      ",": 14,
      "-": 15,
      ".": 16,
      "/": 17,
      "0": 18,
      "1": 19,
      "2": 20,
      "3": 21,
      "4": 22,
      "5": 23,
      "6": 24,
      "7": 25,
      "8": 26,
      "9": 27,
      ":": 28,
      ";": 29,
      "<": 30,
      "=": 31,
      ">": 32,
      "?": 33,
      "@": 34,
      "A": 35,
      "B": 36,
      "C": 37,
      "D": 38,
      "E": 39,
      "F": 40,
      "G": 41,
      "H": 42,
      "I": 43,
      "J": 44,
      "K": 45,
      "L": 46,
      "M": 47,
      "N": 48,
      "O": 49,
      "P": 50,
      "Q": 51,
      "R": 52,
      "S": 53,
      "T": 54,
      "U": 55,
      "V": 56,
      "W": 57,
      "X": 58,
      "Y": 59,
      "Z": 60,
      "[": 61,
      "\\": 62,
      "]": 63,
      "^": 64,
      "_": 65,
      "`": 66,
      "a": 67,
      "b": 68,
      "c": 69,
      "d": 70,
      "e": 71,
      "f": 72,
      "g": 73,
      "h": 74,
      "i": 75,
      "j": 76,
      "k": 77,
      "l": 78,
      "m": 79,
      "n": 80,
      "o": 81,
      "p": 82,
      "q": 83,
      "r": 84,
      "s": 85,
      "t": 86,
      "u": 87,
      "v": 88,
      "w": 89,
      "x": 90,
      "y": 91,
      "z": 92,
      "{": 93,
      "|": 94,
      "~": 95,
      "¡": 96,
      "¢": 97,
      "£": 98,
      "¦": 99,
      "¨": 100,
      "©": 101,
      "ª": 102,
      "´": 103,
      "µ": 104,
      "¶": 105,
      "¼": 106,
      "Â": 107,
      "Ã": 108,
      "â": 109,
      "Ġ": 110,
      "Ģ": 111,
      "Ĩ": 112,
      "Ķ": 113,
      "ķ": 114,
      "ĺ": 115,
      "Ļ": 116,
      "ľ": 117,
      "Ŀ": 118,
      "ł": 119,
      "Ġt": 120,
      "he": 121,
      "Ġa": 122,
      "in": 123,
      "Ġthe": 124,
      "Ġs": 125,
      "re": 126,
      "Ġw": 127,
      "Ġo": 128,
      "er": 129,
      "nd": 130,
      "ou": 131,
      "at": 132,
      "Ġb": 133,
      "it": 134,
      "Ġf": 135,
      "is": 136,
      "Ġc": 137,
      "en": 138,
      "Ġm": 139,
      "on": 140,
      "ed": 141,
      "es": 142,
      "ing": 143,
      "Ġh": 144,
      "or": 145,
      "Ġand": 146,
      "Ġp": 147,
      "Ġd": 148,
      "Ġto": 149,
      "Ġof": 150,
      "an": 151,
      "ar": 152,
      "Ġth": 153,
      "le": 154,
      "ll": 155,
      "Ġin": 156,
      "as": 157,
      "Ġbe": 158,
      "om": 159,
      "Ġl": 160,
      "Ġn": 161,
      "--": 162,
      "Ġe": 163,
      "Ġg": 164,
      "Ġy": 165,
      "ce": 166,
      "al": 167,
      "ĠT": 168,
      "Ġis": 169,
      "ĠI": 170,
      "ve": 171,
      "Ġyou": 172,
      "ow": 173,
      "ti": 174,
      "Ġit": 175,
      "ay": 176,
      "ly": 177,
      "se": 178,
      "im": 179,
      "ver": 180,
      "Ġre": 181,
      "Ġwh": 182,
      "st": 183,
      "id": 184,
      "ot": 185,
      "her": 186,
      "ch": 187,
      "Ġfor": 188,
      "gh": 189,
      "ĠThe": 190,
      "Ġha": 191,
      "Ġthat": 192,
      "ld": 193,
      "ir": 194,
      "ent": 195,
      "ut": 196,
      "Ġ\"": 197,
      "Ġu": 198,
      "Ġhe": 199,
      "ith": 200,
      "ri": 201,
      "et": 202,
      "Ġon": 203,
      "ion": 204,
      "ra": 205,
      "Ġwe": 206,
      "ĠA": 207,
      "ur": 208,
      "ec": 209,
      "Ġwith": 210,
      "ĠS": 211,
      "ght": 212,
      "Ġas": 213,
      "Ġ--": 214,
      "ke": 215,
      "Ġ---": 216,
      "ter": 217,
      "ul": 218,
      "Ġst": 219,
      "Ġli": 220,
      "Ġsh": 221,
      "Ġat": 222,
      "ro": 223,
      "Ġan": 224,
      "ore": 225,
      "ĠW": 226,
      "oo": 227,
      "li": 228,
      "am": 229,
      "Ġwas": 230,
      "all": 231,
      "Ġnot": 232,
      "op": 233,
      "out": 234,
      "Ġsu": 235,
      "Ġhave": 236,
      "if": 237,
      "ome": 238,
      "ill": 239,
      "very": 240,
      "ess": 241,
      "ould": 242,
      "ic": 243,
      "Ġse": 244,
      "Ġab": 245,
      "ĠH": 246,
      "il": 247,
      "Ġare": 248,
      "Ġfr": 249,
      "Ġv": 250,
      "ad": 251,
      "us": 252,
      "Ġwhe": 253,
      "red": 254,
      "em": 255,
      "qu": 256,
      "Ġsp": 257,
      "ain": 258,
      "Ġor": 259,
      "ac": 260,
      "Ġfrom": 261,
      "tion": 262,
      "pp": 263,
      "Ġcon": 264,
      "Ġso": 265,
      "ind": 266,
      "ĠL": 267,
      "Ġwhi": 268,
      "end": 269,
      "ity": 270,
      "ation": 271,
      "Ġne": 272,
      "Ġex": 273,
      "Ġyour": 274,
      "ant": 275,
      "Ġby": 276,
      "ge": 277,
      "Ġde": 278,
      "Ġle": 279,
      "rou": 280,
      "Ġabout": 281,
      "Ġdo": 282,
      "ĠM": 283,
      "ard": 284,
      "ful": 285,
      "th": 286,
      "ther": 287,
      "ĠB": 288,
      "ate": 289,
      "Ġhas": 290,
      "Ġwhich": 291,
      "te": 292,
      "Ġall": 293,
      "res": 294,
      "ble": 295,
      "Ġthey": 296,
      "est": 297,
      ",\"": 298,
      "ĠF": 299,
      "Ġsa": 300,
      "Ġcom": 301,
      "Ġhis": 302,
      "Ġwho": 303,
      "Ġk": 304,
      "Ġwill": 305,
      "Ġwor": 306,
      "Ġcan": 307,
      "Ġman": 308,
      "Ġme": 309,
      "Ġthis": 310,
      "ven": 311,
      "Ġbut": 312,
      ".\"": 313,
      "Ġmore": 314,
      "Ġday": 315,
      "Ġother": 316,
      "ĠC": 317,
      "ĠE": 318,
      "Ġwhen": 319,
      "Ġfe": 320,
      "Ġone": 321,
      "Ġtheir": 322,
      "au": 323,
      "ist": 324,
      "Ġtim": 325,
      "ers": 326,
      "Ġch": 327,
      "ong": 328,
      "ĠO": 329,
      "Ġim": 330,
      "os": 331,
      "ose": 332,
      "Ġevery": 333,
      "fe": 334,
      "ies": 335,
      "Ġsm": 336,
      "Ġsome": 337,
      "reat": 338,
      "ect": 339,
      "ust": 340,
      "Ġac": 341,
      "ak": 342,
      "Ġbeen": 343,
      "ance": 344,
      "Ġthem": 345,
      "ure": 346,
      "od": 347,
      "Ġun": 348,
      "our": 349,
      "are": 350,
      "Ġtime": 351,
      "Ġus": 352,
      "ake": 353,
      "ence": 354,
      "ood": 355,
      "um": 356,
      "ous": 357,
      "Ġpe": 358,
      "un": 359,
      "Ġal": 360,
      "Ġlike": 361,
      "Ġen": 362,
      "Ġpro": 363,
      "one": 364,
      "ide": 365,
      "ked": 366,
      "ĠP": 367,
      "Ġhim": 368,
      "ound": 369,
      "Ġj": 370,
      "la": 371,
      "ĠTh": 372,
      "ĠD": 373,
      "Ġwhat": 374,
      "ved": 375,
      "ach": 376,
      "Ġno": 377,
      "Ġup": 378,
      "Ġqu": 379,
      "rac": 380,
      "ĠG": 381,
      "hed": 382,
      "ople": 383,
      "ond": 384,
      "el": 385,
      "Ġri": 386,
      "Ġbet": 387,
      "Ġwould": 388,
      "ĠN": 389,
      "ort": 390,
      "Ġsaid": 391,
      "Ġwat": 392,
      "ĠY": 393,
      "ight": 394,
      "Ġad": 395,
      "sel": 396,
      "Ġam": 397,
      "Ġimp": 398,
      "tic": 399,
      "Ġthere": 400,
      "Ġpeople": 401,
      "ink": 402,
      "ig": 403,
      "ĠWh": 404,
      "nt": 405,
      "per": 406,
      "ather": 407,
      "ast": 408,
      "ook": 409,
      "able": 410,
      "riend": 411,
      "ame": 412,
      "Ġhad": 413,
      "ol": 414,
      "arn": 415,
      "Ġmy": 416,
      "ue": 417,
      "ĠIt": 418,
      "ry": 419,
      "now": 420,
      "?\"": 421,
      "Ġr": 422,
      "Ġany": 423,
      "ĠWe": 424,
      "irst": 425,
      "and": 426,
      "ays": 427,
      "art": 428,
      "Ġar": 429,
      "'s": 430,
      "ost": 431,
      "ings": 432,
      "Ġfound": 433,
      "Ġdis": 434,
      "ip": 435,
      "get": 436,
      "Ġits": 437,
      "Ġfriend": 438,
      "ves": 439,
      "ĠSte": 440,
      "ĠStep": 441,
      "Ġdif": 442,
      "Ġthan": 443,
      "Ġcomp": 444,
      "ks": 445,
      "uc": 446,
      "lp": 447,
      "ass": 448,
      "Ġout": 449,
      "ise": 450,
      "Ġper": 451,
      "Ġwere": 452,
      "Ġaf": 453,
      "ily": 454,
      "fore": 455,
      "ive": 456,
      "ally": 457,
      "ag": 458,
      "oth": 459,
      "Ġrem": 460,
      "ud": 461,
      "Ġif": 462,
      "Ġtr": 463,
      "Ġapp": 464,
      "Ġag": 465,
      "to": 466,
      "Ġshow": 467,
      "Ġbec": 468,
      "Ġlearn": 469,
      "Ġthou": 470,
      "ns": 471,
      "Ġknow": 472,
      "Ġour": 473,
      "ap": 474,
      "ĠR": 475,
      "ep": 476,
      "Ġsmall": 477,
      "Ġwater": 478,
      "Ġpl": 479,
      "Ġbetter": 480,
      "ild": 481,
      "ĠIf": 482,
      "Ġnat": 483,
      "Ġhelp": 484,
      "ree": 485,
      "Ġrep": 486,
      "self": 487,
      "Ġfo": 488,
      "oy": 489,
      "ie": 490,
      "ell": 491,
      "Ġshe": 492,
      "rough": 493,
      "ile": 494,
      "ack": 495,
      "âĢ": 496,
      "ove": 497,
      "ab": 498,
      "ward": 499,
      "Ġgen": 500,
      "Ġgreat": 501,
      "Ġmay": 502,
      "ish": 503,
      "gether": 504,
      "Ġgood": 505,
      "row": 506,
      "ues": 507,
      "ten": 508,
      "Ġthink": 509,
      "ness": 510,
      "Ġmany": 511,
      "Ġpre": 512,
      "ment": 513,
      "Ġthese": 514,
      "Ġgo": 515,
      "Ġthen": 516,
      "Ġway": 517,
      "ite": 518,
      "ren": 519,
      "Ġher": 520,
      "Ġshould": 521,
      "Ġgener": 522,
      "ace": 523,
      "tice": 524,
      "Ġeven": 525,
      "ions": 526,
      "Ġvery": 527,
      "wn": 528,
      "Ġboth": 529,
      "Ġover": 530,
      "Ġfind": 531,
      "Ġpat": 532,
      "ĠJ": 533,
      "ase": 534,
      "ĠHow": 535,
      "Ġtogether": 536,
      "iv": 537,
      "ĠOn": 538,
      "round": 539,
      "ĠThey": 540,
      "ct": 541,
      "ount": 542,
      "we": 543,
      "Ġob": 544,
      "ĠAnd": 545,
      "hing": 546,
      "ty": 547,
      "wer": 548,
      "Ġmust": 549,
      "Ġthose": 550,
      "uch": 551,
      "Ġlong": 552,
      "Ġpo": 553,
      "als": 554,
      "arm": 555,
      "Ġcould": 556,
      "ĠBut": 557,
      "Ġprac": 558,
      "gg": 559,
      "Ġra": 560,
      "ason": 561,
      "int": 562,
      "Ġinto": 563,
      "ience": 564,
      "ine": 565,
      "Ġothers": 566,
      "ull": 567,
      "Ġlook": 568,
      "ched": 569,
      "Ġfeel": 570,
      "Ġtur": 571,
      "ause": 572,
      "ber": 573,
      "ĠHe": 574,
      "Ġstr": 575,
      "ĠIn": 576,
      "Ġthrough": 577,
      "Ġbeing": 578,
      "ope": 579,
      "Ġdes": 580,
      "ear": 581,
      "Ġlife": 582,
      "Ġsk": 583,
      "Ġneed": 584,
      "isit": 585,
      "Ġbl": 586,
      "ities": 587,
      "ire": 588,
      "vel": 589,
      "nder": 590,
      "Ġmuch": 591,
      "Ġbr": 592,
      "Ġcont": 593,
      "Ġupon": 594,
      "Ġmost": 595,
      "ĠQ": 596,
      "ple": 597,
      "lie": 598,
      "Ġcomm": 599,
      "Ġfl": 600,
      "Ġhope": 601,
      "Ġkind": 602,
      "itt": 603,
      "here": 604,
      "Ġwhere": 605,
      "Ġmake": 606,
      "Ġcons": 607,
      "Ġhum": 608,
      "les": 609,
      "Ġtoo": 610,
      "Ġadv": 611,
      "ving": 612,
      "Ġcl": 613,
      "Ġspec": 614,
      "ark": 615,
      "orn": 616,
      "ary": 617,
      "Ġhand": 618,
      "Ġafter": 619,
      "Ġthings": 620,
      "Ġright": 621,
      "Ġind": 622,
      "Ġlight": 623,
      "sp": 624,
      "Ġdisc": 625,
      "Ġnow": 626,
      "Ġasked": 627,
      "gin": 628,
      "Ġ1": 629,
      "ations": 630,
      "Ġfirst": 631,
      "Ġonly": 632,
      "Ġrec": 633,
      "ious": 634,
      "lied": 635,
      "Ġhow": 636,
      "ways": 637,
      "Ġval": 638,
      "Ġdiffe": 639,
      "Ġsay": 640,
      "Ġseem": 641,
      "ord": 642,
      "Ġfa": 643,
      "Ġwork": 644,
      "ang": 645,
      "Ġdist": 646,
      "ered": 647,
      "Ġfriends": 648,
      "Ġoff": 649,
      "Ġeach": 650,
      "ick": 651,
      "fect": 652,
      "Ġgr": 653,
      "ice": 654,
      "llow": 655,
      "erc": 656,
      "Ġche": 657,
      "Ġalways": 658,
      "Ġmak": 659,
      "ult": 660,
      "til": 661,
      "Ġvisit": 662,
      "ouse": 663,
      "ĠâĢ": 664,
      "Ġbefore": 665,
      "Ġsee": 666,
      "ert": 667,
      "Ġunder": 668,
      "ider": 669,
      "ĠGod": 670,
      "other": 671,
      "ĠBe": 672,
      "hat": 673,
      "ortant": 674,
      "Ġmat": 675,
      "ade": 676,
      "oe": 677,
      "Ġwell": 678,
      "Ġtw": 679,
      "Ġreplied": 680,
      "hen": 681,
      "Ġte": 682,
      "Ġwant": 683,
      "ient": 684,
      "ĠLe": 685,
      "orm": 686,
      "ĠYou": 687,
      "ĠSo": 688,
      "Ġcle": 689,
      "Ġcr": 690,
      "ĠWhile": 691,
      "Ġlearned": 692,
      "Ġda": 693,
      "Ġev": 694,
      "Ġown": 695,
      "Ġoften": 696,
      "Ġple": 697,
      "fic": 698,
      "ĠK": 699,
      "ĠFirst": 700,
      "ia": 701,
      "own": 702,
      "ory": 703,
      "ans": 704,
      "Ġthought": 705,
      "ign": 706,
      "ng": 707,
      "auti": 708,
      "Ġpoint": 709,
      "Ġsuch": 710,
      "Ġsti": 711,
      "ĠAns": 712,
      "ĠAnswer": 713,
      "Ġhon": 714,
      "uestion": 715,
      "ĠQuestion": 716,
      "Ġmade": 717,
      "Ġ3": 718,
      "Ġbeauti": 719,
      "Ġpr": 720,
      "resh": 721,
      "so": 722,
      "act": 723,
      "Ġpres": 724,
      "age": 725,
      "Ġbeautiful": 726,
      "Ġfresh": 727,
      "Ġ_": 728,
      "Ġgent": 729,
      "ared": 730,
      "Ġexp": 731,
      "iz": 732,
      "ures": 733,
      "Ġ(": 734,
      "ah": 735,
      "Ġbecause": 736,
      "Ġhapp": 737,
      "ated": 738,
      "Ġcreat": 739,
      "Ġwr": 740,
      "alm": 741,
      "ors": 742,
      "Ġdown": 743,
      "lace": 744,
      "Ġarg": 745,
      "ub": 746,
      "Ġwithout": 747,
      "Ġro": 748,
      "'t": 749,
      "ser": 750,
      "Ġagain": 751,
      "Ġnear": 752,
      "Ġsun": 753,
      "iting": 754,
      "Ġdeep": 755,
      "led": 756,
      "Ġsame": 757,
      "ene": 758,
      "ural": 759,
      "Ġsur": 760,
      "Ġcar": 761,
      "Ġpos": 762,
      "Ġlet": 763,
      "Ġyoung": 764,
      "ject": 765,
      "uring": 766,
      "Ġsc": 767,
      "Ġwis": 768,
      "ĠAm": 769,
      "read": 770,
      "Ġplace": 771,
      "Ġmen": 772,
      "ave": 773,
      "ided": 774,
      "ial": 775,
      "alth": 776,
      "Ġimportant": 777,
      "Ġcat": 778,
      "ĠWhen": 779,
      "Ġcare": 780,
      "Ġacc": 781,
      "Ġworld": 782,
      "hip": 783,
      "bit": 784,
      "Ġold": 785,
      "dom": 786,
      "Ġinte": 787,
      "Ġair": 788,
      "uild": 789,
      "ool": 790,
      "Ġbelie": 791,
      "ility": 792,
      "Ġreason": 793,
      "where": 794,
      "Ġide": 795,
      "ĠThere": 796,
      "Ġinc": 797,
      "Ġjust": 798,
      "econd": 799,
      "Ġnature": 800,
      "Ġbene": 801,
      "Ġ2": 802,
      "rence": 803,
      "mm": 804,
      "ress": 805,
      "ale": 806,
      "Ġchar": 807,
      "Ġgive": 808,
      "Ġtoward": 809,
      "Ġsugg": 810,
      "omet": 811,
      "az": 812,
      "ĠThis": 813,
      "ĠZ": 814,
      "ories": 815,
      "pt": 816,
      "Ġfollow": 817,
      "day": 818,
      "ara": 819,
      "Ġcour": 820,
      "Ġwarm": 821,
      "Ġnever": 822,
      "ever": 823,
      "iet": 824,
      "ates": 825,
      "Ġsuggest": 826,
      "Ġback": 827,
      "ons": 828,
      "ality": 829,
      "Ġgre": 830,
      "lt": 831,
      "thing": 832,
      "ĠAs": 833,
      "Ġtake": 834,
      "ition": 835,
      "Ġear": 836,
      "Ġwisdom": 837,
      "Ġhere": 838,
      "Ġnew": 839,
      "Ġnight": 840,
      "erful": 841,
      "Ġanother": 842,
      "Ġreg": 843,
      "pare": 844,
      "tions": 845,
      "Ġwond": 846,
      "Ġexper": 847,
      "Ġhealth": 848,
      "We": 849,
      "ĠAmir": 850,
      "Ġsoon": 851,
      "ween": 852,
      "omething": 853,
      "uth": 854,
      "velop": 855,
      "hes": 856,
      "Ġgra": 857,
      "Ġfelt": 858,
      "ms": 859,
      "Ġbetween": 860,
      "oc": 861,
      "ened": 862,
      "Ġstill": 863,
      "iven": 864,
      "Ġsomething": 865,
      "ath": 866,
      "Ġdevelop": 867,
      "adow": 868,
      "Ġpart": 869,
      "Ġsays": 870,
      "ating": 871,
      "ither": 872,
      "ĠEvery": 873,
      "og": 874,
      "Ġdec": 875,
      "ts": 876,
      "iate": 877,
      "Ġfull": 878,
      "Ġchild": 879,
      "ĠWhat": 880,
      "Ġ'": 881,
      "ried": 882,
      "ĠCh": 883,
      "Ġfore": 884,
      "Ġenj": 885,
      "Ġinst": 886,
      "ised": 887,
      "arden": 888,
      "Ġwa": 889,
      "Ġpractic": 890,
      "ĠFor": 891,
      "Ġeveryone": 892,
      "Ġenjoy": 893,
      "Ġriver": 894,
      "Ġfaith": 895,
      "Ġtwo": 896,
      "Ġmatter": 897,
      "Ġaw": 898,
      "Ġmerc": 899,
      "Ġcompan": 900,
      "less": 901,
      "ific": 902,
      "Ġ4": 903,
      "Ġuntil": 904,
      "oment": 905,
      "ĠSome": 906,
      "Ġmem": 907,
      "Ġspend": 908,
      "Ġdiffic": 909,
      "Ġshel": 910,
      "ittle": 911,
      "iss": 912,
      "Ġmoment": 913,
      "ting": 914,
      "ĠâĢĶ": 915,
      "Ġdoes": 916,
      "alk": 917,
      "old": 918,
      "ss": 919,
      "Ġgarden": 920,
      "Ġsupp": 921,
      "ned": 922,
      "Ġlittle": 923,
      "Ġbest": 924,
      "ĠSt": 925,
      "Ġobser": 926,
      "ange": 927,
      "Ġcall": 928,
      "Ġalso": 929,
      "ude": 930,
      "Ġconsider": 931,
      "ough": 932,
      "Ġsim": 933,
      "Ġlast": 934,
      "Ġrest": 935,
      "aught": 936,
      "Ġcond": 937,
      "ens": 938,
      "Ġpractice": 939,
      "Ġmakes": 940,
      "ft": 941,
      "anc": 942,
      "Ġmight": 943,
      "uck": 944,
      "Ġdaily": 945,
      "va": 946,
      "Ġbuild": 947,
      "not": 948,
      "Ġgl": 949,
      "itions": 950,
      "Ġ5": 951,
      "aring": 952,
      "Ġaround": 953,
      "Ġlar": 954,
      "stand": 955,
      "Ġref": 956,
      "Ġcalm": 957,
      "Ġatt": 958,
      "Ġconf": 959,
      "the": 960,
      "ical": 961,
      "Ġnatural": 962,
      "ular": 963,
      "ross": 964,
      "hy": 965,
      "Ġcome": 966,
      "Ġanim": 967,
      "fit": 968,
      "Ġdid": 969,
      "Ġexperience": 970,
      "Ġdet": 971,
      "Ġlove": 972,
      "ĠSecond": 973,
      "Ġop": 974,
      "Ġfish": 975,
      "ied": 976,
      "Ġless": 977,
      "br": 978,
      "ustice": 979,
      "reak": 980,
      "rought": 981,
      "Ġdifference": 982,
      "Ġwanted": 983,
      "ual": 984,
      "orning": 985,
      "omm": 986,
      "Ġspace": 987,
      "Ġexc": 988,
      "selves": 989,
      "Ġstrong": 990,
      "Ġpers": 991,
      "ertain": 992,
      "ize": 993,
      "Ġsou": 994,
      "Ġsever": 995,
      "Ġsky": 996,
      "Ġwhile": 997,
      "ne": 998,
      "Ġinf": 999,
      "ĠThat": 1000,
      "Ġbrought": 1001,
      "igh": 1002,
      "Ġbo": 1003,
      "ction": 1004,
      "Ġduring": 1005,
      "Ġshared": 1006,
      "Ġimpro": 1007,
      "tim": 1008,
      "esp": 1009,
      "Ġtra": 1010,
      "Ġresp": 1011,
      "ody": 1012,
      "ted": 1013,
      "Ġsub": 1014,
      "right": 1015,
      "Ġseveral": 1016,
      "ĠNo": 1017,
      "Ġunderstand": 1018,
      "erm": 1019,
      "Ġstart": 1020,
      "ank": 1021,
      "Ġpath": 1022,
      "ined": 1023,
      "Ġsw": 1024,
      "Ġforg": 1025,
      "ember": 1026,
      "Ġmark": 1027,
      "rown": 1028,
      "iron": 1029,
      "Ġent": 1030,
      "Ġhome": 1031,
      "idge": 1032,
      "Ġhimself": 1033,
      "itude": 1034,
      "Ġmemories": 1035,
      "ĠYour": 1036,
      "ĠWith": 1037,
      "Ġdays": 1038,
      "Ġworking": 1039,
      "oura": 1040,
      "mer": 1041,
      "Ġbegin": 1042,
      "Ġseemed": 1043,
      "ains": 1044,
      "Ġquiet": 1045,
      "Ġspecial": 1046,
      "ds": 1047,
      "Ġyear": 1048,
      "Ġcommon": 1049,
      "ff": 1050,
      "Ġsign": 1051,
      "Ġsure": 1052,
      "Ġaway": 1053,
      "Ġgather": 1054,
      "Ġsl": 1055,
      "Ġtruth": 1056,
      "Ġlarge": 1057,
      "Ġyet": 1058,
      "Ġmean": 1059,
      "Ġanimals": 1060,
      "ited": 1061,
      "It": 1062,
      "tiv": 1063,
      "land": 1064,
      "Ġtrue": 1065,
      "Ġgentle": 1066,
      "oyal": 1067,
      "Ġseen": 1068,
      "ĠMr": 1069,
      "Ġcannot": 1070,
      "Ġdifficult": 1071,
      "lect": 1072,
      "Ġprepare": 1073,
      "Ġtold": 1074,
      "Ġfam": 1075,
      "Ġwind": 1076,
      "gan": 1077,
      "ower": 1078,
      "Ġmind": 1079,
      "Ġplease": 1080,
      "Ġtem": 1081,
      "Ġweather": 1082,
      "Ġwhole": 1083,
      "Ġloyal": 1084,
      "ible": 1085,
      "Ġeas": 1086,
      "Ġsec": 1087,
      "Ġonce": 1088,
      "rent": 1089,
      "ĠNor": 1090,
      "Ġperfect": 1091,
      "Ġjustice": 1092,
      "ĠV": 1093,
      "Ġmo": 1094,
      "Ġmount": 1095,
      "Ġbenefit": 1096,
      "Ġass": 1097,
      "Ġrespect": 1098,
      "Ġtak": 1099,
      "ĠBen": 1100,
      "ĠAn": 1101,
      "ley": 1102,
      "Ġpie": 1103,
      "Ġremind": 1104,
      "Ġret": 1105,
      "ars": 1106,
      "Ġke": 1107,
      "Ġcompass": 1108,
      "Ġbright": 1109,
      "That": 1110,
      "Ġrel": 1111,
      "Ġshelter": 1112,
      "Ġser": 1113,
      "Ġtaught": 1114,
      "ently": 1115,
      "Ġlea": 1116,
      "Ġquite": 1117,
      "Ġhouse": 1118,
      "asure": 1119,
      "ĠOne": 1120,
      "ching": 1121,
      "Ġthough": 1122,
      "Ġeag": 1123,
      "Ġspecies": 1124,
      "Ġbelieve": 1125,
      "Ġshall": 1126,
      "Ġadd": 1127,
      "Ġexam": 1128,
      "Ġins": 1129,
      "Ġey": 1130,
      "Ġsomewhere": 1131,
      "gr": 1132,
      "aw": 1133,
      "Ġactiv": 1134,
      "Ġnor": 1135,
      "Ġwent": 1136,
      "Ġsmell": 1137,
      "Ġargue": 1138,
      "med": 1139,
      "Ġgu": 1140,
      "Ġever": 1141,
      "ĠTo": 1142,
      "Ġpur": 1143,
      "vy": 1144,
      "Ġbring": 1145,
      "Ġnothing": 1146,
      "reed": 1147,
      "Ġroom": 1148,
      "Ġuni": 1149,
      "Ġbuilding": 1150,
      "Ġfro": 1151,
      "Ġste": 1152,
      "inc": 1153,
      "enture": 1154,
      "ames": 1155,
      "Ġsil": 1156,
      "atitude": 1157,
      "Ġfar": 1158,
      "Ġans": 1159,
      "ticed": 1160,
      "xt": 1161,
      "Ġactivities": 1162,
      "Ġbus": 1163,
      "ully": 1164,
      "Ġcu": 1165,
      "Ġseason": 1166,
      "arb": 1167,
      "Ġsignific": 1168,
      "Ġnoticed": 1169,
      "pl": 1170,
      "ung": 1171,
      "idence": 1172,
      "oney": 1173,
      "let": 1174,
      "ute": 1175,
      "Ġthinking": 1176,
      "Ġtre": 1177,
      "ĠJack": 1178,
      "Ġplac": 1179,
      "Ġgrate": 1180,
      "inn": 1181,
      "fully": 1182,
      "iam": 1183,
      "cc": 1184,
      "race": 1185,
      "Ġwaiting": 1186,
      "line": 1187,
      "Ġcor": 1188,
      "ters": 1189,
      "eli": 1190,
      "rah": 1191,
      "Ġuse": 1192,
      "ax": 1193,
      "ane": 1194,
      "ince": 1195,
      "Ġadventure": 1196,
      "que": 1197,
      "ially": 1198,
      "Ġpi": 1199,
      "ning": 1200,
      "Ġsuggested": 1201,
      "Ġing": 1202,
      "Ġsat": 1203,
      "Ġlived": 1204,
      "Ġcame": 1205,
      "Ġmet": 1206,
      "iled": 1207,
      "ages": 1208,
      "Ġfeet": 1209,
      "Ġaff": 1210,
      "Ġeat": 1211,
      "Ġforest": 1212,
      "Ġpa": 1213,
      "ĠThen": 1214,
      "Ġacross": 1215,
      "vers": 1216,
      "ledge": 1217,
      "Ġground": 1218,
      "Ġwonderful": 1219,
      "ĠTom": 1220,
      "ourage": 1221,
      "Ġgratitude": 1222,
      "Ġposs": 1223,
      "used": 1224,
      "Ġhelps": 1225,
      "Ġend": 1226,
      "Ġpar": 1227,
      "Ġkindness": 1228,
      "Ġtell": 1229,
      "Ġbecame": 1230,
      "Ġbra": 1231,
      "Ġquick": 1232,
      "Ġearth": 1233,
      "Ġdifferent": 1234,
      "Ġpass": 1235,
      "Ġknown": 1236,
      "Ġadvant": 1237,
      "unity": 1238,
      "str": 1239,
      "ivid": 1240,
      "ained": 1241,
      "iveness": 1242,
      "ret": 1243,
      "Ġlam": 1244,
      "Ġques": 1245,
      "Ġfeeling": 1246,
      "Ġclean": 1247,
      "ier": 1248,
      "liver": 1249,
      "Ġincl": 1250,
      "uke": 1251,
      "eed": 1252,
      "Ġcount": 1253,
      "na": 1254,
      "ients": 1255,
      "Ġperson": 1256,
      "Ġmaking": 1257,
      "Ġhabit": 1258,
      "Ġamaz": 1259,
      "ĠEven": 1260,
      "Ġdiscip": 1261,
      "Ġthing": 1262,
      "Ġneeds": 1263,
      "oke": 1264,
      "Ġisland": 1265,
      "Ġslow": 1266,
      "Ġcertain": 1267,
      "Ġcourage": 1268,
      "Ġmercy": 1269,
      "eng": 1270,
      "Ġsing": 1271,
      "oon": 1272,
      "Ġvar": 1273,
      "gy": 1274,
      "uf": 1275,
      "Ġchec": 1276,
      "Ġforgiveness": 1277,
      "eces": 1278,
      "Th": 1279,
      "ai": 1280,
      "Ġplay": 1281,
      "Ġopp": 1282,
      "brah": 1283,
      "Ġmorning": 1284,
      "erve": 1285,
      "espec": 1286,
      "Ġph": 1287,
      "lic": 1288,
      "Ġdem": 1289,
      "Ġretur": 1290,
      "elix": 1291,
      "ĠIvy": 1292,
      "Ġsaw": 1293,
      "Ġhumility": 1294,
      "Ġespec": 1295,
      "What": 1296,
      "Ġappro": 1297,
      "Ġhonest": 1298,
      "ĠNoah": 1299,
      "rec": 1300,
      "Ġworks": 1301,
      "Ġpieces": 1302,
      "ima": 1303,
      "inct": 1304,
      "Ġenough": 1305,
      "ana": 1306,
      "osity": 1307,
      "redients": 1308,
      "ĠNora": 1309,
      "Ġindivid": 1310,
      "Ġingredients": 1311,
      "Ġdiscipline": 1312,
      "Ġpatience": 1313,
      "Ġespecially": 1314,
      "Ġbir": 1315,
      "owers": 1316,
      "Ġhea": 1317,
      "Ġperse": 1318,
      "ĠAt": 1319,
      "loe": 1320,
      "lla": 1321,
      "tive": 1322,
      "ila": 1323,
      "Ġinv": 1324,
      "uit": 1325,
      "ria": 1326,
      "Ġcourse": 1327,
      "Ġdog": 1328,
      "iew": 1329,
      "ĠFelix": 1330,
      "ĠOliver": 1331,
      "Ġtrees": 1332,
      "Ġsend": 1333,
      "Ġcontin": 1334,
      "isp": 1335,
      "Ġstud": 1336,
      "ĠWhy": 1337,
      "ĠLuc": 1338,
      "Ġknowledge": 1339,
      "Ġbread": 1340,
      "oss": 1341,
      "ĠJames": 1342,
      "uby": 1343,
      "ĠBefore": 1344,
      "Ġcompassion": 1345,
      "ides": 1346,
      "Ġres": 1347,
      "ĠBegin": 1348,
      "Ġadm": 1349,
      "ĠChloe": 1350,
      "brahim": 1351,
      "Ġshar": 1352,
      "ĠPle": 1353,
      "atima": 1354,
      "ral": 1355,
      "Ġrece": 1356,
      "Ġener": 1357,
      "Ġconditions": 1358,
      "Ġbreat": 1359,
      "Ġwatched": 1360,
      "Ġhands": 1361,
      "rest": 1362,
      "ĠCl": 1363,
      "Ġlikely": 1364,
      "assan": 1365,
      "ĠLeo": 1366,
      "Ġeither": 1367,
      "alls": 1368,
      "ĠGrace": 1369,
      "ĠLiam": 1370,
      "than": 1371,
      "Ġview": 1372,
      "Ġregard": 1373,
      "Ġfact": 1374,
      "ahra": 1375,
      "Ġcharity": 1376,
      "Ġmid": 1377,
      "ĠKate": 1378,
      "ĠMay": 1379,
      "Ġexample": 1380,
      "Ġwee": 1381,
      "Ġcalled": 1382,
      "Ġquestion": 1383,
      "Ġquickly": 1384,
      "ĠSam": 1385,
      "enry": 1386,
      "pr": 1387,
      "usuf": 1388,
      "ĠRuby": 1389,
      "ĠLeila": 1390,
      "ĠIbrahim": 1391,
      "Ġturns": 1392,
      "Ġplaces": 1393,
      "lection": 1394,
      "ĠAria": 1395,
      "Ġord": 1396,
      "ually": 1397,
      "ĠHana": 1398,
      "ĠFatima": 1399,
      "Ġsch": 1400,
      "Ġevidence": 1401,
      "Ġinter": 1402,
      "ĠLily": 1403,
      "ĠMia": 1404,
      "enc": 1405,
      "Ġconc": 1406,
      "wen": 1407,
      "Ġlist": 1408,
      "ĠElla": 1409,
      "Ġenergy": 1410,
      "ents": 1411,
      "ĠSara": 1412,
      "Ġintegr": 1413,
      "ĠTim": 1414,
      "ĠHassan": 1415,
      "ĠMax": 1416,
      "ĠRose": 1417,
      "Ġshadow": 1418,
      "ĠAnna": 1419,
      "ĠDan": 1420,
      "ĠZahra": 1421,
      "Ġgenerosity": 1422,
      "Ġwise": 1423,
      "Ġcommunity": 1424,
      "ĠAli": 1425,
      "Ġintegrity": 1426,
      "oun": 1427,
      "Ġseems": 1428,
      "Ġbrave": 1429,
      "Ġhung": 1430,
      "ĠOnce": 1431,
      "Ġgently": 1432,
      "ĠHenry": 1433,
      "ilos": 1434,
      "ĠZoe": 1435,
      "mma": 1436,
      "ĠAmira": 1437,
      "ommend": 1438,
      "Ġslowly": 1439,
      "ilosop": 1440,
      "times": 1441,
      "Do": 1442,
      "ection": 1443,
      "av": 1444,
      "Ġel": 1445,
      "Ġrecommend": 1446,
      "do": 1447,
      "lly": 1448,
      "Ġpersever": 1449,
      "ĠYusuf": 1450,
      "mp": 1451,
      "Ġloyalty": 1452,
      "Ġshare": 1453,
      "Ġpresence": 1454,
      "Ġhonesty": 1455,
      "Ġperseverance": 1456,
      "Ġext": 1457,
      "Ġstay": 1458,
      "ĠOwen": 1459,
      "!\"": 1460,
      "ayla": 1461,
      "ĠEthan": 1462,
      "Ġleaves": 1463,
      "Ġeyes": 1464,
      "unities": 1465,
      "Ġlost": 1466,
      "ments": 1467,
      "Ġcontr": 1468,
      "Ġschool": 1469,
      "Ġsince": 1470,
      "Ġsumm": 1471,
      "Ġtas": 1472,
      "Ġwish": 1473,
      "Ġcarried": 1474,
      "Ġideal": 1475,
      "Ġget": 1476,
      "ants": 1477,
      "fia": 1478,
      "Ġvalley": 1479,
      "ĠKai": 1480,
      "its": 1481,
      "ĠAva": 1482,
      "house": 1483,
      "ĠLuke": 1484,
      "Ġmil": 1485,
      "Ġdiv": 1486,
      "ĠEmma": 1487,
      "Ġevening": 1488,
      "Ġcase": 1489,
      "Ġskill": 1490,
      "Ġneigh": 1491,
      "ĠLucy": 1492,
      "ĠLayla": 1493,
      "ĠPrac": 1494,
      "Ġrequ": 1495,
      "rious": 1496,
      "reez": 1497,
      "Ġneighb": 1498,
      "Ġfarm": 1499,
      "mediate": 1500,
      "ĠMaya": 1501,
      "Ġdeterm": 1502,
      "ĠFinn": 1503,
      "Ġspent": 1504,
      "Ġremember": 1505,
      "ĠSofia": 1506,
      "ror": 1507,
      "ĠMe": 1508,
      "Ġagainst": 1509,
      "be": 1510,
      "asis": 1511,
      "Ġexist": 1512,
      "Ġtemple": 1513,
      "Ġheart": 1514,
      "aches": 1515,
      "Ġmyself": 1516,
      "Ġbecome": 1517,
      "ĠClara": 1518,
      "Ġharb": 1519,
      "Ġpri": 1520,
      "Ġbreez": 1521,
      "Ġmiss": 1522,
      "Ġwhisp": 1523,
      "ĠYes": 1524,
      "Ġgreater": 1525,
      "Ġpain": 1526,
      "Ġmarket": 1527,
      "ĠTheo": 1528,
      "Ġfoundation": 1529,
      "Ġshadows": 1530,
      "Ġtoday": 1531,
      "The": 1532,
      "chard": 1533,
      "Ġliked": 1534,
      "hop": 1535,
      "duc": 1536,
      "Ġfree": 1537,
      "enti": 1538,
      "Ġspe": 1539,
      "Ġsmile": 1540,
      "Ġwhispered": 1541,
      "tle": 1542,
      "Ġwithin": 1543,
      "Ġhear": 1544,
      "ooked": 1545,
      "Ġharbor": 1546,
      "Ġflowers": 1547,
      "Ġconfir": 1548,
      "Ġwriting": 1549,
      "Ġphilosop": 1550,
      "iful": 1551,
      "Ġwords": 1552,
      "ĠDo": 1553,
      "Ġve": 1554,
      "Ġco": 1555,
      "Ġworkshop": 1556,
      "Ġgenerations": 1557,
      "Ġweeks": 1558,
      "Ġproc": 1559,
      "Ġdesert": 1560,
      "Ġgest": 1561,
      "ĠNe": 1562,
      "Ġhold": 1563,
      "Ġvill": 1564,
      "Ġenv": 1565,
      "Ġmeadow": 1566,
      "Ġsurpr": 1567,
      "irt": 1568,
      "Ġcharac": 1569,
      "Ġtimes": 1570,
      "Ġlighthouse": 1571,
      "Ġorchard": 1572,
      "Ġgestures": 1573,
      "hedral": 1574,
      "Ġdeeply": 1575,
      "ner": 1576,
      "ĠâĢľ": 1577,
      "Ġhor": 1578,
      "ote": 1579,
      "Ġdecided": 1580,
      "iness": 1581,
      "Ġsound": 1582,
      "ĠAl": 1583,
      "Ġexce": 1584,
      "Ġart": 1585,
      "Ġcathedral": 1586,
      "Ġcompanion": 1587,
      "Ġapproach": 1588,
      "Ġmod": 1589,
      "Ġimproved": 1590,
      "ĠLord": 1591,
      "Ġgrew": 1592,
      "Ġheaven": 1593,
      "Ġhour": 1594,
      "Ġfruit": 1595,
      "oice": 1596,
      "Let": 1597,
      "Ġwalls": 1598,
      "Ġstorm": 1599,
      "Ġbusy": 1600,
      "yon": 1601,
      "Ġhappy": 1602,
      "brary": 1603,
      "olog": 1604,
      "Ġtravel": 1605,
      "Ġoasis": 1606,
      "Ġapprec": 1607,
      "ili": 1608,
      "night": 1609,
      "Ġidea": 1610,
      "ils": 1611,
      "Ġgathering": 1612,
      "Ġyears": 1613,
      "Ġoli": 1614,
      "Ġgaz": 1615,
      "Ġask": 1616,
      "Ġcanyon": 1617,
      "ement": 1618,
      "ironment": 1619,
      "Ġwhale": 1620,
      "tention": 1621,
      "set": 1622,
      "Ġadvantages": 1623,
      "Ġenvironment": 1624,
      "Ġwide": 1625,
      "Ġpark": 1626,
      "ties": 1627,
      "Ġdevelops": 1628,
      "Ġhill": 1629,
      "Ġarri": 1630,
      "Ġbeach": 1631,
      "uty": 1632,
      "Ġlibrary": 1633,
      "uable": 1634,
      "ected": 1635,
      "Ġimag": 1636,
      "Ġmain": 1637,
      "ĠIs": 1638,
      "Ġ[": 1639,
      "Ġcave": 1640,
      "Ġsmelled": 1641,
      "like": 1642,
      "ĠPlease": 1643,
      "Ġvillage": 1644,
      "Ġmountain": 1645,
      "ĠU": 1646,
      "Ġlake": 1647,
      "Ġsmiled": 1648,
      "Ġeasier": 1649,
      "Ġabove": 1650,
      "Ġtower": 1651,
      "tyard": 1652,
      "Ġunique": 1653,
      "Ġclear": 1654,
      "Ġcourtyard": 1655,
      "Ġreasons": 1656,
      "fort": 1657,
      "Ġlooking": 1658,
      "noon": 1659,
      "Ġbear": 1660,
      "pend": 1661,
      "ney": 1662,
      "Ġtrans": 1663,
      "Ġafternoon": 1664,
      "Ġcomple": 1665,
      "Ġdawn": 1666,
      "incip": 1667,
      "Ġwhether": 1668,
      "Ġthemselves": 1669,
      "Ġbridge": 1670,
      "ese": 1671,
      "Ġpor": 1672,
      "Ġappreciate": 1673,
      "Ġamong": 1674,
      "Ġsummit": 1675,
      "Ġlaw": 1676,
      "ĠLet": 1677,
      "Ġdone": 1678,
      "Ġanx": 1679,
      "Ġmir": 1680,
      "overed": 1681,
      "tern": 1682,
      "Ġsuggests": 1683,
      "wered": 1684,
      "Ġoffers": 1685,
      "Ġow": 1686,
      "Ġeverything": 1687,
      "ying": 1688,
      "ĠDear": 1689,
      "Ġhaving": 1690,
      "aking": 1691,
      "Ġchildren": 1692,
      "Ġreminds": 1693,
      "Ġanswered": 1694,
      "Ġpower": 1695,
      "Ġinterest": 1696,
      "Ġmood": 1697,
      "Ġobject": 1698,
      "Ġpresent": 1699,
      "usk": 1700,
      "Ġelse": 1701,
      "Ġtea": 1702,
      "Ġnum": 1703,
      "Ġteaches": 1704,
      "break": 1705,
      "Ġrice": 1706,
      "Ġlo": 1707,
      "pes": 1708,
      "wise": 1709,
      "Ġlau": 1710,
      "Ġspending": 1711,
      "Ġstormy": 1712,
      "enty": 1713,
      "Ġhuman": 1714,
      "ination": 1715,
      "Ġput": 1716,
      "Ġwhite": 1717,
      "Ġsunset": 1718,
      "Ġnec": 1719,
      "Ġhead": 1720,
      "Ġsuper": 1721,
      "Ġpeace": 1722,
      "Ġexpl": 1723,
      "Ġneighbors": 1724,
      "Ġfall": 1725,
      "Ġsomeone": 1726,
      "Ġprov": 1727,
      "eri": 1728,
      "Ġform": 1729,
      "Ġitself": 1730,
      "Ġvi": 1731,
      "Ġcreates": 1732,
      "form": 1733,
      "Ġdaybreak": 1734,
      "ured": 1735,
      "Ġgrateful": 1736,
      "alked": 1737,
      "onstr": 1738,
      "Ġmar": 1739,
      "Ġinstance": 1740,
      "Ġjour": 1741,
      "Ġsignificant": 1742,
      "Ġolives": 1743,
      "ables": 1744,
      "rink": 1745,
      "Ġthree": 1746,
      "Ġforward": 1747,
      "Ġcurious": 1748,
      "Ġagreed": 1749,
      "Ġbody": 1750,
      "roud": 1751,
      "Ġtend": 1752,
      "Ġrab": 1753,
      "eth": 1754,
      "Ġcreatures": 1755,
      "rise": 1756,
      "Ġhoney": 1757,
      "apt": 1758,
      "ger": 1759,
      "Ġdoing": 1760,
      "Ġoutdo": 1761,
      "Ġstew": 1762,
      "Ġtherefore": 1763,
      "Ġset": 1764,
      "Ġsoup": 1765,
      "Ġprocess": 1766,
      "Ġprincip": 1767,
      "Ġwhom": 1768,
      "Ġremain": 1769,
      "Ġdetermined": 1770,
      "Ġanxious": 1771,
      "Ġexpress": 1772,
      "Ġsunrise": 1773,
      "Ġdemonstr": 1774,
      "rib": 1775,
      "Ġrabbit": 1776,
      "Ġem": 1777,
      "alt": 1778,
      "Ġimmediate": 1779,
      "Ġenc": 1780,
      "ĠThose": 1781,
      "Ġmidnight": 1782,
      "ances": 1783,
      "Ġjourney": 1784,
      "oint": 1785,
      "Ġbreak": 1786,
      "Ġcut": 1787,
      "ĠPro": 1788,
      "ape": 1789,
      "Ġcheese": 1790,
      "Ġhid": 1791,
      "Ġprop": 1792,
      "Ġproud": 1793,
      "Ġdistinct": 1794,
      "Ġsad": 1795,
      "Ġequ": 1796,
      "Ġsens": 1797,
      "iling": 1798,
      "Ġdusk": 1799,
      "olf": 1800,
      "Ġpatient": 1801,
      "Ġocc": 1802,
      "arrow": 1803,
      "itted": 1804,
      "Ġgiven": 1805,
      "Ġage": 1806,
      "light": 1807,
      "tils": 1808,
      "Ġfrog": 1809,
      "Ġorgan": 1810,
      "Ġblack": 1811,
      "Ġsurprised": 1812,
      "Ġlen": 1813,
      "Ġtry": 1814,
      "Ġcompanions": 1815,
      "fer": 1816,
      "ented": 1817,
      "Ġteach": 1818,
      "Ġlentils": 1819,
      "Ġchange": 1820,
      "lieved": 1821,
      "Ġveget": 1822,
      "body": 1823,
      "sem": 1824,
      "Ġappear": 1825,
      "Ġshout": 1826,
      "Ġcam": 1827,
      "ĠMy": 1828,
      "ĠHowever": 1829,
      "Ġmilk": 1830,
      "Ġwolf": 1831,
      "Ġarrived": 1832,
      "uss": 1833,
      "ense": 1834,
      "osed": 1835,
      "Ġturned": 1836,
      "ura": 1837,
      "ream": 1838,
      "Ġfollowing": 1839,
      "ins": 1840,
      "ady": 1841,
      "Ġgold": 1842,
      "ority": 1843,
      "Ġdates": 1844,
      "Ġsoul": 1845,
      "retched": 1846,
      "Ġgot": 1847,
      "Ġsent": 1848,
      "Ġthus": 1849,
      "Ġamount": 1850,
      "tical": 1851,
      "Ġgrapes": 1852,
      "Ġsingle": 1853,
      "Ġred": 1854,
      "ian": 1855,
      "Ġstone": 1856,
      "Ġvol": 1857,
      "Ġcarry": 1858,
      "Ġyourself": 1859,
      "Ġfamily": 1860,
      "den": 1861,
      "man": 1862,
      "ught": 1863,
      "Ġtalk": 1864,
      "Ġattention": 1865,
      "Ġfriendly": 1866,
      "Ġdemonstrate": 1867,
      "ĠEx": 1868,
      "Ġlamb": 1869,
      "Ġshouted": 1870,
      "Ġgenerous": 1871,
      "Ġmanner": 1872,
      "Ġapples": 1873,
      "Ġwalked": 1874,
      "tered": 1875,
      "fly": 1876,
      "Ġfriendship": 1877,
      "ush": 1878,
      "uly": 1879,
      "sequ": 1880,
      "Ġanything": 1881,
      "Ġproper": 1882,
      "Ġcheerful": 1883,
      "Ġtakes": 1884,
      "ife": 1885,
      "Ġimmediately": 1886,
      "hab": 1887,
      "Ġhaw": 1888,
      "Ġvegetables": 1889,
      "Ġnecess": 1890,
      "Ġact": 1891,
      "âĢĻ": 1892,
      "Ġscar": 1893,
      "ugg": 1894,
      "Ġswe": 1895,
      "Ġbes": 1896,
      "Ġcontrast": 1897,
      "Ġraven": 1898,
      "Ġopin": 1899,
      "up": 1900,
      "âĢĿ": 1901,
      "Ġfox": 1902,
      "ued": 1903,
      "Ġexerc": 1904,
      "Ġcomfort": 1905,
      "Ġhumble": 1906,
      "ished": 1907,
      "Ġfaithful": 1908,
      "Ġkeep": 1909,
      "Ġvirt": 1910,
      "Ġourselves": 1911,
      "ix": 1912,
      "Ġreach": 1913,
      "Ġleft": 1914,
      "Ġpartic": 1915,
      "Ġtou": 1916,
      "ĠPe": 1917,
      "Ġowl": 1918,
      "Ġactions": 1919,
      "Ġamazed": 1920,
      "Ġindividu": 1921,
      "Ġrelieved": 1922,
      "Ġdear": 1923,
      "Ġalong": 1924,
      "Ġ6": 1925,
      "Ġexcited": 1926,
      "Ġty": 1927,
      "Ġlonger": 1928,
      "Ġname": 1929,
      "Ġgeneral": 1930,
      "over": 1931,
      "Ġregular": 1932,
      "Ġsubject": 1933,
      "Ġmirror": 1934,
      "ped": 1935,
      "Ġquietly": 1936,
      "Ġpeaceful": 1937,
      "irc": 1938,
      "Ġstate": 1939,
      "Ġcol": 1940,
      "Ġgrow": 1941,
      "ĠHis": 1942,
      "ield": 1943,
      "Ġpoints": 1944,
      "Ġhard": 1945,
      "lph": 1946,
      "Ġmerciful": 1947,
      "urther": 1948,
      "Ġhopeful": 1949,
      "ged": 1950,
      "Ġreward": 1951,
      "Ġpiece": 1952,
      "Ġmove": 1953,
      "ims": 1954,
      "Ġlose": 1955,
      "Ġstretched": 1956,
      "oub": 1957,
      "ridge": 1958,
      "alities": 1959,
      "Ġthoughtful": 1960,
      "most": 1961,
      "Ġcomplete": 1962,
      "Ġiron": 1963,
      "Ġdri": 1964,
      "Ġdolph": 1965,
      "Ġagree": 1966,
      "actly": 1967,
      "Ġcharacter": 1968,
      "Ġindividuals": 1969,
      "Ġtruly": 1970,
      "ives": 1971,
      "orrow": 1972,
      "Ġchang": 1973,
      "Ġmeaning": 1974,
      "Ġflo": 1975,
      "Ġnighting": 1976,
      "ott": 1977,
      "Ġattend": 1978,
      "Ġhorse": 1979,
      "Ġporridge": 1980,
      "Ġsparrow": 1981,
      "Ġdistance": 1982,
      "Ġoffer": 1983,
      "ability": 1984,
      "Ġchance": 1985,
      "Ġconsist": 1986,
      "Ġrather": 1987,
      "Ġside": 1988,
      "Ġstep": 1989,
      "Ġmist": 1990,
      "aps": 1991,
      "itting": 1992,
      "Ġheavens": 1993,
      "ghed": 1994,
      "Ġmeans": 1995,
      "Ġap": 1996,
      "Ġought": 1997,
      "Ġbel": 1998,
      "Ġcamel": 1999,
      "Ġperfectly": 2000,
      "Ġbea": 2001,
      "Ġdiscuss": 2002,
      "Ġlaughed": 2003,
      "Ġstood": 2004,
      "urally": 2005,
      "rely": 2006,
      "Ġthick": 2007,
      "Ġvalue": 2008,
      "Ġborn": 2009,
      "Ġcirc": 2010,
      "Ġpot": 2011,
      "Ġopport": 2012,
      "ounter": 2013,
      "Ġinform": 2014,
      "ib": 2015,
      "ilar": 2016,
      "ism": 2017,
      "wh": 2018,
      "Ġef": 2019,
      "ĠNow": 2020,
      "ling": 2021,
      "Ġnaturally": 2022,
      "Ġinsp": 2023,
      "Ġbeauty": 2024,
      "Ġdeb": 2025,
      "Ġpleas": 2026,
      "Ġbird": 2027,
      "Ġinn": 2028,
      "ived": 2029,
      "aint": 2030,
      "Ġthoughts": 2031,
      "Ġbegan": 2032,
      "Ġstand": 2033,
      "Ġdeath": 2034,
      "Ġsurf": 2035,
      "Ġgreen": 2036,
      "Ġce": 2037,
      "tory": 2038,
      "Ġexercise": 2039,
      "Ġbutter": 2040,
      "Ġproduc": 2041,
      "Ġbeneath": 2042,
      "Ġparticular": 2043,
      "ĠSti": 2044,
      "ongs": 2045,
      "Ġcast": 2046,
      "Ġdra": 2047,
      "Ġaffect": 2048,
      "ior": 2049,
      "vor": 2050,
      "Ġimprove": 2051,
      "Ġlies": 2052,
      "Ġmatters": 2053,
      "Ġwood": 2054,
      "Ġabs": 2055,
      "Ġlistened": 2056,
      "But": 2057,
      "Ġiv": 2058,
      "Ġqualities": 2059,
      "Ġfla": 2060,
      "Ġclose": 2061,
      "Ġhappen": 2062,
      "Ġorder": 2063,
      "Ġbee": 2064,
      "Ġess": 2065,
      "Ġsang": 2066,
      "Ġassist": 2067,
      "Ġstrugg": 2068,
      "ek": 2069,
      "Ġchoice": 2070,
      "Ġsilver": 2071,
      "Ġuseful": 2072,
      "oud": 2073,
      "Ġcand": 2074,
      "Ġant": 2075,
      "Ġweight": 2076,
      "ĠFriend": 2077,
      "Ġtwice": 2078,
      "ĠX": 2079,
      "Ġunderstanding": 2080,
      "ĠNext": 2081,
      "me": 2082,
      "Ġmus": 2083,
      "Ġoce": 2084,
      "itable": 2085,
      "Ġship": 2086,
      "Ġfear": 2087,
      "Ġletter": 2088,
      "Ġcorn": 2089,
      "ored": 2090,
      "Ġblue": 2091,
      "lected": 2092,
      "Why": 2093,
      "Ġsurface": 2094,
      "Ġfood": 2095,
      "ĠProv": 2096,
      "Ġeagle": 2097,
      "ases": 2098,
      "Ġevent": 2099,
      "ative": 2100,
      "Ġyell": 2101,
      "ably": 2102,
      "Ġprep": 2103,
      "ER": 2104,
      "Ġsalm": 2105,
      "Ġfew": 2106,
      "Ġivory": 2107,
      "ĠLook": 2108,
      "Ġproble": 2109,
      "Ġjud": 2110,
      "Ġremains": 2111,
      "com": 2112,
      "arent": 2113,
      "ps": 2114,
      "Ġwalk": 2115,
      "Ġfreely": 2116,
      "Ġdove": 2117,
      "Ġwatch": 2118,
      "Ġaccord": 2119,
      "Ġdream": 2120,
      "hire": 2121,
      "Ġsea": 2122,
      "Ġspot": 2123,
      "ĠDid": 2124,
      "Ġsalt": 2125,
      "Ġotherwise": 2126,
      "Ġeffect": 2127,
      "ution": 2128,
      "ales": 2129,
      "Ġconce": 2130,
      "Ġsafe": 2131,
      "Ġsharp": 2132,
      "Ġrush": 2133,
      "Ġbutterfly": 2134,
      "Ġdeer": 2135,
      "ollow": 2136,
      "Ġthy": 2137,
      "Ġplenty": 2138,
      "Ġdef": 2139,
      "Ġfamili": 2140,
      "Ġcutting": 2141,
      "Ġint": 2142,
      "ĠPre": 2143,
      "Ġobserve": 2144,
      "Ġhowever": 2145,
      "Ġreflection": 2146,
      "Yes": 2147,
      "_,": 2148,
      "Ġsize": 2149,
      "fered": 2150,
      "Ġvolun": 2151,
      "Ġcomfortable": 2152,
      "ĠImp": 2153,
      "Ġhelping": 2154,
      "Ġwindow": 2155,
      "Ġaffection": 2156,
      "haps": 2157,
      "Ġdoub": 2158,
      "itical": 2159,
      "ĠRem": 2160,
      "Ġpin": 2161,
      "liz": 2162,
      "Ġsurround": 2163,
      "Ġobserved": 2164,
      "Ġgolden": 2165,
      "Ġbringing": 2166,
      "Ġreturned": 2167,
      "Ġocean": 2168,
      "ike": 2169,
      "Ġmer": 2170,
      "Ġduck": 2171,
      "ective": 2172,
      "Ġaside": 2173,
      "Ġsaf": 2174,
      "Ġcrane": 2175,
      "lat": 2176,
      "of": 2177,
      "oise": 2178,
      "reate": 2179,
      "Ġacts": 2180,
      "Ġturtle": 2181,
      "Ġencounter": 2182,
      "Ġraised": 2183,
      "Ġsimple": 2184,
      "Ġdeg": 2185,
      "Ġboiling": 2186,
      "Ġsweet": 2187,
      "),": 2188,
      "Ġwash": 2189,
      "Ġbook": 2190,
      "ont": 2191,
      "Ġeff": 2192,
      "Ġsecure": 2193,
      "Ġmis": 2194,
      "live": 2195,
      "ĠWere": 2196,
      "uct": 2197,
      "Ġrequire": 2198,
      "Ġyellow": 2199,
      "ecause": 2200,
      "Ġstren": 2201,
      "Ġcheck": 2202,
      "Ġregularly": 2203,
      "Ġgod": 2204,
      "ĠSometimes": 2205,
      "pic": 2206,
      "oring": 2207,
      "Ġsoft": 2208,
      "Ġmoving": 2209,
      "Ġbreaks": 2210,
      "Ġcooked": 2211,
      "Ġlion": 2212,
      "ĠEliz": 2213,
      "ĠTake": 2214,
      "Ġspeak": 2215,
      "Ġshape": 2216,
      "Ġtowards": 2217,
      "Ġeager": 2218,
      "ĠRemember": 2219,
      "ded": 2220,
      "Ġgave": 2221,
      "Ġneither": 2222,
      "Ġusual": 2223,
      "Ġbeh": 2224,
      "Ġusually": 2225,
      "Ġcarefully": 2226,
      "Ġstreng": 2227,
      "Ġcarrying": 2228,
      "Ġassistance": 2229,
      "Ġstruggle": 2230,
      "Ġkn": 2231,
      "osp": 2232,
      "ĠGu": 2233,
      "Ġindig": 2234,
      "Ġrout": 2235,
      "Ġago": 2236,
      "ential": 2237,
      "Ġsy": 2238,
      "Ġbrown": 2239,
      "Ġdivided": 2240,
      "II": 2241,
      "Ġargum": 2242,
      "vail": 2243,
      "Ġsuperior": 2244,
      "Ġmur": 2245,
      "idance": 2246,
      "Ġheating": 2247,
      "lig": 2248,
      "Ġnav": 2249,
      "quoise": 2250,
      "asts": 2251,
      "Ġflavor": 2252,
      "Ġpinch": 2253,
      "pping": 2254,
      "Ġlooks": 2255,
      "Ġturquoise": 2256,
      "Ġwrite": 2257,
      "Ġstory": 2258,
      "abeth": 2259,
      "Ġevil": 2260,
      "Ġproblems": 2261,
      "ĠThink": 2262,
      "Ġrelations": 2263,
      "Ġcoral": 2264,
      "alf": 2265,
      "ĠServe": 2266,
      "Ġlive": 2267,
      "ĠStir": 2268,
      "Ġill": 2269,
      "Ġstri": 2270,
      "Ġworth": 2271,
      "anch": 2272,
      "laim": 2273,
      "Ġsimmer": 2274,
      "ĠPrepare": 2275,
      "ĠImportant": 2276,
      "urb": 2277,
      "Ġtaste": 2278,
      "Ġscarlet": 2279,
      "ĠElizabeth": 2280,
      "Ġdry": 2281,
      "Ġindigo": 2282,
      "und": 2283,
      "ald": 2284,
      "Ġjoy": 2285,
      "igation": 2286,
      "Ġhawk": 2287,
      "ĠDuring": 2288,
      "Ġcompanionship": 2289,
      "atter": 2290,
      "ceed": 2291,
      "Ġwhereas": 2292,
      "Ġhabits": 2293,
      "Ġimagin": 2294,
      "Ġexplained": 2295,
      "Ġcorner": 2296,
      "Ġgrand": 2297,
      "Ġchecks": 2298,
      "Ġsurrounding": 2299,
      "pped": 2300,
      "Ġdeta": 2301,
      "Ġconven": 2302,
      "Ġwom": 2303,
      "ĠShe": 2304,
      "iving": 2305,
      "Ġclearing": 2306,
      "Ġalmost": 2307,
      "cher": 2308,
      "Ġspider": 2309,
      "Ġeats": 2310,
      "Ġpersonality": 2311,
      "Ġcrac": 2312,
      "ores": 2313,
      "Ġhistory": 2314,
      "ĠQu": 2315,
      "Ġpaper": 2316,
      "Ġroute": 2317,
      "Ġbur": 2318,
      "ĠFollow": 2319,
      "Ġadvice": 2320,
      "Ġwondered": 2321,
      "Ġnavigation": 2322,
      "Ġcop": 2323,
      "Ġearli": 2324,
      "Ġnews": 2325,
      "Ġguidance": 2326,
      "ĠCare": 2327,
      "Ġsmo": 2328,
      "semble": 2329,
      "Ġways": 2330,
      "ĠStart": 2331,
      "formed": 2332,
      "Ġcause": 2333,
      "iety": 2334,
      "Ġnumber": 2335,
      "ĠSpend": 2336,
      "onsider": 2337,
      "Ġpurple": 2338,
      "Ġsort": 2339,
      "Ġfather": 2340,
      "ĠFr": 2341,
      "ock": 2342,
      "Ġdeveloped": 2343,
      "ĠState": 2344,
      "Ġopportunities": 2345,
      "itive": 2346,
      "Ġdire": 2347,
      "Ġspoke": 2348,
      "ĠVisit": 2349,
      "Ġinspire": 2350,
      "Ġmouse": 2351,
      "ĠCreate": 2352,
      "Ġpleasure": 2353,
      "Ġcareful": 2354,
      "Ġbreath": 2355,
      "ĠExpl": 2356,
      "Ġsnow": 2357,
      "Ġemer": 2358,
      "Ġmusic": 2359,
      "ĠProvide": 2360,
      "Ġsafest": 2361,
      "Ġter": 2362,
      "Ġwhy": 2363,
      "Ġrecommends": 2364,
      "Ġfloor": 2365,
      "ĠGuide": 2366,
      "ĠDrink": 2367,
      "Ġstrang": 2368,
      "Ġvio": 2369,
      "Ġorange": 2370,
      "Ġopinion": 2371,
      "Ġquality": 2372,
      "Ġconsidering": 2373,
      "Ġcompletely": 2374,
      "ekly": 2375,
      "ĠMid": 2376,
      "ĠExploring": 2377,
      "cr": 2378,
      "Ġbare": 2379,
      "Ġindeed": 2380,
      "imson": 2381,
      "aily": 2382,
      "Ġdress": 2383,
      "Ġstir": 2384,
      "Ġviolet": 2385,
      "Ġstars": 2386,
      "Ġdisp": 2387,
      "Ġcrimson": 2388,
      "Ġsooner": 2389,
      "Ġmarkers": 2390,
      "app": 2391,
      "iny": 2392,
      "ĠSet": 2393,
      "Ġmetal": 2394,
      "Ġdolphin": 2395,
      "Ġnote": 2396,
      "ĠMorning": 2397,
      "erials": 2398,
      "ndeed": 2399,
      "ths": 2400,
      "Ġdiffer": 2401,
      "Ġfinding": 2402,
      "Ġmaterials": 2403,
      "Ġhappened": 2404,
      "oom": 2405,
      "Ġseed": 2406,
      "Ġnightingale": 2407,
      "Ġjoint": 2408,
      "ĠTH": 2409,
      "Ġdisturb": 2410,
      "ĠEvening": 2411,
      "Ġessential": 2412,
      "ny": 2413,
      "Ġgrown": 2414,
      "elle": 2415,
      "ĠWeekly": 2416,
      "ĠPractice": 2417,
      "Ġdust": 2418,
      "Ġwel": 2419,
      "Ġhonor": 2420,
      "Ġthread": 2421,
      "Ġsapp": 2422,
      "Ġinclud": 2423,
      "ĠMidday": 2424,
      "Ġcloud": 2425,
      "Ġsapphire": 2426,
      "Ġpink": 2427,
      "ĠDaily": 2428,
      "Ġwhose": 2429,
      "ĠComm": 2430,
      "Ġunlike": 2431,
      "Ġoffered": 2432,
      "omes": 2433,
      "ooking": 2434,
      "Ġcandle": 2435,
      "Ġsitting": 2436,
      "Ġamber": 2437,
      "Ġentr": 2438,
      "owed": 2439,
      "Ġfinds": 2440,
      "Ġbranch": 2441,
      "Ġland": 2442,
      "Ġvirtue": 2443,
      "Ġavail": 2444,
      "Ġcovered": 2445,
      "Ġopened": 2446,
      "Ġalive": 2447,
      "Ġrun": 2448,
      "Ġclass": 2449,
      ".'": 2450,
      "Ġsecond": 2451,
      "Ġconst": 2452,
      "Ġrecent": 2453,
      "Ġtouched": 2454,
      "ature": 2455,
      "ery": 2456,
      "Ġfallen": 2457,
      "lds": 2458,
      "Ġlearning": 2459,
      "Ġinclination": 2460,
      "Ġrough": 2461,
      "ĠMake": 2462,
      "Ġglass": 2463,
      "Ġregards": 2464,
      "ĠConsider": 2465,
      "Ġpray": 2466,
      "terday": 2467,
      "arc": 2468,
      "reek": 2469,
      "Ġgazelle": 2470,
      "Ġfamilies": 2471,
      "Ġforms": 2472,
      "Ġproject": 2473,
      "Ġinside": 2474,
      "Ġbeside": 2475,
      "ectively": 2476,
      "Ġbad": 2477,
      "Ġworked": 2478,
      "Ġconsistent": 2479,
      "Ġemerald": 2480,
      "Ġtal": 2481,
      "Ġconfirm": 2482,
      "ĠNote": 2483,
      "iod": 2484,
      "Ġpet": 2485,
      "Ġargues": 2486,
      "Ġye": 2487,
      "oping": 2488,
      "Ġworn": 2489,
      "Ġreply": 2490,
      "Ġdeserve": 2491,
      "Ġmountains": 2492,
      "Ġcracks": 2493,
      "that": 2494,
      "ĠBuild": 2495,
      "Ġskin": 2496,
      "ublic": 2497,
      "Ġsmooth": 2498,
      "mosp": 2499,
      "Ġloc": 2500,
      "Ġread": 2501,
      "Ġable": 2502,
      "ĠPlat": 2503,
      "ph": 2504,
      "Ġatmosp": 2505,
      "ĠCut": 2506,
      "ĠCome": 2507,
      "Ġremem": 2508,
      "Ġapolog": 2509,
      "Ġden": 2510,
      "Ġtast": 2511,
      "rets": 2512,
      "icked": 2513,
      "ĠGather": 2514,
      "Ġfas": 2515,
      "arning": 2516,
      "Ġpossess": 2517,
      "ĠMeasure": 2518,
      "Ġbreezy": 2519,
      "Ġsafely": 2520,
      "Of": 2521,
      "Ġnod": 2522,
      "Ġcomes": 2523,
      "Ġpositions": 2524,
      "Ġsoaking": 2525,
      "Ġhalf": 2526,
      "Ġdon": 2527,
      "Ġareas": 2528,
      "Ġgreet": 2529,
      "ĠAssemble": 2530,
      "Ġsense": 2531,
      "Ġgoing": 2532,
      "Ġvalues": 2533,
      "ption": 2534,
      "ship": 2535,
      "Ġfaint": 2536,
      "Ġpaused": 2537,
      "Ġinnate": 2538,
      "ric": 2539,
      "Ġpossible": 2540,
      "Ġinval": 2541,
      "itched": 2542,
      "ĠThrough": 2543,
      "Ġserved": 2544,
      "Ġsalmon": 2545,
      "Ġentrance": 2546,
      "Ġbreeze": 2547,
      "Ġearliest": 2548,
      "Ġcloudy": 2549,
      "Ġpra": 2550,
      "Ġleast": 2551,
      "Ġclay": 2552,
      "Ġbal": 2553,
      "Ġdesc": 2554,
      "Ġsilk": 2555,
      "Ġstayed": 2556,
      "Ġmerit": 2557,
      "Ġchall": 2558,
      "Ġperhaps": 2559,
      "Ġreminded": 2560,
      "Ġdetails": 2561,
      "Ġcool": 2562,
      "Ġhigh": 2563,
      "Ġnut": 2564,
      "Ġasks": 2565,
      "Ġsoftly": 2566,
      "Ġfil": 2567,
      "ĠMiss": 2568,
      "Those": 2569,
      "Ġbreathing": 2570,
      "Is": 2571,
      "ired": 2572,
      "overy": 2573,
      "ifted": 2574,
      "Ġsecrets": 2575,
      "Ġhungry": 2576,
      "Ġprinciple": 2577,
      "Ġatmosphere": 2578,
      "hus": 2579,
      "Ġargument": 2580,
      "Ġconvenience": 2581,
      "Ġstirred": 2582,
      "Ex": 2583,
      "rigin": 2584,
      "Ġpainting": 2585,
      "ĠAlso": 2586,
      "Ġeagerly": 2587,
      "Ġpun": 2588,
      "amed": 2589,
      "Ġcountless": 2590,
      "Tom": 2591,
      "bered": 2592,
      "Ġcott": 2593,
      "Ġstories": 2594,
      "Ġsuitable": 2595,
      "Ġworry": 2596,
      "elt": 2597,
      "Ġpracticed": 2598,
      "Ġhiding": 2599,
      "Ġbarely": 2600,
      "Ġnodded": 2601,
      "Ġaction": 2602,
      "Ġcritical": 2603,
      "Ġserv": 2604,
      "ĠThings": 2605,
      "Ġcasting": 2606,
      "Ġdoubt": 2607,
      "Because": 2608,
      "ĠPeople": 2609,
      "ĠLife": 2610,
      "Ġwrong": 2611,
      "Ġcatching": 2612,
      "Ġreflected": 2613,
      "Ġstudying": 2614,
      "ees": 2615,
      "ĠEach": 2616,
      "Ġchalleng": 2617,
      "Ġstronger": 2618,
      "Ġconcer": 2619,
      "Ġdebated": 2620,
      "cend": 2621,
      "Ġboat": 2622,
      "Ġsending": 2623,
      "Ġimaginable": 2624,
      "Ġfoc": 2625,
      "Ġaccount": 2626,
      "Ġsig": 2627,
      "Ġfolds": 2628,
      "Ġshelf": 2629,
      "Ġknowledgeable": 2630,
      "Ġcircum": 2631,
      "Ġtastes": 2632,
      "Ġgreetings": 2633,
      "ken": 2634,
      "Ġsignificance": 2635,
      "Ġsensation": 2636,
      "Ġrewarding": 2637,
      "Ġdiscussions": 2638,
      "coming": 2639,
      "Ġaccording": 2640,
      "Ġeffectively": 2641,
      "Ġapologize": 2642,
      "Ġinvaluable": 2643,
      "Ġperched": 2644,
      "ĠResp": 2645,
      "Ġfrost": 2646,
      "Ġchallenging": 2647,
      "Re": 2648,
      "oral": 2649,
      "ĠHoping": 2650,
      "Ġperiod": 2651,
      "Ġhonored": 2652,
      "Ġwarmth": 2653,
      "Ġrecommended": 2654,
      "husi": 2655,
      "Ġes": 2656,
      "Ġcult": 2657,
      "Ġricher": 2658,
      "Ġtalented": 2659,
      "Ġbu": 2660,
      "Ġbloom": 2661,
      "Ġwatchful": 2662,
      "Ġcooking": 2663,
      "Ġhelped": 2664,
      "Ġglided": 2665,
      "hys": 2666,
      "Ġtaken": 2667,
      "Ġcotton": 2668,
      "air": 2669,
      "orters": 2670,
      "ask": 2671,
      "Ġdiscovery": 2672,
      "ĠSocr": 2673,
      "Ġcrun": 2674,
      "Ġdevelopments": 2675,
      "Ġenthusi": 2676,
      "Ġcontinues": 2677,
      "Would": 2678,
      "Ġstores": 2679,
      "teered": 2680,
      "Ġgratefully": 2681,
      "Thank": 2682,
      "Ġprovides": 2683,
      "ĠQuick": 2684,
      "Ġwoke": 2685,
      "Ġdest": 2686,
      "Eat": 2687,
      "Ġwool": 2688,
      "isf": 2689,
      "Ġaccess": 2690,
      "Ġattendees": 2691,
      "Ġnutr": 2692,
      "ĠRespected": 2693,
      "Ġorigin": 2694,
      "Ġhy": 2695,
      "lebr": 2696,
      "Ġtransformed": 2697,
      "Ġorganize": 2698,
      "Ġavailability": 2699,
      "Ġbalance": 2700,
      "Ġfocused": 2701,
      "Ġcrunching": 2702,
      "Like": 2703,
      "ggy": 2704,
      "Ġpositive": 2705,
      "Ġstillness": 2706,
      "Ġcelebr": 2707,
      "Ġvolunteered": 2708,
      "Ġsnowy": 2709,
      "Ġdisturbing": 2710,
      "Ġfiltered": 2711,
      "Ġmoney": 2712,
      "Ġpace": 2713,
      "Ġturn": 2714,
      "Ġed": 2715,
      "ractical": 2716,
      "Ġpriority": 2717,
      "Ġincluding": 2718,
      "ring": 2719,
      "verse": 2720,
      "Ġshifted": 2721,
      "ĠThank": 2722,
      "ĠLearning": 2723,
      "Ġcreating": 2724,
      "Ġfollowers": 2725,
      "Ġinterested": 2726,
      "ĠCommunities": 2727,
      "Father": 2728,
      "Look": 2729,
      "ulty": 2730,
      "aple": 2731,
      "ĠEverything": 2732,
      "Ġsupporters": 2733,
      "Ġadmitted": 2734,
      "Ġapproaching": 2735,
      "terns": 2736,
      "Ġnext": 2737,
      "Ġtook": 2738,
      "theless": 2739,
      "Ġsits": 2740,
      "Ġskills": 2741,
      "Ġmeaningful": 2742,
      "Ġknelt": 2743,
      "Ġhat": 2744,
      "Ġreal": 2745,
      "Ġappe": 2746,
      "Ġpointing": 2747,
      "Ġpracticing": 2748,
      "ĠYesterday": 2749,
      "Ġphilosophy": 2750,
      "Ġca": 2751,
      "Ġcases": 2752,
      "Ġstaple": 2753,
      "Ġdep": 2754,
      "Ġimport": 2755,
      "Ġimpractical": 2756,
      "Ġfoggy": 2757,
      "Ġrainy": 2758,
      "Ġelsewhere": 2759,
      "Ġwelcoming": 2760,
      "Exactly": 2761,
      "Indeed": 2762,
      "Ġreturn": 2763,
      "Ġsweetness": 2764,
      "Every": 2765,
      "Ġmin": 2766,
      "aster": 2767,
      "Ġstop": 2768,
      "Ġremembered": 2769,
      "ĠAr": 2770,
      "Ġrecently": 2771,
      "Ġvaluable": 2772,
      "Ġpracticality": 2773,
      "Ġswitched": 2774,
      "Ġoverall": 2775,
      "Really": 2776,
      "ĠSocrates": 2777,
      "Ġnutrition": 2778,
      "Tomorrow": 2779,
      "Ġcultural": 2780,
      "men": 2781,
      "Ġsongs": 2782,
      "isted": 2783,
      "Ġsuppose": 2784,
      "Ġbrighter": 2785,
      "Ġpurp": 2786,
      "Ġamazement": 2787,
      "Ġpreparing": 2788,
      "Ġheard": 2789,
      "ĠAhab": 2790,
      "Ġfour": 2791,
      "Ġhumid": 2792,
      "Ġcopper": 2793,
      "Ġfrosty": 2794,
      "Ġresult": 2795,
      "Ġmoss": 2796,
      "ready": 2797,
      "Ġstaying": 2798,
      "sequently": 2799,
      "Ġpetals": 2800,
      "Ġshowing": 2801,
      "Ġsharper": 2802,
      "ĠPlato": 2803,
      "ference": 2804,
      "Ġdripping": 2805,
      "Ġchanging": 2806,
      "Ġround": 2807,
      "Ġreally": 2808,
      "Ġele": 2809,
      "Ġconfirms": 2810,
      "Ġleg": 2811,
      "Ġword": 2812,
      "Ġprev": 2813,
      "alking": 2814,
      "Ġinj": 2815,
      "Ġseasons": 2816,
      "Ġstrangers": 2817,
      "Ġhig": 2818,
      "Ġexcept": 2819,
      "Ġoutdoor": 2820,
      "Ġspir": 2821,
      "Ġpatterns": 2822,
      "Ġtraveling": 2823,
      "Ġtill": 2824,
      "ists": 2825,
      "Ġwarmly": 2826,
      "Ġgardening": 2827,
      "Ġenthusiasts": 2828,
      "ĠWalking": 2829,
      "Ġused": 2830,
      "atever": 2831,
      "ĠOb": 2832,
      "Ġmisty": 2833,
      "Ġalready": 2834,
      "Ġhabitat": 2835,
      "Ġsignificantly": 2836,
      "'ll": 2837,
      "ises": 2838,
      "just": 2839,
      "ieties": 2840,
      "Ġball": 2841,
      "Ġshort": 2842,
      "Ġvisiting": 2843,
      "Ġanswer": 2844,
      "Ġcelebration": 2845,
      "king": 2846,
      "Ġthri": 2847,
      "Ġsuf": 2848,
      "Ġdegree": 2849,
      "Ġgrowing": 2850,
      "Ġsoc": 2851,
      "Ġsometimes": 2852,
      "Ġsatisf": 2853,
      "ĠTHE": 2854,
      "Ġprom": 2855,
      "Ġimportance": 2856,
      "by": 2857,
      "Ġauth": 2858,
      "arl": 2859,
      "Ġheld": 2860,
      "oever": 2861,
      "fers": 2862,
      "Ġign": 2863,
      "Ġmon": 2864,
      "Ġformer": 2865,
      "Ġobserving": 2866,
      ".]": 2867,
      "know": 2868,
      "Ġadapt": 2869,
      "Ġlead": 2870,
      "for": 2871,
      "Ġopen": 2872,
      "mat": 2873,
      "Ġlim": 2874,
      "Ġsucc": 2875,
      "Ġprob": 2876,
      "Ġparts": 2877,
      "Ġwindy": 2878,
      "Ġparent": 2879,
      "ets": 2880,
      "olute": 2881,
      "ĠFrom": 2882,
      "Ġcircumst": 2883,
      "stem": 2884,
      "Ġimpact": 2885,
      "Ġstarts": 2886,
      "Ġunto": 2887,
      "Ġcountry": 2888,
      "Ġrelationship": 2889,
      "laimed": 2890,
      "Ġthee": 2891,
      "Ġfollowed": 2892,
      "ences": 2893,
      "Ġleather": 2894,
      "ĠWeather": 2895,
      "Ġrivers": 2896,
      "Ġoutdoors": 2897,
      "Ġsight": 2898,
      "rew": 2899,
      "ĠOver": 2900,
      "Ġgover": 2901,
      "Ġpractices": 2902,
      "Ġlessons": 2903,
      "Ġmurm": 2904,
      ",'": 2905,
      "ficient": 2906,
      "Ġreceived": 2907,
      "Ġoccas": 2908,
      "ishment": 2909,
      "Ġvalued": 2910,
      "ĠObser": 2911,
      "Ġacqu": 2912,
      "Ġru": 2913,
      "ĠPractic": 2914,
      "Ġstra": 2915,
      "iment": 2916,
      "ĠNever": 2917,
      "Ġsunny": 2918,
      "Ġbeginning": 2919,
      "Ġpret": 2920,
      "lu": 2921,
      "ĠMrs": 2922,
      "Ġsuccess": 2923,
      "ĠCon": 2924,
      ",--": 2925,
      "Ġfurther": 2926,
      "Ġconcl": 2927,
      "ires": 2928,
      "Ġfin": 2929,
      "Ġunc": 2930,
      "Ġvarieties": 2931,
      "ians": 2932,
      "Ġsharing": 2933,
      "Ġharm": 2934,
      "Ġindividual": 2935,
      "ĠAll": 2936,
      "Ġgods": 2937,
      "ĠWell": 2938,
      "de": 2939,
      "Ġtrou": 2940,
      "Ġbelieved": 2941,
      "Ġreceive": 2942,
      "Ġtri": 2943,
      "Ġtasks": 2944,
      "uce": 2945,
      "inating": 2946,
      "Ġwarn": 2947,
      "Ġrespected": 2948,
      "ls": 2949,
      "use": 2950,
      "Ġdecla": 2951,
      "Ġmurmured": 2952,
      "gen": 2953,
      "ĠMore": 2954,
      "Ġstudied": 2955,
      "Ġforget": 2956,
      "ĠThese": 2957,
      "Ġlocation": 2958,
      "ĠPracticing": 2959,
      "ony": 2960,
      "Ġdating": 2961,
      "Ġsystem": 2962,
      "ĠObserving": 2963,
      "une": 2964,
      "Ġalone": 2965,
      "Ġfac": 2966,
      "ces": 2967,
      "Ġthir": 2968,
      "Ġfort": 2969,
      "Ġsword": 2970,
      "Ġrelationships": 2971,
      "ilt": 2972,
      "Ġdev": 2973,
      "Ġthrive": 2974,
      "pe": 2975,
      "ising": 2976,
      "Ġbig": 2977,
      "Ġappeared": 2978,
      "arcy": 2979,
      "ĠDarcy": 2980,
      "HA": 2981,
      "Ġdesire": 2982,
      "ident": 2983,
      "ury": 2984,
      "par": 2985,
      "ines": 2986,
      "Ġwhatever": 2987,
      "anted": 2988,
      "though": 2989,
      "Ġexclaimed": 2990,
      "Ġlisten": 2991,
      "rie": 2992,
      "Ġdead": 2993,
      "Ġprec": 2994,
      "Ġvari": 2995,
      "Ġcross": 2996,
      "ics": 2997,
      "Ġsaying": 2998,
      "Ġphilosopher": 2999,
      "Ġcap": 3000,
      "Ġhur": 3001,
      "Ġdi": 3002,
      "inary": 3003,
      "Ġsla": 3004,
      "Ġpublic": 3005,
      "Ġlay": 3006,
      "Ġaddition": 3007,
      "Ġdeclared": 3008,
      "Ġkne": 3009,
      "ĠJim": 3010,
      "Ġfasc": 3011,
      "'d": 3012,
      "Ġgenerally": 3013,
      "ĠTherefore": 3014,
      "Ġlamp": 3015,
      "Ġbusiness": 3016,
      "Ġsel": 3017,
      "Ġtried": 3018,
      "bed": 3019,
      "Ġliving": 3020,
      "Ġleave": 3021,
      "Ġprefers": 3022,
      "kind": 3023,
      "Ġtheory": 3024,
      "Ġbro": 3025,
      "Ġphys": 3026,
      "Ġproceed": 3027,
      "Ġhonour": 3028,
      "Ġsimilar": 3029,
      "ĠBuck": 3030,
      "Ġrul": 3031,
      "oses": 3032,
      "Ġpoor": 3033,
      "Ġnecessary": 3034,
      "fter": 3035,
      "roll": 3036,
      "ern": 3037,
      "Ġmerely": 3038,
      "Greek": 3039,
      "Ġdark": 3040,
      "Ġlooked": 3041,
      "cept": 3042,
      "ĠHim": 3043,
      "wards": 3044,
      "Ġfascinating": 3045,
      "ĠTr": 3046,
      "Ġinsisted": 3047,
      "Ġdidn": 3048,
      "Ġring": 3049,
      "Ġclim": 3050,
      "pically": 3051,
      "Ġgives": 3052,
      "Ġtypically": 3053,
      "Ġstrengths": 3054,
      "head": 3055,
      "ĠHere": 3056,
      "Ġflower": 3057,
      "Ġdogs": 3058,
      "ĠNevertheless": 3059,
      "_.": 3060,
      "bl": 3061,
      "Ġstar": 3062,
      "usion": 3063,
      "Ġenti": 3064,
      "ĠNature": 3065,
      "ency": 3066,
      "Ġself": 3067,
      "more": 3068,
      "Ġeye": 3069,
      "Ġbirds": 3070,
      "ational": 3071,
      "Ġface": 3072,
      "Ġanc": 3073,
      "outh": 3074,
      "Ġplain": 3075,
      "ified": 3076,
      "Ġselection": 3077,
      "ended": 3078,
      "Ġ.": 3079,
      "Ġer": 3080,
      "Ġmother": 3081,
      "Ġbell": 3082,
      "Ġsuff": 3083,
      "esseng": 3084,
      "osition": 3085,
      "ater": 3086,
      "ius": 3087,
      "ries": 3088,
      "ĠBy": 3089,
      "empt": 3090,
      "Ġking": 3091,
      "Ġpurpose": 3092,
      ").": 3093,
      "Ġbed": 3094,
      "ict": 3095,
      "Ġnobody": 3096,
      "ĠMoreover": 3097,
      "what": 3098,
      "Ġhardly": 3099,
      "Ġignor": 3100,
      "ĠDay": 3101,
      "Ġsis": 3102,
      "iter": 3103,
      "Ġfle": 3104,
      "Ġran": 3105,
      "Ġcup": 3106,
      "Ġoccasion": 3107,
      "ĠOur": 3108,
      "Ġherself": 3109,
      "Ġbenefits": 3110,
      "Ġcertainly": 3111,
      "Ġsor": 3112,
      "Ġlan": 3113,
      "Ġeverywhere": 3114,
      "Ġfair": 3115,
      "aptain": 3116,
      "while": 3117,
      "Ġdistant": 3118,
      "ering": 3119,
      "Ġmankind": 3120,
      "net": 3121,
      "Ġrelig": 3122,
      "Ġemb": 3123,
      "IN": 3124,
      "Ġsle": 3125,
      "Ġshowed": 3126,
      "Ġobjects": 3127,
      "Ġdirect": 3128,
      "Ġplants": 3129,
      "Ġgreatest": 3130,
      "Ġpersons": 3131,
      "Ġcrown": 3132,
      "Ġbod": 3133,
      "ĠThus": 3134,
      "Ġcommand": 3135,
      "Ġextre": 3136,
      "Ġslight": 3137,
      "Ġsighed": 3138,
      "bers": 3139,
      "Ġfire": 3140,
      "ĠAg": 3141,
      "Ġcomb": 3142,
      "Ġbrother": 3143,
      "ĠMean": 3144,
      "Ġabsolute": 3145,
      "Ġson": 3146,
      "ousand": 3147,
      "Ġenem": 3148,
      "ug": 3149,
      "Ġconn": 3150,
      "Ġbox": 3151,
      "aid": 3152,
      "Ġtreat": 3153,
      "ingly": 3154,
      "Ġdisbe": 3155,
      "Ġkey": 3156,
      "rehe": 3157,
      "Ġdescend": 3158,
      "anced": 3159,
      "Ġforests": 3160,
      "ision": 3161,
      "Ġnamed": 3162,
      "Ġimm": 3163,
      "ĠPh": 3164,
      "Ġblank": 3165,
      "Ġexists": 3166,
      "Ġleng": 3167,
      "Ġprod": 3168,
      "Ġfacts": 3169,
      "yond": 3170,
      "Ġterm": 3171,
      "ĠLong": 3172,
      "Ġprof": 3173,
      "Ġdiscovered": 3174,
      "Ġincre": 3175,
      "ĠFurther": 3176,
      "Ġsorry": 3177,
      "TER": 3178,
      "Ġthousand": 3179,
      "Ġline": 3180,
      "Ġgrou": 3181,
      "ately": 3182,
      "Ġdifficulty": 3183,
      "Ġbask": 3184,
      "ows": 3185,
      "utes": 3186,
      "oose": 3187,
      "Ġut": 3188,
      "Ġwild": 3189,
      "Ġkill": 3190,
      "unt": 3191,
      "Ġav": 3192,
      "Ġgone": 3193,
      "Ġforever": 3194,
      "..": 3195,
      "Ġdang": 3196,
      "ased": 3197,
      "ubb": 3198,
      "Ġmention": 3199,
      "Ġstopped": 3200,
      "Ġlantern": 3201,
      "uous": 3202,
      "Ġknows": 3203,
      "ief": 3204,
      "ining": 3205,
      "Ġsubst": 3206,
      "Ġspirit": 3207,
      "Ġcur": 3208,
      "Ġpol": 3209,
      "ash": 3210,
      "Ġmere": 3211,
      "Ġperce": 3212,
      "ĠJane": 3213,
      "Ġinflu": 3214,
      "Ġsufficient": 3215,
      "Ġunjust": 3216,
      "Ġexpect": 3217,
      "Ġwar": 3218,
      "Ġfav": 3219,
      "der": 3220,
      "ison": 3221,
      "Ġlatter": 3222,
      "Ġideas": 3223,
      "Ġjudg": 3224,
      "dden": 3225,
      "Ġmaster": 3226,
      "ĠSp": 3227,
      "Ġequal": 3228,
      "Ġbeyond": 3229,
      "imilar": 3230,
      "Ġshield": 3231,
      "Ġexistence": 3232,
      "ĠConsequently": 3233,
      "Ġbasket": 3234,
      "ex": 3235,
      "Ġsol": 3236,
      "Ġfeed": 3237,
      "Ġgovern": 3238,
      "ich": 3239,
      "Ġwit": 3240,
      "eness": 3241,
      "Ġreve": 3242,
      "Ġdepend": 3243,
      "Ġid": 3244,
      "Ġmoral": 3245,
      "Ġadvantage": 3246,
      "Ġlaws": 3247,
      "ĠMeanwhile": 3248,
      "ification": 3249,
      "Ġwomen": 3250,
      "Ġsudden": 3251,
      "Ġsepar": 3252,
      "Ġpearl": 3253,
      "Ġhidden": 3254,
      "ixed": 3255,
      "ON": 3256,
      "Ġsusp": 3257,
      "uses": 3258,
      "ĠOr": 3259,
      "iously": 3260,
      "Ġeduc": 3261,
      "Ġge": 3262,
      "ĠSay": 3263,
      "Ġreck": 3264,
      "ead": 3265,
      "Ġain": 3266,
      "erable": 3267,
      "Ġcircumstances": 3268,
      "ĠBennet": 3269,
      "Ġdraw": 3270,
      "Ġlength": 3271,
      ".âĢĿ": 3272,
      "con": 3273,
      "go": 3274,
      "Ġfeather": 3275,
      "Ġscroll": 3276,
      "oll": 3277,
      "Ġdro": 3278,
      "Ġcity": 3279,
      "ĠPr": 3280,
      "alse": 3281,
      "Ġvic": 3282,
      "ĠXX": 3283,
      "Ġpriv": 3284,
      "Ġbehind": 3285,
      "You": 3286,
      "ĠYet": 3287,
      "Ġflute": 3288,
      "Ġforce": 3289,
      "Ġconv": 3290,
      "Ġeasy": 3291,
      "non": 3292,
      "Ġliber": 3293,
      "Ġ18": 3294,
      "Ġleaf": 3295,
      "Ġproduced": 3296,
      "Ġinhab": 3297,
      "Ġnone": 3298,
      "Ġkite": 3299,
      "Ġalthough": 3300,
      "Ġguard": 3301,
      "ĠFurthermore": 3302,
      "Ġpec": 3303,
      "Ġrepres": 3304,
      "Ġesc": 3305,
      "arch": 3306,
      "ĠOF": 3307,
      "ingley": 3308,
      "arp": 3309,
      "Ġtemper": 3310,
      "Ġcried": 3311,
      "Ġgir": 3312,
      "Ġnearly": 3313,
      "Ġsupposed": 3314,
      "Ġpurs": 3315,
      "Ġpunishment": 3316,
      "Ġcake": 3317,
      "ĠBingley": 3318,
      "Ġneeded": 3319,
      "Ġprinciples": 3320,
      "Ġstrange": 3321,
      "ail": 3322,
      "Ġfalse": 3323,
      "Ġwatching": 3324,
      "Ġcondition": 3325,
      "Ġloved": 3326,
      "Ġten": 3327,
      "Ġtoy": 3328,
      "ĠUn": 3329,
      "Ġoccur": 3330,
      "Ġknew": 3331,
      "EN": 3332,
      "wor": 3333,
      "inite": 3334,
      "olding": 3335,
      "iar": 3336,
      "ĠSimilar": 3337,
      "Ġunless": 3338,
      "Ġtrouble": 3339,
      "ached": 3340,
      "ĠUnder": 3341,
      "Ġblanket": 3342,
      "ĠSe": 3343,
      "Ġteaching": 3344,
      "Ġmag": 3345,
      "ones": 3346,
      "Ġhund": 3347,
      "vation": 3348,
      "Ġest": 3349,
      "hest": 3350,
      "erous": 3351,
      "istic": 3352,
      "ustom": 3353,
      "Ġcollect": 3354,
      "Ġsix": 3355,
      "ĠSimilarly": 3356,
      "Ġcoming": 3357,
      "Ġkept": 3358,
      "Ġlow": 3359,
      "uliar": 3360,
      "Ġdoor": 3361,
      "ĠMerc": 3362,
      "Ġpossib": 3363,
      "ossible": 3364,
      "rol": 3365,
      "ĠCHA": 3366,
      "Ġviol": 3367,
      "Ġrule": 3368,
      "Ġhundred": 3369,
      "omp": 3370,
      "ĠSc": 3371,
      "roy": 3372,
      "Ġfool": 3373,
      "arily": 3374,
      "Ġbelong": 3375,
      "but": 3376,
      "soever": 3377,
      "Ġfer": 3378,
      "Ġtown": 3379,
      "Ġready": 3380,
      "Ġmeet": 3381,
      "Ġstruct": 3382,
      "Ġsinging": 3383,
      "Ġcontrary": 3384,
      "ipped": 3385,
      "Ġjum": 3386,
      "Ġobt": 3387,
      "Ġhappiness": 3388,
      "Ġcharacters": 3389,
      "Ġpeculiar": 3390,
      "Ġbreed": 3391,
      "Ġgiving": 3392,
      "ume": 3393,
      "Ġdisbelie": 3394,
      "uted": 3395,
      "Ġmap": 3396,
      "Ġeng": 3397,
      "ized": 3398,
      "Ġpassed": 3399,
      "dle": 3400,
      "ĠWhale": 3401,
      "Ġtraveler": 3402,
      "Ġpicked": 3403,
      "anes": 3404,
      "aled": 3405,
      "Ġdelight": 3406,
      "Ġgoes": 3407,
      "ches": 3408,
      "llect": 3409,
      "ats": 3410,
      "Ġconsequ": 3411,
      "ourable": 3412,
      "Ġflew": 3413,
      "Ġweak": 3414,
      "Ġwrit": 3415,
      "Ġattempt": 3416,
      "Ġmotion": 3417,
      "Ġplaying": 3418,
      "Ġpropor": 3419,
      "PTER": 3420,
      "val": 3421,
      "ĠCHAPTER": 3422,
      "oid": 3423,
      "Ġfre": 3424,
      "uture": 3425,
      "ĠWill": 3426,
      "ĠOf": 3427,
      "ck": 3428,
      "Ġboy": 3429,
      "ĠSoon": 3430,
      "Ġconstit": 3431,
      "Ġcent": 3432,
      "Ġdrink": 3433,
      "antly": 3434,
      "Ġallow": 3435,
      "idered": 3436,
      "Ġeasily": 3437,
      "irm": 3438,
      "Ġquar": 3439,
      "Ġarm": 3440,
      "Ġabst": 3441,
      "ĠRe": 3442,
      "Ġconsc": 3443,
      "orses": 3444,
      "Ġthird": 3445,
      "Ġplayed": 3446,
      "Ġprayed": 3447,
      "Ġreckon": 3448,
      "Ġir": 3449,
      "Ġund": 3450,
      "Ġsister": 3451,
      "will": 3452,
      "Ġpay": 3453,
      "elf": 3454,
      "gernon": 3455,
      "ogn": 3456,
      "Ġwaited": 3457,
      "ancy": 3458,
      "Ġuniverse": 3459,
      "bo": 3460,
      "Ġfuture": 3461,
      "Ġduty": 3462,
      "riage": 3463,
      "Ġblood": 3464,
      "Ġextreme": 3465,
      "bs": 3466,
      "Ġmed": 3467,
      "aling": 3468,
      "Ġfoot": 3469,
      "Ġtyr": 3470,
      "Ġdestroy": 3471,
      "ru": 3472,
      "Ġanal": 3473,
      "Ġremembering": 3474,
      "ternal": 3475,
      "Ġsociety": 3476,
      "Ġfortune": 3477,
      "Ġexcess": 3478,
      "eric": 3479,
      "Ġmass": 3480,
      "Ġharp": 3481,
      "Ġrelation": 3482,
      "Ġhorses": 3483,
      "Ġdisapp": 3484,
      "rences": 3485,
      "Ġinstead": 3486,
      "Ġwoman": 3487,
      "way": 3488,
      "Ġmad": 3489,
      "urn": 3490,
      "Ġlives": 3491,
      "Ġang": 3492,
      "ours": 3493,
      "Ġbuilt": 3494,
      "ract": 3495,
      "Ġsleep": 3496,
      "ES": 3497,
      "Ġoper": 3498,
      "Ġdoct": 3499,
      "Ġconsidered": 3500,
      "hood": 3501,
      "Ġbears": 3502,
      "Ġsake": 3503,
      "ouses": 3504,
      "Ġjo": 3505,
      "Ġconduct": 3506,
      "Ġpretty": 3507,
      "Ġproduce": 3508,
      "Well": 3509,
      "itation": 3510,
      "ĠLady": 3511,
      "Ġrid": 3512,
      "ĠAlgernon": 3513,
      "ole": 3514,
      "Ġparents": 3515,
      "Ġstructure": 3516,
      "LL": 3517,
      "ecily": 3518,
      "ĠHolding": 3519,
      "ĠChr": 3520,
      "Ġeducation": 3521,
      "!--": 3522,
      "eous": 3523,
      "uff": 3524,
      "Ġver": 3525,
      "ĠMan": 3526,
      "Ġimpossible": 3527,
      "Ġtaking": 3528,
      "Ġdaught": 3529,
      "ĠQue": 3530,
      "ĠStubb": 3531,
      "Ġvarious": 3532,
      "omestic": 3533,
      "essenger": 3534,
      "Ġcit": 3535,
      "Ġdesires": 3536,
      "00": 3537,
      "eque": 3538,
      "Ġsir": 3539,
      "Ġsail": 3540,
      "equeg": 3541,
      "Ġsn": 3542,
      "ĠSuch": 3543,
      "ced": 3544,
      "Ġfive": 3545,
      "Ġpast": 3546,
      "Ġdoth": 3547,
      "roduc": 3548,
      "ateful": 3549,
      "Ġworse": 3550,
      "Ġremark": 3551,
      "Ġplanted": 3552,
      "ploy": 3553,
      "ĠMerciful": 3554,
      "AT": 3555,
      "Ġdie": 3556,
      "quir": 3557,
      "Ġinfluence": 3558,
      "Ġwicked": 3559,
      "ĠSu": 3560,
      "Ġallowed": 3561,
      "Ġnecessity": 3562,
      "ĠArist": 3563,
      "Ġprobably": 3564,
      ",âĢĿ": 3565,
      "OR": 3566,
      "kes": 3567,
      "well": 3568,
      "Ġsit": 3569,
      "ĠEveryone": 3570,
      "Ġinstr": 3571,
      "ĠTogether": 3572,
      "Ġspeaking": 3573,
      "Ġcra": 3574,
      "Ġbees": 3575,
      "Ġemploy": 3576,
      "Ġproportion": 3577,
      "Ġsick": 3578,
      "Ġyouth": 3579,
      "Ġlie": 3580,
      "Ġexactly": 3581,
      "resp": 3582,
      "ĠCecily": 3583,
      "Ġplan": 3584,
      "Ġbless": 3585,
      "Ġentirely": 3586,
      "aining": 3587,
      "ites": 3588,
      "Ġfill": 3589,
      "Ġfine": 3590,
      "Ġwhales": 3591,
      "ously": 3592,
      "Ġbecomes": 3593,
      "Ġstraight": 3594,
      "ration": 3595,
      "inate": 3596,
      "Ġprofit": 3597,
      "Ġprot": 3598,
      "Ġexcell": 3599,
      "Ġhigher": 3600,
      ":--": 3601,
      "rel": 3602,
      "tif": 3603,
      "Ġskipped": 3604,
      "Ġcreated": 3605,
      "Ġunivers": 3606,
      "mn": 3607,
      "sh": 3608,
      "Ġadmit": 3609,
      "Ġappearance": 3610,
      "'ve": 3611,
      "ae": 3612,
      "iver": 3613,
      "Ġcouldn": 3614,
      "Ġhighest": 3615,
      "ye": 3616,
      "Ġbound": 3617,
      "Ġfellow": 3618,
      "Ġgrad": 3619,
      "ertainly": 3620,
      "Ġminds": 3621,
      "AN": 3622,
      "ids": 3623,
      "ĠLy": 3624,
      "Ġaccept": 3625,
      "Ġintellect": 3626,
      "Ġwitness": 3627,
      "Ġinhabit": 3628,
      "Ġneg": 3629,
      "ĠNot": 3630,
      "Ġordinary": 3631,
      "Ġequally": 3632,
      "Ġancient": 3633,
      "Ġcitiz": 3634,
      "oh": 3635,
      "Ġdomestic": 3636,
      "osing": 3637,
      "Ġimagine": 3638,
      "rang": 3639,
      "Ġwealth": 3640,
      "Ġ11": 3641,
      "Ġswam": 3642,
      "ĠNew": 3643,
      "Ġfast": 3644,
      "isti": 3645,
      "Ġnoble": 3646,
      "Ġimpress": 3647,
      "Ġfrequ": 3648,
      ".,": 3649,
      "Ġdr": 3650,
      "Ġgrie": 3651,
      "othes": 3652,
      "Ġcauses": 3653,
      "ĠQueequeg": 3654,
      "Ġfixed": 3655,
      "Ġthrow": 3656,
      "ards": 3657,
      "ĠEng": 3658,
      "Ġsimp": 3659,
      "Ġpleasures": 3660,
      "sc": 3661,
      "you": 3662,
      "Ġ*": 3663,
      "Ġfra": 3664,
      "Ġcold": 3665,
      "Ġcontem": 3666,
      "Ġbestow": 3667,
      "grateful": 3668,
      "Ġextra": 3669,
      "And": 3670,
      "ham": 3671,
      "Ġpure": 3672,
      "Ġdim": 3673,
      "Ġdesign": 3674,
      "Ġjudge": 3675,
      "Ġgovernment": 3676,
      "Ġjumped": 3677,
      "gmat": 3678,
      "Ġhair": 3679,
      "Ġrighteous": 3680,
      "Ġeagles": 3681,
      "Ġauthority": 3682,
      "Ġbodies": 3683,
      "Ġsuc": 3684,
      "Ġbelief": 3685,
      "ribed": 3686,
      "Ġvoice": 3687,
      "Ġposition": 3688,
      "Ġwife": 3689,
      "Ġbar": 3690,
      "ingu": 3691,
      "airs": 3692,
      "Ġutter": 3693,
      "Ġmouth": 3694,
      "Ġbeg": 3695,
      "Ġreference": 3696,
      "ster": 3697,
      "iders": 3698,
      "Ġspo": 3699,
      "ĠFriendship": 3700,
      "Ġnig": 3701,
      "ĠSelf": 3702,
      "ulties": 3703,
      "Ġungrateful": 3704,
      "Ġopinions": 3705,
      "ium": 3706,
      "Ġtable": 3707,
      "oured": 3708,
      "Ġinher": 3709,
      "ulation": 3710,
      "ĠPer": 3711,
      "Ġwonder": 3712,
      "rupt": 3713,
      "He": 3714,
      "gress": 3715,
      "Ġcre": 3716,
      "llig": 3717,
      "Ġones": 3718,
      "ĠAmeric": 3719,
      "Ġforgave": 3720,
      "Ġresol": 3721,
      "Ġthyself": 3722,
      "ift": 3723,
      "Ġmeasure": 3724,
      "Ġoblig": 3725,
      "Ġplaced": 3726,
      "Ġliberty": 3727,
      "Ġdue": 3728,
      "ices": 3729,
      "Ġwholly": 3730,
      "Ġnotion": 3731,
      "Ġattrib": 3732,
      "Ġsubstance": 3733,
      "Ġfig": 3734,
      "Ġdanced": 3735,
      "Ġemp": 3736,
      "lies": 3737,
      "Ġkinds": 3738,
      "Ġfollows": 3739,
      "Ġbelow": 3740,
      "Ġreligion": 3741,
      "eds": 3742,
      "Ġlaid": 3743,
      "--\"": 3744,
      "Ġformed": 3745,
      "ĠWhere": 3746,
      "Ġwouldn": 3747,
      "Ġgazed": 3748,
      "Ġconcerning": 3749,
      "Ġlab": 3750,
      "Ġearn": 3751,
      "ĠCertainly": 3752,
      "umb": 3753,
      "ĠGl": 3754,
      "Ġrich": 3755,
      "AR": 3756,
      "Ġcred": 3757,
      "Ġdece": 3758,
      "abl": 3759,
      "Ġpraise": 3760,
      "Ġcal": 3761,
      "ĠWor": 3762,
      "Ġacknow": 3763,
      "Ġdistingu": 3764,
      "Ġpassion": 3765,
      "Ġoppos": 3766,
      "Ġterms": 3767,
      "Ġciv": 3768,
      "ental": 3769,
      "Ġdeal": 3770,
      "Ġtrust": 3771,
      "Ġgenera": 3772,
      "Ġsupport": 3773,
      "Ġprivate": 3774,
      "Ġcustom": 3775,
      "Ġhearts": 3776,
      "Ġpleasant": 3777,
      "hod": 3778,
      "ners": 3779,
      "ator": 3780,
      "Ġfif": 3781,
      "Ġlower": 3782,
      "Ġvast": 3783,
      "ĠDe": 3784,
      "Ġfeelings": 3785,
      "Ġrecogn": 3786,
      "Ġseeing": 3787,
      "Ġpreser": 3788,
      "Ġearly": 3789,
      "known": 3790,
      "band": 3791,
      "inction": 3792,
      "rer": 3793,
      "Ġled": 3794,
      "oph": 3795,
      "ĠOh": 3796,
      "Ġdesp": 3797,
      "Ġscience": 3798,
      "No": 3799,
      "ler": 3800,
      "rad": 3801,
      "Ġsear": 3802,
      "Ġproof": 3803,
      "Ġpoet": 3804,
      "ĠSh": 3805,
      "Ġapparent": 3806,
      "epend": 3807,
      "Ġbesides": 3808,
      "respond": 3809,
      "after": 3810,
      "ucks": 3811,
      "Ġoriginal": 3812,
      "Ġsucceed": 3813,
      "Ġforth": 3814,
      "ĠCaptain": 3815,
      "Ġafterwards": 3816,
      "Ġhawks": 3817,
      "Ġclimbed": 3818,
      "Ġinhabitants": 3819,
      "Ġpen": 3820,
      "Ġrev": 3821,
      "Ġsole": 3822,
      "Ġchap": 3823,
      "Ġstruck": 3824,
      "Ġhurt": 3825,
      "cl": 3826,
      "oved": 3827,
      "Ġsac": 3828,
      "Ġmut": 3829,
      "Ġlady": 3830,
      "Ġves": 3831,
      "Ġconvers": 3832,
      "Ġinstinct": 3833,
      "Ġrelative": 3834,
      "Ġcorrespond": 3835,
      "Ġtraveled": 3836,
      "Ġappears": 3837,
      "Ġfight": 3838,
      "Ġbeings": 3839,
      "ically": 3840,
      "racious": 3841,
      "Ġstrength": 3842,
      ";--": 3843,
      "tles": 3844,
      "Ġx": 3845,
      "Ġsqu": 3846,
      "Ġforb": 3847,
      "Ġdisg": 3848,
      "Ġdanger": 3849,
      "Ġbit": 3850,
      "Ġbott": 3851,
      "Ġanimal": 3852,
      "Ġrelat": 3853,
      "ĠAgain": 3854,
      "'m": 3855,
      "Ġreject": 3856,
      "arer": 3857,
      "ĠWho": 3858,
      "Ġintermediate": 3859,
      "Ġclosely": 3860,
      "Ġinjustice": 3861,
      "Ġignorance": 3862,
      "Ġcompl": 3863,
      "Ġrepe": 3864,
      "Ġfrogs": 3865,
      "Ġengag": 3866,
      "IS": 3867,
      "Ġlikewise": 3868,
      "uction": 3869,
      "rack": 3870,
      "Ġflame": 3871,
      "Ġintellig": 3872,
      "Ġglad": 3873,
      "Ġsuffer": 3874,
      "Ġtor": 3875,
      "Ġhop": 3876,
      "Ġet": 3877,
      "Ġasc": 3878,
      "Ġrational": 3879,
      "arbuck": 3880,
      "Ġrabbits": 3881,
      "rit": 3882,
      "Ġfield": 3883,
      "Ġcompany": 3884,
      "Ġinvol": 3885,
      "Ġprofess": 3886,
      "Ġsearched": 3887,
      "omin": 3888,
      "Ġreality": 3889,
      "olen": 3890,
      "Ġindepend": 3891,
      "ickham": 3892,
      "Ġcranes": 3893,
      "ontrol": 3894,
      "Ġhyp": 3895,
      "Ġlad": 3896,
      "Ġheat": 3897,
      "ulous": 3898,
      "Ġanger": 3899,
      "rous": 3900,
      "Ġmaint": 3901,
      "Ġproperty": 3902,
      "Ġavoid": 3903,
      "Oh": 3904,
      "ech": 3905,
      "Ġfurn": 3906,
      "isible": 3907,
      "Ġhus": 3908,
      "Ġgain": 3909,
      "ĠColl": 3910,
      "Ġsomewhat": 3911,
      "Ġdiss": 3912,
      "elles": 3913,
      "Ġblind": 3914,
      "Ġreasoning": 3915,
      "Ġdoctr": 3916,
      "bon": 3917,
      "vi": 3918,
      "rect": 3919,
      "Ġcab": 3920,
      "Ġloss": 3921,
      "iction": 3922,
      "othing": 3923,
      "together": 3924,
      "Ġparty": 3925,
      "Ġenemy": 3926,
      "Ġopposite": 3927,
      "?--": 3928,
      "ges": 3929,
      "how": 3930,
      "ton": 3931,
      "with": 3932,
      "Ġ7": 3933,
      "reg": 3934,
      "acy": 3935,
      "Ġimper": 3936,
      "Ġcompar": 3937,
      "Ġevents": 3938,
      "Ġmethod": 3939,
      "Ġravens": 3940,
      "ĠChristi": 3941,
      "OU": 3942,
      "ĠWickham": 3943,
      "angu": 3944,
      "ĠâĢĺ": 3945,
      "Ġfishs": 3946,
      "rehens": 3947,
      "Ġbat": 3948,
      "Ġfell": 3949,
      "akes": 3950,
      "Ġadded": 3951,
      "Ġdivine": 3952,
      "Ġmodern": 3953,
      "Ġlambs": 3954,
      "Ġminute": 3955,
      "Ġants": 3956,
      "Ġsold": 3957,
      "ĠBook": 3958,
      "ourse": 3959,
      "Ġwhatsoever": 3960,
      "Ġarms": 3961,
      "Ġtran": 3962,
      "Ġtwenty": 3963,
      "ĠStarbuck": 3964,
      "Ġbelongs": 3965,
      "Ġphilosophers": 3966,
      "worth": 3967,
      "ĠCollins": 3968,
      "ey": 3969,
      "astic": 3970,
      "Ġdeli": 3971,
      "soc": 3972,
      "ĠTrue": 3973,
      "Ġgirl": 3974,
      "iences": 3975,
      "Ġperm": 3976,
      "Ġdeck": 3977,
      "Ġterri": 3978,
      "Ġgroups": 3979,
      "Ġescape": 3980,
      "Ġvessel": 3981,
      "eav": 3982,
      "pid": 3983,
      "Ġgas": 3984,
      "Ġrevel": 3985,
      "aken": 3986,
      "Ġdifferences": 3987,
      "Ġseek": 3988,
      "which": 3989,
      "IT": 3990,
      "under": 3991,
      "vere": 3992,
      "Ġresem": 3993,
      "Ġdolphins": 3994,
      "Ġdeny": 3995,
      "Ġsatisfied": 3996,
      "Ġrepresent": 3997,
      "Ġhusband": 3998,
      "Ġ8": 3999,
      "Ġfreed": 4000,
      "raid": 4001,
      "Ġstat": 4002,
      "Ġworship": 4003,
      "ortal": 4004,
      "Ġshown": 4005,
      "Ġgazelles": 4006,
      "Ġnumbers": 4007,
      "Ġwolfs": 4008,
      "Ġnightingales": 4009,
      "Ġcamels": 4010,
      "dia": 4011,
      "Ġho": 4012,
      "Ġexperiment": 4013,
      "Ġfully": 4014,
      "Ġendeav": 4015,
      "Ġmiddle": 4016,
      "ological": 4017,
      "rup": 4018,
      "rees": 4019,
      "Ġlog": 4020,
      "Ġlangu": 4021,
      "Ġrevealed": 4022,
      "Ġsuddenly": 4023,
      "wend": 4024,
      "Ġpict": 4025,
      "Ġspiders": 4026,
      "Ġchoose": 4027,
      "Ġinstances": 4028,
      "Ġstanding": 4029,
      "Ġpragmat": 4030,
      "Ġanalog": 4031,
      "AL": 4032,
      "iable": 4033,
      "ses": 4034,
      "ze": 4035,
      "het": 4036,
      "ump": 4037,
      "ĠPar": 4038,
      "Ġaware": 4039,
      "Ġdirection": 4040,
      "wendolen": 4041,
      "vell": 4042,
      "ĠAN": 4043,
      "ĠAfter": 4044,
      "Ġunknown": 4045,
      "Ġperform": 4046,
      "ĠJust": 4047,
      "Ġerror": 4048,
      "Ġconnected": 4049,
      "uel": 4050,
      "Ġfun": 4051,
      "Ġderi": 4052,
      "ician": 4053,
      "ĠHer": 4054,
      "ivity": 4055,
      "Ġobv": 4056,
      "Ġmodification": 4057,
      "Ġtest": 4058,
      "Ġma": 4059,
      "ime": 4060,
      "Ġaltogether": 4061,
      "racy": 4062,
      "Ġrate": 4063,
      "time": 4064,
      "III": 4065,
      "xion": 4066,
      "Ġox": 4067,
      "Ġcrow": 4068,
      "Ġinse": 4069,
      "Ġlot": 4070,
      "ĠInd": 4071,
      "quod": 4072,
      "action": 4073,
      "Ġprove": 4074,
      "Ġhours": 4075,
      "Ġdescri": 4076,
      "Ġhybr": 4077,
      "Ġincrease": 4078,
      "Ġangry": 4079,
      "Ġbottom": 4080,
      "If": 4081,
      "leg": 4082,
      "rod": 4083,
      "races": 4084,
      "Ġblame": 4085,
      "Ġlarger": 4086,
      "ĠVery": 4087,
      "Ġmoon": 4088,
      "Ġdepart": 4089,
      "Ġestabl": 4090,
      "come": 4091,
      "Ġcrew": 4092,
      "Ġmor": 4093,
      "Ġducks": 4094,
      "asy": 4095,
      "Ġlions": 4096,
      "iden": 4097,
      "ĠTheir": 4098,
      "ections": 4099,
      "ĠHell": 4100,
      "Ġexternal": 4101,
      "ĠGwendolen": 4102,
      "ĠPequod": 4103,
      "Ġsparrows": 4104,
      "Ġservants": 4105,
      "Ġnigger": 4106,
      "My": 4107,
      "ging": 4108,
      "Ġsenti": 4109,
      "Ġfit": 4110,
      "ĠHad": 4111,
      "Ġspread": 4112,
      "Ġsecret": 4113,
      "Ġphilosoph": 4114,
      "Ġpromise": 4115,
      "Ġignorant": 4116,
      "ING": 4117,
      "ob": 4118,
      "Ġgoodness": 4119,
      "Ġconsideration": 4120,
      "Ġabsolutely": 4121,
      "ĠLydia": 4122,
      "Ġcitizens": 4123,
      "Ġapt": 4124,
      "oman": 4125,
      "Ġstates": 4126,
      "acle": 4127,
      "Ġroll": 4128,
      "Ġcats": 4129,
      "Ġstudy": 4130,
      "Ġowls": 4131,
      "Ġsubjects": 4132,
      "Ġenemies": 4133,
      "Ġmentioned": 4134,
      "oot": 4135,
      "els": 4136,
      "Ġobj": 4137,
      "aws": 4138,
      "Ġregarded": 4139,
      "Ġexceed": 4140,
      "Ġauthor": 4141,
      "ux": 4142,
      "Ġfly": 4143,
      "Ġcry": 4144,
      "Ġmine": 4145,
      "Ġstre": 4146,
      "pper": 4147,
      "Ġinstant": 4148,
      "Ġspeech": 4149,
      "Ġfoxs": 4150,
      "Ġslave": 4151,
      "rehend": 4152,
      "Ġjudgment": 4153,
      "mb": 4154,
      "ping": 4155,
      "Ġast": 4156,
      "Ġvain": 4157,
      "Ġvoy": 4158,
      "ĠMessenger": 4159,
      "Ġwills": 4160,
      "Ġturtles": 4161,
      "Ġcarbon": 4162,
      "ission": 4163,
      "Ġmodified": 4164,
      "Ġchanges": 4165,
      "Ġetc": 4166,
      "Ġdeliber": 4167,
      "idenote": 4168,
      "Sidenote": 4169,
      "pse": 4170,
      "lec": 4171,
      "iding": 4172,
      "ĠEur": 4173,
      "ipe": 4174,
      "ishing": 4175,
      "tens": 4176,
      "Ġblow": 4177,
      "Ġbelievers": 4178,
      "Ġbroken": 4179,
      "LE": 4180,
      "Ġpull": 4181,
      "ript": 4182,
      "Ġexh": 4183,
      "Ġmeant": 4184,
      "tility": 4185,
      "Ġenter": 4186,
      "Ġcontinued": 4187,
      "Ġcredit": 4188,
      "ION": 4189,
      "Ġpow": 4190,
      "Ġeight": 4191,
      "Ġages": 4192,
      "Ġbestowed": 4193,
      "Ġforgot": 4194,
      "This": 4195,
      "ology": 4196,
      "Ġvolunt": 4197,
      "Ġpossibly": 4198,
      "Ġdaughter": 4199,
      "Ġfreedom": 4200,
      "?'": 4201,
      "Ġtree": 4202,
      "Ġsli": 4203,
      "atural": 4204,
      "Ġdise": 4205,
      "Ġafraid": 4206,
      "Ġfault": 4207,
      "Ġislands": 4208,
      "Ġservice": 4209,
      "side": 4210,
      "erial": 4211,
      "Ġtop": 4212,
      "acks": 4213,
      "Ġdeers": 4214,
      "Ġremar": 4215,
      "Ġapply": 4216,
      "Ġserious": 4217,
      "Ġclearly": 4218,
      "Ġsouls": 4219,
      "Ġillust": 4220,
      "io": 4221,
      "Ġsides": 4222,
      "Ġassoc": 4223,
      "Ġcompared": 4224,
      "timate": 4225,
      "Ġconclusion": 4226,
      "Ġplainly": 4227,
      "Ġmagn": 4228,
      "Ġsitu": 4229,
      "Ġsimply": 4230,
      "Ġpowers": 4231,
      "Ġnames": 4232,
      "Ġobli": 4233,
      "Ġgrav": 4234,
      "Ġgentleman": 4235,
      "Ġsensible": 4236,
      "Ġproperly": 4237,
      "Ġdrawn": 4238,
      "Ġsigns": 4239,
      "Ġderived": 4240,
      "gans": 4241,
      "jo": 4242,
      "oes": 4243,
      "Ġwon": 4244,
      "Ġlate": 4245,
      "acity": 4246,
      "Ġ13": 4247,
      "Ġmighty": 4248,
      "Ġrequired": 4249,
      "Ġactually": 4250,
      "Ġeffects": 4251,
      "Ġfavour": 4252,
      "Ġharpo": 4253,
      "worthy": 4254,
      "ĠEurope": 4255,
      "lish": 4256,
      "Ġfat": 4257,
      "Ġfirm": 4258,
      "Ġ19": 4259,
      "Ġentertain": 4260,
      "Ġafford": 4261,
      "enced": 4262,
      "Ġlaugh": 4263,
      "Ġconception": 4264,
      "Ġprevent": 4265,
      "Ġphysical": 4266,
      "Ġobligation": 4267,
      "_;": 4268,
      "Ġster": 4269,
      "Ġsour": 4270,
      "Ġban": 4271,
      "Ġfem": 4272,
      "orious": 4273,
      "gged": 4274,
      "Ġconsiderable": 4275,
      "Ġsurely": 4276,
      "Ġbow": 4277,
      "irable": 4278,
      "Ġash": 4279,
      "ulated": 4280,
      "Ġdoves": 4281,
      "ĠMost": 4282,
      "Ġchief": 4283,
      "cts": 4284,
      "ocr": 4285,
      "Ġinterp": 4286,
      "Ġscarce": 4287,
      "Ġminutes": 4288,
      "Ġconstitution": 4289,
      "atic": 4290,
      "Ġstage": 4291,
      "elled": 4292,
      "Ġgenus": 4293,
      "spring": 4294,
      "Ġcreature": 4295,
      "they": 4296,
      "Ġcommonly": 4297,
      "Ġsalmons": 4298,
      "Ġkilled": 4299,
      "'re": 4300,
      "zy": 4301,
      "Ġtes": 4302,
      "Ġreached": 4303,
      "Ġsex": 4304,
      "Ġnotice": 4305,
      "ĠGreek": 4306,
      "Ġobey": 4307,
      "inced": 4308,
      "Ġoccup": 4309,
      "Ġpossession": 4310,
      "Ġboats": 4311,
      "iner": 4312,
      "Ġrise": 4313,
      "uded": 4314,
      "Ġdiscover": 4315,
      "Ġfail": 4316,
      "Ġserve": 4317,
      "Ġmiles": 4318,
      "Ġstrict": 4319,
      "God": 4320,
      "ixt": 4321,
      "Ã¦": 4322,
      "Ġlines": 4323,
      "Ġlater": 4324,
      "Ġann": 4325,
      "Ġdeeds": 4326,
      "Ġindif": 4327,
      "Ġcapable": 4328,
      "Ġuniversal": 4329,
      "Ġextraord": 4330,
      "Ġspoken": 4331,
      "Ġrelativity": 4332,
      "tled": 4333,
      "Ġvel": 4334,
      "ought": 4335,
      "omer": 4336,
      "amp": 4337,
      "iform": 4338,
      "Ġeverybody": 4339,
      "Ġune": 4340,
      "unk": 4341,
      "Ġexpression": 4342,
      "Ġpleased": 4343,
      "Ġgroup": 4344,
      "pet": 4345,
      "inity": 4346,
      "Ġsaved": 4347,
      "ĠGood": 4348,
      "Ġknowing": 4349,
      "ĠRep": 4350,
      "Ġconfess": 4351,
      "Ġtemp": 4352,
      "Ġassum": 4353,
      "Ġmarriage": 4354,
      "Ġridic": 4355,
      "ew": 4356,
      "Ġcaptain": 4357,
      "Ġyield": 4358,
      "Ġsave": 4359,
      "Ġrepay": 4360,
      "Ġinfinite": 4361,
      "Ġpassage": 4362,
      "Ġconcerned": 4363,
      "vals": 4364,
      "Ġmouses": 4365,
      "Ġhath": 4366,
      "Ġpal": 4367,
      "Ġdat": 4368,
      "Ġyes": 4369,
      "Ġ10": 4370,
      "Ġexpected": 4371,
      "ocity": 4372,
      "Ġmoder": 4373,
      "Ġcrossed": 4374,
      "Ġperceive": 4375,
      "ĠAristot": 4376,
      "Ġlanguage": 4377,
      "Control": 4378,
      "Ġtear": 4379,
      "vey": 4380,
      "ayed": 4381,
      "urity": 4382,
      "Ġshame": 4383,
      "ĠHence": 4384,
      "ĠMary": 4385,
      "perm": 4386,
      "Ġgetting": 4387,
      "Ġactual": 4388,
      "Ġentire": 4389,
      "Ġcreation": 4390,
      "Ġ9": 4391,
      "aries": 4392,
      "aded": 4393,
      "Ġarrang": 4394,
      "Ġvariety": 4395,
      "Ġconsequence": 4396,
      "CT": 4397,
      "Ġbul": 4398,
      "Ġduke": 4399,
      "Ġthrown": 4400,
      "Ġnay": 4401,
      "Ġorgans": 4402,
      "Ġoffspring": 4403,
      "ĠKnow": 4404,
      "Ġpractical": 4405,
      "Ġquestions": 4406,
      "Ġheads": 4407,
      "Ġearnest": 4408,
      "Ġobvious": 4409,
      ".)": 4410,
      "isation": 4411,
      "ĠSto": 4412,
      "achus": 4413,
      "Ġperf": 4414,
      "Ġshows": 4415,
      "Ġprefer": 4416,
      "Ġcontent": 4417,
      "Ġoffic": 4418,
      "Ġpersu": 4419,
      "Ġinferi": 4420,
      "Ġdemand": 4421,
      "Ġprevious": 4422,
      "Ġremarkable": 4423,
      "Ġwid": 4424,
      "Ġpop": 4425,
      "amm": 4426,
      "ĠMoses": 4427,
      "ĠCan": 4428,
      "Ġimit": 4429,
      "Ġarts": 4430,
      "Ġrapid": 4431,
      "Ġmaterial": 4432,
      "Ġwait": 4433,
      "Ġwidely": 4434,
      "Ġnumerous": 4435,
      "Ġprovided": 4436,
      "Ġvirtues": 4437,
      "Ġhighly": 4438,
      "ĠChristian": 4439,
      "ĠAristotle": 4440,
      "inter": 4441,
      "Ġfancy": 4442,
      "Ġpains": 4443,
      "acher": 4444,
      "ĠWhoever": 4445,
      "Ġhonourable": 4446,
      "ocks": 4447,
      "ĠVirt": 4448,
      "Ġexcellent": 4449,
      "ĠEnglish": 4450,
      "Ġdoctrine": 4451,
      "itary": 4452,
      "isc": 4453,
      "arr": 4454,
      "Ġrend": 4455,
      "ots": 4456,
      "ety": 4457,
      "ĠMar": 4458,
      "teen": 4459,
      "Ġworst": 4460,
      "Ġproved": 4461,
      "Ġanybody": 4462,
      "Ġapplic": 4463,
      "Ġrepro": 4464,
      "Ġoffice": 4465,
      "Ġteeth": 4466,
      "Ġpress": 4467,
      "Ġrelated": 4468,
      "Ġfarther": 4469,
      "Ġextent": 4470,
      "ribution": 4471,
      "Ġdebt": 4472,
      "ĠGlau": 4473,
      "Ġtransp": 4474,
      "Ġrevelations": 4475,
      "Ġdel": 4476,
      "Ġmeas": 4477,
      "ounded": 4478,
      "Ġrecord": 4479,
      "Ġreasonable": 4480,
      "Ġexcl": 4481,
      "Ġsolid": 4482,
      "ĠSee": 4483,
      "Ġcontempl": 4484,
      "Ġfigure": 4485,
      "Ġi": 4486,
      "Ġod": 4487,
      "ishes": 4488,
      "Ġthr": 4489,
      "Ġuniform": 4490,
      "ressed": 4491,
      "ĠPleasure": 4492,
      "Ġreceiving": 4493,
      "Ġsenses": 4494,
      "Ġopportunity": 4495,
      "Ġintroduc": 4496,
      "Ġdescribed": 4497,
      "Ġconversation": 4498,
      "af": 4499,
      "ygen": 4500,
      "Ġtail": 4501,
      "Ġalike": 4502,
      "ĠSperm": 4503,
      "Ġvary": 4504,
      "Ġwilling": 4505,
      "Ġunf": 4506,
      "ucket": 4507,
      "ointed": 4508,
      "Ġorganic": 4509,
      "Ġaffected": 4510,
      "Ġwritten": 4511,
      "ĠGlaucon": 4512,
      "RE": 4513,
      "water": 4514,
      "Ġhun": 4515,
      "ĠIN": 4516,
      "Ġvice": 4517,
      "ounds": 4518,
      "aped": 4519,
      "Ġturning": 4520,
      "Ġsocial": 4521,
      "Ġconscious": 4522,
      "Ġinstrum": 4523,
      "uri": 4524,
      "utions": 4525,
      "Ġwall": 4526,
      "Ġfet": 4527,
      "Ġpost": 4528,
      "urd": 4529,
      "Ġsty": 4530,
      "ĠGracious": 4531,
      "ively": 4532,
      "Ġinfer": 4533,
      "Ġcontinue": 4534,
      "Ġpainful": 4535,
      "Ġportion": 4536,
      "Ġseeds": 4537,
      "Ġcombus": 4538,
      "Ġdisbelieve": 4539,
      "Ġextraordinary": 4540,
      "ener": 4541,
      "iration": 4542,
      "Ġasp": 4543,
      "aced": 4544,
      "Ġlevel": 4545,
      "Ġsav": 4546,
      "ĠStates": 4547,
      "Ġattain": 4548,
      "Ġnecessarily": 4549,
      "Ġmiserable": 4550,
      "Ġclasses": 4551,
      "Ġterrible": 4552,
      "Ġvoyage": 4553,
      "gar": 4554,
      "iments": 4555,
      "Ġconne": 4556,
      "Ġgreatly": 4557,
      "Ġthinks": 4558,
      "Ġintervals": 4559,
      "ify": 4560,
      "ĠHomer": 4561,
      "Ġspring": 4562,
      "Ġ12": 4563,
      "Ġsubm": 4564,
      "Ġentered": 4565,
      "Ġguide": 4566,
      "Ġbutterflys": 4567,
      "Ġdescendants": 4568,
      "ĠXXX": 4569,
      "Ġdestroyed": 4570,
      "fast": 4571,
      "ron": 4572,
      "hemat": 4573,
      "Ġbre": 4574,
      "Ġcoun": 4575,
      "Ġdread": 4576,
      "tig": 4577,
      "Ġwhenever": 4578,
      "Ġthroughout": 4579,
      "Ġabsence": 4580,
      "Ġrunning": 4581,
      "Ġdirectly": 4582,
      "quiry": 4583,
      "Ġfrequently": 4584,
      "Ġutterly": 4585,
      "eal": 4586,
      "ulf": 4587,
      "raction": 4588,
      "Ġcommun": 4589,
      "Ġexamine": 4590,
      "Ġmarry": 4591,
      "Ġdefin": 4592,
      "Ġburn": 4593,
      "Ġharmony": 4594,
      "Ġdivers": 4595,
      "essengers": 4596,
      "Ġpolit": 4597,
      "Ġseparate": 4598,
      "Ġabstract": 4599,
      "Ġextremely": 4600,
      "Ġdisgrace": 4601,
      "Ġvelocity": 4602,
      "AS": 4603,
      "nell": 4604,
      "pon": 4605,
      "Ġastr": 4606,
      "itz": 4607,
      "omy": 4608,
      "omen": 4609,
      "ending": 4610,
      "Ġwhoever": 4611,
      "nton": 4612,
      "Ġpoets": 4613,
      "Ġlover": 4614,
      "Ġnamely": 4615,
      "ibility": 4616,
      "Ġconstant": 4617,
      "Ġrules": 4618,
      "Ġbodily": 4619,
      "Ġharpoone": 4620,
      "uz": 4621,
      "Ġaim": 4622,
      "utation": 4623,
      "Ġfront": 4624,
      "emed": 4625,
      "Ġsperm": 4626,
      "ĠBrack": 4627,
      "Ġallied": 4628,
      "ourn": 4629,
      "Ġarise": 4630,
      "Ġdish": 4631,
      "Ġrace": 4632,
      "Ġstarted": 4633,
      "Ġguided": 4634,
      "Ġexplain": 4635,
      "Ġscarcely": 4636,
      "ĠBracknell": 4637,
      "Ġclaim": 4638,
      "tile": 4639,
      "ĠAd": 4640,
      "rop": 4641,
      "ends": 4642,
      "Ġdoll": 4643,
      "Ġdistinction": 4644,
      "Ġletters": 4645,
      "Ġassert": 4646,
      "Ġstands": 4647,
      "Ġelement": 4648,
      "Ġobtained": 4649,
      "Ġintellectual": 4650,
      "Ġoxygen": 4651,
      "urious": 4652,
      "Ġhang": 4653,
      "Ġhither": 4654,
      "ades": 4655,
      "Ġconstr": 4656,
      "ĠCather": 4657,
      "Ġanyone": 4658,
      "Ġcompet": 4659,
      "Ġremained": 4660,
      "ordinate": 4661,
      "Ġaccident": 4662,
      "inner": 4663,
      "Ġweek": 4664,
      "Ġtendency": 4665,
      "Ġcolour": 4666,
      "Ġchanged": 4667,
      "Ġproductions": 4668,
      "Ġintended": 4669,
      "Ġservant": 4670,
      "Ġacquaint": 4671,
      "Ġsuspic": 4672,
      "ĠAmerica": 4673,
      "Ġacknowled": 4674,
      "Ġhybrids": 4675,
      "ĠCatherine": 4676,
      "Ġhearing": 4677,
      "ĠSir": 4678,
      "Ġange": 4679,
      "Ġseas": 4680,
      "ests": 4681,
      "Ġpride": 4682,
      "Ġwishes": 4683,
      "Ġmemory": 4684,
      "Ġpassing": 4685,
      "Ġheavy": 4686,
      "Ġconceive": 4687,
      "Ġtroub": 4688,
      "blance": 4689,
      "Ġdescended": 4690,
      "Ġbreeds": 4691,
      "ĠReason": 4692,
      "ripture": 4693,
      "IC": 4694,
      "IV": 4695,
      "Ġz": 4696,
      "Ġice": 4697,
      "hether": 4698,
      "atin": 4699,
      "Ġbarb": 4700,
      "Ġambit": 4701,
      "Ġgeneration": 4702,
      "Ġ14": 4703,
      "Ġseeking": 4704,
      "Ġrope": 4705,
      "Ġobservation": 4706,
      "Ġexisting": 4707,
      "Ġelements": 4708,
      "Ġtorment": 4709,
      "no": 4710,
      "Ġtow": 4711,
      "Ġvisible": 4712,
      "Ġmanners": 4713,
      "Ġjus": 4714,
      "Ġpartly": 4715,
      "licity": 4716,
      "Ġinterc": 4717,
      "Ġsettled": 4718,
      "Ġresults": 4719,
      "Ġrulers": 4720,
      "Ġaston": 4721,
      "Ġstyle": 4722,
      "OO": 4723,
      "hand": 4724,
      "ptions": 4725,
      "Ġowe": 4726,
      "Ġdwell": 4727,
      "ompl": 4728,
      "Ġlust": 4729,
      "Ġheight": 4730,
      "Ġascend": 4731,
      "Ġexact": 4732,
      "Ġquant": 4733,
      "Ġrat": 4734,
      "Ġrud": 4735,
      "Ġflow": 4736,
      "Ġears": 4737,
      "timony": 4738,
      "Ġbirth": 4739,
      "Ġtouch": 4740,
      "Ġreligious": 4741,
      "Ġgeomet": 4742,
      "Ġconvinced": 4743,
      "viath": 4744,
      "Ġconnexion": 4745,
      "In": 4746,
      "TH": 4747,
      "Ġsons": 4748,
      "Ġsorrow": 4749,
      "Ġoil": 4750,
      "Ġfing": 4751,
      "Ġhind": 4752,
      "Ġpit": 4753,
      "Ġdare": 4754,
      "Ġdied": 4755,
      "Ġliter": 4756,
      "Ġvan": 4757,
      "ĠFire": 4758,
      "ĠThr": 4759,
      "Ġcomprehend": 4760,
      "Ġdeser": 4761,
      "Ġflat": 4762,
      "Ġaccompl": 4763,
      "Ġguardians": 4764,
      "Ġtyrant": 4765,
      "Ġcabin": 4766,
      "ĠRepublic": 4767,
      "rom": 4768,
      "Ġsin": 4769,
      "Ġsal": 4770,
      "Ġfanc": 4771,
      "isher": 4772,
      "llen": 4773,
      "Ġintention": 4774,
      "asing": 4775,
      "oming": 4776,
      "alle": 4777,
      "Ġupper": 4778,
      "urch": 4779,
      "ulate": 4780,
      "Ġsum": 4781,
      "ĠEnd": 4782,
      "ferent": 4783,
      "racted": 4784,
      "eless": 4785,
      "Ġthank": 4786,
      "Ġleaving": 4787,
      "Ġapart": 4788,
      "Ġdescent": 4789,
      "Ġcircumstance": 4790,
      "Ġslaves": 4791,
      "Ġdepends": 4792,
      "Ġchapter": 4793,
      "Ġmaj": 4794,
      "How": 4795,
      "mind": 4796,
      "there": 4797,
      "ys": 4798,
      "zed": 4799,
      "Ġcaught": 4800,
      "Ġmas": 4801,
      "Ġmessengers": 4802,
      "Ġnarrow": 4803,
      "Ġshut": 4804,
      "Ġshalt": 4805,
      "Ġconsequently": 4806,
      "this": 4807,
      "aked": 4808,
      "arest": 4809,
      "seless": 4810,
      "Ġevident": 4811,
      "Ġrob": 4812,
      "ocracy": 4813,
      "Ġswift": 4814,
      "Ġmarried": 4815,
      "Ġfaculty": 4816,
      "Ġpowerful": 4817,
      "ibit": 4818,
      "rate": 4819,
      "ital": 4820,
      "Ġcow": 4821,
      "Ġloose": 4822,
      "tial": 4823,
      "chief": 4824,
      "Ġforced": 4825,
      "ĠSat": 4826,
      "lict": 4827,
      "ĠFl": 4828,
      "ĠCle": 4829,
      "Ġprogress": 4830,
      "ĠThough": 4831,
      "Ġdecl": 4832,
      "Ġexisted": 4833,
      "Ġbooks": 4834,
      "Ġworthy": 4835,
      "Ġreadily": 4836,
      "Ġthirty": 4837,
      "Ġfoolish": 4838,
      "Ġsacri": 4839,
      "ĠAND": 4840,
      "ev": 4841,
      "uge": 4842,
      "Ġcou": 4843,
      "Ġhot": 4844,
      "ann": 4845,
      "Ġinten": 4846,
      "Ġgun": 4847,
      "vert": 4848,
      "oted": 4849,
      "room": 4850,
      "rogen": 4851,
      "ĠHapp": 4852,
      "antucket": 4853,
      "ĠMoral": 4854,
      "ĠGreat": 4855,
      "Ġdispl": 4856,
      "Ġwants": 4857,
      "Ġcondem": 4858,
      "Ġrefer": 4859,
      "Ġpersonal": 4860,
      "Ġlegs": 4861,
      "Ġpromised": 4862,
      "Ġfairly": 4863,
      "Ġpursuit": 4864,
      "ompan": 4865,
      "Ġquarter": 4866,
      "Ġpoetry": 4867,
      "hered": 4868,
      "Ġmale": 4869,
      "ĠCol": 4870,
      "Ġacting": 4871,
      "Ġadop": 4872,
      "Ġshew": 4873,
      "Ġraft": 4874,
      "Ġpaid": 4875,
      "Ġendure": 4876,
      "Ġorders": 4877,
      "Ġdisposition": 4878,
      "Ġfash": 4879,
      "Ġvariation": 4880,
      "Ġport": 4881,
      "cep": 4882,
      "stood": 4883,
      "change": 4884,
      "iring": 4885,
      "Ġ\"'": 4886,
      "ecess": 4887,
      "ardon": 4888,
      "Ġhast": 4889,
      "Ġcharm": 4890,
      "ĠDr": 4891,
      "ĠNantucket": 4892,
      "Ġclothes": 4893,
      "Ġmathemat": 4894,
      "Ġextinct": 4895,
      "Ġprepared": 4896,
      "Ġdarkness": 4897,
      "Ġobtain": 4898,
      "Ġoperation": 4899,
      "Ġengaged": 4900,
      "Ġindependent": 4901,
      "Ġbattle": 4902,
      "Ġinferior": 4903,
      "ding": 4904,
      "mper": 4905,
      "was": 4906,
      "Ġdu": 4907,
      "Ġdign": 4908,
      "antic": 4909,
      "Ġsevere": 4910,
      "using": 4911,
      "Ġuns": 4912,
      "Ġalter": 4913,
      "ĠNothing": 4914,
      "Ġplant": 4915,
      "Ġboard": 4916,
      "Ġtalking": 4917,
      "Ġsuccessive": 4918,
      "Ġpreced": 4919,
      "Ġprecise": 4920,
      "Ġcalc": 4921,
      "then": 4922,
      "enance": 4923,
      "Ġpil": 4924,
      "ram": 4925,
      "ements": 4926,
      "ĠGe": 4927,
      "Ġwaters": 4928,
      "ancing": 4929,
      "Ġgentlemen": 4930,
      "Ġcorrect": 4931,
      "Ġcountries": 4932,
      "Ġsurprise": 4933,
      "Ġdiscussion": 4934,
      "Ġdefinite": 4935,
      "Ġdegrees": 4936,
      "Ġburning": 4937,
      "Ġprobable": 4938,
      "Ġsufficiently": 4939,
      "ĠSurah": 4940,
      "Ġcomparison": 4941,
      "Ġtestimony": 4942,
      "bly": 4943,
      "eper": 4944,
      "uing": 4945,
      "rection": 4946,
      "Ġbeat": 4947,
      "Ġwhaling": 4948,
      "Ġvig": 4949,
      "Ġunable": 4950,
      "Ġapplied": 4951,
      "Ġcarriage": 4952,
      "athon": 4953,
      "Ġrestra": 4954,
      "Ġtrying": 4955,
      "Ġfamiliar": 4956,
      "Ġcurrent": 4957,
      "ĠScripture": 4958,
      "Ġemployed": 4959,
      "Ġfifty": 4960,
      "Ġrevol": 4961,
      "Ġpicture": 4962,
      "ĠVirtue": 4963,
      "?âĢĿ": 4964,
      "There": 4965,
      "ias": 4966,
      "Ġbones": 4967,
      "ainted": 4968,
      "ĠLike": 4969,
      "Ġmanif": 4970,
      "ĠEr": 4971,
      "Ġcontrad": 4972,
      "Ġgrace": 4973,
      "ogra": 4974,
      "ĠNeither": 4975,
      "Ġeste": 4976,
      "Ġinherit": 4977,
      "Wh": 4978,
      "co": 4979,
      "hor": 4980,
      "iber": 4981,
      "long": 4982,
      "ois": 4983,
      "Ġtall": 4984,
      "Ġbrie": 4985,
      "tific": 4986,
      "rog": 4987,
      "ushed": 4988,
      "âĢĶ": 4989,
      "Ġwished": 4990,
      "Ġnevertheless": 4991,
      "Ġdifficulties": 4992,
      "encies": 4993,
      "Ġexplan": 4994,
      "Ġcamp": 4995,
      "ibly": 4996,
      "Ġphysician": 4997,
      "Ġdrawing": 4998,
      "ĠSupp": 4999,
      "Ġfilled": 5000,
      "Ġvoluntary": 5001,
      "Ġsituation": 5002,
      ");": 5003,
      "ED": 5004,
      "ford": 5005,
      "matter": 5006,
      "pent": 5007,
      "rem": 5008,
      "Ġbase": 5009,
      "Ġcell": 5010,
      "Ġhint": 5011,
      "orous": 5012,
      "Ġlux": 5013,
      "ĠII": 5014,
      "key": 5015,
      "ested": 5016,
      "Ġtherein": 5017,
      "Ġbrings": 5018,
      "Ġprim": 5019,
      "Ġaccum": 5020,
      "Ġbegins": 5021,
      "Ġfamous": 5022,
      "Ġformation": 5023,
      "Ġstranger": 5024,
      "Ġdimin": 5025,
      "Ġforbid": 5026,
      "Ġrepeated": 5027,
      "Ġhypothes": 5028,
      "Ġassoci": 5029,
      "rors": 5030,
      "ĠLove": 5031,
      "Ġaccompan": 5032,
      "Ġcourt": 5033,
      "Ġimagination": 5034,
      "Ġsteps": 5035,
      "Ġaccordance": 5036,
      "Ġsatisfaction": 5037,
      "Ġdropped": 5038,
      "Ġboys": 5039,
      "Ġimperfect": 5040,
      "Ġfashion": 5041,
      "cle": 5042,
      "pro": 5043,
      "Ġaunt": 5044,
      "asm": 5045,
      "rand": 5046,
      "ĠAb": 5047,
      "aces": 5048,
      "Ġunn": 5049,
      "Ġabsurd": 5050,
      "Ġarguments": 5051,
      "Ġancest": 5052,
      "Ġpolitical": 5053,
      "LLA": 5054,
      "ohn": 5055,
      "Ġforgotten": 5056,
      "Ġjustif": 5057,
      "RO": 5058,
      "ker": 5059,
      "uries": 5060,
      "Ġtong": 5061,
      "isdom": 5062,
      "lend": 5063,
      "Ġlest": 5064,
      "Ġluck": 5065,
      "tible": 5066,
      "esty": 5067,
      "orted": 5068,
      "Ġadap": 5069,
      "ĠRoman": 5070,
      "Ġgoods": 5071,
      "Ġhappens": 5072,
      "Ġsupply": 5073,
      "Ġcalls": 5074,
      "Ġcorrupt": 5075,
      "Ġuncle": 5076,
      "Ġfaculties": 5077,
      "Ġbroad": 5078,
      "Ġembry": 5079,
      "going": 5080,
      "Ġbegun": 5081,
      "Ġpreserved": 5082,
      "Ġperfection": 5083,
      "EL": 5084,
      "itic": 5085,
      "Ġdig": 5086,
      "verted": 5087,
      "Ġul": 5088,
      "Ġhen": 5089,
      "usions": 5090,
      "Ġdefect": 5091,
      "Ġartic": 5092,
      "Ġarises": 5093,
      "iefly": 5094,
      "Ġraise": 5095,
      "Ġrock": 5096,
      "ension": 5097,
      "Ġassured": 5098,
      "Ġmonths": 5099,
      "Ġfalsehood": 5100,
      "Ġcombustion": 5101,
      "viathan": 5102,
      "iour": 5103,
      "ming": 5104,
      "Ġbold": 5105,
      "Ġfoss": 5106,
      "Ġmult": 5107,
      "Ġpred": 5108,
      "Ġdinner": 5109,
      "ĠSy": 5110,
      "uls": 5111,
      "ĠLond": 5112,
      "Ġunity": 5113,
      "ĠThor": 5114,
      "Ġrange": 5115,
      "ander": 5116,
      "Ġmembers": 5117,
      "Ġcalling": 5118,
      "aviour": 5119,
      "ĠUs": 5120,
      "Ġformations": 5121,
      "Ġbehold": 5122,
      "Ġinjury": 5123,
      "Ġfinally": 5124,
      "ĠAgathon": 5125,
      "Ġindifferent": 5126,
      "Ġquantity": 5127,
      "ĠFlask": 5128,
      "ĠLondon": 5129,
      "ma": 5130,
      "zen": 5131,
      "itor": 5132,
      "Ġfulf": 5133,
      "Ġmortal": 5134,
      "onc": 5135,
      "Ġstated": 5136,
      "ĠWise": 5137,
      "Ġsell": 5138,
      "Ġvision": 5139,
      "Ġspect": 5140,
      "Ġchiefly": 5141,
      "ĠGard": 5142,
      "ĠRes": 5143,
      "Ġdevelopment": 5144,
      "fted": 5145,
      "Ġstead": 5146,
      "Ġpassions": 5147,
      "Ġgrowth": 5148,
      "Ġships": 5149,
      "Ġjudged": 5150,
      "Ġpossessed": 5151,
      "Ġcaused": 5152,
      "ĠHereafter": 5153,
      "Ġconscience": 5154,
      "Ġblessed": 5155,
      "Ġapparently": 5156,
      "Ġladies": 5157,
      "Ġsource": 5158,
      "aving": 5159,
      "Ġ=": 5160,
      "Ġtub": 5161,
      "Ġrender": 5162,
      "Ġur": 5163,
      "ilty": 5164,
      "Ġspr": 5165,
      "Ġconqu": 5166,
      "ĠNay": 5167,
      "Ġperpet": 5168,
      "udes": 5169,
      "Ġobsc": 5170,
      "Ġinde": 5171,
      "Ġindic": 5172,
      "Ġsciences": 5173,
      "Ġjustly": 5174,
      "Ġassign": 5175,
      "Ġmetap": 5176,
      "Ġloves": 5177,
      "Ġsuccession": 5178,
      "Ġfinal": 5179,
      "Ġsisters": 5180,
      "Ġimpression": 5181,
      "Ġestablished": 5182,
      "Ġsentiment": 5183,
      "Ġcommunic": 5184,
      "Ġdollars": 5185,
      "ĠThornton": 5186,
      "inent": 5187,
      "edy": 5188,
      "Ġtot": 5189,
      "Ġreduc": 5190,
      "urs": 5191,
      "ulations": 5192,
      "Ġstream": 5193,
      "Ġshore": 5194,
      "Ġacid": 5195,
      "orts": 5196,
      "ĠWhite": 5197,
      "ucted": 5198,
      "Ġadvance": 5199,
      "Ġinterests": 5200,
      "Ġperiods": 5201,
      "Ġdevil": 5202,
      "Ġclimate": 5203,
      "exp": 5204,
      "Ġpossibility": 5205,
      "ĠWilliam": 5206,
      "Ġcul": 5207,
      "Ġmile": 5208,
      "ashed": 5209,
      "Ġgro": 5210,
      "char": 5211,
      "ĠAre": 5212,
      "Ġsees": 5213,
      "Ġseven": 5214,
      "ĠMo": 5215,
      "Ġenorm": 5216,
      "Ġrank": 5217,
      "agon": 5218,
      "Ġremoved": 5219,
      "Ġnatures": 5220,
      "Ġrare": 5221,
      "ĠForg": 5222,
      "Ġrefuse": 5223,
      "Ġsteam": 5224,
      "Ġgets": 5225,
      "Ġacquired": 5226,
      "Ġreckoned": 5227,
      "rehension": 5228,
      "Ġinsects": 5229,
      "],": 5230,
      "iers": 5231,
      "lo": 5232,
      "oly": 5233,
      "some": 5234,
      "rels": 5235,
      "Ġmast": 5236,
      "Ġmental": 5237,
      "Ġpap": 5238,
      "ĠSouth": 5239,
      "ament": 5240,
      "Ġlean": 5241,
      "ĠBes": 5242,
      "Ġunderstood": 5243,
      "ĠCharl": 5244,
      "Ġglory": 5245,
      "Ġswim": 5246,
      "Ġopposed": 5247,
      "Ġamongst": 5248,
      "Ġneck": 5249,
      "Ġobliged": 5250,
      "Ġdefinition": 5251,
      "._": 5252,
      "wo": 5253,
      "Ġta": 5254,
      "oul": 5255,
      "ening": 5256,
      "Ġnose": 5257,
      "Ġeq": 5258,
      "Ġiss": 5259,
      "tives": 5260,
      "chan": 5261,
      "Ġliable": 5262,
      "alled": 5263,
      "omever": 5264,
      "Ġspite": 5265,
      "Ġyours": 5266,
      "Ġrising": 5267,
      "rench": 5268,
      "Ġfles": 5269,
      "Ġdiscourse": 5270,
      "Ġscene": 5271,
      "Ġreflect": 5272,
      "Ġassume": 5273,
      "Ġsilent": 5274,
      "Ġcoat": 5275,
      "Ġcircle": 5276,
      "ĠXV": 5277,
      "Ġspirits": 5278,
      "ugust": 5279,
      "Ġprofitable": 5280,
      "Ġinherited": 5281,
      "Ġdescription": 5282,
      "minded": 5283,
      "Ġtum": 5284,
      "Ġmig": 5285,
      "Ġdrew": 5286,
      "oms": 5287,
      "ĠIndeed": 5288,
      "ldom": 5289,
      "Ġuseless": 5290,
      "ĠHave": 5291,
      "ositions": 5292,
      "Ġsmoke": 5293,
      "inks": 5294,
      "ĠJohn": 5295,
      "gging": 5296,
      "Ġcontri": 5297,
      "Ġrightly": 5298,
      "Ġrecol": 5299,
      "Ġprison": 5300,
      "Ġconsiderations": 5301,
      "Ġmoved": 5302,
      "Ġresist": 5303,
      "ĠUpon": 5304,
      "Ġmurder": 5305,
      "Ġstrike": 5306,
      "Ġconclude": 5307,
      "Ġextrem": 5308,
      "Ġoccurred": 5309,
      "Ġconsequences": 5310,
      "board": 5311,
      "Ġcivil": 5312,
      "Ġstreet": 5313,
      "Ġdisease": 5314,
      "Ġacquaintance": 5315,
      "Ġangels": 5316,
      "atinum": 5317,
      "fact": 5318,
      "ienti": 5319,
      "rim": 5320,
      "when": 5321,
      "ymn": 5322,
      "inal": 5323,
      "Ġmamm": 5324,
      "asp": 5325,
      "Ġeld": 5326,
      "icians": 5327,
      "acles": 5328,
      "Ġimage": 5329,
      "umph": 5330,
      "arted": 5331,
      "henomen": 5332,
      "Ġexped": 5333,
      "izzy": 5334,
      "Ġsche": 5335,
      "Ġaffairs": 5336,
      "Ġmarked": 5337,
      "Ġinnoc": 5338,
      "Ġstriking": 5339,
      "Ġballoon": 5340,
      "Ġseparated": 5341,
      "Ġgeological": 5342,
      "Ġgirls": 5343,
      "Ġresemblance": 5344,
      "Ġapplication": 5345,
      "Ġhence": 5346,
      "ĠGardiner": 5347,
      "aven": 5348,
      "ctions": 5349,
      "drogen": 5350,
      "rus": 5351,
      "rated": 5352,
      "Ġphenomen": 5353,
      "ari": 5354,
      "Ġgymn": 5355,
      "Ġforty": 5356,
      "Ġhamm": 5357,
      "enth": 5358,
      "lice": 5359,
      "Ġnearer": 5360,
      "Ġdelic": 5361,
      "Ġkings": 5362,
      "ĠRight": 5363,
      "ĠJon": 5364,
      "Ġsingular": 5365,
      "Ġdetermine": 5366,
      "Ġcharacteristic": 5367,
      "Ġmistake": 5368,
      "Ġwoods": 5369,
      "Ġbehaviour": 5370,
      "Ġdepos": 5371,
      "Ġvariations": 5372,
      "Ġprodig": 5373,
      "Ġfavourable": 5374,
      "Ġfertility": 5375,
      "Ġmutual": 5376,
      "Ġcounsel": 5377,
      "Ġded": 5378,
      "Ġshot": 5379,
      "ifts": 5380,
      "Ġvag": 5381,
      "Ġspout": 5382,
      "ĠMill": 5383,
      "ighty": 5384,
      "agg": 5385,
      "Ġremote": 5386,
      "apable": 5387,
      "Ġplatinum": 5388,
      "Ġrepent": 5389,
      "Ġflu": 5390,
      "Ġspecific": 5391,
      "izing": 5392,
      "Ġsupper": 5393,
      "Ġsilence": 5394,
      "Ġcorrup": 5395,
      "Ġends": 5396,
      "Ġneighbour": 5397,
      "fortun": 5398,
      "Ġformerly": 5399,
      "Ġleads": 5400,
      "Ġfortun": 5401,
      "Ġslightly": 5402,
      "Ġconnection": 5403,
      "Ġprofound": 5404,
      "Ġsterility": 5405,
      "Ġhitherto": 5406,
      "allel": 5407,
      "ao": 5408,
      "aed": 5409,
      "ule": 5410,
      "inated": 5411,
      "ouble": 5412,
      "Ġfalls": 5413,
      "Ġfisher": 5414,
      "isk": 5415,
      "ĠIII": 5416,
      "urance": 5417,
      "urrection": 5418,
      "Ġantic": 5419,
      "Ġseldom": 5420,
      "Ġcharge": 5421,
      "Ġconfined": 5422,
      "Ġreceives": 5423,
      "Ġexception": 5424,
      "Ġmode": 5425,
      "Ġowing": 5426,
      "Ġtender": 5427,
      "Ġvirtuous": 5428,
      "Ġpurposes": 5429,
      "Ġrepresented": 5430,
      "Ġestate": 5431,
      "Ġprotect": 5432,
      "Ġcorresponding": 5433,
      "Ġendeavour": 5434,
      "Ġpopular": 5435,
      "Ġrendered": 5436,
      "ST": 5437,
      "my": 5438,
      "ators": 5439,
      "Ġmal": 5440,
      "Ġlying": 5441,
      "sec": 5442,
      "Ġprogen": 5443,
      "Ġappet": 5444,
      "Ġknowed": 5445,
      "Ġgenius": 5446,
      "Ġindul": 5447,
      "ultane": 5448,
      "Ġsought": 5449,
      "Ġcountenance": 5450,
      "Ġviews": 5451,
      "urable": 5452,
      "Ġoccasionally": 5453,
      "Ġgymnastic": 5454,
      ".--": 5455,
      "machus": 5456,
      "otion": 5457,
      "she": 5458,
      "Ġtalked": 5459,
      "isions": 5460,
      "Ġcla": 5461,
      "Ġdouble": 5462,
      "cell": 5463,
      "ĠAp": 5464,
      "Ġsearch": 5465,
      "Ġseized": 5466,
      "aker": 5467,
      "Ġunion": 5468,
      "Ġens": 5469,
      "Ġpros": 5470,
      "Ġdivision": 5471,
      "Ġmistaken": 5472,
      "Ġproduces": 5473,
      "Ġparticulars": 5474,
      "Ġwrongdo": 5475,
      "Ġuncertain": 5476,
      "....": 5477,
      "Ġviolence": 5478,
      "Ġdisbelievers": 5479,
      "ĠMany": 5480,
      "Ġdaughters": 5481,
      "Ġinstincts": 5482,
      "Ġmaintain": 5483,
      "asymachus": 5484,
      "Ġfemale": 5485,
      "ĠStoic": 5486,
      "OOK": 5487,
      "ĠHappiness": 5488,
      "ĠSuppose": 5489,
      "pre": 5490,
      "Ġwine": 5491,
      "Ġmul": 5492,
      "Ġpardon": 5493,
      "Ġthor": 5494,
      "Ġnations": 5495,
      "Ġease": 5496,
      "Ġhel": 5497,
      "ĠAugust": 5498,
      "Ġconvey": 5499,
      "geon": 5500,
      "ĠMad": 5501,
      "osen": 5502,
      "Ġactive": 5503,
      "urely": 5504,
      "Ġunh": 5505,
      "abled": 5506,
      "Ġgrave": 5507,
      "Ġsupposing": 5508,
      "Ġsimultane": 5509,
      "these": 5510,
      "Ġmotive": 5511,
      "Ġguilty": 5512,
      "Ġcover": 5513,
      "Ġcomplex": 5514,
      "Ġacquainted": 5515,
      "Ġtrif": 5516,
      "Ġmedic": 5517,
      "Ġwitnesses": 5518,
      "Ġacknowledged": 5519,
      "ĠBesides": 5520,
      "Ġflesh": 5521,
      "Ġanticip": 5522,
      "IM": 5523,
      "kin": 5524,
      "Ġbill": 5525,
      "Ġbank": 5526,
      "itute": 5527,
      "Ġfate": 5528,
      "onic": 5529,
      "Ġinves": 5530,
      "Ġbef": 5531,
      "Ġgained": 5532,
      "road": 5533,
      "ĠWisdom": 5534,
      "quire": 5535,
      "Ġexec": 5536,
      "Ġunwill": 5537,
      "Ġrig": 5538,
      "ĠJud": 5539,
      "Ġpract": 5540,
      "Ġwrote": 5541,
      "Ġtravell": 5542,
      "Ġsubs": 5543,
      "Ġpasses": 5544,
      "Ġcontinuous": 5545,
      "Ġparticularly": 5546,
      "Ġconcern": 5547,
      "imentary": 5548,
      "Ġtriumph": 5549,
      "Ġvariable": 5550,
      "Ġjudges": 5551,
      "Ġdrop": 5552,
      "clock": 5553,
      "Ġhopes": 5554,
      "Ġaspect": 5555,
      "Ġdishon": 5556,
      "ĠThrasymachus": 5557,
      "Ġexplanation": 5558,
      "aes": 5559,
      "bourn": 5560,
      "field": 5561,
      "nest": 5562,
      "tr": 5563,
      "vol": 5564,
      "Ġcities": 5565,
      "Ġmax": 5566,
      "Ġthro": 5567,
      "verty": 5568,
      "otte": 5569,
      "acked": 5570,
      "Ġwhence": 5571,
      "Ġfears": 5572,
      "Ġjar": 5573,
      "Ġfounded": 5574,
      "Ġpoverty": 5575,
      "Ġcontrol": 5576,
      "Ġcommitted": 5577,
      "Ġ16": 5578,
      "Ġdistribution": 5579,
      "Ġcruel": 5580,
      "Ġroad": 5581,
      "Ġbelieving": 5582,
      "Ġwax": 5583,
      "Ġcorpse": 5584,
      "ĠPractical": 5585,
      "Ġholding": 5586,
      "Ġtype": 5587,
      "Ġcandles": 5588,
      "Ġdispute": 5589,
      "Ġlimits": 5590,
      "Ġsuffering": 5591,
      "Ġkingdom": 5592,
      "ĠLongbourn": 5593,
      "Ġdisappear": 5594,
      "Ġwickedness": 5595,
      "Ġgradually": 5596,
      "Ġacknowledge": 5597,
      "Ġdistinguish": 5598,
      "Ġdistinguished": 5599,
      "Ġremarked": 5600,
      "Ġbarbar": 5601,
      "ĠCharlotte": 5602,
      "ĠJonah": 5603,
      "dra": 5604,
      "iant": 5605,
      "yer": 5606,
      "hel": 5607,
      "Ġfix": 5608,
      "Ġmill": 5609,
      "Ġmessenger": 5610,
      "asures": 5611,
      "Ġelect": 5612,
      "imp": 5613,
      "Ġwhil": 5614,
      "Ġvac": 5615,
      "Ġvap": 5616,
      "Ġobed": 5617,
      "Ġrain": 5618,
      "Ġwherever": 5619,
      "Ġspecially": 5620,
      "Ġstrongly": 5621,
      "Ġtrain": 5622,
      "Ġtruths": 5623,
      "Ġinclined": 5624,
      "Ġattended": 5625,
      "Ġconsists": 5626,
      "Ġlimit": 5627,
      "Ġincreased": 5628,
      "Ġviolent": 5629,
      "Ġgrief": 5630,
      "Ġintelligence": 5631,
      "Ġcontemplation": 5632,
      "Ġcultiv": 5633,
      "Ġinvestig": 5634,
      "iest": 5635,
      "pher": 5636,
      "wixt": 5637,
      "itational": 5638,
      "Ġegg": 5639,
      "Ġheed": 5640,
      "Ġstock": 5641,
      "Ġyourselves": 5642,
      "ĠEpic": 5643,
      "Ġrad": 5644,
      "Ġchest": 5645,
      "Ġwanting": 5646,
      "Ġprince": 5647,
      "Ġforgive": 5648,
      "Ġcontinu": 5649,
      "Ġruin": 5650,
      "Ġpretend": 5651,
      "Ġdangerous": 5652,
      "ĠPrism": 5653,
      "Ġweakness": 5654,
      "Ġoperations": 5655,
      "ĠPerhaps": 5656,
      "Ġobjection": 5657,
      "Ġflying": 5658,
      "Ġdignity": 5659,
      "IL": 5660,
      "Le": 5661,
      "ipp": 5662,
      "ienced": 5663,
      "yn": 5664,
      "inates": 5665,
      "Ġsed": 5666,
      "Ġhomes": 5667,
      "Ġloud": 5668,
      "Ġnon": 5669,
      "Ġgifts": 5670,
      "eter": 5671,
      "Ġsomebody": 5672,
      "uman": 5673,
      "ĠDick": 5674,
      "Ġadvers": 5675,
      "Ġhadn": 5676,
      "Ġcompare": 5677,
      "Ġperman": 5678,
      "Ġovercome": 5679,
      "Ġpollen": 5680,
      "Ġpresently": 5681,
      "ifications": 5682,
      "Ġconfer": 5683,
      "Ġconfusion": 5684,
      "ĠAny": 5685,
      "Ġexpressed": 5686,
      "ĠProvidence": 5687,
      "Ġsorts": 5688,
      "Ġoriginally": 5689,
      "Ġlegis": 5690,
      "Ġharmon": 5691,
      "Ġcommanded": 5692,
      "Ġiden": 5693,
      "Ġharpoon": 5694,
      "ĠEngland": 5695,
      "ĠAmerican": 5696,
      "Ġstatement": 5697,
      "ĠIndian": 5698,
      "Ġphilosophical": 5699,
      "Ġmultitude": 5700,
      "upp": 5701,
      "Ġstern": 5702,
      "Ġcub": 5703,
      "Ġdam": 5704,
      "Ġnice": 5705,
      "Ġeternal": 5706,
      "see": 5707,
      "Ġreven": 5708,
      "Ġarea": 5709,
      "ĠLizzy": 5710,
      "ĠBOOK": 5711,
      "Ġchosen": 5712,
      "Ġunre": 5713,
      "ĠDon": 5714,
      "Ġsheep": 5715,
      "Ġlightning": 5716,
      "Ġexperiments": 5717,
      "Ġattached": 5718,
      "Ġtrace": 5719,
      "Ġtempt": 5720,
      "Ġsecurity": 5721,
      "Ġcuri": 5722,
      "Ġbreakfast": 5723,
      "ĠStill": 5724,
      "Ġmisery": 5725,
      "Ġdenied": 5726,
      "Ġcapacity": 5727,
      "Ġmeeting": 5728,
      "Ġcentre": 5729,
      "Ġfrequent": 5730,
      "Ġsquare": 5731,
      "Ġexceedingly": 5732,
      "Ġstrictly": 5733,
      "Ġprosper": 5734,
      "eus": 5735,
      "fied": 5736,
      "his": 5737,
      "lim": 5738,
      "shire": 5739,
      "vil": 5740,
      "Ġwives": 5741,
      "Ġben": 5742,
      "Ġfier": 5743,
      "Ġthin": 5744,
      "Ġthine": 5745,
      "Ġgame": 5746,
      "ĠTO": 5747,
      "Ġreb": 5748,
      "ĠAunt": 5749,
      "ĠSen": 5750,
      "Ġstation": 5751,
      "ĠWhether": 5752,
      "Ġseam": 5753,
      "ĠFrench": 5754,
      "Ġmechan": 5755,
      "umed": 5756,
      "Ġbetwixt": 5757,
      "ĠJup": 5758,
      "Ġpock": 5759,
      "ĠKing": 5760,
      "Ġcarpent": 5761,
      "Ġforeign": 5762,
      "ffin": 5763,
      "Ġpair": 5764,
      "Ġparallel": 5765,
      "oubted": 5766,
      "Ġcease": 5767,
      "Ġdescrib": 5768,
      "Ġhydrogen": 5769,
      "Ġresolved": 5770,
      "Ġfitted": 5771,
      "enes": 5772,
      "lls": 5773,
      "Ġintim": 5774,
      "Ġnine": 5775,
      "Ġwhomever": 5776,
      "Ġanti": 5777,
      "Ġsev": 5778,
      "Ġunus": 5779,
      "Ġupwards": 5780,
      "onder": 5781,
      "Ġbecoming": 5782,
      "Ġreputation": 5783,
      "Ġdesirable": 5784,
      "Ġgrant": 5785,
      "Ġevils": 5786,
      "ocked": 5787,
      "Ġguess": 5788,
      "Ġparties": 5789,
      "Ġtelling": 5790,
      "Ġcontinually": 5791,
      "Ġprice": 5792,
      "Ġfourth": 5793,
      "Ġvices": 5794,
      "boat": 5795,
      "Ġexcellence": 5796,
      "Ġlabour": 5797,
      "Ġrejected": 5798,
      "Ġashamed": 5799,
      "Ġridiculous": 5800,
      "Ġsuspicion": 5801,
      "Ġmasters": 5802,
      "ĠErnest": 5803,
      "Ġadapted": 5804,
      "can": 5805,
      "garch": 5806,
      "lar": 5807,
      "Ġcas": 5808,
      "Ġhide": 5809,
      "Ġhouses": 5810,
      "Ġder": 5811,
      "Ġbearing": 5812,
      "owing": 5813,
      "idently": 5814,
      "ĠMarc": 5815,
      "ĠBl": 5816,
      "Ġmoreover": 5817,
      "Ġenabled": 5818,
      "Ġappointed": 5819,
      "Ġ17": 5820,
      "Ġcrim": 5821,
      "Ġpron": 5822,
      "Ġincon": 5823,
      "ĠChap": 5824,
      "Ġlesser": 5825,
      "Ġsummer": 5826,
      "Ġoligarch": 5827,
      "Ġlovers": 5828,
      "Ġkeeping": 5829,
      "Ġprayer": 5830,
      "Ġleading": 5831,
      "bler": 5832,
      "Ġutmost": 5833,
      "Ġattribute": 5834,
      "Ġsavage": 5835,
      "mir": 5836,
      "Ġaver": 5837,
      "Ġaid": 5838,
      "Ġstic": 5839,
      "Ġwinter": 5840,
      "Ġcous": 5841,
      "Ġmate": 5842,
      "Ġep": 5843,
      "ĠTao": 5844,
      "ĠImper": 5845,
      "Ġreti": 5846,
      "Ġhes": 5847,
      "ĠSol": 5848,
      "ulgar": 5849,
      "acc": 5850,
      "Ġlect": 5851,
      "onel": 5852,
      "ĠPo": 5853,
      "Ġmyster": 5854,
      "uding": 5855,
      "Ġdesired": 5856,
      "Ġcommit": 5857,
      "Ġpreserve": 5858,
      "ubl": 5859,
      "Ġrose": 5860,
      "Ġ25": 5861,
      "onsc": 5862,
      "ĠChar": 5863,
      "standing": 5864,
      "Ġnaturalists": 5865,
      "ounce": 5866,
      "Ġrequires": 5867,
      "Ġdisposed": 5868,
      "Ġpunish": 5869,
      "Ġtreated": 5870,
      "Ġbelonging": 5871,
      "Ġmadness": 5872,
      "Ġsailor": 5873,
      "Ġprofession": 5874,
      "Ġdissol": 5875,
      "Ġreproach": 5876,
      "Ġmulti": 5877,
      "hold": 5878,
      "pri": 5879,
      "ples": 5880,
      "reen": 5881,
      "Ġom": 5882,
      "Ġbased": 5883,
      "Ġmess": 5884,
      "Ġmixed": 5885,
      "Ġlord": 5886,
      "Ġere": 5887,
      "ĠAde": 5888,
      "ĠPy": 5889,
      "Ġque": 5890,
      "ĠGal": 5891,
      "ival": 5892,
      "ĠKit": 5893,
      "Ġcarries": 5894,
      "Ġattach": 5895,
      "Ġconfidence": 5896,
      "Ġgrounds": 5897,
      "ounced": 5898,
      "Ġputting": 5899,
      "Ġencoura": 5900,
      "Ġagreeable": 5901,
      "Ġdefence": 5902,
      "Ġmischief": 5903,
      "Ġprevented": 5904,
      "Ġsuffered": 5905,
      "Ġdiver": 5906,
      "ĠPhaed": 5907,
      "Ġsuspect": 5908,
      "Ġconviction": 5909,
      "Ġdeceived": 5910,
      "Ġsolemn": 5911,
      "Ġascertain": 5912,
      "Ġgravitational": 5913,
      "Ġinstrument": 5914,
      "Ġinheritance": 5915,
      "Ġthorough": 5916,
      "gu": 5917,
      "jud": 5918,
      "nal": 5919,
      "reement": 5920,
      "Ġcounter": 5921,
      "Ġhate": 5922,
      "Ġbeasts": 5923,
      "Ġreser": 5924,
      "ĠSil": 5925,
      "acious": 5926,
      "ĠMen": 5927,
      "ĠON": 5928,
      "Ġsomehow": 5929,
      "Ġunited": 5930,
      "ĠPra": 5931,
      "Ġflatter": 5932,
      "Ġobserv": 5933,
      "Ġtells": 5934,
      "Ġinterval": 5935,
      "Ġholds": 5936,
      "Ġhoriz": 5937,
      "Ġmiracle": 5938,
      "Ġeffected": 5939,
      "rick": 5940,
      "Ġpenal": 5941,
      "Ġcoward": 5942,
      "ĠMoby": 5943,
      "Ġvague": 5944,
      "Ġwhilst": 5945,
      "ĠMarcus": 5946,
      "All": 5947,
      "ET": 5948,
      "ID": 5949,
      "ox": 5950,
      "Ġax": 5951,
      "Ġoars": 5952,
      "ister": 5953,
      "isite": 5954,
      "Ġcro": 5955,
      "anim": 5956,
      "lex": 5957,
      "Ġ----": 5958,
      "outher": 5959,
      "icious": 5960,
      "Ġdost": 5961,
      "ĠDem": 5962,
      "Ġimpul": 5963,
      "Ġdisord": 5964,
      "Ġsmaller": 5965,
      "Ġpreva": 5966,
      "Ġcontain": 5967,
      "Ġsurv": 5968,
      "Ġincapable": 5969,
      "araoh": 5970,
      "Ġwaves": 5971,
      "note": 5972,
      "ĠNorth": 5973,
      "Ġaddress": 5974,
      "Ġtransition": 5975,
      "Ġconceal": 5976,
      "Ġreading": 5977,
      "Ġsatisfact": 5978,
      "Ġbroke": 5979,
      "Ġdirected": 5980,
      "ĠPharaoh": 5981,
      "Ġidol": 5982,
      "Ġtemperance": 5983,
      "Ġjoin": 5984,
      "Ġframe": 5985,
      "rers": 5986,
      "Ġtears": 5987,
      "Ġbulk": 5988,
      "cks": 5989,
      "your": 5990,
      "itudes": 5991,
      "Ġdomin": 5992,
      "seen": 5993,
      "ether": 5994,
      "Ġsphere": 5995,
      "Ġnearest": 5996,
      "antus": 5997,
      "Ġnoise": 5998,
      "Ġnotions": 5999,
      "inking": 6000,
      "Ġdischar": 6001,
      "agger": 6002,
      "ildad": 6003,
      "ounty": 6004,
      "Ġindisp": 6005,
      "Ġcritic": 6006,
      "Ġhereafter": 6007,
      "Ġrespects": 6008,
      "Ġrespecting": 6009,
      "Ġadmire": 6010,
      "Ġmonst": 6011,
      "Ġsystems": 6012,
      "Ġguardian": 6013,
      "Ġtemperate": 6014,
      "Ġinterpret": 6015,
      ",âĢĻ": 6016,
      "EC": 6017,
      "Our": 6018,
      "place": 6019,
      "ratitude": 6020,
      "rete": 6021,
      "attered": 6022,
      "Ġbag": 6023,
      "Ġfond": 6024,
      "Ġpounds": 6025,
      "Ġdia": 6026,
      "leep": 6027,
      "Ġgar": 6028,
      "imantus": 6029,
      "rill": 6030,
      "eca": 6031,
      "ĠSund": 6032,
      "illed": 6033,
      "ilities": 6034,
      "Ġspare": 6035,
      "Ġenquiry": 6036,
      "ĠNatural": 6037,
      "Ġthereby": 6038,
      "Ġarch": 6039,
      "ips": 6040,
      "about": 6041,
      "Ġpolice": 6042,
      "ĠHeaven": 6043,
      "Ġcontempt": 6044,
      "Ġwherein": 6045,
      "Ġexposed": 6046,
      "Ġregion": 6047,
      "Ġawful": 6048,
      "Ġattained": 6049,
      "Ġtrad": 6050,
      "Ġswall": 6051,
      "Ġnorth": 6052,
      "Ġsteady": 6053,
      "Ġvictory": 6054,
      "Ġharpooneer": 6055,
      "Ġtroubles": 6056,
      "Ġaccomplished": 6057,
      "Ġintense": 6058,
      "Ġluxury": 6059,
      "Ġancestors": 6060,
      "ĠForgiving": 6061,
      "ĠAdeimantus": 6062,
      "14": 6063,
      "OM": 6064,
      "rant": 6065,
      "vous": 6066,
      "inte": 6067,
      "Ġsins": 6068,
      "ero": 6069,
      "athered": 6070,
      "Ġflight": 6071,
      "Ġcove": 6072,
      "Ġcapt": 6073,
      "ora": 6074,
      "Ġnarr": 6075,
      "Ġeating": 6076,
      "stery": 6077,
      "rict": 6078,
      "ĠWould": 6079,
      "Ġspeed": 6080,
      "Ġdey": 6081,
      "ĠBildad": 6082,
      "ĠNether": 6083,
      "Ġfavor": 6084,
      "Ġgranted": 6085,
      "Ġteacher": 6086,
      "Ġcrime": 6087,
      "Ġnights": 6088,
      "Ġinstit": 6089,
      "Ġinstantly": 6090,
      "Ġcorrel": 6091,
      "Ġtask": 6092,
      "Ġinteresting": 6093,
      "Ġfalling": 6094,
      "Ġimprovement": 6095,
      "Ġconceived": 6096,
      "Ġconclusions": 6097,
      "Ġprecious": 6098,
      "Ġruler": 6099,
      "Ġcomplain": 6100,
      "Ġcrowd": 6101,
      "Ġtongue": 6102,
      "ĠResurrection": 6103,
      "Ġmetaphys": 6104,
      "Ġcuriosity": 6105,
      "bling": 6106,
      "obe": 6107,
      "heres": 6108,
      "inations": 6109,
      "Ġtoss": 6110,
      "uting": 6111,
      "ĠWas": 6112,
      "ushing": 6113,
      "Ġspl": 6114,
      "ĠMc": 6115,
      "Ġcanoe": 6116,
      "Ġjaw": 6117,
      "raced": 6118,
      "Ġamid": 6119,
      "Ġrang": 6120,
      "Ġcompelled": 6121,
      "ĠRome": 6122,
      "Ġclub": 6123,
      "ordinates": 6124,
      "Ġoffices": 6125,
      "Ġexperienced": 6126,
      "thens": 6127,
      "Ġlargely": 6128,
      "Ġmotives": 6129,
      "ĠAthen": 6130,
      "Ġpresented": 6131,
      "Ġhumanity": 6132,
      "ĠPeleg": 6133,
      "Ġearlier": 6134,
      "Ġoccasions": 6135,
      "Ġcrossing": 6136,
      "Ġhurry": 6137,
      "Ġproceeds": 6138,
      "ĠSpitz": 6139,
      "ĠXXV": 6140,
      "Ġsupported": 6141,
      "Ġpermitted": 6142,
      "ĠParis": 6143,
      "Ġmorality": 6144,
      "Ġremarks": 6145,
      "Ġrudimentary": 6146,
      "Ġgeometry": 6147,
      "ĠColonel": 6148,
      "Ġduties": 6149,
      "Ġenormous": 6150,
      "ĠJupiter": 6151,
      "Ġcarpenter": 6152,
      "oubtedly": 6153,
      "ĠChapter": 6154,
      "ĠNetherfield": 6155,
      "ares": 6156,
      "gence": 6157,
      "lation": 6158,
      "oqu": 6159,
      "sy": 6160,
      "Ġtit": 6161,
      "Ġahead": 6162,
      "atus": 6163,
      "Ġbot": 6164,
      "Ġbond": 6165,
      "Ġpick": 6166,
      "Ġdrow": 6167,
      "any": 6168,
      "Ġnest": 6169,
      "Ġrej": 6170,
      "ĠAbrah": 6171,
      "ifying": 6172,
      "essor": 6173,
      "Ġabund": 6174,
      "Ġdelive": 6175,
      "ĠBecause": 6176,
      "Ġchoo": 6177,
      "ĠPol": 6178,
      "ĠPoe": 6179,
      "Ġrash": 6180,
      "Ġdism": 6181,
      "Ġskull": 6182,
      "Ġindign": 6183,
      "lessly": 6184,
      "Ġexamples": 6185,
      "Ġaffair": 6186,
      "ĠLucas": 6187,
      "Ġreceiver": 6188,
      "Ġcoast": 6189,
      "Ġdriven": 6190,
      "Ġdefend": 6191,
      "Ġconstantly": 6192,
      "ĠTruth": 6193,
      "Ġimmense": 6194,
      "Ġpursue": 6195,
      "Ġanalogy": 6196,
      "Ġreduced": 6197,
      "ientific": 6198,
      "Ġinnocent": 6199,
      "Ġmedicine": 6200,
      "ĠAbraham": 6201,
      "OW": 6202,
      "St": 6203,
      "good": 6204,
      "oked": 6205,
      "ray": 6206,
      "uble": 6207,
      "Ġborrow": 6208,
      "Ġfund": 6209,
      "tily": 6210,
      "illy": 6211,
      "Ġseat": 6212,
      "ĠHuck": 6213,
      "Ġvulgar": 6214,
      "Ġchurch": 6215,
      "Ġoutside": 6216,
      "Ġprem": 6217,
      "ĠJustice": 6218,
      "Ġrarely": 6219,
      "Ġreconc": 6220,
      "Ġprud": 6221,
      "Ġcatch": 6222,
      "Ġbenefact": 6223,
      "arsh": 6224,
      "Ġseries": 6225,
      "Ġaffirm": 6226,
      "Ġreturning": 6227,
      "Ġpersec": 6228,
      "Ġmarks": 6229,
      "upon": 6230,
      "Ġkeeps": 6231,
      "Ġdefined": 6232,
      "Ġspeaks": 6233,
      "Ġsymp": 6234,
      "Ġsecondary": 6235,
      "Ġprayers": 6236,
      "Ġreader": 6237,
      "Ġconcerns": 6238,
      "Ġdestr": 6239,
      "Ġfaces": 6240,
      "Ġvariability": 6241,
      "Ġcrosses": 6242,
      "Ġdisbelieved": 6243,
      "Ġsucceeded": 6244,
      "Ġinvolunt": 6245,
      "ĠMarie": 6246,
      "outhern": 6247,
      "xim": 6248,
      "yl": 6249,
      "Ġbore": 6250,
      "Ġbounty": 6251,
      "Ġmild": 6252,
      "inging": 6253,
      "Ġgall": 6254,
      "ĠSch": 6255,
      "ĠCaes": 6256,
      "ĠOther": 6257,
      "Ġacted": 6258,
      "Ġaltern": 6259,
      "elve": 6260,
      "arness": 6261,
      "ĠIts": 6262,
      "aph": 6263,
      "Ġprey": 6264,
      "Ġcattle": 6265,
      "Ġbelieves": 6266,
      "Ġregions": 6267,
      "Ġglance": 6268,
      "Ġtransform": 6269,
      "ointment": 6270,
      "Ġinformation": 6271,
      "who": 6272,
      "Ġsatisfy": 6273,
      "Ġproceeded": 6274,
      "ENT": 6275,
      "Ġsacred": 6276,
      "Ġrolled": 6277,
      "ootnote": 6278,
      "Ġunequ": 6279,
      "Ġambition": 6280,
      "Ġcouple": 6281,
      "Ġhypothesis": 6282,
      "ĠSeneca": 6283,
      "ĠKitty": 6284,
      "Amir": 6285,
      "Footnote": 6286,
      "Ġtro": 6287,
      "Ġtight": 6288,
      "Ġsled": 6289,
      "Ġwing": 6290,
      "Ġwretched": 6291,
      "Ġbas": 6292,
      "anny": 6293,
      "Ġinference": 6294,
      "Ġinev": 6295,
      "Ġnation": 6296,
      "Ġhain": 6297,
      "ribe": 6298,
      "uran": 6299,
      "Ġstairs": 6300,
      "ops": 6301,
      "ems": 6302,
      "emper": 6303,
      "Ġexter": 6304,
      "Ġchain": 6305,
      "ferences": 6306,
      "Ġimpat": 6307,
      "Ġarrog": 6308,
      "Ġfolly": 6309,
      "Ġmaybe": 6310,
      "Ġclosed": 6311,
      "Ġgrat": 6312,
      "Ġpresents": 6313,
      "ubber": 6314,
      "Ġscr": 6315,
      "ommon": 6316,
      "Ġmotions": 6317,
      "Ġhandsome": 6318,
      "Ġcoll": 6319,
      "Ġwhalemen": 6320,
      "Ġforming": 6321,
      "Ġburst": 6322,
      "Ġauthors": 6323,
      "Ġprobability": 6324,
      "Ġunjustly": 6325,
      "Ġaccepted": 6326,
      "Ġsoldier": 6327,
      "Ġfetch": 6328,
      "Ġaverage": 6329,
      "Ġdelivered": 6330,
      "aff": 6331,
      "Ġbid": 6332,
      "Ġbows": 6333,
      "org": 6334,
      "Ġpalm": 6335,
      "Ġthrew": 6336,
      "Ġthunder": 6337,
      "Ġnur": 6338,
      "Ġecon": 6339,
      "idents": 6340,
      "ĠEn": 6341,
      "Ġfeared": 6342,
      "Ġimitation": 6343,
      "Ġalarm": 6344,
      "ĠGarden": 6345,
      "Ġamuse": 6346,
      "eping": 6347,
      "Ġfeels": 6348,
      "ĠQuran": 6349,
      "Ġkindly": 6350,
      "ĠGods": 6351,
      "Ġtwelve": 6352,
      "ĠLeg": 6353,
      "ĠLeviathan": 6354,
      "Ġscale": 6355,
      "ĠAmong": 6356,
      "Ġ20": 6357,
      "Ġexamination": 6358,
      "Ġingratitude": 6359,
      "Ġdemocracy": 6360,
      "Ġinterrupt": 6361,
      "Ġasking": 6362,
      "Ġtransm": 6363,
      "Ġprophe": 6364,
      "Ġtouching": 6365,
      "Ġruns": 6366,
      "astery": 6367,
      "Ġelev": 6368,
      "Ġjoined": 6369,
      "Ġneglect": 6370,
      "ĠShall": 6371,
      "Ġbitter": 6372,
      "Ġanalogous": 6373,
      "Ġofficers": 6374,
      "Ġrapidly": 6375,
      "Ġintroduced": 6376,
      "ograph": 6377,
      "Ġunwilling": 6378,
      "Ġidentical": 6379,
      "Ġmultip": 6380,
      "En": 6381,
      "To": 6382,
      "five": 6383,
      "from": 6384,
      "gl": 6385,
      "rs": 6386,
      "Ġtale": 6387,
      "orge": 6388,
      "Ġdiam": 6389,
      "Ġgiver": 6390,
      "Ġgift": 6391,
      "Ġrelie": 6392,
      "ĠAcc": 6393,
      "ĠSurely": 6394,
      "Ġlips": 6395,
      "geons": 6396,
      "thics": 6397,
      "ĠBrit": 6398,
      "Ġchase": 6399,
      "umber": 6400,
      "ĠPip": 6401,
      "ĠThou": 6402,
      "ĠRos": 6403,
      "Ġshoulder": 6404,
      "Ġmates": 6405,
      "Ġincident": 6406,
      "Ġaffections": 6407,
      "Ġmilitary": 6408,
      "Ġsounds": 6409,
      "Ġsuperi": 6410,
      "Ġdrive": 6411,
      "Ġstandard": 6412,
      "Ġproduction": 6413,
      "Ġterror": 6414,
      "Ġmonster": 6415,
      "Ġoccasional": 6416,
      "Ġimmortal": 6417,
      "Ġsolution": 6418,
      "000": 6419,
      "Ġsailors": 6420,
      "Ġcraft": 6421,
      "Ġresolution": 6422,
      "Ġobjections": 6423,
      "ĠSatan": 6424,
      "Ġwrongdoers": 6425,
      "Ġrevenge": 6426,
      "Ch": 6427,
      "So": 6428,
      "iation": 6429,
      "morrow": 6430,
      "ina": 6431,
      "Ġbrow": 6432,
      "isms": 6433,
      "Ġhuge": 6434,
      "Ġpla": 6435,
      "Ġna": 6436,
      "Ġgang": 6437,
      "tering": 6438,
      "Ġstore": 6439,
      "Ġstuff": 6440,
      "Ġshook": 6441,
      "roc": 6442,
      "rose": 6443,
      "Ġven": 6444,
      "ading": 6445,
      "Ġextens": 6446,
      "Ġhist": 6447,
      "asting": 6448,
      "Ġmystery": 6449,
      "Ġdislike": 6450,
      "Ġgreatness": 6451,
      "Ġcontrib": 6452,
      "Ġ21": 6453,
      "Ġexcuse": 6454,
      "Ġtraining": 6455,
      "Ġcertainty": 6456,
      "Ġcontinent": 6457,
      "ĠPleasures": 6458,
      "Ġordered": 6459,
      "being": 6460,
      "Ġprior": 6461,
      "They": 6462,
      "atively": 6463,
      "Ġburden": 6464,
      "ĠFranc": 6465,
      "Ġburied": 6466,
      "Ġblessings": 6467,
      "Ġcitizen": 6468,
      "Ġdrunk": 6469,
      "Ġyesterday": 6470,
      "Ġastron": 6471,
      "Ġmanifest": 6472,
      "Ġcorruption": 6473,
      "Ġcousin": 6474,
      "An": 6475,
      "When": 6476,
      "].": 6477,
      "oard": 6478,
      "oft": 6479,
      "war": 6480,
      "xed": 6481,
      "Ġtraces": 6482,
      "Ġoath": 6483,
      "Ġcook": 6484,
      "Ġcost": 6485,
      "Ġhom": 6486,
      "Ġhole": 6487,
      "Ġtoler": 6488,
      "Ġgathered": 6489,
      "Ġyards": 6490,
      "stri": 6491,
      "ĠSoph": 6492,
      "ilful": 6493,
      "ĠLiber": 6494,
      "Ġthanks": 6495,
      "ildren": 6496,
      "Ġcontained": 6497,
      "Ġrights": 6498,
      "Ġpointed": 6499,
      "Ġinches": 6500,
      "Ġingen": 6501,
      "Ġextinction": 6502,
      "Ġarrive": 6503,
      "Ġclassification": 6504,
      "rical": 6505,
      "Ġtermed": 6506,
      "Ġescaped": 6507,
      "Ġquarrel": 6508,
      "Ġempty": 6509,
      "Ġsentiments": 6510,
      "Ġarrangement": 6511,
      "Ġvanity": 6512,
      "Ġvapour": 6513,
      "Ġpocket": 6514,
      "ĠImperfect": 6515,
      ";\"": 6516,
      "ee": 6517,
      "fl": 6518,
      "father": 6519,
      "Ġtied": 6520,
      "Ġband": 6521,
      "iture": 6522,
      "arly": 6523,
      "Ġbew": 6524,
      "Ġnaked": 6525,
      "Ġgh": 6526,
      "Ġasleep": 6527,
      "ĠBoth": 6528,
      "Ġwillingly": 6529,
      "ĠGerm": 6530,
      "ĠYor": 6531,
      "Ġartific": 6532,
      "Ġperformed": 6533,
      "Ġagreement": 6534,
      "Ġscra": 6535,
      "Ġenjoyment": 6536,
      "ensable": 6537,
      "Ġlesson": 6538,
      "Ġtraged": 6539,
      "inces": 6540,
      "Ġfruits": 6541,
      "Ġmarvel": 6542,
      "Ġfloating": 6543,
      "Ġinspired": 6544,
      "Ġproducing": 6545,
      "Ġdoubtful": 6546,
      "Ġaccordingly": 6547,
      "Ġbuy": 6548,
      "Ġlime": 6549,
      "ĠChrist": 6550,
      "Ġsickness": 6551,
      "ĠWorthing": 6552,
      "Ġfunction": 6553,
      "Ġcarbonic": 6554,
      "Ġillustration": 6555,
      "Ġbreast": 6556,
      "Ġpilot": 6557,
      "Who": 6558,
      "Ġtube": 6559,
      "Ġscheme": 6560,
      "Ġrigid": 6561,
      "Ġthroat": 6562,
      "OL": 6563,
      "UR": 6564,
      "gs": 6565,
      "Ġfur": 6566,
      "Ġfile": 6567,
      "Ġfright": 6568,
      "Ġhol": 6569,
      "Ġpubl": 6570,
      "Ġdull": 6571,
      "Ġthirst": 6572,
      "asuble": 6573,
      "Ġlit": 6574,
      "Ġwear": 6575,
      "ĠAthens": 6576,
      "eck": 6577,
      "Ġmeat": 6578,
      "usted": 6579,
      "Ġdiff": 6580,
      "Ġappar": 6581,
      "Ġapprehension": 6582,
      "Ġagent": 6583,
      "Ġconsent": 6584,
      "Ġ15": 6585,
      "Ġpresc": 6586,
      "Ġaccur": 6587,
      "ĠChasuble": 6588,
      "Ġconform": 6589,
      "Ġrespons": 6590,
      "Ġperfected": 6591,
      "reck": 6592,
      "Ġadmirable": 6593,
      "Ġadmiration": 6594,
      "ilosophy": 6595,
      "ĠDoes": 6596,
      "Ġprincipal": 6597,
      "ĠExcell": 6598,
      "Ġmovement": 6599,
      "Ġwalking": 6600,
      "heads": 6601,
      "Ġbrothers": 6602,
      "Ġavar": 6603,
      "ATION": 6604,
      "Ġsimplicity": 6605,
      "Ġrighteousness": 6606,
      "roduce": 6607,
      "Ġstreets": 6608,
      "lections": 6609,
      "Ġinfinitely": 6610,
      "ĠKnowledge": 6611,
      "Ġprecisely": 6612,
      "Ġpermanent": 6613,
      "ĠSunday": 6614,
      "Aye": 6615,
      "cont": 6616,
      "have": 6617,
      "iency": 6618,
      "uity": 6619,
      "vant": 6620,
      "vag": 6621,
      "Ġtrib": 6622,
      "Ġaye": 6623,
      "Ġwake": 6624,
      "ata": 6625,
      "atch": 6626,
      "Ġmort": 6627,
      "esc": 6628,
      "Ġisol": 6629,
      "Ġwhit": 6630,
      "ecies": 6631,
      "amental": 6632,
      "Ġsuit": 6633,
      "emp": 6634,
      "Ġdeliver": 6635,
      "Ġleap": 6636,
      "thern": 6637,
      "ĠBra": 6638,
      "Ġsand": 6639,
      "Ġkiss": 6640,
      "Ġtheirs": 6641,
      "Ġjaws": 6642,
      "Ġanywhere": 6643,
      "Ġoutward": 6644,
      "ĠSoc": 6645,
      "fices": 6646,
      "Ġroy": 6647,
      "anches": 6648,
      "Ġglorious": 6649,
      "Ġrefused": 6650,
      "Ġattack": 6651,
      "ĠVI": 6652,
      "Ġphr": 6653,
      "Ġprovide": 6654,
      "Ġsetting": 6655,
      "Ġpropose": 6656,
      "Ġdiscussed": 6657,
      "Ġsafety": 6658,
      "Ġperceived": 6659,
      "work": 6660,
      "Ġfertile": 6661,
      "Ġexcessive": 6662,
      "Ġcontemp": 6663,
      "Ġcalam": 6664,
      "Ġassumed": 6665,
      "uzz": 6666,
      "Ġcondemned": 6667,
      "ecessary": 6668,
      "ĠMadame": 6669,
      "Ġunhapp": 6670,
      "Ġunusual": 6671,
      "Ġdestruction": 6672,
      ",)": 6673,
      "US": 6674,
      "bor": 6675,
      "cast": 6676,
      "eared": 6677,
      "och": 6678,
      "ws": 6679,
      "Ġtone": 6680,
      "Ġaud": 6681,
      "Ġbull": 6682,
      "Ġmales": 6683,
      "Ġpipe": 6684,
      "Ġinquir": 6685,
      "ĠIV": 6686,
      "idity": 6687,
      "ird": 6688,
      "Ġweap": 6689,
      "ules": 6690,
      "Ġstret": 6691,
      "Ġatten": 6692,
      "ĠWHA": 6693,
      "Ġfeat": 6694,
      "ĠPa": 6695,
      "ĠDeli": 6696,
      "Ġrot": 6697,
      "Ġnative": 6698,
      "elling": 6699,
      "Ġovert": 6700,
      "Ġobst": 6701,
      "Ġpoison": 6702,
      "Ġbranches": 6703,
      "spect": 6704,
      "Ġfailed": 6705,
      "Ġfails": 6706,
      "Ġyounger": 6707,
      "Ġaccus": 6708,
      "Ġdecision": 6709,
      "Ġinsens": 6710,
      "Ġconcrete": 6711,
      "ĠIsland": 6712,
      "Ġcompleted": 6713,
      "Ġputs": 6714,
      "Ġremaining": 6715,
      "Ġproposition": 6716,
      "Ġvolume": 6717,
      "Ġfearful": 6718,
      "Ġdetail": 6719,
      "Ġlands": 6720,
      "Ġunconsc": 6721,
      "Ġtrial": 6722,
      "Ġknees": 6723,
      "Ġprivile": 6724,
      "Ġdrinking": 6725,
      "Ġtyranny": 6726,
      "Ġattributes": 6727,
      "Ġpictures": 6728,
      "hetor": 6729,
      "Ġdescribe": 6730,
      "Ġslip": 6731,
      "Ġmoderate": 6732,
      "Ġexclus": 6733,
      "Ġastray": 6734,
      "Ġbrief": 6735,
      "che": 6736,
      "looking": 6737,
      "mates": 6738,
      "mighty": 6739,
      "pass": 6740,
      "zing": 6741,
      "Ġwound": 6742,
      "Ġwings": 6743,
      "erity": 6744,
      "atory": 6745,
      "Ġpad": 6746,
      "Ġetern": 6747,
      "Ġgracious": 6748,
      "ĠAust": 6749,
      "ulating": 6750,
      "Ġstro": 6751,
      "oop": 6752,
      "Ġsplend": 6753,
      "Ġconject": 6754,
      "arded": 6755,
      "ĠBun": 6756,
      "Ġmanag": 6757,
      "Ġimages": 6758,
      "Ġuses": 6759,
      "umm": 6760,
      "Ġjeal": 6761,
      "ĠGo": 6762,
      "Ġcomposed": 6763,
      "uced": 6764,
      "Ġoutra": 6765,
      "Ġsmallest": 6766,
      "irect": 6767,
      "Ġcontents": 6768,
      "Ġgrass": 6769,
      "Ġundert": 6770,
      "Ġmatch": 6771,
      "Ġevidently": 6772,
      "Ġ30": 6773,
      "Ġreasonings": 6774,
      "Ġretain": 6775,
      "Ġopposition": 6776,
      "Ġheavenly": 6777,
      "ĠProf": 6778,
      "Ġequival": 6779,
      "Ġthousands": 6780,
      "Ġextravag": 6781,
      "Ġlabor": 6782,
      "joined": 6783,
      "Ġsexes": 6784,
      "ixture": 6785,
      "Ġvarying": 6786,
      "Ġfinger": 6787,
      "ĠPhaedrus": 6788,
      "ĠFrancois": 6789,
      "CE": 6790,
      "IX": 6791,
      "gers": 6792,
      "hibit": 6793,
      "mar": 6794,
      "pi": 6795,
      "Ġvers": 6796,
      "Ġtorn": 6797,
      "inities": 6798,
      "Ġwand": 6799,
      "att": 6800,
      "Ġpan": 6801,
      "Ġela": 6802,
      "ĠTash": 6803,
      "ĠIS": 6804,
      "rial": 6805,
      "Ġwithdra": 6806,
      "ache": 6807,
      "Ġconj": 6808,
      "Ġexchange": 6809,
      "Ġdoors": 6810,
      "Ġenvy": 6811,
      "racts": 6812,
      "Ġimplies": 6813,
      "andon": 6814,
      "ĠOnly": 6815,
      "ficial": 6816,
      "Ġaccustom": 6817,
      "Ġworldly": 6818,
      "Ġ28": 6819,
      "Ġinsol": 6820,
      "Ġinsult": 6821,
      "Ġtrem": 6822,
      "inners": 6823,
      "rested": 6824,
      "Ġregarding": 6825,
      "Ġeloqu": 6826,
      "Ġsincere": 6827,
      "Ġtransgress": 6828,
      "Ġpropag": 6829,
      "Ġequality": 6830,
      "Ġbeloved": 6831,
      "Ġburns": 6832,
      "keness": 6833,
      "Ġedge": 6834,
      "Ġpreviously": 6835,
      "Ġlimited": 6836,
      "Ġgoverned": 6837,
      "Ġstrain": 6838,
      "Ġconnect": 6839,
      "Ġsolely": 6840,
      "Ġexhibit": 6841,
      "Ġthrust": 6842,
      "Ġpolitics": 6843,
      "Ġfingers": 6844,
      "Ġcells": 6845,
      "lexander": 6846,
      "Ġindispensable": 6847,
      "Ġdialec": 6848,
      "Ġsympath": 6849,
      "Ġexterm": 6850,
      "IG": 6851,
      "Now": 6852,
      "OT": 6853,
      "bury": 6854,
      "equ": 6855,
      "gent": 6856,
      "ii": 6857,
      "iance": 6858,
      "sing": 6859,
      "Ġraces": 6860,
      "Ġfare": 6861,
      "Ġcau": 6862,
      "Ġcure": 6863,
      "Ġpour": 6864,
      "Ġpale": 6865,
      "Ġlod": 6866,
      "Ġweary": 6867,
      "Ġlic": 6868,
      "Ġsust": 6869,
      "Ġvict": 6870,
      "acial": 6871,
      "Ġmelt": 6872,
      "unning": 6873,
      "Ġaloft": 6874,
      "ĠGener": 6875,
      "Ġreproduc": 6876,
      "Ġrail": 6877,
      "Ġ39": 6878,
      "Ġsupposition": 6879,
      "Ġassure": 6880,
      "Ġhorror": 6881,
      "Ġmodifications": 6882,
      "Ġanxiety": 6883,
      "Ġlof": 6884,
      "Ġsuperst": 6885,
      "Ġsets": 6886,
      "Ġorganisation": 6887,
      "Ġlively": 6888,
      "Ġdiag": 6889,
      "Ġranked": 6890,
      "Ġavo": 6891,
      "Ġwritings": 6892,
      "Ġuniversally": 6893,
      "Ġmaintained": 6894,
      "Ġpragmatism": 6895,
      "Ġashore": 6896,
      "Ġoccupied": 6897,
      "Ġodd": 6898,
      "ceptic": 6899,
      "Ġultimate": 6900,
      "Ġphenomena": 6901,
      "Ġsatisfactory": 6902,
      "ĠYork": 6903,
      "Ġroyal": 6904,
      "Ġequivalent": 6905,
      "Did": 6906,
      "because": 6907,
      "look": 6908,
      "off": 6909,
      "rid": 6910,
      "vest": 6911,
      "Ġ+": 6912,
      "Ġble": 6913,
      "estion": 6914,
      "Ġlat": 6915,
      "othe": 6916,
      "ĠSA": 6917,
      "ula": 6918,
      "Ġstages": 6919,
      "Ġwaste": 6920,
      "iles": 6921,
      "Ġventure": 6922,
      "ĠLast": 6923,
      "Ġdeed": 6924,
      "ĠMery": 6925,
      "fulness": 6926,
      "Ġmel": 6927,
      "ĠCont": 6928,
      "isting": 6929,
      "Ġprohibit": 6930,
      "ucl": 6931,
      "Ġouter": 6932,
      "Ġperil": 6933,
      "Ġreport": 6934,
      "Ġcommence": 6935,
      "Ġclos": 6936,
      "Ġclock": 6937,
      "Ġscientific": 6938,
      "ialog": 6939,
      "Ġaccidents": 6940,
      "Ġpartners": 6941,
      "Ġretreat": 6942,
      "Ġkeen": 6943,
      "Ġseriously": 6944,
      "Ġactivity": 6945,
      "Ġcolours": 6946,
      "Ġincluded": 6947,
      "Ġpunished": 6948,
      "ĠArch": 6949,
      "Ġconcluded": 6950,
      "Ġhurried": 6951,
      "Ġproceeding": 6952,
      "Ġbeds": 6953,
      "Ġincreasing": 6954,
      "Ġexpectation": 6955,
      "Ġarmy": 6956,
      "Ġcraw": 6957,
      "Ġattributed": 6958,
      "Ġcivili": 6959,
      "Ġpenet": 6960,
      "Ġfighting": 6961,
      "regular": 6962,
      "Ġurged": 6963,
      "Ġelder": 6964,
      "ĠPyth": 6965,
      "Ġjealous": 6966,
      "Ġdiagram": 6967,
      "ĠMeryton": 6968,
      "IR": 6969,
      "bin": 6970,
      "bted": 6971,
      "uine": 6972,
      "wers": 6973,
      "itate": 6974,
      "Ġpity": 6975,
      "Ġdance": 6976,
      "ashing": 6977,
      "Ġlinks": 6978,
      "Ġeast": 6979,
      "chie": 6980,
      "ĠBE": 6981,
      "ĠCom": 6982,
      "ĠCape": 6983,
      "Ġunw": 6984,
      "Ġdisag": 6985,
      "iece": 6986,
      "Ġprevail": 6987,
      "Ġprejud": 6988,
      "Ġchem": 6989,
      "Ġ36": 6990,
      "Ġolder": 6991,
      "lessness": 6992,
      "Ġoppon": 6993,
      "tively": 6994,
      "Ġpropos": 6995,
      "Ġgrows": 6996,
      "Ġabsor": 6997,
      "Ġpossesses": 6998,
      "Ġaccounts": 6999,
      "Ġfinished": 7000,
      "Ġlaying": 7001,
      "Ġcombined": 7002,
      "Ġcentury": 7003,
      "Ġblessing": 7004,
      "Ġrepeat": 7005,
      "Ġintelligible": 7006,
      "Ġsoldiers": 7007,
      "Ġfatal": 7008,
      "Ġrepayment": 7009,
      "Ġwidow": 7010,
      "Ġdeserved": 7011,
      "Ġmajority": 7012,
      "Ġadopted": 7013,
      "Ġdescribing": 7014,
      "Ġpublished": 7015,
      "Sh": 7016,
      "flu": 7017,
      "gest": 7018,
      "mas": 7019,
      "rational": 7020,
      "held": 7021,
      "Ġbone": 7022,
      "Ġcens": 7023,
      "Ġdur": 7024,
      "Ġtoil": 7025,
      "Ġthreat": 7026,
      "asc": 7027,
      "Ġbeast": 7028,
      "Ġnour": 7029,
      "Ġweigh": 7030,
      "lius": 7031,
      "amber": 7032,
      "iff": 7033,
      "Ġabandon": 7034,
      "Ġsolic": 7035,
      "Ġunp": 7036,
      "Ġunt": 7037,
      "Ġunfortun": 7038,
      "Ġquit": 7039,
      "ĠGree": 7040,
      "ĠGreen": 7041,
      "Ġamb": 7042,
      "Ġcontented": 7043,
      "Ġspecim": 7044,
      "Ġindust": 7045,
      "Ġ27": 7046,
      "Ġrests": 7047,
      "Ġinfall": 7048,
      "Ġtrade": 7049,
      "Ġaffinity": 7050,
      "Ġrequest": 7051,
      "fortune": 7052,
      "Ġprophet": 7053,
      "Ġswear": 7054,
      "Ġborne": 7055,
      "Ġdragged": 7056,
      "Ġburnt": 7057,
      "Ġsecondly": 7058,
      "Ġtreatment": 7059,
      "Ġinfluences": 7060,
      "Ġpursued": 7061,
      "Ġempir": 7062,
      "Ġfurnished": 7063,
      "ipela": 7064,
      "Ġpulled": 7065,
      "Ġfemales": 7066,
      "Ġconsciousness": 7067,
      "Ġsubmit": 7068,
      "Ġconstruction": 7069,
      "Ġastonishment": 7070,
      "Ġesteemed": 7071,
      "Ġfossil": 7072,
      "Ġprogenitor": 7073,
      "Ġtrifling": 7074,
      "ĠAccord": 7075,
      "Be": 7076,
      "gment": 7077,
      "Ġarose": 7078,
      "Ġske": 7079,
      "Ġsouth": 7080,
      "itious": 7081,
      "Ġmach": 7082,
      "Ġhit": 7083,
      "Ġpause": 7084,
      "Ġrear": 7085,
      "Ġrevers": 7086,
      "Ġresemble": 7087,
      "Ġhall": 7088,
      "rig": 7089,
      "ĠAbs": 7090,
      "Ġselect": 7091,
      "Ġconverse": 7092,
      "tego": 7093,
      "ĠFort": 7094,
      "vention": 7095,
      "uns": 7096,
      "Ġenlar": 7097,
      "idean": 7098,
      "ĠYOU": 7099,
      "Ġimpr": 7100,
      "Ġmys": 7101,
      "Ġcontact": 7102,
      "Ġfaire": 7103,
      "ĠBeing": 7104,
      "Ġtext": 7105,
      "Ġscattered": 7106,
      "Ġincred": 7107,
      "Ġ23": 7108,
      "Ġdecide": 7109,
      "ĠChildren": 7110,
      "Ġglim": 7111,
      "Ġtrained": 7112,
      "Ġtruthful": 7113,
      "ĠVII": 7114,
      "Ġadmin": 7115,
      "ĠAlthough": 7116,
      "sequent": 7117,
      "Ġreaching": 7118,
      "Ġproblem": 7119,
      "Ġdepri": 7120,
      "Ġsuccessful": 7121,
      "Ġhonours": 7122,
      "headed": 7123,
      "blest": 7124,
      "Ġerr": 7125,
      "Ġslightest": 7126,
      "ITY": 7127,
      "Ġdeliberate": 7128,
      "Ġpersuade": 7129,
      "Ġdreadful": 7130,
      "Ġharpooneers": 7131,
      "Ġcompetition": 7132,
      "Ġdeclare": 7133,
      "Ġmathematical": 7134,
      "asmuch": 7135,
      "Ġindebted": 7136,
      "Ġinterpretation": 7137,
      "Ġfundamental": 7138,
      "Ġsuperiority": 7139,
      "Ġhistor": 7140,
      "ĠAustral": 7141,
      "ĠTashtego": 7142,
      "ipelago": 7143,
      "Mr": 7144,
      "bing": 7145,
      "bout": 7146,
      "een": 7147,
      "point": 7148,
      "uv": 7149,
      "Ġtin": 7150,
      "Ġsouthern": 7151,
      "Ġbasis": 7152,
      "Ġbacks": 7153,
      "itated": 7154,
      "Ġcreate": 7155,
      "Ġmixture": 7156,
      "Ġpup": 7157,
      "Ġinward": 7158,
      "aming": 7159,
      "Ġabide": 7160,
      "Ġwheel": 7161,
      "Ġdeemed": 7162,
      "Ġdeeper": 7163,
      "Ġleis": 7164,
      "Ġdozen": 7165,
      "ĠCat": 7166,
      "ĠOld": 7167,
      "Ġunb": 7168,
      "Ġunite": 7169,
      "Ġusing": 7170,
      "umes": 7171,
      "umerable": 7172,
      "ĠPember": 7173,
      "law": 7174,
      "Ġnovel": 7175,
      "Ġqual": 7176,
      "ractions": 7177,
      "ivable": 7178,
      "Ġdiscre": 7179,
      "ficiency": 7180,
      "ificent": 7181,
      "Ġgardens": 7182,
      "Ġreform": 7183,
      "Ġwinds": 7184,
      "Ġnorthern": 7185,
      "Ġinvari": 7186,
      "entially": 7187,
      "Ġcoffin": 7188,
      "ĠXL": 7189,
      "Ġintroduce": 7190,
      "Ġmurde": 7191,
      "ĠTHAT": 7192,
      "Ġwronged": 7193,
      "Ġdestitute": 7194,
      "Ġopening": 7195,
      "Ġlimbs": 7196,
      "Ġirre": 7197,
      "Ġtyrann": 7198,
      "Ġfifteen": 7199,
      "Ġforbear": 7200,
      "Ġindependently": 7201,
      "Ġholy": 7202,
      "Ġsterile": 7203,
      "Ġhanging": 7204,
      "Ġesteem": 7205,
      "Ġaccompanied": 7206,
      "Ġarticles": 7207,
      "Ġmammals": 7208,
      "Ġhelm": 7209,
      "Ġsimultaneously": 7210,
      "Ġeggs": 7211,
      "ĠGalile": 7212,
      "ĠPemberley": 7213,
      ".),": 7214,
      "Tis": 7215,
      "Then": 7216,
      "Ġaut": 7217,
      "Ġwed": 7218,
      "itors": 7219,
      "Ġfoul": 7220,
      "Ġcord": 7221,
      "Ġdart": 7222,
      "Ġdying": 7223,
      "aning": 7224,
      "aration": 7225,
      "Ġintimate": 7226,
      "Ġinquiry": 7227,
      "omed": 7228,
      "Ġlos": 7229,
      "Ġlung": 7230,
      "---": 7231,
      "till": 7232,
      "aying": 7233,
      "Ġrele": 7234,
      "ĠAf": 7235,
      "Ġassem": 7236,
      "Ġlikeness": 7237,
      "ĠWest": 7238,
      "Ġabroad": 7239,
      "Ġdealing": 7240,
      "igns": 7241,
      "ĠWhich": 7242,
      "Ġarbit": 7243,
      "uctions": 7244,
      "Ġperch": 7245,
      "Ġplural": 7246,
      "Ġhero": 7247,
      "Ġblows": 7248,
      "Ġcontest": 7249,
      "Ġ(*": 7250,
      "Ġwriter": 7251,
      "Ġrocks": 7252,
      "Ġscream": 7253,
      "Ġboast": 7254,
      "ankment": 7255,
      "Ġentit": 7256,
      "ĠAnother": 7257,
      "Ġanswers": 7258,
      "Ġbrain": 7259,
      "Ġadmits": 7260,
      "Ġmidst": 7261,
      "Ġdivide": 7262,
      "ĠAlmighty": 7263,
      "Ġsettle": 7264,
      "Ġbreaking": 7265,
      "Ġproposed": 7266,
      "Ġintol": 7267,
      "Ġpraised": 7268,
      "Ġopenly": 7269,
      "ernal": 7270,
      "Ġspiritual": 7271,
      "ĠPrincip": 7272,
      "Ġattempts": 7273,
      "Ġdoctor": 7274,
      "Ġneglected": 7275,
      "Ġinvolved": 7276,
      "Ġdeliberation": 7277,
      "Ġinstruments": 7278,
      "Ġintercourse": 7279,
      "ĠAbout": 7280,
      "Ġobservations": 7281,
      "Ġrejoice": 7282,
      "Ġtransformation": 7283,
      "ĠProfessor": 7284,
      "Ġaccustomed": 7285,
      "Ġinvariably": 7286,
      "',": 7287,
      "CK": 7288,
      "ef": 7289,
      "uated": 7290,
      "wing": 7291,
      "wood": 7292,
      "zz": 7293,
      "Ġtheories": 7294,
      "Ġsong": 7295,
      "Ġbind": 7296,
      "Ġbrill": 7297,
      "Ġfain": 7298,
      "Ġhunt": 7299,
      "Ġpiety": 7300,
      "Ġlately": 7301,
      "Ġner": 7302,
      "ĠTell": 7303,
      "stone": 7304,
      "etus": 7305,
      "ĠAlexander": 7306,
      "ĠSP": 7307,
      "amb": 7308,
      "Ġseated": 7309,
      "ĠHar": 7310,
      "ĠMag": 7311,
      "aud": 7312,
      "aust": 7313,
      "Ġunm": 7314,
      "ĠPl": 7315,
      "Ġjack": 7316,
      "Ġriches": 7317,
      "ĠWhatever": 7318,
      "Ġrans": 7319,
      "Ġanyway": 7320,
      "Ġcompuls": 7321,
      "Ġours": 7322,
      "Ġpreference": 7323,
      "Ġdesper": 7324,
      "herent": 7325,
      "fected": 7326,
      "Ġexpense": 7327,
      "Ġ26": 7328,
      "Ġwondrous": 7329,
      "Ġmember": 7330,
      "ĠVer": 7331,
      "Ġassurance": 7332,
      "Ġrequisite": 7333,
      "Ġcoinc": 7334,
      "Ġimagined": 7335,
      "Ġmarble": 7336,
      "Ġsentence": 7337,
      "Ġabsent": 7338,
      "Ġembankment": 7339,
      "Ġtreatise": 7340,
      "ĠUnjust": 7341,
      "Ġcentral": 7342,
      "Ġimpressions": 7343,
      "Ġbeliefs": 7344,
      "ĠWorlds": 7345,
      "Ġassociate": 7346,
      "Ġmoderation": 7347,
      "Ġimitate": 7348,
      "Ġthankful": 7349,
      "Ġtotal": 7350,
      "Ġmigration": 7351,
      "Ġexpedient": 7352,
      "Ġappetites": 7353,
      "Ġthoroughly": 7354,
      "Ġeconomy": 7355,
      "Ġoutrage": 7356,
      "ĠPythag": 7357,
      "!'": 7358,
      "12": 7359,
      "CH": 7360,
      "ault": 7361,
      "ivers": 7362,
      "mith": 7363,
      "phe": 7364,
      "inous": 7365,
      "erry": 7366,
      "ouds": 7367,
      "Ġfi": 7368,
      "Ġmould": 7369,
      "orary": 7370,
      "Ġnigh": 7371,
      "alted": 7372,
      "chang": 7373,
      "Ġsho": 7374,
      "Ġsupre": 7375,
      "Ġability": 7376,
      "ĠHouse": 7377,
      "Ġorn": 7378,
      "ĠEd": 7379,
      "ode": 7380,
      "umer": 7381,
      "unction": 7382,
      "Ġprospect": 7383,
      "Ġrisk": 7384,
      "Ġplane": 7385,
      "Ġrage": 7386,
      "Ġbrass": 7387,
      "Ġcommend": 7388,
      "Ġadvanced": 7389,
      "Ġdistress": 7390,
      "Ġdistinc": 7391,
      "Ġcheer": 7392,
      "Ġ37": 7393,
      "Ġgrey": 7394,
      "Ġhealthy": 7395,
      "brance": 7396,
      "Ġsubsequent": 7397,
      "Ġretained": 7398,
      "away": 7399,
      "ĠTobin": 7400,
      "Ġaffinities": 7401,
      "Ġresent": 7402,
      "Ġhunger": 7403,
      "Ġextend": 7404,
      "Ġwishing": 7405,
      "Ġpropri": 7406,
      "Ġdistinctly": 7407,
      "Ġcollected": 7408,
      "Ġinnumerable": 7409,
      "Ġessence": 7410,
      "Ġconceit": 7411,
      "ocking": 7412,
      "ĠArt": 7413,
      "Ġinjurious": 7414,
      "Ġsuffice": 7415,
      "Ġidle": 7416,
      "Ġvicinity": 7417,
      "Ġbelonged": 7418,
      "Ġattempted": 7419,
      "Ġnegro": 7420,
      "ĠWorking": 7421,
      "Ġdespair": 7422,
      "Ġfields": 7423,
      "Ġhypocr": 7424,
      "Ġfurnish": 7425,
      "Ġvessels": 7426,
      "Ġdisgraceful": 7427,
      "Ġambitious": 7428,
      "Ġliterature": 7429,
      "ensional": 7430,
      "Ġassigned": 7431,
      "Ġfishery": 7432,
      "Ġobedience": 7433,
      "Ġfierce": 7434,
      "ĠBunbury": 7435,
      "Ġleisure": 7436,
      "Ġsupreme": 7437,
      ".âĢĻ": 7438,
      "ECT": 7439,
      "bra": 7440,
      "ctic": 7441,
      "mast": 7442,
      "wy": 7443,
      "why": 7444,
      "Ġbought": 7445,
      "itably": 7446,
      "Ġfab": 7447,
      "isen": 7448,
      "orus": 7449,
      "aste": 7450,
      "Ġlur": 7451,
      "Ġlance": 7452,
      "ĠInt": 7453,
      "Ġreverse": 7454,
      "Ġrejo": 7455,
      "Ġwhir": 7456,
      "rael": 7457,
      "ĠSally": 7458,
      "ĠSince": 7459,
      "Ġsem": 7460,
      "Ġsprang": 7461,
      "actions": 7462,
      "acific": 7463,
      "ĠLaws": 7464,
      "ĠBar": 7465,
      "ĠEast": 7466,
      "Ġfee": 7467,
      "ĠOR": 7468,
      "ĠPole": 7469,
      "Ġadul": 7470,
      "tically": 7471,
      "Ġdiffers": 7472,
      "apy": 7473,
      "ĠJoe": 7474,
      "erted": 7475,
      "Ġ38": 7476,
      "Ġmoments": 7477,
      "Ġsteel": 7478,
      "Ġlament": 7479,
      "Ġsurprising": 7480,
      "ĠExcept": 7481,
      "Ġparticles": 7482,
      "Ġinformed": 7483,
      "Ġpleasing": 7484,
      "Ġimaginary": 7485,
      "Ġeleph": 7486,
      "Ġprompt": 7487,
      "Ġuncommon": 7488,
      "Ġsimilarly": 7489,
      "Ġruling": 7490,
      "ĠProt": 7491,
      "Ġdelighted": 7492,
      "Ġirregular": 7493,
      "Ġfellows": 7494,
      "Ġgrieve": 7495,
      "Ġcivility": 7496,
      "Ġrelatives": 7497,
      "Ġpragmatic": 7498,
      "Ġdiseases": 7499,
      "Ġsexual": 7500,
      "Ġpersuaded": 7501,
      "ĠXXXV": 7502,
      "ĠGeorge": 7503,
      "Ġcontradiction": 7504,
      "Ġsprings": 7505,
      "Ġobscure": 7506,
      "Ġmaxim": 7507,
      "Ġlegislat": 7508,
      "Ġseamen": 7509,
      "Ġlecture": 7510,
      "Ġcovet": 7511,
      "Ġbenefactor": 7512,
      "ĠCaesar": 7513,
      "Ġunequal": 7514,
      "ĠRosings": 7515,
      "Ġavarice": 7516,
      ";'": 7517,
      "UM": 7518,
      "Your": 7519,
      "bles": 7520,
      "born": 7521,
      "dim": 7522,
      "fish": 7523,
      "fts": 7524,
      "has": 7525,
      "leness": 7526,
      "sed": 7527,
      "such": 7528,
      "Ġ$": 7529,
      "Ġwoe": 7530,
      "Ġbent": 7531,
      "Ġcher": 7532,
      "Ġcents": 7533,
      "Ġhost": 7534,
      "Ġhollow": 7535,
      "Ġbeet": 7536,
      "Ġbeget": 7537,
      "Ġgit": 7538,
      "ĠSaw": 7539,
      "Ġlikes": 7540,
      "Ġnotes": 7541,
      "Ġvo": 7542,
      "ĠLane": 7543,
      "Ġlee": 7544,
      "ĠMed": 7545,
      "ĠFig": 7546,
      "ĠEucl": 7547,
      "Ġrhy": 7548,
      "Ġremove": 7549,
      "ĠRog": 7550,
      "eps": 7551,
      "ishop": 7552,
      "Ġskilful": 7553,
      "Ġcontaining": 7554,
      "Ġadvent": 7555,
      "Ġindirect": 7556,
      "Ġlights": 7557,
      "Ġseeming": 7558,
      "ĠSoapy": 7559,
      "Ġcru": 7560,
      "Ġpresume": 7561,
      "Ġrod": 7562,
      "Ġincur": 7563,
      "onsist": 7564,
      "Ġforehead": 7565,
      "Ġpractically": 7566,
      "ensation": 7567,
      "Ġtrail": 7568,
      "Ġsubordinate": 7569,
      "Ġstarting": 7570,
      "Ġexamined": 7571,
      "Ġsteal": 7572,
      "Ġendless": 7573,
      "Ġheav": 7574,
      "Ġsends": 7575,
      "Ġsharks": 7576,
      "Ġinternal": 7577,
      "belie": 7578,
      "Ġcob": 7579,
      "ĠIsrael": 7580,
      "Ġload": 7581,
      "Ġmarvell": 7582,
      "Ġeminent": 7583,
      "Ġmisfortune": 7584,
      "Ġstrengthen": 7585,
      "Ġconvenient": 7586,
      "Ġremembrance": 7587,
      "Ġhatred": 7588,
      "Ġdangers": 7589,
      "Ġreveal": 7590,
      "Ġfools": 7591,
      "Ġdelightful": 7592,
      "Ġundoubtedly": 7593,
      "Ġpayment": 7594,
      "tify": 7595,
      "umbling": 7596,
      "Ġcustomary": 7597,
      "Ġproofs": 7598,
      "Ġhurtful": 7599,
      "Ġdoctrines": 7600,
      "ĠChristians": 7601,
      "Ġpermission": 7602,
      "Ġhybrid": 7603,
      "Ġphilosophic": 7604,
      "Ġvoluntarily": 7605,
      "Ã¦s": 7606,
      "Ġhinder": 7607,
      "Ġbriefly": 7608,
      "Ġunnecessary": 7609,
      "Ġjustified": 7610,
      "Ġprodigious": 7611,
      "Ġprosperity": 7612,
      "Ġmysterious": 7613,
      "Ġmessage": 7614,
      "Ġimpulse": 7615,
      "Ġtitle": 7616,
      "ographical": 7617,
      "Ġapparatus": 7618,
      "Ġdialectic": 7619,
      "Ġcaution": 7620,
      "wyne": 7621,
      "50": 7622,
      "RA": 7623,
      "_]": 7624,
      "bled": 7625,
      "control": 7626,
      "fting": 7627,
      "human": 7628,
      "ih": 7629,
      "lerable": 7630,
      "tis": 7631,
      "Ġtie": 7632,
      "Ġsink": 7633,
      "Ġsoph": 7634,
      "Ġwra": 7635,
      "Ġfuel": 7636,
      "Ġtopic": 7637,
      "Ġtolerable": 7638,
      "Ġinexp": 7639,
      "othed": 7640,
      "chant": 7641,
      "Ġhem": 7642,
      "ĠSar": 7643,
      "Ġstom": 7644,
      "Ġstones": 7645,
      "Ġshoot": 7646,
      "Ġabor": 7647,
      "ĠHy": 7648,
      "Ġfrank": 7649,
      "quity": 7650,
      "those": 7651,
      "Ġsailing": 7652,
      "Ġwilled": 7653,
      "Ġfelicity": 7654,
      "Ġchose": 7655,
      "Ġchair": 7656,
      "ecture": 7657,
      "Ġunin": 7658,
      "Ġenable": 7659,
      "ĠPacific": 7660,
      "Ġdisple": 7661,
      "Ġperple": 7662,
      "Ġcontro": 7663,
      "Ġcontains": 7664,
      "Ġrecall": 7665,
      "Ġgrasp": 7666,
      "Ġsupplied": 7667,
      "ensive": 7668,
      "Ġguides": 7669,
      "Ġmodes": 7670,
      "Ġmodesty": 7671,
      "Ġmiracles": 7672,
      "Ġfloated": 7673,
      "Ġchoiceworthy": 7674,
      "Ġantagon": 7675,
      "Ġcopy": 7676,
      "appear": 7677,
      "Ġaccounted": 7678,
      "Ġlegal": 7679,
      "Ġacquire": 7680,
      "Ġerrors": 7681,
      "Ġliberal": 7682,
      "Ġstrangely": 7683,
      "ĠUncle": 7684,
      "Ġsixty": 7685,
      "Ġwriters": 7686,
      "Ġanalys": 7687,
      "ĠAristoph": 7688,
      "Ġfigures": 7689,
      "Ġintelligent": 7690,
      "Ġrolling": 7691,
      "Ġ190": 7692,
      "Ġentertained": 7693,
      "Ġpreferred": 7694,
      "Ġofficer": 7695,
      "Ġdelay": 7696,
      "Ġmeasures": 7697,
      "Ġpreceding": 7698,
      "Ġforbidden": 7699,
      "Ġembryo": 7700,
      "Ġcontriv": 7701,
      "Ġbefall": 7702,
      "Ġinconven": 7703,
      "Ġimpatient": 7704,
      "Ġlofty": 7705,
      "ĠAfric": 7706,
      "):": 7707,
      ".).": 7708,
      "Cl": 7709,
      "For": 7710,
      "SE": 7711,
      "cing": 7712,
      "fare": 7713,
      "gif": 7714,
      "mon": 7715,
      "making": 7716,
      "Ġ0": 7717,
      "inence": 7718,
      "Ġsect": 7719,
      "itim": 7720,
      "Ġfame": 7721,
      "Ġcard": 7722,
      "Ġped": 7723,
      "Ġpul": 7724,
      "arian": 7725,
      "Ġinasmuch": 7726,
      "Ġbend": 7727,
      "aly": 7728,
      "otes": 7729,
      "otted": 7730,
      "rav": 7731,
      "Ġstup": 7732,
      "Ġshoes": 7733,
      "ams": 7734,
      "Ġvent": 7735,
      "usc": 7736,
      "Ġsober": 7737,
      "Ġdoest": 7738,
      "ĠMars": 7739,
      "Ġsailed": 7740,
      "Ġknot": 7741,
      "ersed": 7742,
      "Ġalt": 7743,
      "Ġjest": 7744,
      "racing": 7745,
      "Ġamiable": 7746,
      "ols": 7747,
      "Ġrum": 7748,
      "iproc": 7749,
      "uds": 7750,
      "ĠInst": 7751,
      "Ġsket": 7752,
      "Ġmostly": 7753,
      "Ġconsol": 7754,
      "Ġconsult": 7755,
      "Ġdistrib": 7756,
      "Ġgras": 7757,
      "Ġclever": 7758,
      "Ġ33": 7759,
      "Ġ35": 7760,
      "Ġprint": 7761,
      "izes": 7762,
      "Ġwrink": 7763,
      "Ġinconsist": 7764,
      "Ġ24": 7765,
      "ogs": 7766,
      "Ġrefuge": 7767,
      "Ġsubtle": 7768,
      "Ġentreat": 7769,
      "ĠVIII": 7770,
      "Ġpigeons": 7771,
      "aired": 7772,
      "Ġinvented": 7773,
      "ĠAlc": 7774,
      "ologists": 7775,
      "Ġloving": 7776,
      "Ġsuperflu": 7777,
      "Ġprovision": 7778,
      "Ġproperties": 7779,
      "Ġmistress": 7780,
      "Ġdebts": 7781,
      "Ġmiser": 7782,
      "Ġfathers": 7783,
      "Ġdirections": 7784,
      "Ġdevoted": 7785,
      "Ġsuspended": 7786,
      "ĠUntil": 7787,
      "ESS": 7788,
      "Ġprotection": 7789,
      "Ġdesigned": 7790,
      "Ġearned": 7791,
      "Ġpreservation": 7792,
      "Ġtranqu": 7793,
      "Ġdiversity": 7794,
      "Ġfancies": 7795,
      "Ġunnatural": 7796,
      "Ġsteadily": 7797,
      "Ġindef": 7798,
      "Ġissue": 7799,
      "Ġfluid": 7800,
      "Ġqueer": 7801,
      "ĠGerman": 7802,
      "Ġtragedy": 7803,
      "Ġskelet": 7804,
      "Ġarbitr": 7805,
      "dimensional": 7806,
      "Ġstomach": 7807,
      "awn": 7808,
      "lings": 7809,
      "liness": 7810,
      "uary": 7811,
      "Ġtick": 7812,
      "rep": 7813,
      "Ġwilt": 7814,
      "Ġwounded": 7815,
      "Ġcli": 7816,
      "Ġhos": 7817,
      "Ġpir": 7818,
      "Ġinner": 7819,
      "Ġinquire": 7820,
      "Ġlap": 7821,
      "sey": 7822,
      "Ġwhis": 7823,
      "irit": 7824,
      "rier": 7825,
      "Ġstout": 7826,
      "orent": 7827,
      "Ġselected": 7828,
      "ĠHur": 7829,
      "adise": 7830,
      "Ġdealt": 7831,
      "ĠEry": 7832,
      "Ġchim": 7833,
      "Ġchains": 7834,
      "Ġtru": 7835,
      "Ġfold": 7836,
      "Ġshoulders": 7837,
      "Ġraising": 7838,
      "asonable": 7839,
      "Ġblamed": 7840,
      "Ġflour": 7841,
      "Ġ32": 7842,
      "Ġ22": 7843,
      "Ġgloom": 7844,
      "Ġconfused": 7845,
      "new": 7846,
      "Ġsubd": 7847,
      "Ġmob": 7848,
      "Ġparti": 7849,
      "Ġapprove": 7850,
      "Ġartist": 7851,
      "Ġappearances": 7852,
      "Ġlistening": 7853,
      "ĠSpan": 7854,
      "Ġdisappeared": 7855,
      "Ġsleeping": 7856,
      "Ġpurely": 7857,
      "Ġmouths": 7858,
      "Ġniggers": 7859,
      "Ġmagnitude": 7860,
      "Ġgravity": 7861,
      "Ġfirmly": 7862,
      "Ġarranged": 7863,
      "Ġtransport": 7864,
      "licted": 7865,
      "Ġreferred": 7866,
      "Ġswimming": 7867,
      "Ġfortunate": 7868,
      "Ġexecution": 7869,
      "Ġcontinuum": 7870,
      "Ġdominant": 7871,
      "Ġnarrative": 7872,
      "Ġtossed": 7873,
      "Ġbottle": 7874,
      "Ġinvoluntary": 7875,
      "Ġamusement": 7876,
      "ĠLegrand": 7877,
      "Ġrelief": 7878,
      "Ġmarvels": 7879,
      "castle": 7880,
      "ĠAbsolute": 7881,
      "Ġentitled": 7882,
      "ĠSawyer": 7883,
      "ĠAristophanes": 7884,
      "orentz": 7885,
      "She": 7886,
      "aur": 7887,
      "breed": 7888,
      "cess": 7889,
      "lor": 7890,
      "pin": 7891,
      "rist": 7892,
      "would": 7893,
      "iners": 7894,
      "Ġtheat": 7895,
      "Ġost": 7896,
      "atisf": 7897,
      "Ġblend": 7898,
      "Ġfant": 7899,
      "Ġcauti": 7900,
      "Ġming": 7901,
      "Ġpond": 7902,
      "lling": 7903,
      "Ġlaz": 7904,
      "Ġgains": 7905,
      "Ġyonder": 7906,
      "alks": 7907,
      "ĠTwo": 7908,
      "ĠIX": 7909,
      "Ġutility": 7910,
      "ameless": 7911,
      "ĠHaving": 7912,
      "quet": 7913,
      "Ġsovere": 7914,
      "ĠME": 7915,
      "aunt": 7916,
      "Ġchamber": 7917,
      "umps": 7918,
      "ĠPers": 7919,
      "ounding": 7920,
      "Ġjet": 7921,
      "Ġnoblest": 7922,
      "ĠNone": 7923,
      "Ġmyth": 7924,
      "Ġdisreg": 7925,
      "Ġplate": 7926,
      "Ġrepaid": 7927,
      "Ġoverboard": 7928,
      "Ġhumor": 7929,
      "Ġwrath": 7930,
      "Ġrestored": 7931,
      "Ġlargest": 7932,
      "Ġsecured": 7933,
      "Ġadding": 7934,
      "aneous": 7935,
      "Ġdifferently": 7936,
      "Ġreturns": 7937,
      "Ġinvitation": 7938,
      "Ġextended": 7939,
      "Ġappearing": 7940,
      "overn": 7941,
      "Ġrewards": 7942,
      "Ġdreams": 7943,
      "Ġefforts": 7944,
      "Ġterrest": 7945,
      "Ġlandl": 7946,
      "ĠPlatonic": 7947,
      "Ġestim": 7948,
      "Ġeleg": 7949,
      "Ġinjuries": 7950,
      "Ġwarri": 7951,
      "ĠSpart": 7952,
      "Ġ189": 7953,
      "Ġgradations": 7954,
      "Ġrecognised": 7955,
      "Ġlogic": 7956,
      "Ġmeasured": 7957,
      "Ġtroubled": 7958,
      "Ġpitch": 7959,
      "ĠClearly": 7960,
      "Ġdeposited": 7961,
      "Ġneighbourhood": 7962,
      "Ġcruelty": 7963,
      "ĠCharles": 7964,
      "Ġteachers": 7965,
      "ximachus": 7966,
      "Ġghost": 7967,
      "Ġcalamity": 7968,
      "Ġduration": 7969,
      "ĠAustralia": 7970,
      "Ġrhyth": 7971,
      "ĠEryximachus": 7972,
      "\"--": 7973,
      "Are": 7974,
      "Come": 7975,
      "Good": 7976,
      "Grace": 7977,
      "IF": 7978,
      "On": 7979,
      "URE": 7980,
      "called": 7981,
      "every": 7982,
      "ground": 7983,
      "nant": 7984,
      "phy": 7985,
      "rates": 7986,
      "top": 7987,
      "Ġtales": 7988,
      "Ġtheore": 7989,
      "Ġshed": 7990,
      "Ġsinners": 7991,
      "Ġoh": 7992,
      "Ġbatter": 7993,
      "Ġmong": 7994,
      "Ġhar": 7995,
      "orter": 7996,
      "Ġpuzz": 7997,
      "Ġdict": 7998,
      "asion": 7999,
      "Ġling": 8000,
      "uled": 8001,
      "Ġshake": 8002,
      "Ġanch": 8003,
      "ĠHas": 8004,
      "ĠHert": 8005,
      "Ġsoil": 8006,
      "Ġhasten": 8007,
      "Ġsails": 8008,
      "ĠCor": 8009,
      "ĠPres": 8010,
      "Ġupright": 8011,
      "igantic": 8012,
      "arts": 8013,
      "Ġremedy": 8014,
      "udd": 8015,
      "eph": 8016,
      "Ġmayest": 8017,
      "Ġprecept": 8018,
      "Ġpole": 8019,
      "ĠInte": 8020,
      "Ġclouds": 8021,
      "Ġdiscern": 8022,
      "Ġbackward": 8023,
      "Ġexperiences": 8024,
      "ĠChief": 8025,
      "Ġawa": 8026,
      "Ġbestows": 8027,
      "their": 8028,
      "inning": 8029,
      "Ġinterference": 8030,
      "Ġpainter": 8031,
      "Ġwhaleman": 8032,
      "Ġarrival": 8033,
      "Ġowes": 8034,
      "Ġceased": 8035,
      "Ġessentially": 8036,
      "Ġconcealed": 8037,
      "Ġintend": 8038,
      "Ġpraises": 8039,
      "Ġelevation": 8040,
      "Ġmonth": 8041,
      "Ġwarner": 8042,
      "Ġancients": 8043,
      "Ġmothers": 8044,
      "Ġperception": 8045,
      "Ġidi": 8046,
      "Ġconstitute": 8047,
      "Ġabstraction": 8048,
      "Ġmasses": 8049,
      "Ġdisappointment": 8050,
      "Ġthrowing": 8051,
      "Ġdeceive": 8052,
      "Ġcompliment": 8053,
      "ĠEuropean": 8054,
      "Ġlaughing": 8055,
      "Ġindifference": 8056,
      "Ġmeasuring": 8057,
      "Ġfetched": 8058,
      "Ġintercross": 8059,
      "Ġdwelling": 8060,
      "Ġcharming": 8061,
      "fordshire": 8062,
      "Ġaccumulated": 8063,
      "Ġconquered": 8064,
      "Ġtumult": 8065,
      "Ġclaims": 8066,
      "Ġbench": 8067,
      "Ġmonstrous": 8068,
      "Ġdrowned": 8069,
      "Ġartificial": 8070,
      "ĠBrave": 8071,
      "Ġfeatures": 8072,
      "Ġunfortunate": 8073,
      "Ġvoices": 8074,
      "Ġterrestrial": 8075,
      "ĠHertfordshire": 8076,
      "ails": 8077,
      "bur": 8078,
      "iated": 8079,
      "must": 8080,
      "uracy": 8081,
      "Ġtables": 8082,
      "Ġaims": 8083,
      "Ġachie": 8084,
      "Ġsen": 8085,
      "Ġorac": 8086,
      "erce": 8087,
      "ouch": 8088,
      "itement": 8089,
      "Ġcos": 8090,
      "Ġcunning": 8091,
      "onto": 8092,
      "Ġpious": 8093,
      "Ġpuri": 8094,
      "llust": 8095,
      "celer": 8096,
      "Ġhears": 8097,
      "Ġshade": 8098,
      "Ġseren": 8099,
      "Ġseize": 8100,
      "ĠHA": 8101,
      "Ġconverted": 8102,
      "Ġdefe": 8103,
      "Ġdeficient": 8104,
      "ĠMA": 8105,
      "ĠMer": 8106,
      "ĠBour": 8107,
      "ĠCÃ¦s": 8108,
      "Ġunworthy": 8109,
      "Ġenfor": 8110,
      "Ġdisuse": 8111,
      "ept": 8112,
      "Ġthence": 8113,
      "Ġpoly": 8114,
      "Ġspeculation": 8115,
      "angled": 8116,
      "Ġregret": 8117,
      "ĠChoice": 8118,
      "Ġglor": 8119,
      "Ġswell": 8120,
      "Ġslid": 8121,
      "Ġsection": 8122,
      "Ġinsist": 8123,
      "letus": 8124,
      "Ġdemocr": 8125,
      "Ġinvited": 8126,
      "Ġconcur": 8127,
      "ĠMeletus": 8128,
      "Ġtransfer": 8129,
      "ugged": 8130,
      "Ġintent": 8131,
      "Ġdoubted": 8132,
      "Ġeffort": 8133,
      "Ġstrikes": 8134,
      "Ġdressed": 8135,
      "Ġlocked": 8136,
      "Ġestimate": 8137,
      "Ġrealized": 8138,
      "Ġcommands": 8139,
      "Ġconvince": 8140,
      "Ġescap": 8141,
      "Ġladyship": 8142,
      "Ġrelatively": 8143,
      "Ġengagement": 8144,
      "Ġhopeless": 8145,
      "withstanding": 8146,
      "Ġslipped": 8147,
      "Ġintentions": 8148,
      "Ġdisplayed": 8149,
      "Ġalteration": 8150,
      "Ġbeaten": 8151,
      "Ġcorrupted": 8152,
      "ĠSymp": 8153,
      "Ġdedic": 8154,
      "Ġfortunes": 8155,
      "Ġstick": 8156,
      "Ġpenalty": 8157,
      "Ġdisorder": 8158,
      "Amira": 8159,
      "Ġphrase": 8160,
      "Ġunhappy": 8161,
      "Ġfairest": 8162,
      "Ġlungs": 8163,
      "ĠSarah": 8164,
      "ĠCÃ¦sar": 8165,
      "10": 8166,
      "As": 8167,
      "Aria": 8168,
      "HT": 8169,
      "bet": 8170,
      "dam": 8171,
      "fice": 8172,
      "gue": 8173,
      "him": 8174,
      "nat": 8175,
      "ware": 8176,
      "Ġsul": 8177,
      "Ġwet": 8178,
      "itality": 8179,
      "Ġfount": 8180,
      "Ġflies": 8181,
      "Ġharsh": 8182,
      "Ġpack": 8183,
      "Ġprow": 8184,
      "Ġthither": 8185,
      "asant": 8186,
      "Ġlays": 8187,
      "Ġgale": 8188,
      "Ġgross": 8189,
      "Ġgigantic": 8190,
      "Ġreign": 8191
    },
    "merges": [
      [
        "Ġ",
        "t"
      ],
      [
        "h",
        "e"
      ],
      [
        "Ġ",
        "a"
      ],
      [
        "i",
        "n"
      ],
      [
        "Ġt",
        "he"
      ],
      [
        "Ġ",
        "s"
      ],
      [
        "r",
        "e"
      ],
      [
        "Ġ",
        "w"
      ],
      [
        "Ġ",
        "o"
      ],
      [
        "e",
        "r"
      ],
      [
        "n",
        "d"
      ],
      [
        "o",
        "u"
      ],
      [
        "a",
        "t"
      ],
      [
        "Ġ",
        "b"
      ],
      [
        "i",
        "t"
      ],
      [
        "Ġ",
        "f"
      ],
      [
        "i",
        "s"
      ],
      [
        "Ġ",
        "c"
      ],
      [
        "e",
        "n"
      ],
      [
        "Ġ",
        "m"
      ],
      [
        "o",
        "n"
      ],
      [
        "e",
        "d"
      ],
      [
        "e",
        "s"
      ],
      [
        "in",
        "g"
      ],
      [
        "Ġ",
        "h"
      ],
      [
        "o",
        "r"
      ],
      [
        "Ġa",
        "nd"
      ],
      [
        "Ġ",
        "p"
      ],
      [
        "Ġ",
        "d"
      ],
      [
        "Ġt",
        "o"
      ],
      [
        "Ġo",
        "f"
      ],
      [
        "a",
        "n"
      ],
      [
        "a",
        "r"
      ],
      [
        "Ġt",
        "h"
      ],
      [
        "l",
        "e"
      ],
      [
        "l",
        "l"
      ],
      [
        "Ġ",
        "in"
      ],
      [
        "a",
        "s"
      ],
      [
        "Ġb",
        "e"
      ],
      [
        "o",
        "m"
      ],
      [
        "Ġ",
        "l"
      ],
      [
        "Ġ",
        "n"
      ],
      [
        "-",
        "-"
      ],
      [
        "Ġ",
        "e"
      ],
      [
        "Ġ",
        "g"
      ],
      [
        "Ġ",
        "y"
      ],
      [
        "c",
        "e"
      ],
      [
        "a",
        "l"
      ],
      [
        "Ġ",
        "T"
      ],
      [
        "Ġ",
        "is"
      ],
      [
        "Ġ",
        "I"
      ],
      [
        "v",
        "e"
      ],
      [
        "Ġy",
        "ou"
      ],
      [
        "o",
        "w"
      ],
      [
        "t",
        "i"
      ],
      [
        "Ġ",
        "it"
      ],
      [
        "a",
        "y"
      ],
      [
        "l",
        "y"
      ],
      [
        "s",
        "e"
      ],
      [
        "i",
        "m"
      ],
      [
        "v",
        "er"
      ],
      [
        "Ġ",
        "re"
      ],
      [
        "Ġw",
        "h"
      ],
      [
        "s",
        "t"
      ],
      [
        "i",
        "d"
      ],
      [
        "o",
        "t"
      ],
      [
        "he",
        "r"
      ],
      [
        "c",
        "h"
      ],
      [
        "Ġf",
        "or"
      ],
      [
        "g",
        "h"
      ],
      [
        "ĠT",
        "he"
      ],
      [
        "Ġh",
        "a"
      ],
      [
        "Ġth",
        "at"
      ],
      [
        "l",
        "d"
      ],
      [
        "i",
        "r"
      ],
      [
        "en",
        "t"
      ],
      [
        "u",
        "t"
      ],
      [
        "Ġ",
        "\""
      ],
      [
        "Ġ",
        "u"
      ],
      [
        "Ġ",
        "he"
      ],
      [
        "it",
        "h"
      ],
      [
        "r",
        "i"
      ],
      [
        "e",
        "t"
      ],
      [
        "Ġo",
        "n"
      ],
      [
        "i",
        "on"
      ],
      [
        "r",
        "a"
      ],
      [
        "Ġw",
        "e"
      ],
      [
        "Ġ",
        "A"
      ],
      [
        "u",
        "r"
      ],
      [
        "e",
        "c"
      ],
      [
        "Ġw",
        "ith"
      ],
      [
        "Ġ",
        "S"
      ],
      [
        "gh",
        "t"
      ],
      [
        "Ġa",
        "s"
      ],
      [
        "Ġ",
        "--"
      ],
      [
        "k",
        "e"
      ],
      [
        "Ġ--",
        "-"
      ],
      [
        "t",
        "er"
      ],
      [
        "u",
        "l"
      ],
      [
        "Ġs",
        "t"
      ],
      [
        "Ġl",
        "i"
      ],
      [
        "Ġs",
        "h"
      ],
      [
        "Ġa",
        "t"
      ],
      [
        "r",
        "o"
      ],
      [
        "Ġa",
        "n"
      ],
      [
        "o",
        "re"
      ],
      [
        "Ġ",
        "W"
      ],
      [
        "o",
        "o"
      ],
      [
        "l",
        "i"
      ],
      [
        "a",
        "m"
      ],
      [
        "Ġw",
        "as"
      ],
      [
        "a",
        "ll"
      ],
      [
        "Ġn",
        "ot"
      ],
      [
        "o",
        "p"
      ],
      [
        "ou",
        "t"
      ],
      [
        "Ġs",
        "u"
      ],
      [
        "Ġha",
        "ve"
      ],
      [
        "i",
        "f"
      ],
      [
        "om",
        "e"
      ],
      [
        "i",
        "ll"
      ],
      [
        "ver",
        "y"
      ],
      [
        "es",
        "s"
      ],
      [
        "ou",
        "ld"
      ],
      [
        "i",
        "c"
      ],
      [
        "Ġs",
        "e"
      ],
      [
        "Ġa",
        "b"
      ],
      [
        "Ġ",
        "H"
      ],
      [
        "i",
        "l"
      ],
      [
        "Ġa",
        "re"
      ],
      [
        "Ġf",
        "r"
      ],
      [
        "Ġ",
        "v"
      ],
      [
        "a",
        "d"
      ],
      [
        "u",
        "s"
      ],
      [
        "Ġw",
        "he"
      ],
      [
        "re",
        "d"
      ],
      [
        "e",
        "m"
      ],
      [
        "q",
        "u"
      ],
      [
        "Ġs",
        "p"
      ],
      [
        "a",
        "in"
      ],
      [
        "Ġo",
        "r"
      ],
      [
        "a",
        "c"
      ],
      [
        "Ġfr",
        "om"
      ],
      [
        "ti",
        "on"
      ],
      [
        "p",
        "p"
      ],
      [
        "Ġc",
        "on"
      ],
      [
        "Ġs",
        "o"
      ],
      [
        "in",
        "d"
      ],
      [
        "Ġ",
        "L"
      ],
      [
        "Ġwh",
        "i"
      ],
      [
        "e",
        "nd"
      ],
      [
        "it",
        "y"
      ],
      [
        "at",
        "ion"
      ],
      [
        "Ġn",
        "e"
      ],
      [
        "Ġe",
        "x"
      ],
      [
        "Ġyou",
        "r"
      ],
      [
        "an",
        "t"
      ],
      [
        "Ġb",
        "y"
      ],
      [
        "g",
        "e"
      ],
      [
        "Ġd",
        "e"
      ],
      [
        "Ġ",
        "le"
      ],
      [
        "r",
        "ou"
      ],
      [
        "Ġab",
        "out"
      ],
      [
        "Ġd",
        "o"
      ],
      [
        "Ġ",
        "M"
      ],
      [
        "ar",
        "d"
      ],
      [
        "f",
        "ul"
      ],
      [
        "t",
        "h"
      ],
      [
        "t",
        "her"
      ],
      [
        "Ġ",
        "B"
      ],
      [
        "at",
        "e"
      ],
      [
        "Ġh",
        "as"
      ],
      [
        "Ġwhi",
        "ch"
      ],
      [
        "t",
        "e"
      ],
      [
        "Ġa",
        "ll"
      ],
      [
        "re",
        "s"
      ],
      [
        "b",
        "le"
      ],
      [
        "Ġthe",
        "y"
      ],
      [
        "es",
        "t"
      ],
      [
        ",",
        "\""
      ],
      [
        "Ġ",
        "F"
      ],
      [
        "Ġs",
        "a"
      ],
      [
        "Ġc",
        "om"
      ],
      [
        "Ġh",
        "is"
      ],
      [
        "Ġwh",
        "o"
      ],
      [
        "Ġ",
        "k"
      ],
      [
        "Ġw",
        "ill"
      ],
      [
        "Ġw",
        "or"
      ],
      [
        "Ġc",
        "an"
      ],
      [
        "Ġm",
        "an"
      ],
      [
        "Ġm",
        "e"
      ],
      [
        "Ġth",
        "is"
      ],
      [
        "v",
        "en"
      ],
      [
        "Ġb",
        "ut"
      ],
      [
        ".",
        "\""
      ],
      [
        "Ġm",
        "ore"
      ],
      [
        "Ġd",
        "ay"
      ],
      [
        "Ġo",
        "ther"
      ],
      [
        "Ġ",
        "C"
      ],
      [
        "Ġ",
        "E"
      ],
      [
        "Ġwhe",
        "n"
      ],
      [
        "Ġf",
        "e"
      ],
      [
        "Ġon",
        "e"
      ],
      [
        "Ġthe",
        "ir"
      ],
      [
        "a",
        "u"
      ],
      [
        "is",
        "t"
      ],
      [
        "Ġt",
        "im"
      ],
      [
        "er",
        "s"
      ],
      [
        "Ġc",
        "h"
      ],
      [
        "on",
        "g"
      ],
      [
        "Ġ",
        "O"
      ],
      [
        "Ġ",
        "im"
      ],
      [
        "o",
        "s"
      ],
      [
        "o",
        "se"
      ],
      [
        "Ġe",
        "very"
      ],
      [
        "f",
        "e"
      ],
      [
        "i",
        "es"
      ],
      [
        "Ġs",
        "m"
      ],
      [
        "Ġs",
        "ome"
      ],
      [
        "re",
        "at"
      ],
      [
        "ec",
        "t"
      ],
      [
        "u",
        "st"
      ],
      [
        "Ġa",
        "c"
      ],
      [
        "a",
        "k"
      ],
      [
        "Ġbe",
        "en"
      ],
      [
        "an",
        "ce"
      ],
      [
        "Ġthe",
        "m"
      ],
      [
        "u",
        "re"
      ],
      [
        "o",
        "d"
      ],
      [
        "Ġu",
        "n"
      ],
      [
        "ou",
        "r"
      ],
      [
        "a",
        "re"
      ],
      [
        "Ġtim",
        "e"
      ],
      [
        "Ġu",
        "s"
      ],
      [
        "a",
        "ke"
      ],
      [
        "en",
        "ce"
      ],
      [
        "oo",
        "d"
      ],
      [
        "u",
        "m"
      ],
      [
        "ou",
        "s"
      ],
      [
        "Ġp",
        "e"
      ],
      [
        "u",
        "n"
      ],
      [
        "Ġa",
        "l"
      ],
      [
        "Ġli",
        "ke"
      ],
      [
        "Ġ",
        "en"
      ],
      [
        "Ġp",
        "ro"
      ],
      [
        "on",
        "e"
      ],
      [
        "id",
        "e"
      ],
      [
        "k",
        "ed"
      ],
      [
        "Ġ",
        "P"
      ],
      [
        "Ġh",
        "im"
      ],
      [
        "ou",
        "nd"
      ],
      [
        "Ġ",
        "j"
      ],
      [
        "l",
        "a"
      ],
      [
        "ĠT",
        "h"
      ],
      [
        "Ġ",
        "D"
      ],
      [
        "Ġwh",
        "at"
      ],
      [
        "v",
        "ed"
      ],
      [
        "a",
        "ch"
      ],
      [
        "Ġn",
        "o"
      ],
      [
        "Ġu",
        "p"
      ],
      [
        "Ġ",
        "qu"
      ],
      [
        "ra",
        "c"
      ],
      [
        "Ġ",
        "G"
      ],
      [
        "he",
        "d"
      ],
      [
        "op",
        "le"
      ],
      [
        "o",
        "nd"
      ],
      [
        "e",
        "l"
      ],
      [
        "Ġ",
        "ri"
      ],
      [
        "Ġbe",
        "t"
      ],
      [
        "Ġw",
        "ould"
      ],
      [
        "Ġ",
        "N"
      ],
      [
        "or",
        "t"
      ],
      [
        "Ġsa",
        "id"
      ],
      [
        "Ġw",
        "at"
      ],
      [
        "Ġ",
        "Y"
      ],
      [
        "i",
        "ght"
      ],
      [
        "Ġa",
        "d"
      ],
      [
        "se",
        "l"
      ],
      [
        "Ġa",
        "m"
      ],
      [
        "Ġim",
        "p"
      ],
      [
        "ti",
        "c"
      ],
      [
        "Ġthe",
        "re"
      ],
      [
        "Ġpe",
        "ople"
      ],
      [
        "in",
        "k"
      ],
      [
        "i",
        "g"
      ],
      [
        "ĠW",
        "h"
      ],
      [
        "n",
        "t"
      ],
      [
        "p",
        "er"
      ],
      [
        "at",
        "her"
      ],
      [
        "as",
        "t"
      ],
      [
        "oo",
        "k"
      ],
      [
        "a",
        "ble"
      ],
      [
        "ri",
        "end"
      ],
      [
        "am",
        "e"
      ],
      [
        "Ġha",
        "d"
      ],
      [
        "o",
        "l"
      ],
      [
        "ar",
        "n"
      ],
      [
        "Ġm",
        "y"
      ],
      [
        "u",
        "e"
      ],
      [
        "ĠI",
        "t"
      ],
      [
        "r",
        "y"
      ],
      [
        "n",
        "ow"
      ],
      [
        "?",
        "\""
      ],
      [
        "Ġ",
        "r"
      ],
      [
        "Ġan",
        "y"
      ],
      [
        "ĠW",
        "e"
      ],
      [
        "ir",
        "st"
      ],
      [
        "a",
        "nd"
      ],
      [
        "ay",
        "s"
      ],
      [
        "ar",
        "t"
      ],
      [
        "Ġa",
        "r"
      ],
      [
        "'",
        "s"
      ],
      [
        "o",
        "st"
      ],
      [
        "ing",
        "s"
      ],
      [
        "Ġf",
        "ound"
      ],
      [
        "Ġd",
        "is"
      ],
      [
        "i",
        "p"
      ],
      [
        "g",
        "et"
      ],
      [
        "Ġit",
        "s"
      ],
      [
        "Ġf",
        "riend"
      ],
      [
        "v",
        "es"
      ],
      [
        "ĠS",
        "te"
      ],
      [
        "ĠSte",
        "p"
      ],
      [
        "Ġd",
        "if"
      ],
      [
        "Ġth",
        "an"
      ],
      [
        "Ġcom",
        "p"
      ],
      [
        "k",
        "s"
      ],
      [
        "u",
        "c"
      ],
      [
        "l",
        "p"
      ],
      [
        "as",
        "s"
      ],
      [
        "Ġo",
        "ut"
      ],
      [
        "is",
        "e"
      ],
      [
        "Ġp",
        "er"
      ],
      [
        "Ġwe",
        "re"
      ],
      [
        "Ġa",
        "f"
      ],
      [
        "i",
        "ly"
      ],
      [
        "f",
        "ore"
      ],
      [
        "i",
        "ve"
      ],
      [
        "all",
        "y"
      ],
      [
        "a",
        "g"
      ],
      [
        "ot",
        "h"
      ],
      [
        "Ġre",
        "m"
      ],
      [
        "u",
        "d"
      ],
      [
        "Ġ",
        "if"
      ],
      [
        "Ġt",
        "r"
      ],
      [
        "Ġa",
        "pp"
      ],
      [
        "Ġa",
        "g"
      ],
      [
        "t",
        "o"
      ],
      [
        "Ġsh",
        "ow"
      ],
      [
        "Ġbe",
        "c"
      ],
      [
        "Ġle",
        "arn"
      ],
      [
        "Ġth",
        "ou"
      ],
      [
        "n",
        "s"
      ],
      [
        "Ġk",
        "now"
      ],
      [
        "Ġo",
        "ur"
      ],
      [
        "a",
        "p"
      ],
      [
        "Ġ",
        "R"
      ],
      [
        "e",
        "p"
      ],
      [
        "Ġsm",
        "all"
      ],
      [
        "Ġwat",
        "er"
      ],
      [
        "Ġp",
        "l"
      ],
      [
        "Ġbet",
        "ter"
      ],
      [
        "i",
        "ld"
      ],
      [
        "ĠI",
        "f"
      ],
      [
        "Ġn",
        "at"
      ],
      [
        "Ġhe",
        "lp"
      ],
      [
        "re",
        "e"
      ],
      [
        "Ġre",
        "p"
      ],
      [
        "sel",
        "f"
      ],
      [
        "Ġf",
        "o"
      ],
      [
        "o",
        "y"
      ],
      [
        "i",
        "e"
      ],
      [
        "e",
        "ll"
      ],
      [
        "Ġs",
        "he"
      ],
      [
        "rou",
        "gh"
      ],
      [
        "i",
        "le"
      ],
      [
        "ac",
        "k"
      ],
      [
        "â",
        "Ģ"
      ],
      [
        "o",
        "ve"
      ],
      [
        "a",
        "b"
      ],
      [
        "w",
        "ard"
      ],
      [
        "Ġg",
        "en"
      ],
      [
        "Ġg",
        "reat"
      ],
      [
        "Ġm",
        "ay"
      ],
      [
        "is",
        "h"
      ],
      [
        "get",
        "her"
      ],
      [
        "Ġg",
        "ood"
      ],
      [
        "r",
        "ow"
      ],
      [
        "u",
        "es"
      ],
      [
        "t",
        "en"
      ],
      [
        "Ġth",
        "ink"
      ],
      [
        "n",
        "ess"
      ],
      [
        "Ġman",
        "y"
      ],
      [
        "Ġp",
        "re"
      ],
      [
        "m",
        "ent"
      ],
      [
        "Ġthe",
        "se"
      ],
      [
        "Ġg",
        "o"
      ],
      [
        "Ġthe",
        "n"
      ],
      [
        "Ġw",
        "ay"
      ],
      [
        "it",
        "e"
      ],
      [
        "re",
        "n"
      ],
      [
        "Ġ",
        "her"
      ],
      [
        "Ġsh",
        "ould"
      ],
      [
        "Ġgen",
        "er"
      ],
      [
        "a",
        "ce"
      ],
      [
        "ti",
        "ce"
      ],
      [
        "Ġe",
        "ven"
      ],
      [
        "ion",
        "s"
      ],
      [
        "Ġ",
        "very"
      ],
      [
        "w",
        "n"
      ],
      [
        "Ġb",
        "oth"
      ],
      [
        "Ġo",
        "ver"
      ],
      [
        "Ġf",
        "ind"
      ],
      [
        "Ġp",
        "at"
      ],
      [
        "Ġ",
        "J"
      ],
      [
        "as",
        "e"
      ],
      [
        "ĠH",
        "ow"
      ],
      [
        "Ġto",
        "gether"
      ],
      [
        "i",
        "v"
      ],
      [
        "ĠO",
        "n"
      ],
      [
        "rou",
        "nd"
      ],
      [
        "ĠThe",
        "y"
      ],
      [
        "c",
        "t"
      ],
      [
        "ou",
        "nt"
      ],
      [
        "w",
        "e"
      ],
      [
        "Ġo",
        "b"
      ],
      [
        "ĠA",
        "nd"
      ],
      [
        "h",
        "ing"
      ],
      [
        "t",
        "y"
      ],
      [
        "w",
        "er"
      ],
      [
        "Ġm",
        "ust"
      ],
      [
        "Ġth",
        "ose"
      ],
      [
        "u",
        "ch"
      ],
      [
        "Ġl",
        "ong"
      ],
      [
        "Ġp",
        "o"
      ],
      [
        "al",
        "s"
      ],
      [
        "ar",
        "m"
      ],
      [
        "Ġc",
        "ould"
      ],
      [
        "ĠB",
        "ut"
      ],
      [
        "Ġp",
        "rac"
      ],
      [
        "g",
        "g"
      ],
      [
        "Ġ",
        "ra"
      ],
      [
        "as",
        "on"
      ],
      [
        "in",
        "t"
      ],
      [
        "Ġin",
        "to"
      ],
      [
        "i",
        "ence"
      ],
      [
        "in",
        "e"
      ],
      [
        "Ġother",
        "s"
      ],
      [
        "u",
[...]
