{
  "version": "1.0",
  "truncation": null,
  "padding": null,
  "added_tokens": [
    {
      "id": 0,
      "content": "<pad>",
      "single_word": false,
      "lstrip": false,
      "rstrip": false,
      "normalized": false,
      "special": true
    },
    {
      "id": 1,
      "content": "<unk>",
      "single_word": false,
      "lstrip": false,
      "rstrip": false,
      "normalized": false,
      "special": true
    },
    {
      "id": 2,
      "content": "<bos>",
      "single_word": false,
      "lstrip": false,
      "rstrip": false,
      "normalized": false,
      "special": true
    },
    {
      "id": 3,
      "content": "<eos>",
      "single_word": false,
      "lstrip": false,
      "rstrip": false,
      "normalized": false,
      "special": true
    }
  ],
  "normalizer": null,
  "pre_tokenizer": {
    "type": "ByteLevel",
    "add_prefix_space": false,
    "trim_offsets": true,
    "use_regex": true
  },
  "post_processor": null,
  "decoder": {
    "type": "ByteLevel",
    "add_prefix_space": true,
    "trim_offsets": true,
    "use_regex": true
  },
  "model": {
    "type": "BPE",
    "dropout": null,
    "unk_token": null,
    "continuing_subword_prefix": null,
    "end_of_word_suffix": null,
    "fuse_unk": false,
    "byte_fallback": false,
    "ignore_merges": false,
    "vocab": {
      "<pad>": 0,
      "<unk>": 1,
      "<bos>": 2,
      "<eos>": 3,
      "!": 4,
      "\"": 5,
      "#": 6,
      "$": 7,
      "%": 8,
      "&": 9,
      "'": 10,
      "(": 11,
      ")": 12,
      "*": 13,
      "+": 14,
      ",": 15,
      "-": 16,
      ".": 17,
      "/": 18,
      "0": 19,
      "1": 20,
      "2": 21,
      "3": 22,
      "4": 23,
      "5": 24,
      "6": 25,
      "7": 26,
      "8": 27,
      "9": 28,
      ":": 29,
      ";": 30,
      "<": 31,
      "=": 32,
      ">": 33,
      "?": 34,
      "@": 35,
      "A": 36,
      "B": 37,
      "C": 38,
      "D": 39,
      "E": 40,
      "F": 41,
      "G": 42,
      "H": 43,
      "I": 44,
      "J": 45,
      "K": 46,
      "L": 47,
      "M": 48,
      "N": 49,
      "O": 50,
      "P": 51,
      "Q": 52,
      "R": 53,
      "S": 54,
      "T": 55,
      "U": 56,
      "V": 57,
      "W": 58,
      "X": 59,
      "Y": 60,
      "Z": 61,
      "[": 62,
      "\\": 63,
      "]": 64,
      "^": 65,
      "_": 66,
      "`": 67,
      "a": 68,
      "b": 69,
      "c": 70,
      "d": 71,
      "e": 72,
      "f": 73,
      "g": 74,
      "h": 75,
      "i": 76,
      "j": 77,
      "k": 78,
      "l": 79,
      "m": 80,
      "n": 81,
      "o": 82,
      "p": 83,
      "q": 84,
      "r": 85,
      "s": 86,
      "t": 87,
      "u": 88,
      "v": 89,
      "w": 90,
      "x": 91,
      "y": 92,
      "z": 93,
      "{": 94,
      "|": 95,
      "}": 96,
      "~": 97,
      "¡": 98,
      "¢": 99,
      "£": 100,
      "¤": 101,
      "¥": 102,
      "¦": 103,
      "§": 104,
      "¨": 105,
      "©": 106,
      "ª": 107,
      "«": 108,
      "¬": 109,
      "®": 110,
      "¯": 111,
      "°": 112,
      "±": 113,
      "²": 114,
      "³": 115,
      "´": 116,
      "µ": 117,
      "¶": 118,
      "·": 119,
      "¸": 120,
      "¹": 121,
      "º": 122,
      "»": 123,
      "¼": 124,
      "½": 125,
      "¾": 126,
      "¿": 127,
      "Â": 128,
      "Ã": 129,
      "Ä": 130,
      "Å": 131,
      "Æ": 132,
      "Ç": 133,
      "È": 134,
      "É": 135,
      "Ê": 136,
      "Ë": 137,
      "Ì": 138,
      "Í": 139,
      "Î": 140,
      "Ï": 141,
      "Ð": 142,
      "Ñ": 143,
      "Ò": 144,
      "Ó": 145,
      "Ô": 146,
      "Õ": 147,
      "Ö": 148,
      "×": 149,
      "Ø": 150,
      "Ù": 151,
      "Ú": 152,
      "Û": 153,
      "Ü": 154,
      "Ý": 155,
      "à": 156,
      "á": 157,
      "â": 158,
      "ã": 159,
      "ä": 160,
      "å": 161,
      "æ": 162,
      "ç": 163,
      "è": 164,
      "é": 165,
      "ê": 166,
      "ë": 167,
      "ì": 168,
      "í": 169,
      "ï": 170,
      "ð": 171,
      "ĉ": 172,
      "Ċ": 173,
      "Ġ": 174,
      "Ģ": 175,
      "ģ": 176,
      "Ĥ": 177,
      "ĥ": 178,
      "Ħ": 179,
      "ħ": 180,
      "Ĩ": 181,
      "ĩ": 182,
      "Ī": 183,
      "ī": 184,
      "Ĭ": 185,
      "ĭ": 186,
      "Į": 187,
      "į": 188,
      "İ": 189,
      "ı": 190,
      "Ĳ": 191,
      "ĳ": 192,
      "Ĵ": 193,
      "ĵ": 194,
      "Ķ": 195,
      "ķ": 196,
      "ĸ": 197,
      "Ĺ": 198,
      "ĺ": 199,
      "Ļ": 200,
      "ļ": 201,
      "Ľ": 202,
      "ľ": 203,
      "Ŀ": 204,
      "ŀ": 205,
      "Ł": 206,
      "ł": 207,
      "Ń": 208,
      "Ġt": 209,
      "he": 210,
      "Ġa": 211,
      "in": 212,
      "Ġthe": 213,
      "on": 214,
      "er": 215,
      "re": 216,
      "Ġs": 217,
      "at": 218,
      "Ġo": 219,
      "ed": 220,
      "Ġw": 221,
      "en": 222,
      "nd": 223,
      "Ġc": 224,
      "it": 225,
      "or": 226,
      "es": 227,
      "al": 228,
      "is": 229,
      "Ġf": 230,
      "Ġof": 231,
      "Ġb": 232,
      "ing": 233,
      "Ġin": 234,
      "ar": 235,
      "Ġp": 236,
      "an": 237,
      "Ġand": 238,
      "ic": 239,
      "ro": 240,
      "ion": 241,
      "as": 242,
      "Ġm": 243,
      "Ġd": 244,
      "Ġto": 245,
      "le": 246,
      "Ġh": 247,
      "ou": 248,
      "Ġth": 249,
      "ent": 250,
      "Ġre": 251,
      "ĠT": 252,
      "st": 253,
      "Ġe": 254,
      "ct": 255,
      "il": 256,
      "el": 257,
      "om": 258,
      "Ġl": 259,
      "Ġn": 260,
      "ra": 261,
      "ĠS": 262,
      "ur": 263,
      "ĠA": 264,
      "et": 265,
      "ĠThe": 266,
      "ol": 267,
      "ly": 268,
      "ce": 269,
      "Ġ\"": 270,
      "im": 271,
      "Ġthat": 272,
      "id": 273,
      "ut": 274,
      "Ġon": 275,
      "Ġwas": 276,
      "ad": 277,
      "iv": 278,
      "Ġg": 279,
      "ation": 280,
      "ĠC": 281,
      "am": 282,
      "Ġ1": 283,
      "ch": 284,
      "Ġfor": 285,
      "Ġbe": 286,
      "ot": 287,
      "ig": 288,
      "ir": 289,
      "Ġst": 290,
      "Ġcon": 291,
      "ow": 292,
      "ĠI": 293,
      "ĠM": 294,
      "se": 295,
      "ver": 296,
      "ĠB": 297,
      "ith": 298,
      "ter": 299,
      "Ġas": 300,
      "her": 301,
      "Ġwh": 302,
      "ul": 303,
      "Ġwith": 304,
      "em": 305,
      "Ġu": 306,
      "ay": 307,
      "Ġit": 308,
      "Ġis": 309,
      "ĠH": 310,
      "Ġpro": 311,
      "Ġby": 312,
      "od": 313,
      "'s": 314,
      "and": 315,
      "ers": 316,
      "est": 317,
      "Ġde": 318,
      "ist": 319,
      "ĠP": 320,
      "Ġal": 321,
      "Ġan": 322,
      "Ġat": 323,
      "rom": 324,
      "ĠR": 325,
      "th": 326,
      "um": 327,
      "ĠD": 328,
      "if": 329,
      "ain": 330,
      "Ġcom": 331,
      "av": 332,
      "qu": 333,
      "Ġ2": 334,
      "ĠW": 335,
      "Ġfrom": 336,
      "op": 337,
      "us": 338,
      "ge": 339,
      "Ġex": 340,
      "Ġhe": 341,
      "os": 342,
      "ies": 343,
      "res": 344,
      "ĠF": 345,
      "ac": 346,
      "Ġse": 347,
      "ĠL": 348,
      "ity": 349,
      "Ġv": 350,
      "ore": 351,
      "pp": 352,
      "Ġsu": 353,
      "ical": 354,
      "ld": 355,
      "ĠG": 356,
      "ab": 357,
      "ri": 358,
      "ĠN": 359,
      "ess": 360,
      "Ġ(": 361,
      "Ġ)": 362,
      "ew": 363,
      "ĠE": 364,
      "ant": 365,
      "gh": 366,
      "ill": 367,
      "ud": 368,
      "Ġ19": 369,
      "ate": 370,
      "Ġch": 371,
      "ĠJ": 372,
      "ions": 373,
      "un": 374,
      "igh": 375,
      "ere": 376,
      "Ġr": 377,
      "ive": 378,
      "ich": 379,
      "all": 380,
      "rou": 381,
      "pt": 382,
      "ect": 383,
      "ment": 384,
      "00": 385,
      "Ġhis": 386,
      "ĠO": 387,
      "ip": 388,
      "ort": 389,
      "Ġsh": 390,
      "Ġwere": 391,
      "end": 392,
      "ated": 393,
      "ak": 394,
      "oc": 395,
      "ard": 396,
      "Ġy": 397,
      "art": 398,
      "Ġor": 399,
      "ong": 400,
      "Ġhad": 401,
      "Ġnot": 402,
      "nt": 403,
      "ure": 404,
      "og": 405,
      "ĠIn": 406,
      "ial": 407,
      "Ġle": 408,
      "Ġwhich": 409,
      "ber": 410,
      "Ġare": 411,
      "âĢ": 412,
      "our": 413,
      "ag": 414,
      "ap": 415,
      "ear": 416,
      "Ġk": 417,
      "du": 418,
      "ork": 419,
      "Ġint": 420,
      "Ġsp": 421,
      "ru": 422,
      "Ġcomp": 423,
      "Ġar": 424,
      "ast": 425,
      "Ġcont": 426,
      "ave": 427,
      "ost": 428,
      "ary": 429,
      "per": 430,
      "ight": 431,
      "ine": 432,
      "Ġits": 433,
      "ence": 434,
      "Ġbut": 435,
      "Ġpl": 436,
      "ov": 437,
      "red": 438,
      "ĠK": 439,
      "ell": 440,
      "out": 441,
      "ame": 442,
      "ould": 443,
      "ations": 444,
      "ous": 445,
      "cl": 446,
      "uring": 447,
      "ĠU": 448,
      "ec": 449,
      "Ġwho": 450,
      "ust": 451,
      "Ġen": 452,
      "ans": 453,
      "ther": 454,
      "cc": 455,
      "ord": 456,
      "rit": 457,
      "Ġhave": 458,
      "Ġwhe": 459,
      "iz": 460,
      "Ġab": 461,
      "Ġthis": 462,
      "ater": 463,
      "ition": 464,
      "ĠâĢ": 465,
      "Ġres": 466,
      "ĠSt": 467,
      "ction": 468,
      "Ġapp": 469,
      "ff": 470,
      "orm": 471,
      "ult": 472,
      "nder": 473,
      "Ġtheir": 474,
      "ign": 475,
      "Ġad": 476,
      "ide": 477,
      "Ġper": 478,
      "ia": 479,
      "Ġone": 480,
      "Ġhas": 481,
      "ass": 482,
      "Ġdis": 483,
      "Ġtra": 484,
      "ance": 485,
      "ack": 486,
      "ie": 487,
      "pl": 488,
      "irst": 489,
      "ĠTh": 490,
      "vel": 491,
      "ome": 492,
      "hed": 493,
      "ual": 494,
      "Ġte": 495,
      "ok": 496,
      "ile": 497,
      "ĠV": 498,
      "act": 499,
      "Ġcl": 500,
      "Ġbeen": 501,
      "Ġim": 502,
      "ry": 503,
      "ue": 504,
      "ach": 505,
      "Ġun": 506,
      "Ġev": 507,
      "Ġwork": 508,
      "ond": 509,
      "rough": 510,
      "ian": 511,
      "able": 512,
      "so": 513,
      "Ġro": 514,
      "Ġunder": 515,
      "ish": 516,
      "Ġfirst": 517,
      "low": 518,
      "Ġsc": 519,
      "Ġduring": 520,
      "ory": 521,
      "ely": 522,
      "Ġrec": 523,
      "ib": 524,
      "ced": 525,
      "ub": 526,
      "ound": 527,
      "erv": 528,
      "ime": 529,
      "fter": 530,
      "ice": 531,
      "ĠCh": 532,
      "ire": 533,
      "Ġher": 534,
      "mer": 535,
      "Ġover": 536,
      "age": 537,
      "Ġman": 538,
      "Ġalso": 539,
      "Ġj": 540,
      "Ġme": 541,
      "Ġqu": 542,
      "ough": 543,
      "ind": 544,
      "Ġtw": 545,
      "Ġmore": 546,
      "ces": 547,
      "Ġwe": 548,
      "we": 549,
      "ens": 550,
      "Ġbet": 551,
      "Ġpre": 552,
      "are": 553,
      "ep": 554,
      "ood": 555,
      "Ġ200": 556,
      "Ġ3": 557,
      "ang": 558,
      "own": 559,
      "Ġother": 560,
      "Ġdes": 561,
      "ke": 562,
      "clud": 563,
      "ĠHe": 564,
      "ress": 565,
      "Ġ20": 566,
      "Ġpart": 567,
      "Ġag": 568,
      "ark": 569,
      "Ġne": 570,
      "Ġbec": 571,
      "form": 572,
      "ract": 573,
      "over": 574,
      "ents": 575,
      "Ġatt": 576,
      "fer": 577,
      "one": 578,
      "Ġra": 579,
      "Ġnew": 580,
      "Ġcent": 581,
      "Ġwould": 582,
      "Ġinter": 583,
      "ree": 584,
      "ount": 585,
      "ied": 586,
      "Ġthey": 587,
      "Ġrem": 588,
      "Ġmost": 589,
      "ric": 590,
      "Ġout": 591,
      "ĠâĢĵ": 592,
      "Ġsy": 593,
      "Ġthrough": 594,
      "olog": 595,
      "Ġpr": 596,
      "ĠIt": 597,
      "oth": 598,
      "Ġinclud": 599,
      "Ġsub": 600,
      "lect": 601,
      "les": 602,
      "Ġinst": 603,
      "Ġinto": 604,
      "Ġtwo": 605,
      "ific": 606,
      "Ġcomm": 607,
      "au": 608,
      "ph": 609,
      "velop": 610,
      "ween": 611,
      "ors": 612,
      "Ġyou": 613,
      "ace": 614,
      "round": 615,
      "Ġprodu": 616,
      "int": 617,
      "ating": 618,
      "Ġcons": 619,
      "Ġbetween": 620,
      "Ġear": 621,
      "ail": 622,
      "Ġup": 623,
      "ates": 624,
      "Ġ'": 625,
      "Ġus": 626,
      "ms": 627,
      "ious": 628,
      "Ġall": 629,
      "gan": 630,
      "Ġkn": 631,
      "te": 632,
      "ve": 633,
      "Ġtime": 634,
      "Ġcan": 635,
      "ng": 636,
      "Ġimp": 637,
      "Ġabout": 638,
      "urn": 639,
      "ade": 640,
      "wn": 641,
      "Ġgen": 642,
      "old": 643,
      "Ġdevelop": 644,
      "Ġ18": 645,
      "Ġyear": 646,
      "land": 647,
      "ase": 648,
      "ck": 649,
      "Ġwhen": 650,
      "rib": 651,
      "Ġafter": 652,
      "ĠAl": 653,
      "ose": 654,
      "stem": 655,
      "ĠY": 656,
      "Ġhim": 657,
      "Ġthan": 658,
      "ings": 659,
      "Ġtr": 660,
      "Ġreg": 661,
      "ite": 662,
      "ild": 663,
      "hip": 664,
      "ons": 665,
      "ys": 666,
      "Ġrep": 667,
      "ĠThis": 668,
      "ures": 669,
      "Ġshe": 670,
      "inal": 671,
      "Ġsa": 672,
      "ict": 673,
      "ward": 674,
      "Ġ201": 675,
      "Ġwhile": 676,
      "Ġem": 677,
      "ural": 678,
      "way": 679,
      "Ġ4": 680,
      "ne": 681,
      "ath": 682,
      "Ġplay": 683,
      "Ġrel": 684,
      "tern": 685,
      "ros": 686,
      "ake": 687,
      "very": 688,
      "Ġboth": 689,
      "Ġ\".": 690,
      "Ġstud": 691,
      "Ġac": 692,
      "Ġmet": 693,
      "ited": 694,
      "iel": 695,
      "Ġfe": 696,
      "ruct": 697,
      "Ġinc": 698,
      "led": 699,
      "ased": 700,
      "Ġob": 701,
      "Ġexp": 702,
      "ful": 703,
      "ational": 704,
      "ities": 705,
      "ather": 706,
      "man": 707,
      "ved": 708,
      "Ġchar": 709,
      "Ġpos": 710,
      "Ġonly": 711,
      "Ġform": 712,
      "--": 713,
      "Ġoff": 714,
      "Ġso": 715,
      "ron": 716,
      "ics": 717,
      "ason": 718,
      "Ġthese": 719,
      "Ġext": 720,
      "The": 721,
      "Ġsystem": 722,
      "amp": 723,
      "Ġthem": 724,
      "ern": 725,
      "Ġacc": 726,
      "hes": 727,
      "orld": 728,
      "oy": 729,
      "ular": 730,
      "Ġdisc": 731,
      "cept": 732,
      "Ġspec": 733,
      "reat": 734,
      "iss": 735,
      "ft": 736,
      "ished": 737,
      "ject": 738,
      "ning": 739,
      "lic": 740,
      "Ġmod": 741,
      "ury": 742,
      "ook": 743,
      "ars": 744,
      "Ġdec": 745,
      "Ġcol": 746,
      "Ġ5": 747,
      "Ġam": 748,
      "Ġinv": 749,
      "ick": 750,
      "Ġ),": 751,
      "Ġpract": 752,
      "Ġsec": 753,
      "ized": 754,
      "li": 755,
      "ered": 756,
      "fore": 757,
      "Ġfound": 758,
      "hen": 759,
      "itions": 760,
      "Ġpe": 761,
      "ollow": 762,
      "Ġph": 763,
      "tain": 764,
      "ĠUn": 765,
      "Ġmat": 766,
      "dition": 767,
      "iew": 768,
      "ram": 769,
      "ield": 770,
      "Ġtrans": 771,
      "ts": 772,
      "Ġco": 773,
      "ife": 774,
      "Ġcontin": 775,
      "ember": 776,
      "Ġfil": 777,
      "Ġsome": 778,
      "Ġday": 779,
      "Ġwhere": 780,
      "Ġpo": 781,
      "ted": 782,
      "Ġsur": 783,
      "Ġbu": 784,
      "Ġagain": 785,
      "Ġgener": 786,
      "ived": 787,
      "iod": 788,
      "Ġset": 789,
      "ise": 790,
      "ĠAs": 791,
      "iver": 792,
      "ink": 793,
      "ob": 794,
      "Ġhist": 795,
      "inc": 796,
      "Ġ).": 797,
      "ross": 798,
      "anding": 799,
      "Ġunderst": 800,
      "ution": 801,
      "Ġdist": 802,
      "Ġsever": 803,
      "Ġdo": 804,
      "tle": 805,
      "Ġlater": 806,
      "Ġact": 807,
      "ĠSe": 808,
      "Ġsupp": 809,
      "ix": 810,
      "ined": 811,
      "Ġeff": 812,
      "Ġind": 813,
      "Ġmade": 814,
      "ience": 815,
      "Ġremain": 816,
      "vers": 817,
      "ten": 818,
      "Ġcharact": 819,
      "ative": 820,
      "arch": 821,
      "Ġlong": 822,
      "Ġdif": 823,
      "Ġperiod": 824,
      "Ġcomple": 825,
      "Ġinf": 826,
      "ĠAr": 827,
      "Ġref": 828,
      "eg": 829,
      "cess": 830,
      "Ġsign": 831,
      "ired": 832,
      "pect": 833,
      "ision": 834,
      "Ġcre": 835,
      "Ġthere": 836,
      "Ġpres": 837,
      "ran": 838,
      "orth": 839,
      "Ġsm": 840,
      "ble": 841,
      "ks": 842,
      "Ġprov": 843,
      "ral": 844,
      "Ġmain": 845,
      "ily": 846,
      "Ġcould": 847,
      "Ġser": 848,
      "Ġli": 849,
      "Ġfollow": 850,
      "und": 851,
      "Ġend": 852,
      "Ġ\",": 853,
      "ments": 854,
      "ature": 855,
      "ĠOn": 856,
      "ince": 857,
      "ues": 858,
      "Ġmov": 859,
      "iet": 860,
      "als": 861,
      "rop": 862,
      "aw": 863,
      "Ġass": 864,
      "ident": 865,
      "ement": 866,
      "Ġhow": 867,
      "ible": 868,
      "Ġthree": 869,
      "Ġseveral": 870,
      "ally": 871,
      "Ġincluding": 872,
      "Ġpol": 873,
      "ĠWh": 874,
      "Ġsaid": 875,
      "ĠDe": 876,
      "Ġwhat": 877,
      "Ġent": 878,
      "Ġyears": 879,
      "Ġbefore": 880,
      "Ġconst": 881,
      "Ġfl": 882,
      "row": 883,
      "elf": 884,
      "Ġseason": 885,
      "Ġest": 886,
      "Ġdef": 887,
      "Ġwrit": 888,
      "atic": 889,
      "ins": 890,
      "Ġarg": 891,
      "Ġloc": 892,
      "Ġmon": 893,
      "Ġret": 894,
      "ever": 895,
      "Ġexper": 896,
      "ued": 897,
      "Ġdem": 898,
      "Ġ6": 899,
      "chn": 900,
      "Ġ199": 901,
      "ale": 902,
      "Ġlar": 903,
      "Ġthen": 904,
      "Ġno": 905,
      "hem": 906,
      "Ġfilm": 907,
      "ug": 908,
      "Ġgame": 909,
      "Ġpers": 910,
      "Ġprocess": 911,
      "Ġrele": 912,
      "ĠNew": 913,
      "ople": 914,
      "Ġrequ": 915,
      "Ġpub": 916,
      "Ġstruct": 917,
      "Ġsuch": 918,
      "ren": 919,
      "Ġrecord": 920,
      "Ġsong": 921,
      "Ġdep": 922,
      "Ġappro": 923,
      "up": 924,
      "ĠLe": 925,
      "apt": 926,
      "Ġnum": 927,
      "Ġcentury": 928,
      "Ġele": 929,
      "Ġep": 930,
      "outh": 931,
      "Ġmany": 932,
      "ause": 933,
      "ology": 934,
      "omet": 935,
      "Ġserv": 936,
      "Ġsecond": 937,
      "ditions": 938,
      "Ġbl": 939,
      "uch": 940,
      "Ġcall": 941,
      "Ġcharacter": 942,
      "Ġdesc": 943,
      "Ġins": 944,
      "ton": 945,
      "oun": 946,
      "Ġsim": 947,
      "orn": 948,
      "oh": 949,
      "ines": 950,
      "Ġbeing": 951,
      "Ġtechn": 952,
      "Ġbegan": 953,
      "Ġ7": 954,
      "ĠAt": 955,
      "ĠCon": 956,
      "ism": 957,
      "io": 958,
      "Ġany": 959,
      "Ġshow": 960,
      "ock": 961,
      "por": 962,
      "ty": 963,
      "Ġthough": 964,
      "ange": 965,
      "Ġcrit": 966,
      "Ġearly": 967,
      "Ġwell": 968,
      "Ġresult": 969,
      "ient": 970,
      "Ġeach": 971,
      "meric": 972,
      "ands": 973,
      "abl": 974,
      "Ġdet": 975,
      "lu": 976,
      "Ġlife": 977,
      "Ġcar": 978,
      "ower": 979,
      "xt": 980,
      "ters": 981,
      "Ġrese": 982,
      "Ġwill": 983,
      "Ġop": 984,
      "ided": 985,
      "ised": 986,
      "Ġlead": 987,
      "ility": 988,
      "000": 989,
      "..": 990,
      "Ġter": 991,
      "hing": 992,
      "Ġsch": 993,
      "other": 994,
      "aj": 995,
      "Ġadv": 996,
      "air": 997,
      "ames": 998,
      "ivers": 999,
      "ness": 1000,
      "Ġart": 1001,
      "cy": 1002,
      "itut": 1003,
      "rodu": 1004,
      "Ġagainst": 1005,
      "Ġsing": 1006,
      "ĠCom": 1007,
      "Ġwater": 1008,
      "ĠRe": 1009,
      "Ġbro": 1010,
      "Ġdid": 1011,
      "aking": 1012,
      "Ġused": 1013,
      "its": 1014,
      "ĠSp": 1015,
      "Ġpat": 1016,
      "Ġprev": 1017,
      "Ġteam": 1018,
      "Ġocc": 1019,
      "Ġmin": 1020,
      "ĠAmeric": 1021,
      "Ġback": 1022,
      "quent": 1023,
      "ven": 1024,
      "Ġworld": 1025,
      "ended": 1026,
      "bum": 1027,
      "Ġdiffer": 1028,
      "incip": 1029,
      "uth": 1030,
      "ting": 1031,
      "Ġconsid": 1032,
      "Ġfour": 1033,
      "ool": 1034,
      "ared": 1035,
      "Ġbecame": 1036,
      "rol": 1037,
      "Ġhigh": 1038,
      "els": 1039,
      "Ġeven": 1040,
      "Ġfield": 1041,
      "ode": 1042,
      "Ġhum": 1043,
      "Ġ8": 1044,
      "Ġseries": 1045,
      "Ġevery": 1046,
      "Ġdra": 1047,
      "Ġjust": 1048,
      "Ġmus": 1049,
      "ann": 1050,
      "ĠSh": 1051,
      "Ġnear": 1052,
      "Ġobs": 1053,
      "Ġvar": 1054,
      "Ġpeople": 1055,
      "eng": 1056,
      "ah": 1057,
      "Ġgo": 1058,
      "Ġprincip": 1059,
      "Ġbr": 1060,
      "Ġdesign": 1061,
      "Ġeng": 1062,
      ".\"": 1063,
      "uss": 1064,
      "Ġ9": 1065,
      "ality": 1066,
      "osed": 1067,
      "ouse": 1068,
      "Ġquest": 1069,
      "ĠAn": 1070,
      "Ġ/": 1071,
      "irect": 1072,
      "hod": 1073,
      "Ġalbum": 1074,
      "Ġbel": 1075,
      "rum": 1076,
      "Ġestabl": 1077,
      "Ġknown": 1078,
      "Ġgra": 1079,
      "any": 1080,
      "Ġpoint": 1081,
      "Ġsince": 1082,
      "ists": 1083,
      "roup": 1084,
      "Ġinflu": 1085,
      "Ġcur": 1086,
      "ually": 1087,
      "Ġcity": 1088,
      "Ġpartic": 1089,
      "Ġorig": 1090,
      "ird": 1091,
      "Ġway": 1092,
      "overn": 1093,
      "Ġ17": 1094,
      "Ġcare": 1095,
      "Ġwar": 1096,
      "Ġalong": 1097,
      "Ġ10": 1098,
      "ention": 1099,
      "Ġdevelopment": 1100,
      "Ġincre": 1101,
      "Ġsmall": 1102,
      "ĠĠ": 1103,
      "Ġsupport": 1104,
      "Ġepis": 1105,
      "Ġrev": 1106,
      "ental": 1107,
      "Ġmay": 1108,
      "Ġair": 1109,
      "der": 1110,
      "min": 1111,
      "Ġknow": 1112,
      "rent": 1113,
      "ull": 1114,
      "ĠâĢĶ": 1115,
      "iqu": 1116,
      "Ġperform": 1117,
      "Ġconc": 1118,
      "ĠJoh": 1119,
      "Ġmill": 1120,
      "az": 1121,
      "Ġnumber": 1122,
      "ically": 1123,
      "ene": 1124,
      "uc": 1125,
      "gg": 1126,
      "ĠAfter": 1127,
      "Ġthink": 1128,
      "imes": 1129,
      "Ġown": 1130,
      "ĠShe": 1131,
      "Ġdeb": 1132,
      "ĠSc": 1133,
      "Ġunderstanding": 1134,
      "enn": 1135,
      "Ġrece": 1136,
      "Ġuse": 1137,
      "ĠZ": 1138,
      "ier": 1139,
      "Ġeffect": 1140,
      "Ġorgan": 1141,
      "Ġcount": 1142,
      "ĠInd": 1143,
      "ody": 1144,
      "ants": 1145,
      "son": 1146,
      "Ġmethod": 1147,
      "Ġsame": 1148,
      "ĠMar": 1149,
      "Ġsk": 1150,
      "ret": 1151,
      "Ġthose": 1152,
      "Ġ12": 1153,
      "ened": 1154,
      "ek": 1155,
      "Ġleg": 1156,
      "Ġ15": 1157,
      "ley": 1158,
      "Ġunt": 1159,
      "ĠBe": 1160,
      "Ġchall": 1161,
      "Ġbecause": 1162,
      "ax": 1163,
      "Ġtem": 1164,
      "ices": 1165,
      "Ġpass": 1166,
      "Ġbuild": 1167,
      "Ġreturn": 1168,
      "Ġconf": 1169,
      "Ġpop": 1170,
      "Ġoper": 1171,
      "ccess": 1172,
      "Ġacross": 1173,
      "Ġdescrib": 1174,
      "ĠBrit": 1175,
      "ively": 1176,
      "ĠUnited": 1177,
      "Ġmuch": 1178,
      "ank": 1179,
      "ĠIs": 1180,
      "Ġlike": 1181,
      "ĠCl": 1182,
      "Ġdown": 1183,
      "pr": 1184,
      "ane": 1185,
      "Ġmil": 1186,
      "ives": 1187,
      "Ġmy": 1188,
      "ll": 1189,
      "Ġgu": 1190,
      "get": 1191,
      "ober": 1192,
      "ĠHow": 1193,
      "ential": 1194,
      "Ġold": 1195,
      "Ġbat": 1196,
      "Ġ198": 1197,
      "Ġed": 1198,
      "yp": 1199,
      "Ġproble": 1200,
      "Ġdirect": 1201,
      "Ġcommun": 1202,
      "oph": 1203,
      "ove": 1204,
      "ple": 1205,
      "de": 1206,
      "Ġcult": 1207,
      "sequent": 1208,
      "Ġsignific": 1209,
      "Ġ194": 1210,
      "Ġlast": 1211,
      "Ġobserv": 1212,
      "ute": 1213,
      "Ġtradition": 1214,
      "Ġconditions": 1215,
      "Ġ16": 1216,
      "Ġval": 1217,
      "Ġship": 1218,
      "Ġfinal": 1219,
      "ina": 1220,
      "Ġyour": 1221,
      "ĠEng": 1222,
      "ances": 1223,
      "ĠJohn": 1224,
      "Ġcalled": 1225,
      "Ġif": 1226,
      "ivid": 1227,
      "ogra": 1228,
      "Ġwhose": 1229,
      "though": 1230,
      "Ġuntil": 1231,
      "Ġgroup": 1232,
      "Ġer": 1233,
      "Ġsomet": 1234,
      "med": 1235,
      "Ġequ": 1236,
      "Ġcap": 1237,
      "Ġepisode": 1238,
      "ajor": 1239,
      "ĠGer": 1240,
      "ior": 1241,
      "ris": 1242,
      "Ġhistor": 1243,
      "idence": 1244,
      "ional": 1245,
      "Ġtook": 1246,
      "---": 1247,
      "ets": 1248,
      "Ġpur": 1249,
      "Ġearli": 1250,
      "Ġvis": 1251,
      "Ġmem": 1252,
      "tical": 1253,
      "Ġposs": 1254,
      "ik": 1255,
      "Ġaround": 1256,
      "Ġclass": 1257,
      "Ġperson": 1258,
      "Ġexpl": 1259,
      "Ġimport": 1260,
      "Ġdifferent": 1261,
      "ipl": 1262,
      "ged": 1263,
      "Ġhistory": 1264,
      "ially": 1265,
      "Ġconcept": 1266,
      "Ġgovern": 1267,
      "Ġfar": 1268,
      "Ġke": 1269,
      "ried": 1270,
      "ians": 1271,
      "oot": 1272,
      "str": 1273,
      "Ġoften": 1274,
      "une": 1275,
      "Ġsuccess": 1276,
      "Ġstand": 1277,
      "Ġrest": 1278,
      "my": 1279,
      "app": 1280,
      "Ġarr": 1281,
      "Ġstr": 1282,
      "Ġresp": 1283,
      "Ġrun": 1284,
      "ner": 1285,
      "Ġturn": 1286,
      "Ġintrodu": 1287,
      "ape": 1288,
      "ences": 1289,
      "iving": 1290,
      "Ġcomb": 1291,
      "Ġprevious": 1292,
      "Ġide": 1293,
      "ox": 1294,
      "Ġview": 1295,
      "arc": 1296,
      "ately": 1297,
      "Ġanal": 1298,
      "Ġwithout": 1299,
      "olution": 1300,
      "Ġ197": 1301,
      "Ġrather": 1302,
      "Ġpolit": 1303,
      "Ġpublic": 1304,
      "ize": 1305,
      "ĠCol": 1306,
      "ĠAust": 1307,
      "Ġcat": 1308,
      "Ġmodern": 1309,
      "rew": 1310,
      "Ġadd": 1311,
      "ĠThey": 1312,
      "Ġevent": 1313,
      "ĠWar": 1314,
      "Ġsingle": 1315,
      "Ġcomplex": 1316,
      "sh": 1317,
      "ense": 1318,
      "Ġec": 1319,
      "Ġstart": 1320,
      "Ġinstrum": 1321,
      "Ġstudy": 1322,
      "Ġnow": 1323,
      "Ġneed": 1324,
      "ruction": 1325,
      "Ġ196": 1326,
      "Ġfund": 1327,
      "ex": 1328,
      "Ġinstitut": 1329,
      "Ġopp": 1330,
      "ividual": 1331,
      "ination": 1332,
      "Ġstill": 1333,
      "pir": 1334,
      "ĠFor": 1335,
      "Ġmusic": 1336,
      "ym": 1337,
      "Ġworking": 1338,
      "Ġexperience": 1339,
      "ium": 1340,
      "Ġdeveloped": 1341,
      "Ġchang": 1342,
      "Ġprop": 1343,
      "Ġfram": 1344,
      "porary": 1345,
      "ĠAnd": 1346,
      "aving": 1347,
      "Ġrelations": 1348,
      "Ġprog": 1349,
      "Ġ11": 1350,
      "ards": 1351,
      "Ġfam": 1352,
      "ĠAmerican": 1353,
      "ves": 1354,
      "bers": 1355,
      "ling": 1356,
      "Ġmer": 1357,
      "Ġplace": 1358,
      "Ġtheore": 1359,
      "ĠMay": 1360,
      "Ġess": 1361,
      "ges": 1362,
      "hers": 1363,
      "Ġwithin": 1364,
      "Ġprof": 1365,
      "Ġel": 1366,
      "Ġ13": 1367,
      "Ġrequired": 1368,
      "iron": 1369,
      "iam": 1370,
      "Ġhead": 1371,
      "oss": 1372,
      "ological": 1373,
      "ĠUS": 1374,
      "here": 1375,
      "Ġsignificant": 1376,
      "ides": 1377,
      "riend": 1378,
      "anc": 1379,
      "Ġlit": 1380,
      "Ġreleased": 1381,
      "eral": 1382,
      "ĠQ": 1383,
      "ĠBl": 1384,
      "ogn": 1385,
      "Ġstate": 1386,
      "ified": 1387,
      "Ġmake": 1388,
      "Ġdeep": 1389,
      ",\"": 1390,
      "Ġbest": 1391,
      "Ġmaintain": 1392,
      "Ã©": 1393,
      "Ġoriginal": 1394,
      "Ġbelie": 1395,
      "Ġreceived": 1396,
      "ilt": 1397,
      "empt": 1398,
      "Ġlarge": 1399,
      "eb": 1400,
      "ert": 1401,
      "mit": 1402,
      "Ġlear": 1403,
      "ering": 1404,
      "Ġevidence": 1405,
      "Ġparticular": 1406,
      "aced": 1407,
      "ining": 1408,
      "Ġappear": 1409,
      "Ġrepres": 1410,
      "Ġfollowing": 1411,
      "work": 1412,
      "ĠAd": 1413,
      "iversity": 1414,
      "wards": 1415,
      "Ġvery": 1416,
      "atural": 1417,
      "Ġgood": 1418,
      "Ġmark": 1419,
      "Ġestablished": 1420,
      "Ġmillion": 1421,
      "ission": 1422,
      "Ġhuman": 1423,
      "Ġstructures": 1424,
      "ented": 1425,
      "ĠOct": 1426,
      "Ġsoc": 1427,
      "ope": 1428,
      "Ġgl": 1429,
      "ĠEd": 1430,
      "Ġfind": 1431,
      "Ġamong": 1432,
      "ysis": 1433,
      "uthor": 1434,
      "Ġmathem": 1435,
      "Ġ14": 1436,
      "rid": 1437,
      "ages": 1438,
      "Ġsubsequent": 1439,
      "Ġsay": 1440,
      "Ġwin": 1441,
      "gin": 1442,
      "ĠWhen": 1443,
      "Ġ$": 1444,
      "ulation": 1445,
      "Ġcor": 1446,
      "oad": 1447,
      "Ġmajor": 1448,
      "ĠBritish": 1449,
      "Ġrelationship": 1450,
      "Ġregion": 1451,
      "hest": 1452,
      "ellect": 1453,
      "ured": 1454,
      "Ġground": 1455,
      "ored": 1456,
      "Ġprom": 1457,
      "amed": 1458,
      "Ġinstitutions": 1459,
      "Ġintellect": 1460,
      "ording": 1461,
      "ribut": 1462,
      "ĠAug": 1463,
      "Ġmethods": 1464,
      "ĠAm": 1465,
      "Ġmed": 1466,
      "Ġlocal": 1467,
      "Ġmater": 1468,
      "ĠAll": 1469,
      "Ġright": 1470,
      "ĠHowever": 1471,
      "used": 1472,
      "Ġindividual": 1473,
      "Ġwind": 1474,
      "Ġdraw": 1475,
      "ĠDuring": 1476,
      "abor": 1477,
      "Ġmeas": 1478,
      "ilar": 1479,
      "ĠBy": 1480,
      "less": 1481,
      "Ġhel": 1482,
      "ĠAugust": 1483,
      "Ġconv": 1484,
      "Ġprim": 1485,
      "ĠSept": 1486,
      "Ġrepl": 1487,
      "Ġoffic": 1488,
      "Ġspecies": 1489,
      "ash": 1490,
      "Ġlight": 1491,
      "Ġbre": 1492,
      "ĠSeptember": 1493,
      "aim": 1494,
      "itary": 1495,
      "olved": 1496,
      "ĠStates": 1497,
      "Ġmar": 1498,
      "Ġelect": 1499,
      "elt": 1500,
      "Ġcontrol": 1501,
      "Ġcour": 1502,
      "Ġsubject": 1503,
      "Ġmaterial": 1504,
      "Ġattempt": 1505,
      "ĠWorld": 1506,
      "Ġbeh": 1507,
      "Ġlim": 1508,
      "ained": 1509,
      "Ġnever": 1510,
      "Ġstre": 1511,
      "iven": 1512,
      "Ġmor": 1513,
      "raft": 1514,
      "ney": 1515,
      "istic": 1516,
      "Ġpower": 1517,
      "Ġhome": 1518,
      "Ġtheoretical": 1519,
      "ework": 1520,
      "ways": 1521,
      "asing": 1522,
      "Ġattack": 1523,
      "ĠJu": 1524,
      "Ġarch": 1525,
      "ĠPl": 1526,
      "com": 1527,
      "Ġanother": 1528,
      "aut": 1529,
      "Ġ0": 1530,
      "Ġkm": 1531,
      "orts": 1532,
      "oint": 1533,
      "Ġnatural": 1534,
      "Ġpolitical": 1535,
      "emporary": 1536,
      "akes": 1537,
      "Ġintellectual": 1538,
      "Ġarea": 1539,
      "Ġcapt": 1540,
      "ĠWe": 1541,
      "hern": 1542,
      "Ġframework": 1543,
      "Ġsugg": 1544,
      "Ġsuggest": 1545,
      "Ġinn": 1546,
      "ude": 1547,
      "Ġpractical": 1548,
      "ival": 1549,
      "ript": 1550,
      "Ġrecogn": 1551,
      "tal": 1552,
      "Ġhelp": 1553,
      "Ġauthor": 1554,
      "ked": 1555,
      "'t": 1556,
      "gen": 1557,
      "ected": 1558,
      "Ġproper": 1559,
      "Ġchild": 1560,
      "Ġshould": 1561,
      "ales": 1562,
      "Ġ195": 1563,
      "ery": 1564,
      "the": 1565,
      "Ġpar": 1566,
      "ena": 1567,
      "ĠNov": 1568,
      "Ġtemper": 1569,
      "Ġsix": 1570,
      "Ġrole": 1571,
      "Ġless": 1572,
      "ĠGerman": 1573,
      "Ġdest": 1574,
      "Ġfin": 1575,
      "ledge": 1576,
      "Ġallow": 1577,
      "ĠAustral": 1578,
      "ached": 1579,
      "by": 1580,
      "ĠCar": 1581,
      "ring": 1582,
      "Ġdiscover": 1583,
      "Ġcamp": 1584,
      "Ġresearch": 1585,
      "Ġapproach": 1586,
      "Ġproduct": 1587,
      "Ġmust": 1588,
      "Ġav": 1589,
      "Ġthought": 1590,
      "Ġ193": 1591,
      "Ġlarg": 1592,
      "Ġ[": 1593,
      "Ġann": 1594,
      "ean": 1595,
      "Ġnorth": 1596,
      "Ġprinciples": 1597,
      "ĠOctober": 1598,
      "ization": 1599,
      "rist": 1600,
      "Ġprec": 1601,
      "iation": 1602,
      "chie": 1603,
      "Ġpred": 1604,
      "dom": 1605,
      "Ġproduced": 1606,
      "ories": 1607,
      "Ġca": 1608,
      "rote": 1609,
      "anu": 1610,
      "Ġdescribed": 1611,
      "ending": 1612,
      "Ġlist": 1613,
      "Ġopen": 1614,
      "Ġmonth": 1615,
      "Ġaff": 1616,
      "Ġ191": 1617,
      "let": 1618,
      "Ġfriend": 1619,
      "Ġbuilt": 1620,
      "utes": 1621,
      "side": 1622,
      "self": 1623,
      "Ġident": 1624,
      "ĠNorth": 1625,
      "Ġsimilar": 1626,
      "olars": 1627,
      "Ġmanag": 1628,
      "yn": 1629,
      "oman": 1630,
      "Ġsomething": 1631,
      "Ġschool": 1632,
      "ĠYork": 1633,
      "par": 1634,
      "Ġbook": 1635,
      "Ġyoung": 1636,
      "Ġ]": 1637,
      "irc": 1638,
      "ograph": 1639,
      "ler": 1640,
      "ĠThese": 1641,
      "âĢĿ": 1642,
      "Ġfun": 1643,
      "Ġleft": 1644,
      "Ġfive": 1645,
      "Ġfundam": 1646,
      "Ġposition": 1647,
      "Ġproduction": 1648,
      "Ġdr": 1649,
      "Ġplayed": 1650,
      "Ġgreat": 1651,
      "Ġengine": 1652,
      "Ġdel": 1653,
      "Ġbody": 1654,
      "ĠJune": 1655,
      "Ġincluded": 1656,
      "ades": 1657,
      "aster": 1658,
      "Ġsystems": 1659,
      "mon": 1660,
      "ators": 1661,
      "Ġcompet": 1662,
      "ither": 1663,
      "Ġknowledge": 1664,
      "rought": 1665,
      "Ġcoll": 1666,
      "to": 1667,
      "Ġreflect": 1668,
      "Ġvers": 1669,
      "ĠPh": 1670,
      "Ġsee": 1671,
      "day": 1672,
      "Ġwrote": 1673,
      "ien": 1674,
      "ai": 1675,
      "ĠHar": 1676,
      "Ġlet": 1677,
      "ĠJuly": 1678,
      "Ġheav": 1679,
      "Ġsol": 1680,
      "cing": 1681,
      "Ġport": 1682,
      "ĠKing": 1683,
      "ital": 1684,
      "gy": 1685,
      "ched": 1686,
      "Ġ%": 1687,
      "Ġmen": 1688,
      "Ġthird": 1689,
      "ĠNovember": 1690,
      "oring": 1691,
      "ĠPro": 1692,
      "ĠBar": 1693,
      "Ġsl": 1694,
      "alf": 1695,
      "Ġfre": 1696,
      "Ġnext": 1697,
      "Ġline": 1698,
      "ĠSch": 1699,
      "Ġstory": 1700,
      "ats": 1701,
      "Ġmathemat": 1702,
      "Ġspe": 1703,
      "Ġdays": 1704,
      "duct": 1705,
      "pril": 1706,
      "illed": 1707,
      "ĠWill": 1708,
      "Ġfore": 1709,
      "ĠEu": 1710,
      "Ġlook": 1711,
      "ĠMc": 1712,
      "ĠEar": 1713,
      "Ġdiscuss": 1714,
      "ead": 1715,
      "of": 1716,
      "Ġge": 1717,
      "Ġwon": 1718,
      "Ġdue": 1719,
      "Ġinit": 1720,
      "Ġsouth": 1721,
      "ĠApril": 1722,
      "ĠFl": 1723,
      "Ġcontinued": 1724,
      "ilos": 1725,
      "isc": 1726,
      "ĠYou": 1727,
      "ĠMarch": 1728,
      "Ġachie": 1729,
      "Ġlevel": 1730,
      "Ġfew": 1731,
      "ertain": 1732,
      "Ġland": 1733,
      "Ġgrow": 1734,
      "Ġimportant": 1735,
      "Ġincreasing": 1736,
      "Ġbrought": 1737,
      "Ġforces": 1738,
      "Ġreform": 1739,
      "iety": 1740,
      "alk": 1741,
      "mp": 1742,
      "Ġfact": 1743,
      "ned": 1744,
      "Ġname": 1745,
      "Ġinvest": 1746,
      "ĠBut": 1747,
      "ĠGe": 1748,
      "Ġmean": 1749,
      "ĠCan": 1750,
      "Ġbased": 1751,
      "Ġbo": 1752,
      "ably": 1753,
      "Ġreport": 1754,
      "Ġinterest": 1755,
      "rad": 1756,
      "Ġconsider": 1757,
      "ĠThere": 1758,
      "yl": 1759,
      "augh": 1760,
      "Ġant": 1761,
      "Ġconcern": 1762,
      "mber": 1763,
      "Ġtake": 1764,
      "Ġrespect": 1765,
      "Ġpubl": 1766,
      "ator": 1767,
      "Ġpattern": 1768,
      "Ġlate": 1769,
      "Ġbetter": 1770,
      "na": 1771,
      "urther": 1772,
      "ains": 1773,
      "Ġcame": 1774,
      "Ġhouse": 1775,
      "Ġdeath": 1776,
      "ĠPr": 1777,
      "Ġprot": 1778,
      "Ġgr": 1779,
      "Ġphys": 1780,
      "Ġreve": 1781,
      "Ġareas": 1782,
      "Ġbas": 1783,
      "cember": 1784,
      "onom": 1785,
      "ĠWhile": 1786,
      "Ġphilos": 1787,
      "Ġlow": 1788,
      "Ġseem": 1789,
      "Ġquestion": 1790,
      "ius": 1791,
      "ĠSouth": 1792,
      "acy": 1793,
      "rown": 1794,
      "yd": 1795,
      "Ġhistorical": 1796,
      "ĠII": 1797,
      "erm": 1798,
      "ĠDecember": 1799,
      "Ġupon": 1800,
      "ressed": 1801,
      "Ġdam": 1802,
      "Ġiss": 1803,
      "Ġreal": 1804,
      "Ġprovided": 1805,
      "Ġshort": 1806,
      "anuary": 1807,
      "ander": 1808,
      "Ġ30": 1809,
      "ration": 1810,
      "ĠJanuary": 1811,
      "Ġothers": 1812,
      "ague": 1813,
      "ĠTe": 1814,
      "Ġsent": 1815,
      "Ġemer": 1816,
      "anted": 1817,
      "Ġaddition": 1818,
      "Ġfundamental": 1819,
      "Ġcultural": 1820,
      "Ġheld": 1821,
      "ension": 1822,
      "Ġhar": 1823,
      "ĠOr": 1824,
      "Ġchalleng": 1825,
      "Ġfamily": 1826,
      "Ġled": 1827,
      "Ġ=": 1828,
      "Ġquestions": 1829,
      "Ġbuilding": 1830,
      "Ġtyp": 1831,
      "Ġgovernment": 1832,
      "Ġexist": 1833,
      "ising": 1834,
      "viron": 1835,
      "Ġscholars": 1836,
      "Ġ192": 1837,
      "Ġcle": 1838,
      "alth": 1839,
      "ott": 1840,
      "ĠPar": 1841,
      "ball": 1842,
      "Ġalways": 1843,
      "esp": 1844,
      "Ġstorm": 1845,
      "apan": 1846,
      "Ġimpro": 1847,
      "ones": 1848,
      "ops": 1849,
      "inary": 1850,
      "Ġoffer": 1851,
      "ties": 1852,
      "Ġfull": 1853,
      "mb": 1854,
      "Ġmult": 1855,
      "lex": 1856,
      "Ġmilitary": 1857,
      "stant": 1858,
      "Ġtop": 1859,
      "Ġbecome": 1860,
      "Ġapplic": 1861,
      "phas": 1862,
      "ĠHis": 1863,
      "go": 1864,
      "read": 1865,
      "Ġeas": 1866,
      "omin": 1867,
      "Ġdemon": 1868,
      "ĠX": 1869,
      "Ġclaim": 1870,
      "Ġla": 1871,
      "ĠGu": 1872,
      "ideo": 1873,
      "ister": 1874,
      "Ġreview": 1875,
      "Ġmid": 1876,
      "Ġcover": 1877,
      "Ġhowever": 1878,
      "Ġtrack": 1879,
      "Ġside": 1880,
      "sw": 1881,
      "Ġtit": 1882,
      "Ġour": 1883,
      "atures": 1884,
      "aped": 1885,
      "reen": 1886,
      "ĠEn": 1887,
      "Ġband": 1888,
      "Ġexam": 1889,
      "Ġconn": 1890,
      "esc": 1891,
      "ches": 1892,
      "ĠEurop": 1893,
      "Ġnamed": 1894,
      "ĠJapan": 1895,
      "Ġfollowed": 1896,
      "Ġstrong": 1897,
      "Ġwat": 1898,
      "ification": 1899,
      "oon": 1900,
      "Ġpresent": 1901,
      "eter": 1902,
      "rench": 1903,
      "ument": 1904,
      "Ġformer": 1905,
      "fic": 1906,
      "Ġcirc": 1907,
      "chan": 1908,
      "Ġcountry": 1909,
      "rem": 1910,
      "ivision": 1911,
      "Ġread": 1912,
      "ĠOne": 1913,
      "Ġhand": 1914,
      "Ġtoo": 1915,
      "ĠFran": 1916,
      "Ġconsidered": 1917,
      "Ġ25": 1918,
      "Ġearlier": 1919,
      "Ġsit": 1920,
      "Ġcommon": 1921,
      "ying": 1922,
      "Ġdecl": 1923,
      "Ġsold": 1924,
      "Ġhig": 1925,
      "Ġtest": 1926,
      "ection": 1927,
      "?\"": 1928,
      "Ġcatal": 1929,
      "ĠBat": 1930,
      "Ġfac": 1931,
      "Ġdemonstr": 1932,
      "ille": 1933,
      "Ġill": 1934,
      "Ġentire": 1935,
      "Ġempir": 1936,
      "Ġonce": 1937,
      "ailed": 1938,
      "Ġproblems": 1939,
      "ploy": 1940,
      "...": 1941,
      "itude": 1942,
      "aign": 1943,
      "Ġresearc": 1944,
      "Ġinnov": 1945,
      "ipp": 1946,
      "Ġsw": 1947,
      "enge": 1948,
      "Ġorder": 1949,
      "osp": 1950,
      "aken": 1951,
      "ought": 1952,
      "ĠÂ": 1953,
      "Ġconduct": 1954,
      "Ġwent": 1955,
      "Ġtown": 1956,
      "Ġcreated": 1957,
      "play": 1958,
      "Ġsaw": 1959,
      "Ġcurrent": 1960,
      "estern": 1961,
      "Ġbeaut": 1962,
      "Ġgun": 1963,
      "Ġtechniqu": 1964,
      "Ġcritical": 1965,
      "Ġpreviously": 1966,
      "Ġgave": 1967,
      "ole": 1968,
      "Ġmembers": 1969,
      "Ġemphas": 1970,
      "Ġrad": 1971,
      "ently": 1972,
      "uries": 1973,
      "bs": 1974,
      "ebru": 1975,
      "Ġmag": 1976,
      "ability": 1977,
      "Ġcontemporary": 1978,
      "Ġoccup": 1979,
      "Ġcase": 1980,
      "Ġenviron": 1981,
      "ebruary": 1982,
      "ĠNo": 1983,
      "ĠSec": 1984,
      "ĠWest": 1985,
      "ps": 1986,
      "Ġresearchers": 1987,
      "ĠFebruary": 1988,
      "Ġbroad": 1989,
      "Ġinvestig": 1990,
      "ensive": 1991,
      "Ġhold": 1992,
      "Ġpress": 1993,
      "Ġdistin": 1994,
      "Ġgames": 1995,
      "Ġinteg": 1996,
      "ĠChrist": 1997,
      "Ġthroughout": 1998,
      "iment": 1999,
      "lection": 2000,
      "epend": 2001,
      "Ġextended": 2002,
      "Ġlaw": 2003,
      "Ġrefer": 2004,
      "Ġever": 2005,
      "line": 2006,
      "Ġsound": 2007,
      "ondon": 2008,
      "Ġconvers": 2009,
      "Ġrange": 2010,
      "Ġhon": 2011,
      "Ġtimes": 2012,
      "Ġriver": 2013,
      "ĠFrench": 2014,
      "ĠNational": 2015,
      "ĠLondon": 2016,
      "Ġcareer": 2017,
      "Ġremained": 2018,
      "Ġinform": 2019,
      "alls": 2020,
      "ĠGra": 2021,
      "Ġmatch": 2022,
      "ont": 2023,
      "Ġphilosoph": 2024,
      "Ġpatterns": 2025,
      "uing": 2026,
      "Ġworked": 2027,
      "lev": 2028,
      "hel": 2029,
      "port": 2030,
      "Ġtransform": 2031,
      "Ġessay": 2032,
      "Ġproject": 2033,
      "Ġcast": 2034,
      "Ġalthough": 2035,
      "Ġpractice": 2036,
      "Ġobject": 2037,
      "Ġwritten": 2038,
      "itect": 2039,
      "Ġdiscipl": 2040,
      "Ġitself": 2041,
      "ception": 2042,
      "Ġinclude": 2043,
      "Ġhaving": 2044,
      "ours": 2045,
      "ony": 2046,
      "Ġintroduced": 2047,
      "Ġpost": 2048,
      "iated": 2049,
      "imate": 2050,
      "Ġoccur": 2051,
      "Ġanalysis": 2052,
      "Ġpublished": 2053,
      "Ġfurther": 2054,
      "Ġargued": 2055,
      "ots": 2056,
      "itution": 2057,
      "bo": 2058,
      "Ġspecial": 2059,
      "Ġbi": 2060,
      "ĠMich": 2061,
      "arily": 2062,
      "Ġpossible": 2063,
      "Ġcontribut": 2064,
      "Ġconstruction": 2065,
      "Ġ2010": 2066,
      "Ġcross": 2067,
      "etwork": 2068,
      "Ġworks": 2069,
      "Ġsum": 2070,
      "ĠRes": 2071,
      "Ġsat": 2072,
      "Ġbegin": 2073,
      "Ġroom": 2074,
      "ression": 2075,
      "Ġchallenge": 2076,
      "rial": 2077,
      "ropical": 2078,
      "Ġaccount": 2079,
      "urg": 2080,
      "Ġparticularly": 2081,
      "Ġvideo": 2082,
      "Ġtru": 2083,
      "Ġpast": 2084,
      "Ġtravel": 2085,
      "Ġappe": 2086,
      "ĠEx": 2087,
      "Ġfelt": 2088,
      "Ġnight": 2089,
      "Ġcentral": 2090,
      "Ġplan": 2091,
      "Ġattract": 2092,
      "Ġsystematic": 2093,
      "Ġflow": 2094,
      "Ġnature": 2095,
      "Ġadapt": 2096,
      "aps": 2097,
      "ront": 2098,
      "lying": 2099,
      "Ġrelease": 2100,
      "oe": 2101,
      "Ġseen": 2102,
      "ike": 2103,
      "ael": 2104,
      "Ġinstruments": 2105,
      "Ġopt": 2106,
      "uck": 2107,
      "Ġmechan": 2108,
      "Ġstat": 2109,
      "Ġdrawing": 2110,
      "Ġattention": 2111,
      "ese": 2112,
      "erc": 2113,
      "Ġlittle": 2114,
      "view": 2115,
      "now": 2116,
      "ae": 2117,
      "Ġcome": 2118,
      "Ġindu": 2119,
      "oice": 2120,
      "Ġmount": 2121,
      "Ġgenerations": 2122,
      "hens": 2123,
      "Ġhimself": 2124,
      "Ġhalf": 2125,
      "Ġtre": 2126,
      "ze": 2127,
      "Ġreturned": 2128,
      "hat": 2129,
      "Ġenc": 2130,
      "Ġmaking": 2131,
      "ĠAng": 2132,
      "ills": 2133,
      "Ġcontinue": 2134,
      "Ġeventually": 2135,
      "anced": 2136,
      "Ġanim": 2137,
      "Ġvol": 2138,
      "ĠAcc": 2139,
      "iverse": 2140,
      "ibr": 2141,
      "Ġproblem": 2142,
      "urch": 2143,
      "ĠBr": 2144,
      "tic": 2145,
      "ham": 2146,
      "Ġcampaign": 2147,
      "Ġ2008": 2148,
      "âĢľ": 2149,
      "Ġage": 2150,
      "ords": 2151,
      "Ġmoved": 2152,
      "ĠWilliam": 2153,
      "lish": 2154,
      "ĠChar": 2155,
      "ray": 2156,
      "Ġ2009": 2157,
      "ana": 2158,
      "Ġabs": 2159,
      "Ġtheory": 2160,
      "gether": 2161,
      "Ġtogether": 2162,
      "ĠGen": 2163,
      "ata": 2164,
      "ĠWith": 2165,
      "ficult": 2166,
      "ara": 2167,
      "Ġspecific": 2168,
      "Ġmonths": 2169,
      "Ġdoes": 2170,
      "ĠAlex": 2171,
      "ivity": 2172,
      "nal": 2173,
      "Ġlost": 2174,
      "head": 2175,
      "ung": 2176,
      "Ġcareful": 2177,
      "Ġera": 2178,
      "urb": 2179,
      "most": 2180,
      "ĠGeor": 2181,
      "ases": 2182,
      "Ġcontinues": 2183,
      "Ġavail": 2184,
      "ffic": 2185,
      "oyal": 2186,
      "Ġstar": 2187,
      "âĢĻ": 2188,
      "Ġ2011": 2189,
      "ison": 2190,
      "Ġremark": 2191,
      "ving": 2192,
      "Ġsuper": 2193,
      "Ġ&": 2194,
      "usion": 2195,
      "ĠDav": 2196,
      "Ġ100": 2197,
      "Ġshif": 2198,
      "Ġarchitect": 2199,
      "zym": 2200,
      "Ġcompany": 2201,
      "Ġdev": 2202,
      "omen": 2203,
      "Ġcommit": 2204,
      "ĠTra": 2205,
      "ceed": 2206,
      "Ġcenturies": 2207,
      "Ġintegr": 2208,
      "Ġelements": 2209,
      "ĠHer": 2210,
      "Ġ21": 2211,
      "Ġusing": 2212,
      "itive": 2213,
      "Ġroad": 2214,
      "osition": 2215,
      "ĠSu": 2216,
      "Ġlands": 2217,
      "Ġmeasure": 2218,
      "ios": 2219,
      "ĠCo": 2220,
      "Ġbus": 2221,
      "Ġsqu": 2222,
      "ĠEngland": 2223,
      "Ġmultip": 2224,
      "Ġdecades": 2225,
      "action": 2226,
      "Ġprofess": 2227,
      "Ġcr": 2228,
      "Ġrul": 2229,
      "Ġtraditions": 2230,
      "Ġeffects": 2231,
      "ĠCent": 2232,
      "elling": 2233,
      "ĠComm": 2234,
      "Ġquality": 2235,
      "Ġversion": 2236,
      "Ġ2007": 2237,
      "Ġ24": 2238,
      "adem": 2239,
      "rest": 2240,
      "ishing": 2241,
      "Ġwriting": 2242,
      "Ġcoast": 2243,
      "ounter": 2244,
      "Ġchanges": 2245,
      "ientific": 2246,
      "ĠEl": 2247,
      "Ġstri": 2248,
      "resh": 2249,
      "ĠĠĠĠ": 2250,
      "otion": 2251,
      "Ġmight": 2252,
      "Ġord": 2253,
      "ĠMan": 2254,
      "ford": 2255,
      "Ġaut": 2256,
      "ĠPark": 2257,
      "ĠCity": 2258,
      "Ġjo": 2259,
      "Ġgiven": 2260,
      "ĠCount": 2261,
      "Ġresults": 2262,
      "ĠWhat": 2263,
      "Ġinvolved": 2264,
      "Ġcommunities": 2265,
      "St": 2266,
      "ĠEnglish": 2267,
      "ully": 2268,
      "Ġgeneral": 2269,
      "aged": 2270,
      "ament": 2271,
      "cent": 2272,
      "ements": 2273,
      "Ġaway": 2274,
      "ĠMus": 2275,
      "Ġred": 2276,
      "Ġsett": 2277,
      "roy": 2278,
      "ĠIf": 2279,
      "Ġz": 2280,
      "Ġcompar": 2281,
      "ĠMe": 2282,
      "Ġchildren": 2283,
      "idge": 2284,
      "Ġsour": 2285,
      "Ġinfluential": 2286,
      "Ġservice": 2287,
      "Ġdifficult": 2288,
      "ula": 2289,
      "iness": 2290,
      "Ġfell": 2291,
      "Ġspent": 2292,
      "ching": 2293,
      "bor": 2294,
      "Ġchap": 2295,
      "ĠAir": 2296,
      "lands": 2297,
      "ĠAlthough": 2298,
      "rag": 2299,
      "Ġstage": 2300,
      "Ġrecorded": 2301,
      "Ġfeature": 2302,
      "Ġunc": 2303,
      "Ġ2012": 2304,
      "Ġstated": 2305,
      "ampions": 2306,
      "Ġpersonal": 2307,
      "Ġcy": 2308,
      "yle": 2309,
      "ights": 2310,
      "Ġreveal": 2311,
      "Ġget": 2312,
      "ĠTo": 2313,
      "Ġregular": 2314,
      "Ġjour": 2315,
      "Ġenvironment": 2316,
      "Ġweek": 2317,
      "ĠCal": 2318,
      "ĠSome": 2319,
      "ries": 2320,
      "eks": 2321,
      "eated": 2322,
      "onse": 2323,
      "be": 2324,
      "ĠAccording": 2325,
      "Ġfire": 2326,
      "ev": 2327,
      "Ġ22": 2328,
      "Ġbar": 2329,
      "arent": 2330,
      "ĠPol": 2331,
      "Ġchange": 2332,
      "osy": 2333,
      "rior": 2334,
      "cil": 2335,
      "Ġsurround": 2336,
      "Ġmeet": 2337,
      "Ġcreating": 2338,
      "aily": 2339,
      "ulated": 2340,
      "Ġsil": 2341,
      "Ġpractition": 2342,
      "Ġannoun": 2343,
      "Ġnetwork": 2344,
      "den": 2345,
      "ote": 2346,
      "iting": 2347,
      "sp": 2348,
      "Ġslow": 2349,
      "craft": 2350,
      "Ġremains": 2351,
      "ĠRiver": 2352,
      "Ġemploy": 2353,
      "alt": 2354,
      "uk": 2355,
      "aff": 2356,
      "Ġvict": 2357,
      "Ġeast": 2358,
      "Ġdoc": 2359,
      "Ġtechniques": 2360,
      "use": 2361,
      "Ġste": 2362,
      "ĠSer": 2363,
      "iff": 2364,
      "Ġnon": 2365,
      "Ġgenu": 2366,
      "anded": 2367,
      "Ġ190": 2368,
      "Ġdebate": 2369,
      "Ġblack": 2370,
      "Ġclub": 2371,
      "ĠMin": 2372,
      "Ġpredict": 2373,
      "ĠJack": 2374,
      "Ġshaped": 2375,
      "Ġfather": 2376,
      "Ġcollabor": 2377,
      "Ġcop": 2378,
      "Ġplayer": 2379,
      "ĠCanad": 2380,
      "Ġcritic": 2381,
      "ush": 2382,
      "Ġcost": 2383,
      "Ġmultiple": 2384,
      "ĠHigh": 2385,
      "Ġinfluence": 2386,
      "osing": 2387,
      "Ġweeks": 2388,
      "Ġsuccessful": 2389,
      "Ġtex": 2390,
      "Ġunderstood": 2391,
      "Ġdeterm": 2392,
      "Ġfresh": 2393,
      "reet": 2394,
      "Ġbal": 2395,
      "Ġtexts": 2396,
      "Ġempirical": 2397,
      "Ġver": 2398,
      "Ġresponse": 2399,
      "Ġtaken": 2400,
      "rance": 2401,
      "Ġforce": 2402,
      "ĠUniversity": 2403,
      "ĊĠ": 2404,
      "Ġproperties": 2405,
      "Ġwest": 2406,
      "ires": 2407,
      "rick": 2408,
      "Ġcarried": 2409,
      "Ġresulting": 2410,
      "Ġtotal": 2411,
      "yond": 2412,
      "Ġdesigned": 2413,
      "Ġarrived": 2414,
      "Ġearliest": 2415,
      "aches": 2416,
      "imens": 2417,
      "Ġleast": 2418,
      "ends": 2419,
      "ĠSam": 2420,
      "Ġtension": 2421,
      "Ġopened": 2422,
      "Ġvoc": 2423,
      "ief": 2424,
      "Ġ23": 2425,
      "Ġdou": 2426,
      "ĠJames": 2427,
      "ef": 2428,
      "Ġmodel": 2429,
      "Ġmeaning": 2430,
      "Ġey": 2431,
      "Ġroute": 2432,
      "ivil": 2433,
      "Ġmovement": 2434,
      "levision": 2435,
      "ĠAb": 2436,
      "erson": 2437,
      "ows": 2438,
      "atory": 2439,
      "Ġleading": 2440,
      "ĠVal": 2441,
      "Ġreported": 2442,
      "Ġmass": 2443,
      "Ġdemands": 2444,
      "Ġelement": 2445,
      "Ġcou": 2446,
      "Ġfeel": 2447,
      "Ġagre": 2448,
      "elves": 2449,
      "Ġ2006": 2450,
      "ĠRec": 2451,
      "Ġenzym": 2452,
      "Ġnort": 2453,
      "Ġdisp": 2454,
      "aces": 2455,
      "imately": 2456,
      "Ġmind": 2457,
      "Ġput": 2458,
      "Ġaspect": 2459,
      "rain": 2460,
      "nthes": 2461,
      "Ġconsist": 2462,
      "Ġreached": 2463,
      "omm": 2464,
      "Ġnav": 2465,
      "Ġextra": 2466,
      "Ġprinciple": 2467,
      "Ġbecom": 2468,
      "off": 2469,
      "Ġsongs": 2470,
      "Ġstudents": 2471,
      "Ġpoints": 2472,
      "isms": 2473,
      "Ġeither": 2474,
      "ald": 2475,
      "ixed": 2476,
      "ging": 2477,
      "Ġships": 2478,
      "ext": 2479,
      "Ġtreat": 2480,
      "Ġbattle": 2481,
      "ateg": 2482,
      "ĠTw": 2483,
      "Ġpra": 2484,
      "dle": 2485,
      "Ġbehav": 2486,
      "Ġtemperature": 2487,
      "Ġchem": 2488,
      "Ġten": 2489,
      "Ġassoc": 2490,
      "ster": 2491,
      "outhern": 2492,
      "cer": 2493,
      "Ġdistinct": 2494,
      "change": 2495,
      "orpor": 2496,
      "Ġfeatures": 2497,
      "su": 2498,
      "Ġideas": 2499,
      "Ġdiscipline": 2500,
      "Ġpractitioners": 2501,
      "ously": 2502,
      "Ġkey": 2503,
      "Ġhyd": 2504,
      "urric": 2505,
      "co": 2506,
      "oke": 2507,
      "cial": 2508,
      "oll": 2509,
      "Ġlay": 2510,
      "Ġredu": 2511,
      "aul": 2512,
      "Ġtour": 2513,
      "ĠFirst": 2514,
      "Ġyet": 2515,
      "Ġbeyond": 2516,
      "Ġperformance": 2517,
      "Ġfoot": 2518,
      "ĠSm": 2519,
      "Ġeight": 2520,
      "Ġcollect": 2521,
      "ĠRep": 2522,
      "not": 2523,
      "Ġalmost": 2524,
      "Ġpopular": 2525,
      "Ġarm": 2526,
      "ique": 2527,
      "iers": 2528,
      "Ġpath": 2529,
      "ĠQu": 2530,
      "ĠCont": 2531,
      "vent": 2532,
      "Ġprogram": 2533,
      "ston": 2534,
      "rict": 2535,
      "eth": 2536,
      "Ġren": 2537,
      "ĠFrom": 2538,
      "Ġasked": 2539,
      "Ġsocial": 2540,
      "Ġturned": 2541,
      "ingu": 2542,
      "ĠSw": 2543,
      "ilities": 2544,
      "Ġconducted": 2545,
      "Ġstructural": 2546,
      "Ġnoted": 2547,
      "Ġscientific": 2548,
      "Ġ2013": 2549,
      "ream": 2550,
      "ett": 2551,
      "Ġfoc": 2552,
      "medi": 2553,
      "ĠThat": 2554,
      "Ġstudies": 2555,
      "ells": 2556,
      "Ġquant": 2557,
      "Ġelse": 2558,
      "Ġappeared": 2559,
      "men": 2560,
      "Ġmorning": 2561,
      "Ġprogress": 2562,
      "atter": 2563,
      "aries": 2564,
      "Ġson": 2565,
      "Ġnational": 2566,
      "ĠAustralia": 2567,
      "Ġcombination": 2568,
      "Ġcritics": 2569,
      "Ġserved": 2570,
      "Ġreason": 2571,
      "Ġindust": 2572,
      "ville": 2573,
      "minist": 2574,
      "Ġfriends": 2575,
      "Ġlandsc": 2576,
      "Ġstation": 2577,
      "Ġsust": 2578,
      "Ġcal": 2579,
      "Ġdestroy": 2580,
      "ĠAf": 2581,
      "Ġeconom": 2582,
      "Ġvill": 2583,
      "ĠOver": 2584,
      "ĠPer": 2585,
      "ampionship": 2586,
      "ography": 2587,
      "Ġansw": 2588,
      "Ġindepend": 2589,
      "field": 2590,
      "Ġfeet": 2591,
      "ground": 2592,
      "Ġtro": 2593,
      "ĠPres": 2594,
      "Ġcharacterized": 2595,
      "ublic": 2596,
      "Ġpain": 2597,
      "ervation": 2598,
      "antic": 2599,
      "Ġregions": 2600,
      "Ġwis": 2601,
      "aur": 2602,
      "ming": 2603,
      "Ġconse": 2604,
      "ecess": 2605,
      "Ġdied": 2606,
      "ĠHen": 2607,
      "Ġft": 2608,
      "Ġvarious": 2609,
      "Ġclear": 2610,
      "Ġthinkers": 2611,
      "Ġ189": 2612,
      "Ġcharacters": 2613,
      "Ġsequ": 2614,
      "sc": 2615,
      "ĠEm": 2616,
      "Ġsepar": 2617,
      "Ġartic": 2618,
      "Ġdesp": 2619,
      "Ġachieved": 2620,
      "irt": 2621,
      "Ġmonit": 2622,
      "Ġtrade": 2623,
      "Ġperspect": 2624,
      "Ġavailable": 2625,
      "Ġproduce": 2626,
      "ĠGod": 2627,
      "inf": 2628,
      "ĠHist": 2629,
      "iction": 2630,
      "imb": 2631,
      "ĠState": 2632,
      "Ġdiverse": 2633,
      "omp": 2634,
      "Ġ27": 2635,
      "reg": 2636,
      "ĠArmy": 2637,
      "ĠComp": 2638,
      "lin": 2639,
      "Ġstandard": 2640,
      "ped": 2641,
      "Ġfav": 2642,
      "omb": 2643,
      "Ġstars": 2644,
      "ĠOther": 2645,
      "Ġauthority": 2646,
      "ma": 2647,
      "Ġcommunity": 2648,
      "Ġrepresent": 2649,
      "iant": 2650,
      "Ġchart": 2651,
      "Ġanc": 2652,
      "ĠGl": 2653,
      "Ġtitle": 2654,
      "Ġ50": 2655,
      "ucle": 2656,
      "Ġreach": 2657,
      "Ġarguing": 2658,
      "izing": 2659,
      "Ġcertain": 2660,
      "oms": 2661,
      "Ġ28": 2662,
      "rupt": 2663,
      "Ġanaly": 2664,
      "ises": 2665,
      "Ġprofessional": 2666,
      "ĠRuss": 2667,
      "Ġfree": 2668,
      "Ġtri": 2669,
      "Ġhapp": 2670,
      "Ġwanted": 2671,
      "Ġstandards": 2672,
      "Ġdiv": 2673,
      "Ġperformed": 2674,
      "Ġabove": 2675,
      "Ġdecided": 2676,
      "Ġquick": 2677,
      "Ġsurf": 2678,
      "Ġadvance": 2679,
      "ria": 2680,
      "ĠSim": 2681,
      "Ġcommer": 2682,
      "Ġtar": 2683,
      "amb": 2684,
      "Ġprovides": 2685,
      "Ġwhether": 2686,
      "Ġgre": 2687,
      "ibility": 2688,
      "lied": 2689,
      "oney": 2690,
      "Ġsought": 2691,
      "ols": 2692,
      "ample": 2693,
      "Ġsoon": 2694,
      "ĠBro": 2695,
      "Ġcompre": 2696,
      "ĠMor": 2697,
      "urricane": 2698,
      "Ġaud": 2699,
      "Ġofficial": 2700,
      "rast": 2701,
      "inn": 2702,
      "mselves": 2703,
      "ĠRoad": 2704,
      "Ġhighest": 2705,
      "Ġhours": 2706,
      "ĠAge": 2707,
      "Ġ26": 2708,
      "lege": 2709,
      "Ġmom": 2710,
      "Ġstructure": 2711,
      "ĠCounty": 2712,
      "Ġsurv": 2713,
      "Ġessential": 2714,
      "ĠGeneral": 2715,
      "itutional": 2716,
      "Ġ40": 2717,
      "Ġpopulation": 2718,
      "Ġbalance": 2719,
      "irl": 2720,
      "Ġphilosophy": 2721,
      "Ġannounced": 2722,
      "Ġbene": 2723,
      "ĠNav": 2724,
      "ridge": 2725,
      "pped": 2726,
      "Ġdevelopments": 2727,
      "ĠMad": 2728,
      "Ġens": 2729,
      "Ġpriv": 2730,
      "ĠReg": 2731,
      "Ġprimarily": 2732,
      "Ġbeginning": 2733,
      "Ġce": 2734,
      "Ġjud": 2735,
      "Ġbring": 2736,
      "Ġterrit": 2737,
      "Ġaccess": 2738,
      "af": 2739,
      "Ġable": 2740,
      "ĠMed": 2741,
      "Ġche": 2742,
      "Ġidea": 2743,
      "Ġlower": 2744,
      "Ġthemselves": 2745,
      "ĠStreet": 2746,
      "Ġfunction": 2747,
      "omy": 2748,
      "Ġtelevision": 2749,
      "anks": 2750,
      "Ġface": 2751,
      "Ġrespons": 2752,
      "orse": 2753,
      "Ġcore": 2754,
      "ĠAmerica": 2755,
      "Ġaircraft": 2756,
      "aves": 2757,
      "ĠDivision": 2758,
      "ĠBo": 2759,
      "Ġkind": 2760,
      "Ġrap": 2761,
      "Ġstreng": 2762,
      "ĠMon": 2763,
      "rec": 2764,
      "Ġcaused": 2765,
      "Ġaction": 2766,
      "ĠâĢĻ": 2767,
      "ĠLeague": 2768,
      "Ġeduc": 2769,
      "Ġsuff": 2770,
      "Ġpresence": 2771,
      "Ġexc": 2772,
      "Ġisland": 2773,
      "Ġfall": 2774,
      "Ġappoint": 2775,
      "Ġaspects": 2776,
      "Ġunderstand": 2777,
      "Ġmarket": 2778,
      "Ġcut": 2779,
      "plic": 2780,
      "Ġkilled": 2781,
      "Ġ2005": 2782,
      "angu": 2783,
      "Ġvisit": 2784,
      "Ġneg": 2785,
      "back": 2786,
      "Ġscale": 2787,
      "Ġincreasingly": 2788,
      "where": 2789,
      "Ġmathematical": 2790,
      "bert": 2791,
      "Ġcenter": 2792,
      "iding": 2793,
      "ĠMag": 2794,
      "Ġwisdom": 2795,
      "Ã¡": 2796,
      "igned": 2797,
      "Ġaver": 2798,
      "ider": 2799,
      "Ġnov": 2800,
      "Ġcompos": 2801,
      "ergy": 2802,
      "Ġprocesses": 2803,
      "ĠSecond": 2804,
      "Ġforest": 2805,
      "Ġbehavior": 2806,
      "cast": 2807,
      "ĠRober": 2808,
      "Ġprimary": 2809,
      "Ġwhite": 2810,
      "oted": 2811,
      "ĠGeorge": 2812,
      "ĠEast": 2813,
      "berg": 2814,
      "Ġtax": 2815,
      "Ġrank": 2816,
      "Ġfront": 2817,
      "Ġrecon": 2818,
      "Ġregard": 2819,
      "ĠJapanese": 2820,
      "Ġ2014": 2821,
      "Ġaccept": 2822,
      "Ġproposed": 2823,
      "Ġthreat": 2824,
      "Ġtropical": 2825,
      "ĠTr": 2826,
      "Ġquiet": 2827,
      "Ġwomen": 2828,
      "ĠUnder": 2829,
      "iced": 2830,
      "ĠHol": 2831,
      "Ġmiss": 2832,
      "ĠMichael": 2833,
      "Ġlack": 2834,
      "Ġdecis": 2835,
      "Ġplayers": 2836,
      "Ġlarger": 2837,
      "Ġrock": 2838,
      "Ġhealth": 2839,
      "Ġmanagement": 2840,
      "Ġadminist": 2841,
      "Ġtend": 2842,
      "Ġdamage": 2843,
      "Ġmiles": 2844,
      "ĠDavid": 2845,
      "aper": 2846,
      "rying": 2847,
      "Ġang": 2848,
      "Ġforms": 2849,
      "Ġexisting": 2850,
      "Ġbridge": 2851,
      "ask": 2852,
      "Ġtarget": 2853,
      "Ġindividuals": 2854,
      "Ġgenuine": 2855,
      "Ġstru": 2856,
      "Ġimmedi": 2857,
      "ij": 2858,
      "Ġbehind": 2859,
      "oor": 2860,
      "Ġparticip": 2861,
      "Ġdaily": 2862,
      "Ġsubstant": 2863,
      "Ġgrowing": 2864,
      "Ġdebut": 2865,
      "enced": 2866,
      "br": 2867,
      "Ġbelieved": 2868,
      "Ġindic": 2869,
      "Ġforward": 2870,
      "Ġstarted": 2871,
      "Ġfem": 2872,
      "Ġsuggested": 2873,
      "abit": 2874,
      "Ġlandscape": 2875,
      "ĠPe": 2876,
      "Ġspace": 2877,
      "ĠBill": 2878,
      "Ġround": 2879,
      "ky": 2880,
      "Ġfle": 2881,
      "Ġstood": 2882,
      "Ġattracted": 2883,
      "Ġfail": 2884,
      "Ġseven": 2885,
      "Ġmaintained": 2886,
      "Ġpeak": 2887,
      "Ġesc": 2888,
      "ror": 2889,
      "ĠAct": 2890,
      "Ġsite": 2891,
      "Ġadded": 2892,
      "Ġproductive": 2893,
      "ded": 2894,
      "Ġrace": 2895,
      "Ġsea": 2896,
      "ples": 2897,
      "thing": 2898,
      "Ġhost": 2899,
      "Ġrecent": 2900,
      "Ġcomplete": 2901,
      "Ġdeg": 2902,
      "Ġaward": 2903,
      "nel": 2904,
      "reek": 2905,
      "osystem": 2906,
      "Ġquar": 2907,
      "Ġthings": 2908,
      "Ġkeep": 2909,
      "Ġmm": 2910,
      "ĠPart": 2911,
      "ĠEarly": 2912,
      "Ġsettle": 2913,
      "Ġgive": 2914,
      "Ġincorpor": 2915,
      "Ġmakes": 2916,
      "Ġconfir": 2917,
      "ĠMid": 2918,
      "Ġlive": 2919,
      "Ġfight": 2920,
      "Ġexample": 2921,
      "ency": 2922,
      "Ġevening": 2923,
      "ify": 2924,
      "Ġlove": 2925,
      "Ġinstead": 2926,
      "ĠHenry": 2927,
      "Ġacadem": 2928,
      "ĠAss": 2929,
      "ĠRich": 2930,
      "Ġdetermined": 2931,
      "ĠHouse": 2932,
      "ura": 2933,
      "Ġclose": 2934,
      "Ġmaterials": 2935,
      "val": 2936,
      "nthesis": 2937,
      "Ġsaying": 2938,
      "Ġreact": 2939,
      "ĠPhil": 2940,
      "aph": 2941,
      "ĠAfric": 2942,
      "ashing": 2943,
      "Ġloss": 2944,
      "Ġinitially": 2945,
      "ĠCor": 2946,
      "ĠNor": 2947,
      "Ġfig": 2948,
      "Ġap": 2949,
      "ĠSqu": 2950,
      "Ġefforts": 2951,
      "asion": 2952,
      "Ġtold": 2953,
      "ĠLu": 2954,
      "ĠAg": 2955,
      "bon": 2956,
      "Ġeffective": 2957,
      "uses": 2958,
      "ĠMy": 2959,
      "ears": 2960,
      "Ġtechnical": 2961,
      "atively": 2962,
      "Ġfully": 2963,
      "Ġbrother": 2964,
      "Ġformed": 2965,
      "Ġinstrument": 2966,
      "Ġconsiderable": 2967,
      "acity": 2968,
      "ĠRoyal": 2969,
      "Ġmember": 2970,
      "ĠAustralian": 2971,
      "Ġcomprehens": 2972,
      "Ġtowards": 2973,
      "Ġcrew": 2974,
      "ricult": 2975,
      "Ġcourse": 2976,
      "aid": 2977,
      "Ġcommercial": 2978,
      "Ġtraditional": 2979,
      "Ġraised": 2980,
      "Ġgradu": 2981,
      "Ġengineering": 2982,
      "uture": 2983,
      "Ġconcepts": 2984,
      "ctions": 2985,
      "Ġrang": 2986,
      "Ġruns": 2987,
      "Ġvi": 2988,
      "ranch": 2989,
      "Ġremaining": 2990,
      "Ġconclud": 2991,
      "Ġseek": 2992,
      "Ġaw": 2993,
      "Ġcry": 2994,
      "Ġpot": 2995,
      "ume": 2996,
      "Ġtraining": 2997,
      "ĠBer": 2998,
      "ĠIntern": 2999,
      "Ġmechanisms": 3000,
      "Ġsurrounding": 3001,
      "hetic": 3002,
      "ribution": 3003,
      "hib": 3004,
      "ĠBel": 3005,
      "Ġevents": 3006,
      "ĠIndian": 3007,
      "Ġ188": 3008,
      "Ġcompeting": 3009,
      "att": 3010,
      "Ġaccording": 3011,
      "rison": 3012,
      "ĠBlack": 3013,
      "Ġenergy": 3014,
      "Ġnucle": 3015,
      "Ġlocated": 3016,
      "Ġfoundation": 3017,
      "Ġhit": 3018,
      "Ġenough": 3019,
      "Ġ29": 3020,
      "Ġwalls": 3021,
      "Ġpassed": 3022,
      "Ġgenerally": 3023,
      "wood": 3024,
      "Ġcomput": 3025,
      "Ġmi": 3026,
      "Ġmother": 3027,
      "ructed": 3028,
      "lement": 3029,
      "Ġcomplexity": 3030,
      "Ġbeg": 3031,
      "ids": 3032,
      "Ġdetail": 3033,
      "Ġsense": 3034,
      "Ġrepresented": 3035,
      "Ġcompleted": 3036,
      "Ġworksh": 3037,
      "Ġlearned": 3038,
      "Ġlik": 3039,
      "Ġdepart": 3040,
      "ĠEurope": 3041,
      "Ġtruth": 3042,
      "Ġgroups": 3043,
      "going": 3044,
      "ĠâĢľ": 3045,
      "Ġmathematics": 3046,
      "Ġlearning": 3047,
      "Ġnar": 3048,
      "ĠItal": 3049,
      "Ġmove": 3050,
      "ona": 3051,
      "ĠResear": 3052,
      "Ġsummer": 3053,
      "Ġcivil": 3054,
      "Ġstudied": 3055,
      "Ġcreat": 3056,
      "Ġfrequent": 3057,
      "ĠBru": 3058,
      "ĠBra": 3059,
      "Ġroutes": 3060,
      "Ġinnovation": 3061,
      "Ġecosystem": 3062,
      "Ġmel": 3063,
      "Ġminutes": 3064,
      "pass": 3065,
      "arian": 3066,
      "Ġbusiness": 3067,
      "Ġsimple": 3068,
      "50": 3069,
      "ership": 3070,
      "ĠVict": 3071,
      "ĠMod": 3072,
      "ias": 3073,
      "Ġcommand": 3074,
      "Ġprovide": 3075,
      "uel": 3076,
      "Ġterms": 3077,
      "Ġ2004": 3078,
      "rap": 3079,
      "Ġinvol": 3080,
      "Ġdata": 3081,
      "Ġwhom": 3082,
      "Ġfif": 3083,
      "Ġimpact": 3084,
      "hold": 3085,
      "Ġassist": 3086,
      "Ġcircum": 3087,
      "Ġstates": 3088,
      "Ġhope": 3089,
      "Ġcondition": 3090,
      "Ġmoment": 3091,
      "Ġcapacity": 3092,
      "Ġexped": 3093,
      "like": 3094,
      "ĠDan": 3095,
      "Ġstyle": 3096,
      "Ġstay": 3097,
      "Ġimproved": 3098,
      "Ġmodels": 3099,
      "Ġproved": 3100,
      "Ġrapid": 3101,
      "Ġtransformed": 3102,
      "Ġformal": 3103,
      "wh": 3104,
      "board": 3105,
      "Ġestablish": 3106,
      "Ġcomment": 3107,
      "Ġguns": 3108,
      "Ġsaf": 3109,
      "Ġball": 3110,
      "ĠRev": 3111,
      "oul": 3112,
      "Ġbase": 3113,
      "Ġoffered": 3114,
      "Ġvalues": 3115,
      "oved": 3116,
      "ĠGreat": 3117,
      "Ġking": 3118,
      "olid": 3119,
      "west": 3120,
      "iful": 3121,
      "raw": 3122,
      "Ġheavy": 3123,
      "ether": 3124,
      "Ġintended": 3125,
      "aint": 3126,
      "Ġneeded": 3127,
      "Ġgold": 3128,
      "Ġsection": 3129,
      "ĠInst": 3130,
      "Ġlonger": 3131,
      "asons": 3132,
      "Ġapplication": 3133,
      "Ġ186": 3134,
      "Ġbeauty": 3135,
      "Ġexec": 3136,
      "king": 3137,
      "Ġfinished": 3138,
      "Ġextrem": 3139,
      "Ġfort": 3140,
      "umb": 3141,
      "Ġwife": 3142,
      "ĠArt": 3143,
      "It": 3144,
      "ouncil": 3145,
      "uf": 3146,
      "Ġmonitoring": 3147,
      "eh": 3148,
      "ĠFrance": 3149,
      "Ġconversation": 3150,
      "Ġult": 3151,
      "Ġresour": 3152,
      "Ġperiods": 3153,
      "Ġbreak": 3154,
      "Ġtaking": 3155,
      "ĠFollow": 3156,
      "Ġreplaced": 3157,
      "ĠSchool": 3158,
      "Ġborn": 3159,
      "Ġwit": 3160,
      "Ġoriginally": 3161,
      "ĠMusic": 3162,
      "Ġlimit": 3163,
      "ĠSte": 3164,
      "Ġ2015": 3165,
      "Ġsitu": 3166,
      "Ġgreater": 3167,
      "umin": 3168,
      "Ġtransl": 3169,
      "ey": 3170,
      "rack": 3171,
      "Ġparty": 3172,
      "Ġdecision": 3173,
      "olic": 3174,
      "ĠSan": 3175,
      "Ġpark": 3176,
      "ĠWestern": 3177,
      "Ġdomin": 3178,
      "Ġfa": 3179,
      "Ġinj": 3180,
      "iber": 3181,
      "ĠTheir": 3182,
      "Ġrig": 3183,
      "Ġplaying": 3184,
      "can": 3185,
      "Ġhom": 3186,
      "Ġshape": 3187,
      "Ġpractices": 3188,
      "Ġprior": 3189,
      "pper": 3190,
      "ograp": 3191,
      "Ġallowed": 3192,
      "Ġamb": 3193,
      "ĠBest": 3194,
      "Ġlegal": 3195,
      "Ġtransfer": 3196,
      "Ġpen": 3197,
      "Ġreb": 3198,
      "Ġwid": 3199,
      "ĠQue": 3200,
      "ĠRed": 3201,
      "olf": 3202,
      "ĠSal": 3203,
      "Ġsometimes": 3204,
      "Ġarmy": 3205,
      "Ġgeneration": 3206,
      "Ġcred": 3207,
      "arm": 3208,
      "Ġopening": 3209,
      "Ġscene": 3210,
      "Ġ31": 3211,
      "ira": 3212,
      "ength": 3213,
      "ino": 3214,
      "Ġinvestigation": 3215,
      "key": 3216,
      "Ġintern": 3217,
      "Ġadditional": 3218,
      "Ġdyn": 3219,
      "Ġdom": 3220,
      "Ġadj": 3221,
      "Ġmut": 3222,
      "ĠPort": 3223,
      "stances": 3224,
      "Ġhard": 3225,
      "Ġscience": 3226,
      "Ġplaced": 3227,
      "erous": 3228,
      "Ġcannot": 3229,
      "Ġlines": 3230,
      "ĠTom": 3231,
      "Ġmerely": 3232,
      "Ġlangu": 3233,
      "onents": 3234,
      "Ġclos": 3235,
      "Ġcontext": 3236,
      "Ġfourth": 3237,
      "Ġhere": 3238,
      "ĠDesp": 3239,
      "Ġtroops": 3240,
      "Ġinstitutional": 3241,
      "ĠMet": 3242,
      "Ġthinking": 3243,
      "Ġload": 3244,
      "ĠCons": 3245,
      "Ġsoph": 3246,
      "elled": 3247,
      "Ġlimited": 3248,
      "Ġvari": 3249,
      "Ġfuture": 3250,
      "ĠMary": 3251,
      "Ġ187": 3252,
      "Ġemb": 3253,
      "Ġapplied": 3254,
      "ĠRoman": 3255,
      "Ġdon": 3256,
      "ĠVictor": 3257,
      "ĠEuropean": 3258,
      "ĠMil": 3259,
      "Ġminim": 3260,
      "asc": 3261,
      "ama": 3262,
      "Ġexchange": 3263,
      "aker": 3264,
      "ĠCour": 3265,
      "Ġphen": 3266,
      "Ġlevels": 3267,
      "Ġassociated": 3268,
      "Ġwa": 3269,
      "Ġfeatured": 3270,
      "Ġ=.": 3271,
      "Ġdemonstrated": 3272,
      "azine": 3273,
      "ogy": 3274,
      "ronic": 3275,
      "rm": 3276,
      "ĠRobert": 3277,
      "Ġfood": 3278,
      "Ġgrew": 3279,
      "tt": 3280,
      "ashington": 3281,
      "cle": 3282,
      "Ġharmon": 3283,
      "bre": 3284,
      "Ġdimens": 3285,
      "Ġoffice": 3286,
      "Ġ2000": 3287,
      "Ġrelig": 3288,
      "isl": 3289,
      "antry": 3290,
      "Ġsens": 3291,
      "Ġnearly": 3292,
      "Ġscored": 3293,
      "Ġsignificantly": 3294,
      "ĠWashington": 3295,
      "Ġlaun": 3296,
      "ĠPresident": 3297,
      "ites": 3298,
      "Ġassum": 3299,
      "olve": 3300,
      "Ġgoing": 3301,
      "ĠBattle": 3302,
      "Ġconstitut": 3303,
      "Ġaverage": 3304,
      "Ġtoward": 3305,
      "Ġmaster": 3306,
      "Ġletter": 3307,
      "ding": 3308,
      "fect": 3309,
      "Ġdeeply": 3310,
      "Ġincreased": 3311,
      "que": 3312,
      "Ġchallenges": 3313,
      "Ġforced": 3314,
      "Ġrecognized": 3315,
      "cript": 3316,
      "light": 3317,
      "piration": 3318,
      "Ġesp": 3319,
      "ĠMark": 3320,
      "hy": 3321,
      "Ġdise": 3322,
      "ha": 3323,
      "Ġsouthern": 3324,
      "Ġencounter": 3325,
      "ĠPat": 3326,
      "Ġongoing": 3327,
      "Ġimplic": 3328,
      "ĠPlay": 3329,
      "Ġjourney": 3330,
      "Ġsurface": 3331,
      "Ġrail": 3332,
      "che": 3333,
      "igg": 3334,
      "Ġnovel": 3335,
      "omew": 3336,
      "Ġoutside": 3337,
      "enna": 3338,
      "adron": 3339,
      "Ġinsight": 3340,
      "year": 3341,
      "Ġvirt": 3342,
      "agn": 3343,
      "Ġiron": 3344,
      "ĠDespite": 3345,
      "umn": 3346,
      "Ġshar": 3347,
      "Ġprofound": 3348,
      "Ġjoined": 3349,
      "Ġshows": 3350,
      "Ġargument": 3351,
      "ologies": 3352,
      "ĠPaul": 3353,
      "ĠThom": 3354,
      "ĠSub": 3355,
      "Ġmoving": 3356,
      "Ġmusical": 3357,
      "Ġdoub": 3358,
      "Ġchapter": 3359,
      "ĠVir": 3360,
      "ĠAnt": 3361,
      "Ġoccupied": 3362,
      "cious": 3363,
      "Ġvictory": 3364,
      "Ġsem": 3365,
      "ĠAngel": 3366,
      "ĠGame": 3367,
      "Ġstop": 3368,
      "rogen": 3369,
      "orial": 3370,
      "Ġ2003": 3371,
      "Ġenvironmental": 3372,
      "quir": 3373,
      "Ġvillage": 3374,
      "Ġliving": 3375,
      "Ġunits": 3376,
      "aging": 3377,
      "ogue": 3378,
      "ica": 3379,
      "Ġheart": 3380,
      "Ġtoday": 3381,
      "Ġcontract": 3382,
      "Ġstrength": 3383,
      "Ġprecision": 3384,
      "Ġdram": 3385,
      "Ġimm": 3386,
      "Ġmot": 3387,
      "Ġelsewhere": 3388,
      "lict": 3389,
      "ĠNe": 3390,
      "Ġsophistic": 3391,
      "Ġreflected": 3392,
      "Ġquickly": 3393,
      "erved": 3394,
      "Ġast": 3395,
      "Ġphase": 3396,
      "Ġconsequ": 3397,
      "Ġbur": 3398,
      "ply": 3399,
      "ĠDr": 3400,
      "Ġlearn": 3401,
      "ecially": 3402,
      "Ġnorthern": 3403,
      "Ġlink": 3404,
      "ĠStud": 3405,
      "ĠWil": 3406,
      "ĠHall": 3407,
      "Ġobservations": 3408,
      "Ġdespite": 3409,
      "Ġchanged": 3410,
      "iece": 3411,
      "Ġcourt": 3412,
      "Ġagricult": 3413,
      "istry": 3414,
      "ĠHam": 3415,
      "Ġpolic": 3416,
      "ĠFollowing": 3417,
      "ĠLa": 3418,
      "ĠÃ": 3419,
      "Ġpit": 3420,
      "Ġmph": 3421,
      "Ġpoor": 3422,
      "Ġshot": 3423,
      "ĠTwo": 3424,
      "ĠLou": 3425,
      "ĠEach": 3426,
      "Ġimportance": 3427,
      "Ġactiv": 3428,
      "ortun": 3429,
      "leg": 3430,
      "Ġquarter": 3431,
      "Ġhous": 3432,
      "Ġhighway": 3433,
      "Ġstret": 3434,
      "ĠDo": 3435,
      "vey": 3436,
      "Ġpositions": 3437,
      "Ġalone": 3438,
      "Ġjustice": 3439,
      "Ġtow": 3440,
      "Ġenzyme": 3441,
      "ening": 3442,
      "Ġteams": 3443,
      "Ġgoal": 3444,
      "Ġdisplay": 3445,
      "bur": 3446,
      "Ġple": 3447,
      "Ġnetworks": 3448,
      "itar": 3449,
      "Ġliter": 3450,
      "aughter": 3451,
      "Ġneeds": 3452,
      "Ġclassical": 3453,
      "ays": 3454,
      "Ġincludes": 3455,
      "Ġweather": 3456,
      "rect": 3457,
      "BC": 3458,
      "Ġancient": 3459,
      "Ġsun": 3460,
      "Ġespecially": 3461,
      "odes": 3462,
      "Ġspeed": 3463,
      "icism": 3464,
      "ĠDes": 3465,
      "ready": 3466,
      "ĠBen": 3467,
      "Ġexpress": 3468,
      "Ġprivate": 3469,
      "ĠSing": 3470,
      "Ġlibr": 3471,
      "ores": 3472,
      "ĠCup": 3473,
      "Ġsex": 3474,
      "utive": 3475,
      "Ġinterp": 3476,
      "ĠMount": 3477,
      "haps": 3478,
      "ĠDel": 3479,
      "ocr": 3480,
      "Ġrecording": 3481,
      "Ġability": 3482,
      "Ġnor": 3483,
      "rian": 3484,
      "ĠMac": 3485,
      "unt": 3486,
      "Ġcompan": 3487,
      "Ġimplications": 3488,
      "Ġskills": 3489,
      "ee": 3490,
      "ĠDep": 3491,
      "ĠMart": 3492,
      "Ġarrang": 3493,
      "ĠFil": 3494,
      "Ġwide": 3495,
      "ests": 3496,
      "Ġprep": 3497,
      "using": 3498,
      "Ġtwent": 3499,
      "ounds": 3500,
      "Ġcru": 3501,
      "Ġshared": 3502,
      "ĠInternational": 3503,
      "anned": 3504,
      "Ġself": 3505,
      "ustr": 3506,
      "iled": 3507,
      "Ġnorm": 3508,
      "Ġlatter": 3509,
      "Ġinsp": 3510,
      "ift": 3511,
      "ago": 3512,
      "ĠApp": 3513,
      "ĠWhite": 3514,
      "ĠChampionship": 3515,
      "alled": 3516,
      "Ġrecognition": 3517,
      "ĠScott": 3518,
      "Ġcycl": 3519,
      "Ġargues": 3520,
      "ĠRout": 3521,
      "Ġlo": 3522,
      "ference": 3523,
      "Ġtechnologies": 3524,
      "Ġcontributions": 3525,
      "Ġdrew": 3526,
      "Ġ2001": 3527,
      "Ġcraft": 3528,
      "Ġapprent": 3529,
      "Ġflood": 3530,
      "Ġunique": 3531,
      "ĠÂ°": 3532,
      "Ġappearance": 3533,
      "ĠMal": 3534,
      "enes": 3535,
      "Ġdocument": 3536,
      "con": 3537,
      "ĠGr": 3538,
      "Ġways": 3539,
      "Ġkill": 3540,
      "ico": 3541,
      "Ġbuildings": 3542,
      "vement": 3543,
      "iforn": 3544,
      "Ġpositive": 3545,
      "Ġmountain": 3546,
      "Ġestim": 3547,
      "ellar": 3548,
      "Ġapproaches": 3549,
      "Ġlegacy": 3550,
      "ĠBrown": 3551,
      "ĠRepublic": 3552,
      "Ġwords": 3553,
      "Ġcele": 3554,
      "gment": 3555,
      "ĠAtl": 3556,
      "Ġconcerns": 3557,
      "Ġpercent": 3558,
      "ĠCharles": 3559,
      "Ġexperim": 3560,
      "Ġvoice": 3561,
      "Ġpromin": 3562,
      "Ġenj": 3563,
      "Ġpraised": 3564,
      "Ġwood": 3565,
      "Ġcand": 3566,
      "II": 3567,
      "Ġnavig": 3568,
      "Ġdisease": 3569,
      "ĠMcC": 3570,
      "Ġdimensions": 3571,
      "ĠThomas": 3572,
      "Ġcatalysis": 3573,
      "based": 3574,
      "Ġdescript": 3575,
      "Step": 3576,
      "Ġsize": 3577,
      "Ġintegrity": 3578,
      "Ġlength": 3579,
      "ĠSen": 3580,
      "Ġpresident": 3581,
      "heast": 3582,
      "Ġclar": 3583,
      "Ġeastern": 3584,
      "Ġchann": 3585,
      "Ġfeed": 3586,
      "Ġchurch": 3587,
      "ĠStar": 3588,
      "Ġeveryone": 3589,
      "Ġexpedition": 3590,
      "ĠSy": 3591,
      "isted": 3592,
      "Ġisol": 3593,
      "ĠKingdom": 3594,
      "ĠVirgin": 3595,
      "Ġcommission": 3596,
      "Ġvariety": 3597,
      "ĠDon": 3598,
      "Ġapprox": 3599,
      "Ġtal": 3600,
      "Ġstudio": 3601,
      "Ġcer": 3602,
      "Ġended": 3603,
      "nce": 3604,
      "iny": 3605,
      "Ġplat": 3606,
      "Ġmatter": 3607,
      "ternal": 3608,
      "Ġdone": 3609,
      "estic": 3610,
      "Ġissues": 3611,
      "Ġinterse": 3612,
      "Ġdirector": 3613,
      "ĠNavy": 3614,
      "ĠRoute": 3615,
      "Ġrights": 3616,
      "Ġstories": 3617,
      "Ġlargest": 3618,
      "airs": 3619,
      "Ġinternational": 3620,
      "Ġly": 3621,
      "Ġliber": 3622,
      "irth": 3623,
      "Ġalready": 3624,
      "ĠCaliforn": 3625,
      "Ġextraord": 3626,
      "ems": 3627,
      "eper": 3628,
      "Ġprob": 3629,
      "Ġcountries": 3630,
      "time": 3631,
      "aught": 3632,
      "omer": 3633,
      "In": 3634,
      "Ġnothing": 3635,
      "ĠCanada": 3636,
      "Ġeffort": 3637,
      "mitted": 3638,
      "Ġinitial": 3639,
      "Ġwhole": 3640,
      "ylv": 3641,
      "Ġstages": 3642,
      "oud": 3643,
      "Ġtakes": 3644,
      "ule": 3645,
      "Ġdro": 3646,
      "rage": 3647,
      "Ġhurricane": 3648,
      "Ġgot": 3649,
      "Ġfinally": 3650,
      "Ġwarm": 3651,
      "Ġâ": 3652,
      "omena": 3653,
      "ulate": 3654,
      "ĠVen": 3655,
      "Ġder": 3656,
      "Ġsequence": 3657,
      "eck": 3658,
      "Ġadapted": 3659,
      "Ġentered": 3660,
      "acing": 3661,
      "ĠMr": 3662,
      "uments": 3663,
      "clusion": 3664,
      "Ġseemed": 3665,
      "Ġsource": 3666,
      "idel": 3667,
      "Ġbelieve": 3668,
      "Ġneither": 3669,
      "Ġequal": 3670,
      "Ġphenomena": 3671,
      "Ġordered": 3672,
      "Ġ2002": 3673,
      "Ġusually": 3674,
      "erve": 3675,
      "Ġconnect": 3676,
      "ĠRevolution": 3677,
      "anch": 3678,
      "tee": 3679,
      "Ġacqu": 3680,
      "itz": 3681,
      "ĠPal": 3682,
      "Ġsociety": 3683,
      "ĠCourt": 3684,
      "ehic": 3685,
      "Ġselect": 3686,
      "Ġremarkable": 3687,
      "ĠCalifornia": 3688,
      "Ġsal": 3689,
      "Ġshel": 3690,
      "Ġnews": 3691,
      "Ġwitness": 3692,
      "ctor": 3693,
      "ĠJer": 3694,
      "rich": 3695,
      "ĠVar": 3696,
      "Ġelev": 3697,
      "Ġoperations": 3698,
      "Ġphysical": 3699,
      "unk": 3700,
      "Ġchemical": 3701,
      "Ġdestroyed": 3702,
      "ĠSl": 3703,
      "ĠBu": 3704,
      "Ġpurp": 3705,
      "amics": 3706,
      "Ġexerc": 3707,
      "ĠModern": 3708,
      "Ġrelated": 3709,
      "Ġwinds": 3710,
      "uable": 3711,
      "ĠIsland": 3712,
      "Ġparts": 3713,
      "Ġmoney": 3714,
      "ĠBay": 3715,
      "Ġkil": 3716,
      "edy": 3717,
      "oration": 3718,
      "Ġbird": 3719,
      "Ġenjoy": 3720,
      "ÃŃ": 3721,
      "oid": 3722,
      "Ġillustr": 3723,
      "rosc": 3724,
      "Ġplant": 3725,
      "ĠChurch": 3726,
      "Ġattempted": 3727,
      "Ġconsequences": 3728,
      "ils": 3729,
      "Ġwinter": 3730,
      "inated": 3731,
      "mond": 3732,
      "Ġworkshop": 3733,
      "Ġpay": 3734,
      "Ġframeworks": 3735,
      "Ġbill": 3736,
      "ĠCong": 3737,
      "Ġdistingu": 3738,
      "Ġtim": 3739,
      "Ġrecords": 3740,
      "iate": 3741,
      "hood": 3742,
      "Ġbear": 3743,
      "ĊĊ": 3744,
      "ĠLis": 3745,
      "Ġorganization": 3746,
      "rab": 3747,
      "Ġoverall": 3748,
      "Ġaddressed": 3749,
      "Ġtherm": 3750,
      "ĠEvery": 3751,
      "pe": 3752,
      "Ġglass": 3753,
      "ĠParis": 3754,
      "ki": 3755,
      "ĠGovern": 3756,
      "ĠRichard": 3757,
      "Ġoccurred": 3758,
      "Ġbra": 3759,
      "Ġextensive": 3760,
      "ĠRock": 3761,
      "Ġinterd": 3762,
      "ams": 3763,
      "Ġoffers": 3764,
      "Ġviol": 3765,
      "burg": 3766,
      "Ġmic": 3767,
      "ĠEarth": 3768,
      "quiry": 3769,
      "ĠNY": 3770,
      "Ġmach": 3771,
      "Ġdistant": 3772,
      "Ġsettled": 3773,
      "Ġunderlying": 3774,
      "unction": 3775,
      "nown": 3776,
      "Ġagreed": 3777,
      "ĠAssoc": 3778,
      "rovers": 3779,
      "ĠPeter": 3780,
      "Ġdefe": 3781,
      "Ġanimals": 3782,
      "oto": 3783,
      "ĠPet": 3784,
      "Ġvehic": 3785,
      "ĠUnion": 3786,
      "Ġamount": 3787,
      "Ġsigned": 3788,
      "ĠAward": 3789,
      "Ġfailed": 3790,
      "Ġrevealed": 3791,
      "Ġrequire": 3792,
      "Ġfilms": 3793,
      "Ġmerch": 3794,
      "Ġhear": 3795,
      "Ġreviews": 3796,
      "ĠCompany": 3797,
      "Ġcircumstances": 3798,
      "Ġinterview": 3799,
      "Ġsays": 3800,
      "igr": 3801,
      "ĠFred": 3802,
      "rief": 3803,
      "Ġexperien": 3804,
      "burgh": 3805,
      "etic": 3806,
      "Ġtechnology": 3807,
      "ĠNow": 3808,
      "Ġevolution": 3809,
      "Ġdistinctive": 3810,
      "amic": 3811,
      "Ġhigher": 3812,
      "ĠIndia": 3813,
      "Ġproced": 3814,
      "water": 3815,
      "Ġcust": 3816,
      "Ġopin": 3817,
      "Ġcontrast": 3818,
      "Ġactive": 3819,
      "Ġmoral": 3820,
      "Ġprepar": 3821,
      "mar": 3822,
      "Ġcomprehensive": 3823,
      "riage": 3824,
      "Ġapparent": 3825,
      "orce": 3826,
      "ĠContemporary": 3827,
      "Ġwalk": 3828,
      "Ġexpanded": 3829,
      "Ġdark": 3830,
      "Ã³": 3831,
      "eal": 3832,
      "utation": 3833,
      "iosity": 3834,
      "Ġcomplet": 3835,
      "eget": 3836,
      "Ġinformation": 3837,
      "Ġactivity": 3838,
      "ĠSmith": 3839,
      "ĠGermany": 3840,
      "ida": 3841,
      "Ġapprec": 3842,
      "Ġcreate": 3843,
      "Ġsubsequently": 3844,
      "istics": 3845,
      "20": 3846,
      "Ġpressure": 3847,
      "Ġpeace": 3848,
      "Ġscore": 3849,
      "Ġobservation": 3850,
      "Ġlanguage": 3851,
      "Ġdirected": 3852,
      "hi": 3853,
      "Ġcommitment": 3854,
      "Ġformations": 3855,
      "Ġsupported": 3856,
      "ologist": 3857,
      "Ġsus": 3858,
      "Ġtreatment": 3859,
      "oland": 3860,
      "Ġtransition": 3861,
      "urs": 3862,
      "Ġnecess": 3863,
      "Ġapplications": 3864,
      "Ġfootball": 3865,
      "ĠGold": 3866,
      "ĠChristian": 3867,
      "Ġdiscussion": 3868,
      "igan": 3869,
      "ĠOut": 3870,
      "Ġserve": 3871,
      "Ġemphasis": 3872,
      "Ġqual": 3873,
      "Ġhyp": 3874,
      "Ġastron": 3875,
      "ĠConstant": 3876,
      "ĠAc": 3877,
      "Ġsustained": 3878,
      "amer": 3879,
      "ĠDu": 3880,
      "Ġcuriosity": 3881,
      "Ġdeal": 3882,
      "ĠWin": 3883,
      "Ġwant": 3884,
      "orous": 3885,
      "Ġlikely": 3886,
      "Ġnine": 3887,
      "entional": 3888,
      "iter": 3889,
      "ulf": 3890,
      "Ġcryst": 3891,
      "sey": 3892,
      "Ġserious": 3893,
      "mosp": 3894,
      "ĠDem": 3895,
      "olk": 3896,
      "ceeded": 3897,
      "Ġopportun": 3898,
      "Ġpurs": 3899,
      "ĠKe": 3900,
      "undred": 3901,
      "duc": 3902,
      "Ġarchitecture": 3903,
      "standing": 3904,
      "Ġsubstantial": 3905,
      "Ġcollection": 3906,
      "ĠCollege": 3907,
      "ugh": 3908,
      "Ġanswers": 3909,
      "Ġlaid": 3910,
      "Ġinquiry": 3911,
      "Ġtrees": 3912,
      "Ġpotential": 3913,
      "ĠMore": 3914,
      "ĠUK": 3915,
      "Ġrational": 3916,
      "Ġcorrect": 3917,
      "ĠÂ£": 3918,
      "Ġedge": 3919,
      "Ġsoldiers": 3920,
      "Ġadvanced": 3921,
      "resp": 3922,
      "ĠFrank": 3923,
      "Ġvast": 3924,
      "Ġenem": 3925,
      "Ġextraordinary": 3926,
      "Ġrequires": 3927,
      "ĠSoc": 3928,
      "Ġtext": 3929,
      "Ġeconomic": 3930,
      "Ġtur": 3931,
      "talion": 3932,
      "ĠBoth": 3933,
      "Ġvisible": 3934,
      "Ġsuggests": 3935,
      "ĠUp": 3936,
      "Ġdetect": 3937,
      "Ġconstra": 3938,
      "Ġ1990": 3939,
      "Ġrelatively": 3940,
      "axim": 3941,
      "ifying": 3942,
      "Ġclaimed": 3943,
      "cean": 3944,
      "Ġopposition": 3945,
      "ĠAmong": 3946,
      "Ġthus": 3947,
      "ulations": 3948,
      "rey": 3949,
      "ĠNot": 3950,
      "Ġcompass": 3951,
      "Ġperspective": 3952,
      "Ġcaptured": 3953,
      "Ġsources": 3954,
      "Ġbegins": 3955,
      "ĠFinal": 3956,
      "ĠOl": 3957,
      "ĠGrand": 3958,
      "Ġinfluenced": 3959,
      "Ġdead": 3960,
      "ĠMost": 3961,
      "Ġinspired": 3962,
      "ĠCast": 3963,
      "osc": 3964,
      "Ġprison": 3965,
      "Ġcontrovers": 3966,
      "iences": 3967,
      "ette": 3968,
      "Ġrate": 3969,
      "Ġconscious": 3970,
      "Ġveget": 3971,
      "Ġconflict": 3972,
      "ographer": 3973,
      "nes": 3974,
      "ĠTimes": 3975,
      "ella": 3976,
      "Ġden": 3977,
      "You": 3978,
      "Ġprem": 3979,
      "We": 3980,
      "ĠAwards": 3981,
      "icate": 3982,
      "ĠLord": 3983,
      "mans": 3984,
      "tered": 3985,
      "oviet": 3986,
      "ĠMex": 3987,
      "rier": 3988,
      "Ġobserved": 3989,
      "ĠJul": 3990,
      "Ġimmediately": 3991,
      ".âĢĿ": 3992,
      "ny": 3993,
      "Ġatmosp": 3994,
      "Ġbeautiful": 3995,
      "Ġartists": 3996,
      "tles": 3997,
      "Ġexperienced": 3998,
      "Ġmeans": 3999,
      "Ġwaters": 4000,
      "anish": 4001,
      "Ġreplied": 4002,
      "Ġcateg": 4003,
      "Ġhelped": 4004,
      "iles": 4005,
      "me": 4006,
      "Ġdiscoveries": 4007,
      "Ġsynthesis": 4008,
      "Ġtrue": 4009,
      "Ġterm": 4010,
      "Ġdisapp": 4011,
      "ĠHill": 4012,
      "Ġir": 4013,
      "Ġslowly": 4014,
      "Ġdate": 4015,
      "Ġgirl": 4016,
      "Ġearth": 4017,
      "ĠMill": 4018,
      "hered": 4019,
      "ĠJust": 4020,
      "Ġshown": 4021,
      "Ġsquare": 4022,
      "mission": 4023,
      "Ġoptim": 4024,
      "aining": 4025,
      "Ġcapable": 4026,
      "Ġbot": 4027,
      "Ġweight": 4028,
      "ĠRob": 4029,
      "Ġreputation": 4030,
      "ĠDay": 4031,
      "semb": 4032,
      "Ġstatus": 4033,
      "Ġlab": 4034,
      "Ġapproached": 4035,
      "That": 4036,
      "Ġemerged": 4037,
      "Ġremoved": 4038,
      "known": 4039,
      "Ġstarting": 4040,
      "Ġcataly": 4041,
      "tained": 4042,
      "Ġeth": 4043,
      "Ġmeeting": 4044,
      "Ġprominent": 4045,
      "ĠBeat": 4046,
      "Ġfilled": 4047,
      "Ġfit": 4048,
      "ĠOp": 4049,
      "rak": 4050,
      "iring": 4051,
      "hester": 4052,
      "Ġwoman": 4053,
      "Ġrepeated": 4054,
      "Ġabsence": 4055,
      "Ġlabor": 4056,
      "ĠAlexander": 4057,
      "izes": 4058,
      "Ġeffic": 4059,
      "respond": 4060,
      "Ġbecomes": 4061,
      "ĠBritain": 4062,
      "Ġdistribution": 4063,
      "Ġradio": 4064,
      "Ġshowed": 4065,
      "ump": 4066,
      "Ġdi": 4067,
      "suit": 4068,
      "ested": 4069,
      "lymp": 4070,
      "enth": 4071,
      "ĠForce": 4072,
      "Ġaest": 4073,
      "ĠSoviet": 4074,
      "useum": 4075,
      "va": 4076,
      "Ġreactions": 4077,
      "Ġmagazine": 4078,
      "zz": 4079,
      "ocks": 4080,
      "Ġemp": 4081,
      "Ġpropos": 4082,
      "Ġaware": 4083,
      "ĠLater": 4084,
      "Ġmajority": 4085,
      "Ġfemale": 4086,
      "Ġcapital": 4087,
      "ĠClass": 4088,
      "ania": 4089,
      "ĠTer": 4090,
      "Ġbroke": 4091,
      "rel": 4092,
      "ĠCur": 4093,
      "rative": 4094,
      "Ġpolice": 4095,
      "Ġvo": 4096,
      "Ġentirely": 4097,
      "Ġ60": 4098,
      "ĠMat": 4099,
      "Ġmedical": 4100,
      "liament": 4101,
      "sy": 4102,
      "ĠOlymp": 4103,
      "Ġsomeone": 4104,
      "othe": 4105,
      "ĠHot": 4106,
      "roduction": 4107,
      "Ġthing": 4108,
      "Ġbecoming": 4109,
      "Ġestimated": 4110,
      "Ġsky": 4111,
      "Ġexpected": 4112,
      "Ġgather": 4113,
      "iplom": 4114,
      "Ġgiving": 4115,
      "Ġlasted": 4116,
      "Ġcontent": 4117,
      "NA": 4118,
      "Ġadop": 4119,
      "Ġbow": 4120,
      "Ġhabit": 4121,
      "Ġleaving": 4122,
      "war": 4123,
      "Ġissue": 4124,
      "la": 4125,
      "ption": 4126,
      "ĠAlexand": 4127,
      "Ġacademic": 4128,
      "asy": 4129,
      "Ġthr": 4130,
      "Ġcorrespond": 4131,
      "Ġbrief": 4132,
      "ogether": 4133,
      "Ġminor": 4134,
      "Ġwestern": 4135,
      "Ġintens": 4136,
      "Ġreference": 4137,
      "ĠCorn": 4138,
      "right": 4139,
      "Ġsen": 4140,
      "Ġchoice": 4141,
      "Ġhonor": 4142,
      "ĠIm": 4143,
      "ession": 4144,
      "ilit": 4145,
      "ĠVirginia": 4146,
      "Ġdemand": 4147,
      "Ġleague": 4148,
      "irection": 4149,
      "Ġdefeated": 4150,
      "Ġtools": 4151,
      "ĠPac": 4152,
      "Ġsurg": 4153,
      "Ġspring": 4154,
      "ĠLouis": 4155,
      "Ġshoot": 4156,
      "Ġsetting": 4157,
      "Ġbooks": 4158,
      "Ġpil": 4159,
      "ĠDevelop": 4160,
      "Ġenorm": 4161,
      "ĠChic": 4162,
      "Ġemployed": 4163,
      "Ġcause": 4164,
      "Ġ-": 4165,
      "Ġpure": 4166,
      "10": 4167,
      "Ġhousehold": 4168,
      "iser": 4169,
      "Ġsurpr": 4170,
      "Ġreally": 4171,
      "Ġdaughter": 4172,
      "Ġdiss": 4173,
      "ĠInter": 4174,
      "Ġbroader": 4175,
      "ibly": 4176,
      "Ġguitar": 4177,
      "Ġdepth": 4178,
      "ĠHistory": 4179,
      "ĠVi": 4180,
      "ederal": 4181,
      "Ġcases": 4182,
      "road": 4183,
      "rics": 4184,
      "19": 4185,
      "opic": 4186,
      "Ġtransport": 4187,
      "ĠLos": 4188,
      "Ġcomparative": 4189,
      "Ġcell": 4190,
      "Ġbomb": 4191,
      "Ġ1999": 4192,
      "Ġmedia": 4193,
      "Ġ1970": 4194,
      "ĠCamp": 4195,
      "Ġindustry": 4196,
      "Ġfat": 4197,
      "ĠSuper": 4198,
      "aval": 4199,
      "ĠResearch": 4200,
      "Ġsimply": 4201,
      "ĠPen": 4202,
      "Ġpredictions": 4203,
      ",âĢĿ": 4204,
      "30": 4205,
      "lit": 4206,
      "Ġdiscovered": 4207,
      "Ġcomprom": 4208,
      "Ġmixed": 4209,
      "Ġdiplom": 4210,
      "Ġconcerned": 4211,
      "Ġstudent": 4212,
      "mir": 4213,
      "ufact": 4214,
      "erate": 4215,
      "artment": 4216,
      "Ġarms": 4217,
      "Ġappointed": 4218,
      "Ġhands": 4219,
      "Ġstaff": 4220,
      "Ġrepresents": 4221,
      "yal": 4222,
      "Ġexcept": 4223,
      "Ġ1980": 4224,
      "Ġintroduction": 4225,
      "ĠCro": 4226,
      "ora": 4227,
      "Ġconsolid": 4228,
      "ructure": 4229,
      "ĠJim": 4230,
      "Ġmur": 4231,
      "ĠStep": 4232,
      "Ġeducation": 4233,
      "Ġepisodes": 4234,
      "urban": 4235,
      "Ġexposed": 4236,
      "Ġconstructed": 4237,
      "Ġhosp": 4238,
      "Ġmanufact": 4239,
      "onic": 4240,
      "arsh": 4241,
      "uscript": 4242,
      "Ġmetal": 4243,
      "arden": 4244,
      "Ġphot": 4245,
      "Ġox": 4246,
      "Ġletters": 4247,
      "ĠSo": 4248,
      "Ġaltern": 4249,
      "teen": 4250,
      "ĠTex": 4251,
      "Ġalongside": 4252,
      "Ġconfirmed": 4253,
      "Ġhundred": 4254,
      "Ġstra": 4255,
      "down": 4256,
      "iar": 4257,
      "Ġaccounts": 4258,
      "Ġconcent": 4259,
      "Ġkilomet": 4260,
      "Ġlived": 4261,
      "ipped": 4262,
      "idents": 4263,
      "Ġorigins": 4264,
      "Ġ35": 4265,
      "Ġchanging": 4266,
      "Ġleave": 4267,
      "yon": 4268,
      "ĠInf": 4269,
      "Ġfleet": 4270,
      "Ġran": 4271,
      "Ġmagn": 4272,
      "ĠBruges": 4273,
      "ĠJackson": 4274,
      "Ġfrequently": 4275,
      "plete": 4276,
      "ĠMiddle": 4277,
      "Ġmarried": 4278,
      "Ġfish": 4279,
      "bit": 4280,
      "Ġdiscussions": 4281,
      "Ġspoke": 4282,
      "Ġdecisions": 4283,
      "Ġinstruction": 4284,
      "Ġmanuscript": 4285,
      "fficient": 4286,
      "Ġconceptual": 4287,
      "ĠParty": 4288,
      "Ġlegit": 4289,
      "Ġweak": 4290,
      "Ġdig": 4291,
      "Ġcompassion": 4292,
      "Ġtable": 4293,
      "ĠClub": 4294,
      "ĠOh": 4295,
      "Ġdeter": 4296,
      "Ġdoubt": 4297,
      "Ġtypically": 4298,
      "ĠFle": 4299,
      "Ġfavor": 4300,
      "atives": 4301,
      "well": 4302,
      "Ġneigh": 4303,
      "inese": 4304,
      "Ġincom": 4305,
      "bro": 4306,
      "Ġcarefully": 4307,
      "amm": 4308,
      "Ġscript": 4309,
      "ĠMany": 4310,
      "Ġscenes": 4311,
      "acher": 4312,
      "ellow": 4313,
      "ste": 4314,
      "ĠAssociation": 4315,
      "athan": 4316,
      "ĠIts": 4317,
      "ĠChicago": 4318,
      "ĠGreen": 4319,
      "Ġrecover": 4320,
      "Ġmarked": 4321,
      "Ġpolicy": 4322,
      "Ġbirth": 4323,
      "Ġseparate": 4324,
      "Ġexhib": 4325,
      "Ġprecise": 4326,
      "order": 4327,
      "Ġrating": 4328,
      "olec": 4329,
      "ĠKh": 4330,
      "ĠTour": 4331,
      "Ġpurch": 4332,
      "Ġapprentices": 4333,
      "Ġbelief": 4334,
      "Ġnarrow": 4335,
      "Ġauthorities": 4336,
      "iscipl": 4337,
      "ulating": 4338,
      "Ġ184": 4339,
      "Ġpow": 4340,
      "Ġwriter": 4341,
      "Ġturns": 4342,
      "strate": 4343,
      "Ġchallenged": 4344,
      "Ġresources": 4345,
      "cknow": 4346,
      "ĠLeg": 4347,
      "ĠEdward": 4348,
      "Ġsupply": 4349,
      "Ġrunning": 4350,
      "Ġelection": 4351,
      "Ġsmaller": 4352,
      "Ġanti": 4353,
      "AA": 4354,
      "Ġbad": 4355,
      "orter": 4356,
      "Ġuniversity": 4357,
      "Ġawarded": 4358,
      "eed": 4359,
      "Ġchannels": 4360,
      "Ġris": 4361,
      "ca": 4362,
      "ĠKore": 4363,
      "Ġeyes": 4364,
      "Ġexact": 4365,
      "Ġreveals": 4366,
      "Ġcenters": 4367,
      "bl": 4368,
      "zh": 4369,
      "urity": 4370,
      "ĠSpanish": 4371,
      "Ġcounter": 4372,
      "Ġskill": 4373,
      "Ġacknow": 4374,
      "Ġcompared": 4375,
      "onial": 4376,
      "Ġagricultural": 4377,
      "onder": 4378,
      "Ġconclusion": 4379,
      "Ġterritory": 4380,
      "ĠMiss": 4381,
      "Ġlog": 4382,
      "Ġaccomp": 4383,
      "Ġdivision": 4384,
      "ger": 4385,
      "oes": 4386,
      "iec": 4387,
      "Ġindustrial": 4388,
      "60": 4389,
      "ĠJohnson": 4390,
      "Ġdistance": 4391,
      "Ġcapture": 4392,
      "ĠEv": 4393,
      "Ġnumerous": 4394,
      "Ġconsum": 4395,
      "Ġdifferences": 4396,
      "Ġlocation": 4397,
      "Ġnumbers": 4398,
      "Ġseems": 4399,
      "ĠOtt": 4400,
      "Ġsand": 4401,
      "Ġunivers": 4402,
      "ĠCouncil": 4403,
      "ĠRom": 4404,
      "Ġlooking": 4405,
      "ĠChinese": 4406,
      "rd": 4407,
      "Ġexpression": 4408,
      "Ġbroadcast": 4409,
      "Ġterrain": 4410,
      "Ġprobably": 4411,
      "Ġultimately": 4412,
      "Ġbelow": 4413,
      "Ġrecomm": 4414,
      "igade": 4415,
      "Ġtheme": 4416,
      "Ġdraws": 4417,
      "Ġperhaps": 4418,
      "ĠEnter": 4419,
      "ĠEle": 4420,
      "bour": 4421,
      "Ġparent": 4422,
      "Ġremember": 4423,
      "Ġ1998": 4424,
      "Ã¶": 4425,
      "Ġrare": 4426,
      "Ġthous": 4427,
      "Ġnotable": 4428,
      "Ġwithd": 4429,
      "Ġexplained": 4430,
      "Ġhop": 4431,
      "ĠCentral": 4432,
      "Ġhydrogen": 4433,
      "Ġnearby": 4434,
      "Ġupper": 4435,
      "Ġhorse": 4436,
      "Ġsym": 4437,
      "Ġmostly": 4438,
      "ĠFlor": 4439,
      "rov": 4440,
      "Ġnegot": 4441,
      "ĠMo": 4442,
      "Ġfast": 4443,
      "onomy": 4444,
      "Ġcrystall": 4445,
      "Ġdetails": 4446,
      "ken": 4447,
      "ĠEmp": 4448,
      "antage": 4449,
      "Ġfeat": 4450,
      "ĠOper": 4451,
      "Ġsubstrate": 4452,
      "hyth": 4453,
      "Ġstep": 4454,
      "Ġcities": 4455,
      "ada": 4456,
      "Ġprocessing": 4457,
      "astern": 4458,
      "Ġconver": 4459,
      "Ġtheat": 4460,
      "eration": 4461,
      "stone": 4462,
      "ĠIr": 4463,
      "Ġdirection": 4464,
      "Ġinval": 4465,
      "Ġword": 4466,
      "Ġfru": 4467,
      "Ġgrand": 4468,
      "Ġapproximately": 4469,
      "atomy": 4470,
      "ĠSong": 4471,
      "ĠBur": 4472,
      "Ġsophisticated": 4473,
      "Ġroyal": 4474,
      "Ġrecently": 4475,
      "ĠServ": 4476,
      "Ġplanned": 4477,
      "ĠMass": 4478,
      "ĠBillboard": 4479,
      "sen": 4480,
      "Ġ185": 4481,
      "Ġcelebr": 4482,
      "Ġrough": 4483,
      "Ġmelanch": 4484,
      "ication": 4485,
      "night": 4486,
      "ĠMer": 4487,
      "Ġindependently": 4488,
      "ients": 4489,
      "itch": 4490,
      "Ġwidely": 4491,
      "Ġlif": 4492,
      "Ġweap": 4493,
      "Ġfailure": 4494,
      "Ġidentity": 4495,
      "Ġclaims": 4496,
      "ĠBack": 4497,
      "Ġbound": 4498,
      "Ġhot": 4499,
      "Ã¼": 4500,
      "Ġ1960": 4501,
      "Ġprevent": 4502,
      "Ġmaxim": 4503,
      "ubb": 4504,
      "isciplinary": 4505,
      "ĠRome": 4506,
      "Ġpun": 4507,
      "Ġevolved": 4508,
      "ĠSince": 4509,
      "Ġtracks": 4510,
      "Ġfans": 4511,
      "Ġpaper": 4512,
      "ĠEdin": 4513,
      "ĠGene": 4514,
      "Ġdecline": 4515,
      "uous": 4516,
      "Ġleader": 4517,
      "Ġofficers": 4518,
      "osure": 4519,
      "ione": 4520,
      "win": 4521,
      "Ġfields": 4522,
      "Ġcopies": 4523,
      "Ġresist": 4524,
      "Ġshell": 4525,
      "Ġconnection": 4526,
      "ĠEdinburgh": 4527,
      "Ġtrained": 4528,
      "Ġcrow": 4529,
      "ĠMont": 4530,
      "ĠSun": 4531,
      "Ġconnected": 4532,
      "Ġnomin": 4533,
      "Ġboard": 4534,
      "Ġimag": 4535,
      "Ġunp": 4536,
      "cher": 4537,
      "ĠLake": 4538,
      "Ġreligious": 4539,
      "Ġbox": 4540,
      "Ġdeeper": 4541,
      "rake": 4542,
      "Ġcontact": 4543,
      "Ġproducing": 4544,
      "venue": 4545,
      "Ġsuffered": 4546,
      "osen": 4547,
      "ĠConstantin": 4548,
      "ĠPacific": 4549,
      "Ġinteraction": 4550,
      "Ġvess": 4551,
      "Ġfixed": 4552,
      "Ġwilling": 4553,
      "Ġtraveled": 4554,
      "Ġcovered": 4555,
      "Ġexpect": 4556,
      "ĠScot": 4557,
      "ieces": 4558,
      "Ġlargely": 4559,
      "Ġur": 4560,
      "onna": 4561,
      "Ġbranch": 4562,
      "Ġfifth": 4563,
      "Ġfro": 4564,
      "Ġcho": 4565,
      "ronze": 4566,
      "Ġcombined": 4567,
      "Ġaffect": 4568,
      "wide": 4569,
      "Ġrise": 4570,
      "itor": 4571,
      "Ġbreed": 4572,
      "load": 4573,
      "ighter": 4574,
      "atch": 4575,
      "Ġfoundational": 4576,
      "Ġtun": 4577,
      "ĠCongress": 4578,
      "ĠBet": 4579,
      "Ġconstant": 4580,
      "Ġincrease": 4581,
      "Ġcampaigns": 4582,
      "ĠQueen": 4583,
      "Ġlyrics": 4584,
      "awn": 4585,
      "Ġmist": 4586,
      "Ġexternal": 4587,
      "Ġacknowled": 4588,
      "Ġ45": 4589,
      "Ġshare": 4590,
      "Ġlimitations": 4591,
      "ĠLove": 4592,
      "writ": 4593,
      ".,": 4594,
      "erick": 4595,
      "Ġexamples": 4596,
      "ĠWood": 4597,
      "Ġ1997": 4598,
      "Ġissued": 4599,
      "Ġincomplete": 4600,
      "gency": 4601,
      "ĠSever": 4602,
      "Th": 4603,
      "An": 4604,
      "hips": 4605,
      "isf": 4606,
      "Ġinterests": 4607,
      "Ġ32": 4608,
      "Ġtor": 4609,
      "ĠBa": 4610,
      "Ġdriven": 4611,
      "Ġappears": 4612,
      "Ġplans": 4613,
      "Ġrespond": 4614,
      "alle": 4615,
      "Ġthick": 4616,
      "Ġbattles": 4617,
      "atin": 4618,
      "ĠOld": 4619,
      "Ġdefend": 4620,
      "Ġimper": 4621,
      "Ġquantities": 4622,
      "ĠConstantinople": 4623,
      "Ġaesthetic": 4624,
      "Ġlies": 4625,
      "ĠCare": 4626,
      "itable": 4627,
      "Ġvalue": 4628,
      "ĠYoung": 4629,
      "Ġproducer": 4630,
      "Ġoffering": 4631,
      "Ġmathematic": 4632,
      "Ġfollows": 4633,
      "compass": 4634,
      "Ġet": 4635,
      "ĠLaw": 4636,
      "Ġpatience": 4637,
      "ĠSea": 4638,
      "Ġresponsible": 4639,
      "isation": 4640,
      "Ġdial": 4641,
      "Qu": 4642,
      "Ġbackground": 4643,
      "Ġscreen": 4644,
      "ault": 4645,
      "ĠTrans": 4646,
      "Ġreaction": 4647,
      "ims": 4648,
      "herent": 4649,
      "Ġrout": 4650,
      "ĠFlorida": 4651,
      "arcel": 4652,
      "Ġaddress": 4653,
      "inity": 4654,
      "Ġresolve": 4655,
      "Ġoccasion": 4656,
      "ĠHel": 4657,
      "ĠAnother": 4658,
      "Ġservices": 4659,
      "oly": 4660,
      "aching": 4661,
      "ĠTown": 4662,
      "ĠChina": 4663,
      "Ġknew": 4664,
      "Ġphysics": 4665,
      "Ġvia": 4666,
      "Ġcm": 4667,
      "asi": 4668,
      "Ġactivities": 4669,
      "ĠTexas": 4670,
      "ĠJew": 4671,
      "gu": 4672,
      "Ġnu": 4673,
      "avia": 4674,
      "atitude": 4675,
      "Ġdivided": 4676,
      "lo": 4677,
      "Ġslight": 4678,
      "Ġstruck": 4679,
      "ĠConst": 4680,
      "Ġpurpose": 4681,
      "ĠDist": 4682,
      "Ġstreets": 4683,
      "ĠArch": 4684,
      "Ġfair": 4685,
      "ka": 4686,
      "Ġuncertain": 4687,
      "Ġconsciousness": 4688,
      "Ġencompass": 4689,
      "inch": 4690,
      "bury": 4691,
      "Ġpassing": 4692,
      "ĠKy": 4693,
      "Ġrevolution": 4694,
      "Ġinterpret": 4695,
      "ĠHistor": 4696,
      "Ġtried": 4697,
      "ĠFranc": 4698,
      "ĠHighway": 4699,
      "Ġdrawn": 4700,
      "Ġsoft": 4701,
      "Ġven": 4702,
      "Ġfamil": 4703,
      "Ġextens": 4704,
      "ĠRussian": 4705,
      "Ġtons": 4706,
      "ĠHor": 4707,
      "Ġmotion": 4708,
      "Ġheight": 4709,
      "Ġstone": 4710,
      "Ġrhyth": 4711,
      "Ġmarriage": 4712,
      "Ġtesting": 4713,
      "Ġing": 4714,
      "Ġperception": 4715,
      "Ġbenef": 4716,
      "ĠTim": 4717,
      "Ġideal": 4718,
      "ĠFlore": 4719,
      "Ġflag": 4720,
      "Ġfacilit": 4721,
      "class": 4722,
      "ocratic": 4723,
      "Ġplays": 4724,
      "Ġgoals": 4725,
      "ellig": 4726,
      "Ġhighly": 4727,
      "othes": 4728,
      "ĠCarol": 4729,
      "aling": 4730,
      "Ġdeclared": 4731,
      "oral": 4732,
      "agement": 4733,
      "Ġensure": 4734,
      "Ġdism": 4735,
      "ĠVenice": 4736,
      "ari": 4737,
      "omic": 4738,
      "ĠSir": 4739,
      "Ġblood": 4740,
      "ĠBarcel": 4741,
      "Ġtrib": 4742,
      "ĠFort": 4743,
      "Ġexamines": 4744,
      "Ġjob": 4745,
      "Ġsecret": 4746,
      "ady": 4747,
      "Ġstead": 4748,
      "Ġstriking": 4749,
      "lor": 4750,
      "ĠLoc": 4751,
      "Ġsure": 4752,
      "Ġ80": 4753,
      "Ġformation": 4754,
      "Ġgeomet": 4755,
      "80": 4756,
      "Ġotherw": 4757,
      "Ġtemperatures": 4758,
      "Ġcomposed": 4759,
      "Ġmeasurement": 4760,
      "ĠTor": 4761,
      "ĠAtlantic": 4762,
      "Ġargue": 4763,
      "Ġwitnessed": 4764,
      "Ġpal": 4765,
      "yard": 4766,
      "Ġtoler": 4767,
      "gant": 4768,
      "Ġposed": 4769,
      "ĠIII": 4770,
      "uff": 4771,
      "Ġfellow": 4772,
      "ĠBarcelona": 4773,
      "Ġmort": 4774,
      "Ġobjects": 4775,
      "Ġpreserved": 4776,
      "ĠAfrica": 4777,
      "ĠTogether": 4778,
      "Ġplaces": 4779,
      "claim": 4780,
      "Ġmanager": 4781,
      "Ġrespectively": 4782,
      "ĠRo": 4783,
      "Ġreduced": 4784,
      "ĠMur": 4785,
      "Ġdamaged": 4786,
      "Ġurban": 4787,
      "Ġworth": 4788,
      "Ġemphasized": 4789,
      "ĠRail": 4790,
      "Ġdistrict": 4791,
      "ĠVienna": 4792,
      "ecause": 4793,
      "Ġvalley": 4794,
      "ĠCenter": 4795,
      "Ġpick": 4796,
      "icated": 4797,
      "Ġsignificance": 4798,
      "ĠCanadian": 4799,
      "Ġdiscovery": 4800,
      "Ġsupports": 4801,
      "Ġcontains": 4802,
      "ĠSquadron": 4803,
      "Ġtype": 4804,
      "itation": 4805,
      "ĠAngeles": 4806,
      "Ġquite": 4807,
      "Ġwinning": 4808,
      "Ġplot": 4809,
      "ĠDub": 4810,
      "Ġobserve": 4811,
      "band": 4812,
      "Ġofficer": 4813,
      "adium": 4814,
      "Ġdog": 4815,
      "Ġinspiration": 4816,
      "Ġtraffic": 4817,
      "Ġrob": 4818,
      "Ġinside": 4819,
      "estival": 4820,
      "Ġdry": 4821,
      "Ġsnow": 4822,
      "Ġspir": 4823,
      "Ġund": 4824,
      "Ġblock": 4825,
      "anes": 4826,
      "andon": 4827,
      "Ġaccum": 4828,
      "Ġjudgment": 4829,
      "Ġwhy": 4830,
      "Ġclosed": 4831,
      "eff": 4832,
      "Ġask": 4833,
      "Ġrigorous": 4834,
      "aded": 4835,
      "Ġpieces": 4836,
      "Ġfarm": 4837,
      "Ġfinanc": 4838,
      "that": 4839,
      "isher": 4840,
      "jected": 4841,
      "Ġjournal": 4842,
      "Ġinstrumentation": 4843,
      "ulpt": 4844,
      "ounded": 4845,
      "estion": 4846,
      "Ġmeant": 4847,
      "eor": 4848,
      "ographic": 4849,
      "house": 4850,
      "Ġaffected": 4851,
      "ĠOff": 4852,
      "Ġoperating": 4853,
      "Ġperspectives": 4854,
      "Ġfeaturing": 4855,
      "ĠKent": 4856,
      "Ġcustom": 4857,
      "enant": 4858,
      "ĠRad": 4859,
      "Ġgenerated": 4860,
      "Ġflight": 4861,
      "Ġsister": 4862,
      "Ġarrival": 4863,
      "ĠUr": 4864,
      "Ġstrugg": 4865,
      "Ġphilosophical": 4866,
      "Ġcorn": 4867,
      "ĠFlorence": 4868,
      "ansion": 4869,
      "Ġmanuscripts": 4870,
      "Ġcycle": 4871,
      "ighth": 4872,
      "Ġinnovations": 4873,
      "Ġpict": 4874,
      "Ġdiversity": 4875,
      "Ġmaximum": 4876,
      "Ġsales": 4877,
      "VD": 4878,
      "Ġheavier": 4879,
      "Ġattacks": 4880,
      "Ġsites": 4881,
      "Ġreferred": 4882,
      "ĠTur": 4883,
      "Ġconservation": 4884,
      "Ġvisited": 4885,
      "Ġspeak": 4886,
      "odies": 4887,
      "agon": 4888,
      "lig": 4889,
      "Ġdut": 4890,
      "track": 4891,
      "Ġgar": 4892,
      "Ġuseful": 4893,
      "Ġ1995": 4894,
      "Ġlaunched": 4895,
      "ĠMel": 4896,
      "ĠEmpire": 4897,
      "Ġartistic": 4898,
      "Ġmiddle": 4899,
      "uality": 4900,
      "quar": 4901,
      "Ġplants": 4902,
      "ĠBow": 4903,
      "Ġfaith": 4904,
      "Ġunable": 4905,
      "ĠĠĠĠĠĠĠĠ": 4906,
      "Ġbeneath": 4907,
      "Ġclean": 4908,
      "athered": 4909,
      "Ġdegree": 4910,
      "Ġvolcan": 4911,
      "Ġtruly": 4912,
      "Ġchallenging": 4913,
      "ĠAlexandria": 4914,
      "odore": 4915,
      "bra": 4916,
      "Ġleadership": 4917,
      "Ġvalid": 4918,
      "enture": 4919,
      "pected": 4920,
      "atherine": 4921,
      "Ġvirtue": 4922,
      "come": 4923,
      "Ġdescription": 4924,
      "ĠPrince": 4925,
      "orough": 4926,
      "Ġdu": 4927,
      "Ġmention": 4928,
      "Ġtrial": 4929,
      "Ġhour": 4930,
      "Ġdefeat": 4931,
      "Ġnod": 4932,
      "Ġlegisl": 4933,
      "Ġselected": 4934,
      "Ġi": 4935,
      "Ġchance": 4936,
      "Ġassigned": 4937,
      "Ġattacked": 4938,
      "Ġkept": 4939,
      "ala": 4940,
      "Ġranked": 4941,
      "inely": 4942,
      "Ġmission": 4943,
      "Ġfash": 4944,
      "Ġglob": 4945,
      "Ġprotect": 4946,
      "Ġtouch": 4947,
      "ĠFilm": 4948,
      "ieties": 4949,
      "Ġearned": 4950,
      "ĠMartin": 4951,
      "yr": 4952,
      "Ġ1996": 4953,
      "ĠGroup": 4954,
      "ahan": 4955,
      "ĠKrak": 4956,
      "Ġversions": 4957,
      "Ġantiqu": 4958,
      "Ġliberty": 4959,
      "Ġconventional": 4960,
      "gra": 4961,
      "Ġsculpt": 4962,
      "otional": 4963,
      "Ġheavily": 4964,
      "Ġengineers": 4965,
      "Ġyards": 4966,
      "Ġ2016": 4967,
      "ĠMichigan": 4968,
      "Ġloyal": 4969,
      "ĠIndust": 4970,
      "Ġclimate": 4971,
      "issance": 4972,
      "Ġresulted": 4973,
      "Ġshore": 4974,
      "Ġsinger": 4975,
      "Ġsustain": 4976,
      "Ġnames": 4977,
      "Ġmutual": 4978,
      "Ġallows": 4979,
      "Ġcomposers": 4980,
      "ĠYear": 4981,
      "ĠBefore": 4982,
      "Ġaudience": 4983,
      "ĠCrit": 4984,
      "cies": 4985,
      "Ġfigures": 4986,
      "Ġdoing": 4987,
      "Ġmineral": 4988,
      "Ġspot": 4989,
      "Ġpursuit": 4990,
      "Ġnewsp": 4991,
      "aug": 4992,
      "Ġrefused": 4993,
      "Ġleaves": 4994,
      "Ġactions": 4995,
      "Ġsole": 4996,
      "Ġdecade": 4997,
      "Ġ1994": 4998,
      "uity": 4999,
      "Ġwrite": 5000,
      "ĠMir": 5001,
      "Ġencountered": 5002,
      "Ġcart": 5003,
      "set": 5004,
      "ech": 5005,
      "ĠVer": 5006,
      "anna": 5007,
      "Ġexposure": 5008,
      "ifically": 5009,
      "Ġcommented": 5010,
      "cel": 5011,
      "Ġadministration": 5012,
      "Ġadvoc": 5013,
      "osaur": 5014,
      "Ġattend": 5015,
      "Ġtwenty": 5016,
      "ieve": 5017,
      "ules": 5018,
      "ĠEven": 5019,
      "ĠJose": 5020,
      "Ġblue": 5021,
      "Ġabst": 5022,
      "Ġmale": 5023,
      "endent": 5024,
      "entions": 5025,
      "ĠMa": 5026,
      "Ġshall": 5027,
      "Ġtermin": 5028,
      "ĠItalian": 5029,
      "ĠChe": 5030,
      "Ġcommander": 5031,
      "Ġexistence": 5032,
      "Ġ70": 5033,
      "vious": 5034,
      "Ġgas": 5035,
      "Ġelegant": 5036,
      "ĠDis": 5037,
      "Ġcharacteristics": 5038,
      "ĠDef": 5039,
      "ĠCle": 5040,
      "Ġcultiv": 5041,
      "Ġnuanced": 5042,
      "Ġinh": 5043,
      "Ġseasons": 5044,
      "Ġpiece": 5045,
      "ĠDVD": 5046,
      "ãĥ": 5047,
      "Ġtalk": 5048,
      "ĠPrag": 5049,
      "ĠCapt": 5050,
      "Ġadvances": 5051,
      "ship": 5052,
      "Ġintric": 5053,
      "Ġdoor": 5054,
      "Ġnest": 5055,
      "ĠBig": 5056,
      "cts": 5057,
      "Ġarchitectural": 5058,
      "opy": 5059,
      "Ġcarrying": 5060,
      "ĠFrederick": 5061,
      "ĠSk": 5062,
      "Ġdepict": 5063,
      "Ġfocus": 5064,
      "Ġpersonnel": 5065,
      "atio": 5066,
      "ĠFer": 5067,
      "book": 5068,
      "ishop": 5069,
      "Ġharmony": 5070,
      "Ġheard": 5071,
      "Ġdepending": 5072,
      "Ġrelationships": 5073,
      "Ġ1950": 5074,
      "tu": 5075,
      "ĠPre": 5076,
      "ĠHang": 5077,
      "ĠTimb": 5078,
      "Ġartist": 5079,
      "Ġabandon": 5080,
      "Ġdistinction": 5081,
      "Ġorganized": 5082,
      "Ġlooked": 5083,
      "ĠDevelopment": 5084,
      "Ġtouc": 5085,
      "ĠPenn": 5086,
      "Ġchief": 5087,
      "Ġinvolving": 5088,
      "Ġperformances": 5089,
      "Ġpowerful": 5090,
      "orters": 5091,
      "oses": 5092,
      "peror": 5093,
      "Ġmaintaining": 5094,
      "ĠCus": 5095,
      "Ġoperates": 5096,
      "Ġlisted": 5097,
      "Ġcriticized": 5098,
      "Ġexcell": 5099,
      "Ġ_": 5100,
      "adow": 5101,
      "ĠDor": 5102,
      "ĠCorps": 5103,
      "Ġanyone": 5104,
      "Ġgrav": 5105,
      "Ġpromote": 5106,
      "Ġshift": 5107,
      "Ġpione": 5108,
      "ani": 5109,
      "rium": 5110,
      "Ġfacilities": 5111,
      "Ġdouble": 5112,
      "Ġreplace": 5113,
      "ĠWal": 5114,
      "Ġtrain": 5115,
      "ĠPrague": 5116,
      "Ġencou": 5117,
      "And": 5118,
      "oust": 5119,
      "Ġdepression": 5120,
      "ĠFe": 5121,
      "zhou": 5122,
      "Ġcentre": 5123,
      "Ġconversations": 5124,
      "roscopic": 5125,
      "Ġcompletely": 5126,
      "Ġfighting": 5127,
      "Ġreading": 5128,
      "Ġeasy": 5129,
      "irm": 5130,
      "Ġ180": 5131,
      "hent": 5132,
      "Ġtherap": 5133,
      "Ġshifted": 5134,
      "Ġsenior": 5135,
      "Ġpresented": 5136,
      "Ġanatomy": 5137,
      "Ġintricate": 5138,
      "Ġempiricism": 5139,
      "Ġ1940": 5140,
      "outs": 5141,
      "Ġgreen": 5142,
      "Ġenter": 5143,
      "ĠMax": 5144,
      "Ġmigr": 5145,
      "gl": 5146,
      "Ġresolution": 5147,
      "ige": 5148,
      "amin": 5149,
      "Ġoperation": 5150,
      "ĠOx": 5151,
      "ĠTV": 5152,
      "Ġdirectly": 5153,
      "ĠWales": 5154,
      "ceived": 5155,
      "Ġcomponents": 5156,
      "Ġrules": 5157,
      "ĠMinister": 5158,
      "antasy": 5159,
      "oo": 5160,
      "ga": 5161,
      "Ġinterdisciplinary": 5162,
      "Ġanalytical": 5163,
      "Ġdropped": 5164,
      "ĠSeveral": 5165,
      "Ġdetailed": 5166,
      "ĠViet": 5167,
      "Ġinsights": 5168,
      "ieval": 5169,
      "entina": 5170,
      "ĠLisbon": 5171,
      "Ġsomew": 5172,
      "Ġopposed": 5173,
      "Ġcompetition": 5174,
      "vention": 5175,
      "rated": 5176,
      "ima": 5177,
      "Ġunf": 5178,
      "ieut": 5179,
      "Ġorganiz": 5180,
      "40": 5181,
      "ĠFore": 5182,
      "Ġcomputer": 5183,
      "miral": 5184,
      "ĠSar": 5185,
      "Ġvegetation": 5186,
      "ommod": 5187,
      "Ġexercise": 5188,
      "ya": 5189,
      "Ġunit": 5190,
      "ĠLit": 5191,
      "Ġends": 5192,
      "ety": 5193,
      "Ġ90": 5194,
      "ĠTest": 5195,
      "Ġmanner": 5196,
      "Ġperfect": 5197,
      "Ġelected": 5198,
      "Ġvocals": 5199,
      "quis": 5200,
      "Ġcompl": 5201,
      "Ġrising": 5202,
      "ĠCr": 5203,
      "Ġlives": 5204,
      "asty": 5205,
      "Ġinternal": 5206,
      "Ġgeological": 5207,
      "Ġminute": 5208,
      "Ġaccommod": 5209,
      "vert": 5210,
      "Ġcas": 5211,
      "Ġrich": 5212,
      "abul": 5213,
      "itute": 5214,
      "Ġstim": 5215,
      "ĠFox": 5216,
      "ĠNik": 5217,
      "ĠTeam": 5218,
      "Ġmolec": 5219,
      "while": 5220,
      "ĠMem": 5221,
      "inson": 5222,
      "Ġswe": 5223,
      "umber": 5224,
      "Ġwealth": 5225,
      "Ġextend": 5226,
      "Ġmatches": 5227,
      "Ġ37": 5228,
      "Ġnodded": 5229,
      "ĠVaran": 5230,
      "nik": 5231,
      "arkand": 5232,
      "Ġnewly": 5233,
      "Ġcode": 5234,
      "Ġliterature": 5235,
      "imacy": 5236,
      "Ġperse": 5237,
      "ĠVaranasi": 5238,
      "ĠMarrake": 5239,
      "ĠMarrakech": 5240,
      "Ġdeveloping": 5241,
      "mark": 5242,
      "Ġaccepted": 5243,
      "Ġcombat": 5244,
      "yles": 5245,
      "ĠSum": 5246,
      "ĠNort": 5247,
      "Ġcrossing": 5248,
      "Ġdrum": 5249,
      "Ġsevent": 5250,
      "Ġdraft": 5251,
      "Ġfactors": 5252,
      "Ġsharp": 5253,
      "Ġcreation": 5254,
      "Ġtell": 5255,
      "'m": 5256,
      "Ġpair": 5257,
      "ender": 5258,
      "Ġnotes": 5259,
      "ĠKyoto": 5260,
      "ta": 5261,
      "ĠSamarkand": 5262,
      "Ġspread": 5263,
      "ĠChris": 5264,
      "Ġclassification": 5265,
      "Ġchair": 5266,
      "ĠRel": 5267,
      "ĠMadonna": 5268,
      "rons": 5269,
      "Ġannual": 5270,
      "Ġ1992": 5271,
      "utch": 5272,
      "ĠEr": 5273,
      "Ġrapidly": 5274,
      "Ġoccupies": 5275,
      "Ġpace": 5276,
      "mund": 5277,
      "cles": 5278,
      "Ġpopulations": 5279,
      "Ġago": 5280,
      "ĠFour": 5281,
      "ĠTime": 5282,
      "Ġsurvey": 5283,
      "?âĢĿ": 5284,
      "uted": 5285,
      "Ġbringing": 5286,
      "ĠMajor": 5287,
      "rie": 5288,
      "ĠSubsequent": 5289,
      "Ġsettings": 5290,
      "Ġreinf": 5291,
      "Ġhouses": 5292,
      "Ġbasic": 5293,
      "Äĩ": 5294,
      "ĠZeal": 5295,
      "Ġattended": 5296,
      "Ġneut": 5297,
      "Ġedition": 5298,
      "Ġyounger": 5299,
      "Ġmess": 5300,
      "Ġagreement": 5301,
      "Ġrepeatedly": 5302,
      "isions": 5303,
      "Ġoverhead": 5304,
      "aun": 5305,
      "een": 5306,
      "Ġvibr": 5307,
      "Ġinstruct": 5308,
      "Ġintroducing": 5309,
      "Ġdefin": 5310,
      "ieutenant": 5311,
      "Ġhus": 5312,
      "ĠAfrican": 5313,
      "Ġexperiment": 5314,
      "anz": 5315,
      "ĠSeville": 5316,
      "Ġabstract": 5317,
      "ĠMosc": 5318,
      "ĠBrad": 5319,
      "Ġholds": 5320,
      "Ġboy": 5321,
      "Ġstating": 5322,
      "Ġunknown": 5323,
      "Ġreaching": 5324,
      "ĠWolf": 5325,
      "ĠGar": 5326,
      "Ġspecifically": 5327,
      "Ġextreme": 5328,
      "Ġenemy": 5329,
      "Ġadult": 5330,
      "Ġbank": 5331,
      "ĠChart": 5332,
      "Ġglac": 5333,
      "Ġspect": 5334,
      "Ġvolume": 5335,
      "ĠHangzhou": 5336,
      "ĠCath": 5337,
      "ĠTre": 5338,
      "Ġlibrary": 5339,
      "Ġoil": 5340,
      "ĠCusco": 5341,
      "icip": 5342,
      "earing": 5343,
      "ĠAcadem": 5344,
      "Ġpossess": 5345,
      "rical": 5346,
      "Ġbes": 5347,
      "Ġchosen": 5348,
      "ĠMexico": 5349,
      "Ġ1991": 5350,
      "Ġ1993": 5351,
      "ĠTimbuk": 5352,
      "ĠTimbuktu": 5353,
      "Ġconcert": 5354,
      "ĠBook": 5355,
      "Ġportray": 5356,
      "Ġcandid": 5357,
      "kes": 5358,
      "Ġ33": 5359,
      "apers": 5360,
      "Ġgranted": 5361,
      "ĠDepartment": 5362,
      "ĠIron": 5363,
      "anger": 5364,
      "Ġsilver": 5365,
      "Ġpul": 5366,
      "Ġschools": 5367,
      "ĠGo": 5368,
      "ĠKrakow": 5369,
      "Ġoutl": 5370,
      "more": 5371,
      "Ġinvited": 5372,
      "ĠCross": 5373,
      "Ġmovie": 5374,
      "ĠHaw": 5375,
      "Ġmanaged": 5376,
      "idance": 5377,
      "Ġreception": 5378,
      "chers": 5379,
      "ĠThree": 5380,
      "ĠDar": 5381,
      "orses": 5382,
      "annes": 5383,
      "Ġ+": 5384,
      "Ġproof": 5385,
      "oster": 5386,
      "ĠZealand": 5387,
      "Ġcourage": 5388,
      "rat": 5389,
      "oked": 5390,
      "Ġtower": 5391,
      "ĠGreek": 5392,
      "Ġcomposer": 5393,
      "ĠIsf": 5394,
      "Ġcoming": 5395,
      "Ġ183": 5396,
      "Ġnormal": 5397,
      "ĠMoscow": 5398,
      "Ġalike": 5399,
      "ifications": 5400,
      "Ġ500": 5401,
      "Ġregularly": 5402,
      "ooking": 5403,
      "ables": 5404,
      "mittee": 5405,
      "ĠOttoman": 5406,
      "Ġ00": 5407,
      "ĠBost": 5408,
      "ĠInt": 5409,
      "ĠIsfahan": 5410,
      "Ġrain": 5411,
      "ĠAnn": 5412,
      "Ġthreatened": 5413,
      "fall": 5414,
      "Ġtrou": 5415,
      "Ġeasily": 5416,
      "Ġvoices": 5417,
      "ĠScotland": 5418,
      "Ġbiological": 5419,
      "Ġresil": 5420,
      "Ġinches": 5421,
      "ĠSil": 5422,
      "ĠJoe": 5423,
      "ĠLong": 5424,
      "orb": 5425,
      "500": 5426,
      "Ġprove": 5427,
      "Ġcoach": 5428,
      "ĠKenn": 5429,
      "Ġestablishment": 5430,
      "ager": 5431,
      "ĠCat": 5432,
      "Ġstanding": 5433,
      "Ġarrest": 5434,
      "Ġdomestic": 5435,
      "osion": 5436,
      "Ġillumin": 5437,
      "Ġdescribes": 5438,
      "Ġtransformation": 5439,
      "ygen": 5440,
      "ĠThrough": 5441,
      "Ġguidance": 5442,
      "ava": 5443,
      "Ġtemporary": 5444,
      "Ġcollege": 5445,
      "Ġraw": 5446,
      "tery": 5447,
      "Ġcerem": 5448,
      "vest": 5449,
      "Ġconsolidation": 5450,
      "ĠCaptain": 5451,
      "Ġfinding": 5452,
      "Ġvot": 5453,
      "ĠBre": 5454,
      "ĠDou": 5455,
      "iom": 5456,
      "Ġuses": 5457,
      "Ġsuccessfully": 5458,
      "Ġstrengths": 5459,
      "Ġsymb": 5460,
      "Ġmix": 5461,
      "Ġdecisive": 5462,
      "Ġportion": 5463,
      "ĠSat": 5464,
      "rient": 5465,
      "Ġske": 5466,
      "illery": 5467,
      "Ġsn": 5468,
      "gar": 5469,
      "Ġrule": 5470,
      "Ġcyclone": 5471,
      "Ġadopted": 5472,
      "olves": 5473,
      "ĠGil": 5474,
      "Ġclim": 5475,
      "ĠPost": 5476,
      "Ġ179": 5477,
      "Ġ1930": 5478,
      "Ġleads": 5479,
      "thur": 5480,
      "Ġtwice": 5481,
      "Ġwall": 5482,
      "Ġproperty": 5483,
      "range": 5484,
      "Ġign": 5485,
      "Ġacoust": 5486,
      "Ġfloor": 5487,
      "Ġimage": 5488,
      "Ġbott": 5489,
      "Ġresilience": 5490,
      "Ġprompt": 5491,
      "Åį": 5492,
      "comes": 5493,
      "Ġtargeted": 5494,
      "Ġsides": 5495,
      "olar": 5496,
      "iology": 5497,
      "Ġprincipal": 5498,
      "Ġcomes": 5499,
      "Ġperman": 5500,
      "Ġworkers": 5501,
      "Ġsusp": 5502,
      "urt": 5503,
      "Ġculture": 5504,
      "Ġtypes": 5505,
      "Ġdim": 5506,
      "infall": 5507,
      "ĠService": 5508,
      "edom": 5509,
      "Ġconviction": 5510,
      "elest": 5511,
      "Ġactually": 5512,
      "lium": 5513,
      "ĠUs": 5514,
      "Ġcoord": 5515,
      "Ġcliff": 5516,
      "ĠBC": 5517,
      "shire": 5518,
      "ĠBob": 5519,
      "Ġbig": 5520,
      "ares": 5521,
      "ips": 5522,
      "Ġreflects": 5523,
      "Ġwild": 5524,
      "ado": 5525,
      "Ġmechanical": 5526,
      "ĠRecords": 5527,
      "itiz": 5528,
      "ih": 5529,
      "Ġ36": 5530,
      "Ġfigure": 5531,
      "vin": 5532,
      "Ġbeat": 5533,
      "ĠFoot": 5534,
      "ĠStone": 5535,
      "Ġbasis": 5536,
      "Ġoblig": 5537,
      "Ġtherefore": 5538,
      "orted": 5539,
      "Ġpatient": 5540,
      "ĠLike": 5541,
      "Ġsets": 5542,
      "Ġallowing": 5543,
      "ampion": 5544,
      "Ġcalls": 5545,
      "ĠFar": 5546,
      "Ġhor": 5547,
      "rig": 5548,
      "Ġmetres": 5549,
      "ĠCreek": 5550,
      "Ġparalle": 5551,
      "Ġfuel": 5552,
      "raction": 5553,
      "agre": 5554,
      "sych": 5555,
      "ĠNews": 5556,
      "uge": 5557,
      "Ġhistorians": 5558,
      "Ġphysic": 5559,
      "part": 5560,
      "Ġforeign": 5561,
      "Ġut": 5562,
      "Ġcontrad": 5563,
      "ĠParliament": 5564,
      "Ġdescribe": 5565,
      "astic": 5566,
      "ĠCommun": 5567,
      "Ġchampionship": 5568,
      "Ġprojects": 5569,
      "Ġchapters": 5570,
      "ĠMic": 5571,
      "Ġparents": 5572,
      "ĠStan": 5573,
      "Ġcaptain": 5574,
      "Ġsettlement": 5575,
      "ĠInfantry": 5576,
      "ĠManc": 5577,
      "gypt": 5578,
      "ĠSecret": 5579,
      "for": 5580,
      "Ġhonest": 5581,
      "Ġrefers": 5582,
      "Ġdialogue": 5583,
      "Ġbed": 5584,
      "Ġded": 5585,
      "Ġlot": 5586,
      "ĠLar": 5587,
      "Ġtransferred": 5588,
      "Ġblow": 5589,
      "Ġdemanding": 5590,
      "lies": 5591,
      "Ġreceive": 5592,
      "Ġgod": 5593,
      "Ġconcluded": 5594,
      "abling": 5595,
      "Ġrival": 5596,
      "abulary": 5597,
      "'re": 5598,
      "Ġcollaborative": 5599,
      "Ġengaged": 5600,
      "orrow": 5601,
      "ĠGames": 5602,
      "ĠDen": 5603,
      "Ġending": 5604,
      "Ġviewers": 5605,
      "Ġdance": 5606,
      "anor": 5607,
      "Ġcastle": 5608,
      "Ġpharm": 5609,
      "Ġcloud": 5610,
      "Ġreflection": 5611,
      "ĠBoston": 5612,
      "Ġalt": 5613,
      "Ġdebated": 5614,
      "Ġapproaching": 5615,
      "Ġclarity": 5616,
      "Ġserving": 5617,
      "ĠJones": 5618,
      "aled": 5619,
      "Ġdisrupt": 5620,
      "cks": 5621,
      "Ġdevotion": 5622,
      "Ġcanopy": 5623,
      "ĠSociety": 5624,
      "Ġpredecess": 5625,
      "Ġintellig": 5626,
      "inner": 5627,
      "ĠWilliams": 5628,
      "Ġreconcil": 5629,
      "Ġfeeling": 5630,
      "Ġproport": 5631,
      "Ġeld": 5632,
      "mas": 5633,
      "ux": 5634,
      "Ġpeaked": 5635,
      "Ġstations": 5636,
      "Ġsituation": 5637,
      "fort": 5638,
      "uated": 5639,
      "itage": 5640,
      "Ġdeliver": 5641,
      "Ġfurn": 5642,
      "ĠSouthern": 5643,
      "Ġ1942": 5644,
      "opher": 5645,
      "ossible": 5646,
      "gia": 5647,
      "Ġoverl": 5648,
      "Ġdream": 5649,
      "ĠCap": 5650,
      "ĠCommittee": 5651,
      "Ġsocieties": 5652,
      "Ġanalyz": 5653,
      "Ġwillingness": 5654,
      "MS": 5655,
      "Ġherself": 5656,
      "Ġreality": 5657,
      "ailing": 5658,
      "Ġvibrant": 5659,
      "Ġproceed": 5660,
      "70": 5661,
      "Ġsuc": 5662,
      "under": 5663,
      "phy": 5664,
      "Ġworldwide": 5665,
      "Ġfederal": 5666,
      "ĠBridge": 5667,
      "Ġpasseng": 5668,
      "Ġwor": 5669,
      "ita": 5670,
      "ĠCatherine": 5671,
      "Ġattempts": 5672,
      "Ġteacher": 5673,
      "ĠEgypt": 5674,
      "ributed": 5675,
      "Ġvocal": 5676,
      "ĠCamb": 5677,
      "ĠKar": 5678,
      "ees": 5679,
      "Ġsending": 5680,
      "Ġoutcomes": 5681,
      "room": 5682,
      "ĠForm": 5683,
      "Ġparam": 5684,
      "ench": 5685,
      "Ġfaced": 5686,
      "Ġruling": 5687,
      "Ġsight": 5688,
      "ints": 5689,
      "Ġpaid": 5690,
      "emis": 5691,
      "Ġdating": 5692,
      "Ġeverything": 5693,
      "Ġhy": 5694,
      "Ġslightly": 5695,
      "TV": 5696,
      "Ġaccompan": 5697,
      "Ġsmiled": 5698,
      "Ġvocabulary": 5699,
      "ĠIre": 5700,
      "ĠTob": 5701,
      "ĠBecause": 5702,
      "Ġdelicate": 5703,
      "ĠSwed": 5704,
      "Ġleather": 5705,
      "Ġthoughtful": 5706,
      "Ġwonder": 5707,
      "Ġspans": 5708,
      "Ġmob": 5709,
      "Ġadvantage": 5710,
      "ini": 5711,
      "Ġhusband": 5712,
      "Ġthir": 5713,
      "Ġreprodu": 5714,
      "Ġlinked": 5715,
      "ĠSaint": 5716,
      "25": 5717,
      "What": 5718,
      "11": 5719,
      "Ġoperated": 5720,
      "Ġ49": 5721,
      "Ġpatrol": 5722,
      "Ġpowers": 5723,
      "Ġonto": 5724,
      "ilib": 5725,
      "elestial": 5726,
      "Ġbreath": 5727,
      "ĠOxford": 5728,
      "ushed": 5729,
      "Ġ34": 5730,
      "Ġarts": 5731,
      "ĠEll": 5732,
      "ube": 5733,
      "Ġcontradict": 5734,
      "ĠJoseph": 5735,
      "Ġbond": 5736,
      "Ġobser": 5737,
      "Ġgratitude": 5738,
      "Ġengagement": 5739,
      "Ġenabling": 5740,
      "formation": 5741,
      "Ġacting": 5742,
      "Ġenormously": 5743,
      "Ġchemistry": 5744,
      "Ġcontroversial": 5745,
      "Ġinvaluable": 5746,
      "Ġgreatest": 5747,
      "Ġnuclear": 5748,
      "rology": 5749,
      "ervative": 5750,
      "Ġpremi": 5751,
      "Ġrainfall": 5752,
      "Ġtechnique": 5753,
      "Ġmillenn": 5754,
      "Ġobvious": 5755,
      "rence": 5756,
      "AS": 5757,
      "Ġfinancial": 5758,
      "Ġcold": 5759,
      "Ġuns": 5760,
      "Ġproviding": 5761,
      "cers": 5762,
      "lers": 5763,
      "stein": 5764,
      "Ġwriters": 5765,
      "itt": 5766,
      "Ġmis": 5767,
      "Ġtry": 5768,
      "Ġfrag": 5769,
      "Ġhero": 5770,
      "fully": 5771,
      "Ġcalling": 5772,
      "Ġcollaboration": 5773,
      "Ġdifference": 5774,
      "rug": 5775,
      "ilibrium": 5776,
      "Ġseeking": 5777,
      "pro": 5778,
      "ĠDi": 5779,
      "Ġanything": 5780,
      "Ġpassion": 5781,
      "Ġtourn": 5782,
      "ĠLatin": 5783,
      "def": 5784,
      "equ": 5785,
      "break": 5786,
      "ras": 5787,
      "ĠBoy": 5788,
      "abella": 5789,
      "dy": 5790,
      "ĠFre": 5791,
      "Ġfounded": 5792,
      "Ġactor": 5793,
      "ĠLittle": 5794,
      "ĠRose": 5795,
      "Ġwet": 5796,
      "Ġrefin": 5797,
      "rane": 5798,
      "Ġadministrative": 5799,
      "ĠHarrison": 5800,
      "quarters": 5801,
      "Ġ300": 5802,
      "Ġcomputational": 5803,
      "ĠGood": 5804,
      "Ġcompanies": 5805,
      "oured": 5806,
      "Ġ38": 5807,
      "ĠEntertain": 5808,
      "Ġlamp": 5809,
      "There": 5810,
      "Ġrefined": 5811,
      "ĠSur": 5812,
      "Ġwatched": 5813,
      "Ġranges": 5814,
      "Ġdepends": 5815,
      "des": 5816,
      "Ġcelestial": 5817,
      "ĠBBC": 5818,
      "iling": 5819,
      "entle": 5820,
      "dal": 5821,
      "inem": 5822,
      "Ġindependent": 5823,
      "met": 5824,
      "Ġpet": 5825,
      "ancy": 5826,
      "Ġequilibrium": 5827,
      "ĠCommission": 5828,
      "Ġrom": 5829,
      "Ġnom": 5830,
      "ĠCart": 5831,
      "ĠJeff": 5832,
      "ĠConf": 5833,
      "avalry": 5834,
      "ĠAndrew": 5835,
      "ĠStephen": 5836,
      "Ġdidn": 5837,
      "ĠRam": 5838,
      "opold": 5839,
      "clus": 5840,
      "pping": 5841,
      "Ġseconds": 5842,
      "ĠExpl": 5843,
      "Ġviews": 5844,
      "ĠPrior": 5845,
      "Ġwindow": 5846,
      "Ġoccas": 5847,
      "Ġcoherent": 5848,
      "Ġinnings": 5849,
      "Ġcontest": 5850,
      "Ġlake": 5851,
      "Ġcool": 5852,
      "Ġdominant": 5853,
      "ero": 5854,
      "rastructure": 5855,
      "Ġhelium": 5856,
      "Ġglobal": 5857,
      "Ġsigns": 5858,
      "gian": 5859,
      "rice": 5860,
      "Ġring": 5861,
      "ĠPri": 5862,
      "ĠWall": 5863,
      "ronage": 5864,
      "ĠVan": 5865,
      "Ġmainly": 5866,
      "Ġgap": 5867,
      "Ġdescribing": 5868,
      "Ġinfantry": 5869,
      "ĠVietn": 5870,
      "Ġsearch": 5871,
      "oval": 5872,
      "swer": 5873,
      "Ġbirds": 5874,
      "Ġroll": 5875,
      "ĠHal": 5876,
      "ls": 5877,
      "Ġalc": 5878,
      "Ġ1944": 5879,
      "Ġunus": 5880,
      "osis": 5881,
      "eway": 5882,
      "Ġopportunity": 5883,
      "Ġtide": 5884,
      "Ġintimate": 5885,
      "Ġexplan": 5886,
      "ĠWind": 5887,
      "iations": 5888,
      "elius": 5889,
      "ĠAvenue": 5890,
      "Ġstudying": 5891,
      "Ġcharacteristic": 5892,
      "Ġvisual": 5893,
      "ĠItaly": 5894,
      "Ġcolor": 5895,
      "Ġ75": 5896,
      "ricket": 5897,
      "Ġpharmac": 5898,
      "Ġotherwise": 5899,
      "oir": 5900,
      "Ġgained": 5901,
      "Ġ1941": 5902,
      "Ġresponded": 5903,
      "ilation": 5904,
      "dden": 5905,
      "Ġhistorian": 5906,
      "Ġinterpretation": 5907,
      "rong": 5908,
      "Ġsed": 5909,
      "ĠWay": 5910,
      "amber": 5911,
      "ĠSpec": 5912,
      "chest": 5913,
      "rust": 5914,
      "Ġexpressed": 5915,
      "Ġburn": 5916,
      "Ġextensively": 5917,
      "Ġturb": 5918,
      "Ġranging": 5919,
      "ĠSeries": 5920,
      "Ġice": 5921,
      "Ġsituated": 5922,
      "ĠAcademy": 5923,
      "Ġwebs": 5924,
      "Ġwick": 5925,
      "Ġassemb": 5926,
      "ĠEntertainment": 5927,
      "ĠChief": 5928,
      "Ġjoin": 5929,
      "ĠManchester": 5930,
      "Ġdebates": 5931,
      "Ġremarkably": 5932,
      "ĠCoast": 5933,
      "istem": 5934,
      "Ġsupporters": 5935,
      "aming": 5936,
      "Ġanimal": 5937,
      "gang": 5938,
      "Ġcurrently": 5939,
      "Ġdynamic": 5940,
      "Ġreasons": 5941,
      "Ġopinions": 5942,
      "Ġsle": 5943,
      "ĠBattalion": 5944,
      "Ġpainting": 5945,
      "Ġforg": 5946,
      "ĠMuseum": 5947,
      "Ġsolution": 5948,
      "Ġ1945": 5949,
      "world": 5950,
      "Ġdismiss": 5951,
      "asure": 5952,
      "Ġcoastal": 5953,
      "ĠCroat": 5954,
      "Ġtorped": 5955,
      "abeth": 5956,
      "eli": 5957,
      "Ġclock": 5958,
      "Ġequally": 5959,
      "yer": 5960,
      "osh": 5961,
      "ĠTod": 5962,
      "âĢĶ": 5963,
      "Ġadaptation": 5964,
      "zen": 5965,
      "Answer": 5966,
      "Ġunderg": 5967,
      "Ġexplain": 5968,
      "Ġprote": 5969,
      "Ġhorses": 5970,
      "Ġmeasurements": 5971,
      "inet": 5972,
      "itality": 5973,
      "quisite": 5974,
      "inrich": 5975,
      "Ġstress": 5976,
      "bles": 5977,
      "ican": 5978,
      "ĠWalk": 5979,
      "Question": 5980,
      "HL": 5981,
      "ienne": 5982,
      "orship": 5983,
      "rary": 5984,
      "uct": 5985,
      "Ġpri": 5986,
      "ĠIv": 5987,
      "Ch": 5988,
      "ĠAthens": 5989,
      "Ġcomposition": 5990,
      "Ġagree": 5991,
      "Ġyellow": 5992,
      "ĠArm": 5993,
      "Ġofficials": 5994,
      "Ġscholarship": 5995,
      "ĠTheodore": 5996,
      "ĠLet": 5997,
      "Ġaccessible": 5998,
      "Ġseasonal": 5999,
      "ĠColumb": 6000,
      "uded": 6001,
      "ĠThough": 6002,
      "Ġmatters": 6003,
      "Ġselection": 6004,
      "Ġcharge": 6005,
      "Ġisolated": 6006,
      "grad": 6007,
      "Ġreasoning": 6008,
      "Ġwatch": 6009,
      "Ġsudden": 6010,
      "Ġnation": 6011,
      "Ġavoid": 6012,
      "Ġrhythms": 6013,
      "Ġ);": 6014,
      "life": 6015,
      "iano": 6016,
      "Ġcolumn": 6017,
      "Ġrid": 6018,
      "Ġdesignated": 6019,
      "Ġfriendship": 6020,
      "ureau": 6021,
      "lease": 6022,
      "Ġinfrastructure": 6023,
      "ĠTro": 6024,
      "tr": 6025,
      "Ġfusion": 6026,
      "iency": 6027,
      "Ġobjective": 6028,
      "Ġtrying": 6029,
      "ola": 6030,
      "Ġimmediate": 6031,
      "ĠKath": 6032,
      "Ġnone": 6033,
      "Ġgarden": 6034,
      "Ġshortly": 6035,
      "ĠPop": 6036,
      "illa": 6037,
      "Ġscoring": 6038,
      "'ve": 6039,
      "Ġtells": 6040,
      "ĠLine": 6041,
      "ĠNathan": 6042,
      "Ġalbums": 6043,
      "Ġtalent": 6044,
      "Ġpersever": 6045,
      "ĠEliz": 6046,
      "Ġtick": 6047,
      "Ġthin": 6048,
      "aphael": 6049,
      "adel": 6050,
      "onn": 6051,
      "acent": 6052,
      "Ġinformed": 6053,
      "Ġreflecting": 6054,
      "Ġpressures": 6055,
      "ĠTri": 6056,
      "Ġplatform": 6057,
      "ĠLee": 6058,
      "Ġbit": 6059,
      "ĠWork": 6060,
      "onel": 6061,
      "Ġbands": 6062,
      "Ġrepresenting": 6063,
      "Ġsatisf": 6064,
      "osite": 6065,
      "uzz": 6066,
      "Ġabund": 6067,
      "ĠMean": 6068,
      "una": 6069,
      "lications": 6070,
      "ners": 6071,
      "elope": 6072,
      "ushing": 6073,
      "oper": 6074,
      "endence": 6075,
      "Ġsurviving": 6076,
      "Ġgrounded": 6077,
      "Ġspirit": 6078,
      "Ġpromoted": 6079,
      "ĠUpon": 6080,
      "ĠVol": 6081,
      "Ġpoet": 6082,
      "ĠCharl": 6083,
      "Ġ1920": 6084,
      "ĠCarl": 6085,
      "tenance": 6086,
      "Ġcausing": 6087,
      "Ġvision": 6088,
      "Ġvessels": 6089,
      "ipment": 6090,
      "Ġmature": 6091,
      "ĠAdmiral": 6092,
      "Ġconced": 6093,
      "ĠLight": 6094,
      "Ġsout": 6095,
      "Ġbul": 6096,
      "Ġsounds": 6097,
      "ĠTop": 6098,
      "ota": 6099,
      "otic": 6100,
      "Ġcourts": 6101,
      "Ġhypothes": 6102,
      "Ġcounty": 6103,
      "mitri": 6104,
      "adows": 6105,
      "Ġzo": 6106,
      "Ġnaval": 6107,
      "Ġrelative": 6108,
      "ĠFleet": 6109,
      "het": 6110,
      "Ġatmosphere": 6111,
      "Ġbom": 6112,
      "15": 6113,
      "Ġnob": 6114,
      "Ġwing": 6115,
      "ĠOrig": 6116,
      "Ġportra": 6117,
      "ĠRay": 6118,
      "Ġconfess": 6119,
      "ĠEdmund": 6120,
      "ĠVictoria": 6121,
      "sec": 6122,
      "Ġmac": 6123,
      "olai": 6124,
      "Ġhumility": 6125,
      "ĠLife": 6126,
      "Ġpreced": 6127,
      "Ġopponents": 6128,
      "Ġpredicted": 6129,
      "ijing": 6130,
      "Ġfinds": 6131,
      "Ġsmile": 6132,
      "Ġnominated": 6133,
      "Ġ1989": 6134,
      "Ġcouple": 6135,
      "Ġreforms": 6136,
      "Ġmeteor": 6137,
      "Ġreconciled": 6138,
      "Ġahead": 6139,
      "Ġrenown": 6140,
      "iÄĩ": 6141,
      "Ġeye": 6142,
      "Ġsav": 6143,
      "ĠOnce": 6144,
      "Ġvan": 6145,
      "Ġspeech": 6146,
      "ĠBeijing": 6147,
      "Ġconsec": 6148,
      "stream": 6149,
      "Ġvehicles": 6150,
      "Ġdefined": 6151,
      "Ġgoods": 6152,
      "och": 6153,
      "Ġemerging": 6154,
      "ĠRog": 6155,
      "Ġlayer": 6156,
      "How": 6157,
      "ĠThen": 6158,
      "ptions": 6159,
      "Ġyield": 6160,
      "Ġsket": 6161,
      "Ġintersection": 6162,
      "Ġpilot": 6163,
      "AF": 6164,
      "inding": 6165,
      "Ġ150": 6166,
      "Ġmathematicians": 6167,
      "overe": 6168,
      "Ġolder": 6169,
      "Ã¨": 6170,
      "Ġcrim": 6171,
      "ĠBal": 6172,
      "Ġalive": 6173,
      "thol": 6174,
      "ĠBrun": 6175,
      "ĠHomer": 6176,
      "Ġmurder": 6177,
      "elesc": 6178,
      "aine": 6179,
      "Ġflat": 6180,
      "Ġperseverance": 6181,
      "Ġstrateg": 6182,
      "Ġmeasuring": 6183,
      "Ġsixth": 6184,
      "Ġtaught": 6185,
      "ĠJud": 6186,
      "ĠFrances": 6187,
      "Ġmillennia": 6188,
      "Ġcalc": 6189,
      "Ġstyles": 6190,
      "Ġspecimens": 6191,
      "Ġarticulated": 6192,
      "Ġappearances": 6193,
      "ĠSant": 6194,
      "Ġconvin": 6195,
      "Ġtitled": 6196,
      "Ġoccasionally": 6197,
      "Ġsoundtrack": 6198,
      "ĠHurricane": 6199,
      "Ġresidents": 6200,
      "ĠMD": 6201,
      "Ġsympt": 6202,
      "Ġgrown": 6203,
      "Ġpack": 6204,
      "raged": 6205,
      "arina": 6206,
      "gress": 6207,
      "Ġreturning": 6208,
      "anges": 6209,
      "Ġnecessary": 6210,
      "Ġweapons": 6211,
      "Ġ1943": 6212,
      "ĠObs": 6213,
      "Ġelectric": 6214,
      "ĠBrigade": 6215,
      "Ġoptimal": 6216,
      "Ġvolcanic": 6217,
      "Ġgraph": 6218,
      "Ġmounted": 6219,
      "Ġsufficient": 6220,
      "Ġcells": 6221,
      "Ġconsisted": 6222,
      "Ġfalling": 6223,
      "imp": 6224,
      "Ġborder": 6225,
      "ĠLive": 6226,
      "Ġharbor": 6227,
      "ĠArab": 6228,
      "ĠBond": 6229,
      "Ġescape": 6230,
      "Ġportions": 6231,
      "elve": 6232,
      "Ġresc": 6233,
      "ĠIng": 6234,
      "Ġpursue": 6235,
      "Ġinvasion": 6236,
      "ĠSystem": 6237,
      "ĠIreland": 6238,
      "ricted": 6239,
      "tholomew": 6240,
      "ĠIll": 6241,
      "ĠRy": 6242,
      "eller": 6243,
      "itan": 6244,
      "Ġsecurity": 6245,
      "ĠShow": 6246,
      "Ġseeks": 6247,
      "12": 6248,
      "Ġresemb": 6249,
      "Ġidentified": 6250,
      "ylvia": 6251,
      "apes": 6252,
      "ĠDun": 6253,
      "aver": 6254,
      "Ġvaried": 6255,
      "Ġobtained": 6256,
      "ĠValley": 6257,
      "Ġdiscussing": 6258,
      "Ġbiology": 6259,
      "ĠOf": 6260,
      "aga": 6261,
      "Ġoccurs": 6262,
      "ĠTay": 6263,
      "Ġkg": 6264,
      "Ġbright": 6265,
      "manship": 6266,
      "Ġactual": 6267,
      "Ġwounded": 6268,
      "Ġinher": 6269,
      "Ġthermal": 6270,
      "Ġstellar": 6271,
      "ancing": 6272,
      "Ġroughly": 6273,
      "Ġsurve": 6274,
      "ĠAnna": 6275,
      "Ġmyster": 6276,
      "Ġ39": 6277,
      "Ġdebuted": 6278,
      "Ġaccompanied": 6279,
      "Ġrug": 6280,
      "Ġobservers": 6281,
      "Ġtravers": 6282,
      "Ġimpossible": 6283,
      "Ġfindings": 6284,
      "Ġremainder": 6285,
      "ĠRegiment": 6286,
      "ĠFurther": 6287,
      "pool": 6288,
      "Ġpreparation": 6289,
      "egin": 6290,
      "wen": 6291,
      "ĠDirect": 6292,
      "Ġinvestigations": 6293,
      "Ġextension": 6294,
      "Ġdigital": 6295,
      "Ġdisagre": 6296,
      "Ġcreative": 6297,
      "Ġshells": 6298,
      "Ġmaintenance": 6299,
      "Ġexpansion": 6300,
      "uration": 6301,
      "Ġtrading": 6302,
      "hedral": 6303,
      "Ġopposite": 6304,
      "Ġcollected": 6305,
      "Ġimplement": 6306,
      "Ġartillery": 6307,
      "ĠTy": 6308,
      "Ġlisten": 6309,
      "ĠViv": 6310,
      "Ġleaders": 6311,
      "75": 6312,
      "istical": 6313,
      "Ġorigin": 6314,
      "sula": 6315,
      "Ġequipment": 6316,
      "Ġofficially": 6317,
      "ĠBus": 6318,
      "ĠWeek": 6319,
      "odyn": 6320,
      "Ġhospital": 6321,
      "iolet": 6322,
      "Ġcommitted": 6323,
      "atus": 6324,
      "Ġax": 6325,
      "ĠDelhi": 6326,
      "Ġwritings": 6327,
      "ĠPeople": 6328,
      "Ġhill": 6329,
      "Ġreign": 6330,
      "Ġtemple": 6331,
      "Ġshifting": 6332,
      "ĠGal": 6333,
      "Ġdefense": 6334,
      "Ġlose": 6335,
      "Ġcasting": 6336,
      "reme": 6337,
      "Ġfamilies": 6338,
      "Ġprint": 6339,
      "Ġmachine": 6340,
      "Ġprepare": 6341,
      "Ġaccident": 6342,
      "Ġtypical": 6343,
      "Ġdifficulty": 6344,
      "Ġsolitude": 6345,
      "Ġcert": 6346,
      "ĠFootball": 6347,
      "making": 6348,
      "Ġsilence": 6349,
      "century": 6350,
      "ĠNever": 6351,
      "ĠDev": 6352,
      "Ġmo": 6353,
      "resent": 6354,
      "Ġstraight": 6355,
      "ĠHav": 6356,
      "Ġowned": 6357,
      "ĠJohannes": 6358,
      "Ġecology": 6359,
      "urd": 6360,
      "!âĢĿ": 6361,
      "Ġgrowth": 6362,
      "18": 6363,
      "ĠAmericans": 6364,
      "but": 6365,
      "ester": 6366,
      "Ġincorporated": 6367,
      "verse": 6368,
      "Ġusage": 6369,
      "Ġcitiz": 6370,
      "Ġidentify": 6371,
      "ylvania": 6372,
      "Ġsurgical": 6373,
      "ĠJean": 6374,
      "ĠProv": 6375,
      "gence": 6376,
      "Ġaired": 6377,
      "azz": 6378,
      "ĠVictorian": 6379,
      "Ġprocedures": 6380,
      "Ġextremely": 6381,
      "ĠCivil": 6382,
      "Ġflooding": 6383,
      "Ġorders": 6384,
      "Ġcrafts": 6385,
      "ĠMeanwhile": 6386,
      "Ġemotional": 6387,
      "lim": 6388,
      "ĠJon": 6389,
      "Ġsurprised": 6390,
      "Ġrear": 6391,
      "Ġlingu": 6392,
      "Ġdesert": 6393,
      "ĠDaniel": 6394,
      "Ġcrowd": 6395,
      "ĠAp": 6396,
      "Ġbeliefs": 6397,
      "Ġchronic": 6398,
      "Ġisolation": 6399,
      "ĠRena": 6400,
      "ĠOs": 6401,
      "uled": 6402,
      "Ġmode": 6403,
      "ĠElizabeth": 6404,
      "ĠFound": 6405,
      "kin": 6406,
      "Ġwatching": 6407,
      "Ġarticulate": 6408,
      "vieve": 6409,
      "Ġdelay": 6410,
      "gers": 6411,
      "Ġguard": 6412,
      "Ġcontributed": 6413,
      "ercival": 6414,
      "Ġconsistency": 6415,
      "ĠIsabella": 6416,
      "ockey": 6417,
      "Ġinjury": 6418,
      "Ġmedieval": 6419,
      "Ġsurre": 6420,
      "ĠWinston": 6421,
      "ĠTropical": 6422,
      "ĠCurrent": 6423,
      "ER": 6424,
      "Ġdirections": 6425,
      "ĠBart": 6426,
      "Ġpasses": 6427,
      "Ġplanning": 6428,
      "Ġdominated": 6429,
      "ĠCarolina": 6430,
      "gn": 6431,
      "Ġbrown": 6432,
      "Ġguest": 6433,
      "him": 6434,
      "Ġconstitutes": 6435,
      "ĠDam": 6436,
      "Ġacid": 6437,
      "isters": 6438,
      "Ġraise": 6439,
      "Ġadjacent": 6440,
      "ĠCatholic": 6441,
      "Ġwrites": 6442,
      "Ġsymptoms": 6443,
      "Ġdoll": 6444,
      "ieth": 6445,
      "dalena": 6446,
      "ĠWrit": 6447,
      "Ġintensity": 6448,
      "ĠAv": 6449,
      "ulous": 6450,
      "Ġhun": 6451,
      "romagn": 6452,
      "Ġgives": 6453,
      "ĠLeopold": 6454,
      "estone": 6455,
      "ĠWat": 6456,
      "ĠDuke": 6457,
      "Ġexperimental": 6458,
      "Ġresolved": 6459,
      "Ġappointment": 6460,
      "ĠStorm": 6461,
      "Ġinhabit": 6462,
      "helia": 6463,
      "Ġalternative": 6464,
      "Ġmood": 6465,
      "ĠDutch": 6466,
      "Ġreports": 6467,
      "Ġjoint": 6468,
      "ĠTem": 6469,
      "Ġinnovative": 6470,
      "Ġpermanent": 6471,
      "Ġheating": 6472,
      "ĠDaily": 6473,
      "Ġhearing": 6474,
      "Ġmerchants": 6475,
      "Ġstreet": 6476,
      "Ġgeology": 6477,
      "Ġsimpl": 6478,
      "Ġderived": 6479,
      "Ġestablishing": 6480,
      "point": 6481,
      "ĠOcean": 6482,
      "Ġfoundations": 6483,
      "ĠHung": 6484,
      "ĠBackground": 6485,
      "Ġsingles": 6486,
      "Ġavailability": 6487,
      "Ġpeaceful": 6488,
      "Ġmelancholy": 6489,
      "olm": 6490,
      "ĠEleanor": 6491,
      "Ġbud": 6492,
      "Ġsplit": 6493,
      "Ġnortheast": 6494,
      "Ġmap": 6495,
      "ĠGuard": 6496,
      "Ġcorner": 6497,
      "Ġhair": 6498,
      "Ġbelong": 6499,
      "aphina": 6500,
      "eds": 6501,
      "uracy": 6502,
      "ĠFantasy": 6503,
      "Ġbroken": 6504,
      "Ġeducational": 6505,
      "Ġitems": 6506,
      "ĠJulius": 6507,
      "Ġcalm": 6508,
      "othea": 6509,
      "ĠClement": 6510,
      "mn": 6511,
      "Ġtask": 6512,
      "Ġsort": 6513,
      "Ġsuggesting": 6514,
      "ĠGovernment": 6515,
      "Ġcorrespondence": 6516,
      "ĠLiber": 6517,
      "oys": 6518,
      "Ġinse": 6519,
      "Ġdesire": 6520,
      "bar": 6521,
      "Ġbodies": 6522,
      "Ġcarbon": 6523,
      "Ġtournament": 6524,
      "istence": 6525,
      "ĠInstead": 6526,
      "Ar": 6527,
      "ns": 6528,
      "Ġsoul": 6529,
      "pton": 6530,
      "Ġconstruct": 6531,
      "ysander": 6532,
      "riched": 6533,
      "Ġastronomy": 6534,
      "icity": 6535,
      "olving": 6536,
      "ĠThird": 6537,
      "Ġinstrumental": 6538,
      "Ġdrug": 6539,
      "Ġelectromagn": 6540,
      "Ġdetermin": 6541,
      "Ġcommunication": 6542,
      "osa": 6543,
      "ĠLuc": 6544,
      "ĠGovernor": 6545,
      "Ġrelev": 6546,
      "Ġmillions": 6547,
      "Ġterritories": 6548,
      "ĠSenate": 6549,
      "ĠLew": 6550,
      "Ġtouches": 6551,
      "Ġundert": 6552,
      "ĠShort": 6553,
      "Ġlaws": 6554,
      "Ġ48": 6555,
      "Ġgone": 6556,
      "ĠChristmas": 6557,
      "rine": 6558,
      "Ġ1987": 6559,
      "Ġ1988": 6560,
      "Ġserves": 6561,
      "Ġrooms": 6562,
      "ĠGre": 6563,
      "Ġenriched": 6564,
      "ĠAlbert": 6565,
      "Ġvaries": 6566,
      "Ġgovernor": 6567,
      "Ġsupporting": 6568,
      "Ġethical": 6569,
      "Ġmysterious": 6570,
      "ĠHome": 6571,
      "'ll": 6572,
      "Ġtelesc": 6573,
      "Ġpicture": 6574,
      "Ġeru": 6575,
      "ĠYour": 6576,
      "ĠNorthern": 6577,
      "ĠTok": 6578,
      "ĠHolly": 6579,
      "ĠNorm": 6580,
      "Ġproduces": 6581,
      "Ġvehicle": 6582,
      "ila": 6583,
      "Ġbass": 6584,
      "iary": 6585,
      "Ġcultures": 6586,
      "ĠGi": 6587,
      "Ġvary": 6588,
      "Ġaccuracy": 6589,
      "osynthesis": 6590,
      "ĠStudios": 6591,
      "Ġgentle": 6592,
      "Ġenvironments": 6593,
      "ĠDistrict": 6594,
      "Ġdates": 6595,
      "ĠScottish": 6596,
      "Ġsevere": 6597,
      "ĠAges": 6598,
      "Ġformulation": 6599,
      "Ġrestricted": 6600,
      "Ġcaught": 6601,
      "Ġexpense": 6602,
      "Ġtranslated": 6603,
      "Ġmodest": 6604,
      "Ġtaxonomy": 6605,
      "Ġexecutive": 6606,
      "ĠHeinrich": 6607,
      "Ġgradual": 6608,
      "theless": 6609,
      "ĠGall": 6610,
      "uls": 6611,
      "Ġreduce": 6612,
      "ĠAre": 6613,
      "Ġsurrounded": 6614,
      "unte": 6615,
      "athy": 6616,
      "wing": 6617,
      "ĠDubrov": 6618,
      "Ġwaiting": 6619,
      "Ġlosing": 6620,
      "airo": 6621,
      "ĠRh": 6622,
      "Ġarchae": 6623,
      "ĠDubrovnik": 6624,
      "Ġsovere": 6625,
      "ĠField": 6626,
      "Ġpossibly": 6627,
      "Ġgathered": 6628,
      "Ġdoct": 6629,
      "Ġpan": 6630,
      "Ġchose": 6631,
      "Ġawareness": 6632,
      "organ": 6633,
      "Ġtree": 6634,
      "Ġsinging": 6635,
      "Ġuniverse": 6636,
      "char": 6637,
      "ĠAgain": 6638,
      "Ġparallel": 6639,
      "Ġspeaking": 6640,
      "ĠCard": 6641,
      "essa": 6642,
      "Ġton": 6643,
      "Ġexcess": 6644,
      "Ġcatalyst": 6645,
      "Ġfashion": 6646,
      "yself": 6647,
      "ĠFinn": 6648,
      "Ġgenuinely": 6649,
      "Ġunified": 6650,
      "Ġfruit": 6651,
      "Ġisot": 6652,
      "Ġfocused": 6653,
      "Ġdocumentation": 6654,
      "Ġassault": 6655,
      "Ġsched": 6656,
      "Ġelectron": 6657,
      "Ġsensors": 6658,
      "Ġbillion": 6659,
      "Ġpsych": 6660,
      "Ġvote": 6661,
      "ĠAmbro": 6662,
      "Ġwal": 6663,
      "Ġflying": 6664,
      "ĠHaving": 6665,
      "Ġnative": 6666,
      "Ġregarded": 6667,
      "Ġcouncil": 6668,
      "Ġ42": 6669,
      "atically": 6670,
      "Ġseriously": 6671,
      "illy": 6672,
      "ĠNight": 6673,
      "Ġvariation": 6674,
      "orus": 6675,
      "Ġlasting": 6676,
      "Ġdestination": 6677,
      "Ġstandardized": 6678,
      "odynamics": 6679,
      "Ġconqu": 6680,
      "Ġrailway": 6681,
      "Ġnewspaper": 6682,
      "Ġcompelling": 6683,
      "Ġfreedom": 6684,
      "isco": 6685,
      "Ġregime": 6686,
      "ilde": 6687,
      "itled": 6688,
      "ĠTaylor": 6689,
      "Ã¤": 6690,
      "Ġplain": 6691,
      "ĠResearchers": 6692,
      "Ġexperiments": 6693,
      "dad": 6694,
      "term": 6695,
      "Ġwebsite": 6696,
      "ĠExp": 6697,
      "Ġconvinced": 6698,
      "Ġlabel": 6699,
      "ĠFestival": 6700,
      "Ġdrive": 6701,
      "Ġproducts": 6702,
      "Ġsafety": 6703,
      "Ġfilming": 6704,
      "Ġtail": 6705,
      "ĠGirl": 6706,
      "ĠKn": 6707,
      "Ġtact": 6708,
      "Ġabandoned": 6709,
      "Ġdriving": 6710,
      "ĠMarsh": 6711,
      "ĠAmbrose": 6712,
      "ĠJac": 6713,
      "scale": 6714,
      "Ġagent": 6715,
      "rav": 6716,
      "ĠMike": 6717,
      "Ġcopper": 6718,
      "Ġcasual": 6719,
      "illing": 6720,
      "Ġcontained": 6721,
      "rim": 6722,
      "iveness": 6723,
      "ĠDmitri": 6724,
      "Ġparticipated": 6725,
      "ĠDet": 6726,
      "Ġreinforce": 6727,
      "ĠTechn": 6728,
      "ĠPenns": 6729,
      "Ġatomic": 6730,
      "Ġactors": 6731,
      "ĠIslands": 6732,
      "ĠRoland": 6733,
      "ĠDoctor": 6734,
      "bal": 6735,
      "ĠHard": 6736,
      "era": 6737,
      "rets": 6738,
      "Ġ1986": 6739,
      "ĠWolfgang": 6740,
      "ĠJo": 6741,
      "Ġassumed": 6742,
      "Ġmorality": 6743,
      "Ġantiquity": 6744,
      "Ġimprove": 6745,
      "aby": 6746,
      "ĠSund": 6747,
      "Ġwaste": 6748,
      "Ġhall": 6749,
      "ĠTheory": 6750,
      "ĠAllied": 6751,
      "Ġirre": 6752,
      "Ġaspiration": 6753,
      "Ġ55": 6754,
      "Ġsafely": 6755,
      "Ġdetermine": 6756,
      "ĠLocal": 6757,
      "Ġpor": 6758,
      "Ġmortality": 6759,
      "Ġproducers": 6760,
      "ĠDesmond": 6761,
      "iege": 6762,
      "inate": 6763,
      "Ġsuitable": 6764,
      "ĠEastern": 6765,
      "Ġinterior": 6766,
      "Ġresource": 6767,
      "eters": 6768,
      "ĠAlb": 6769,
      "Ġstrike": 6770,
      "ĠCastle": 6771,
      "Ġzones": 6772,
      "za": 6773,
      "Ġsecure": 6774,
      "Ġhomes": 6775,
      "Ġtens": 6776,
      "Ġfamous": 6777,
      "ĠBlue": 6778,
      "ĠReception": 6779,
      "Ġevenings": 6780,
      "Ġincident": 6781,
      "Ġgrace": 6782,
      "ĠLind": 6783,
      "ĠWilson": 6784,
      "Ġoptics": 6785,
      "Ġsquadron": 6786,
      "ãĤ": 6787,
      "Ġupgrad": 6788,
      "Ġprecip": 6789,
      "Ġcamer": 6790,
      "ĠHarry": 6791,
      "umental": 6792,
      "racy": 6793,
      "Ġentrance": 6794,
      "Ġconcludes": 6795,
      "ĠBagh": 6796,
      "Ġthorough": 6797,
      "ĠDyn": 6798,
      "Ġinterchange": 6799,
      "ĠRet": 6800,
      "ĠStock": 6801,
      "Ġhappen": 6802,
      "Ġfired": 6803,
      "Ġshadows": 6804,
      "Ġelim": 6805,
      "Ġrevolutionary": 6806,
      "Ġmouth": 6807,
      "ultane": 6808,
      "ucky": 6809,
      "14": 6810,
      "Ġautom": 6811,
      "Ġthermodynamics": 6812,
      "ĠHeidel": 6813,
      "ĠHum": 6814,
      "ĠRenaissance": 6815,
      "vis": 6816,
      "ĠCairo": 6817,
      "Ġ182": 6818,
      "Ġbotany": 6819,
      "Ġstorms": 6820,
      "Ġmeets": 6821,
      "Ġplanet": 6822,
      "Ġtwelve": 6823,
      "noon": 6824,
      "Ġadvocate": 6825,
      "Ġcombining": 6826,
      "ĠHeidelberg": 6827,
      "Ġfan": 6828,
      "place": 6829,
      "ducation": 6830,
      "Ġocean": 6831,
      "cÃ©": 6832,
      "Ġopinion": 6833,
      "90": 6834,
      "iga": 6835,
      "Ġcauses": 6836,
      "'d": 6837,
      "Ġmemory": 6838,
      "Ġfirm": 6839,
      "eline": 6840,
      "Ġvariations": 6841,
      "ĠSound": 6842,
      "ĠRod": 6843,
      "Ġhappy": 6844,
      "Ġunex": 6845,
      "Ġmonumental": 6846,
      "Ġappreciation": 6847,
      "Ġsports": 6848,
      "ading": 6849,
      "rams": 6850,
      "kins": 6851,
      "Ġtiss": 6852,
      "Ġcoal": 6853,
      "Ġroads": 6854,
      "zy": 6855,
      "Ġextract": 6856,
      "ĠBeatrice": 6857,
      "ker": 6858,
      "asa": 6859,
      "ĠHa": 6860,
      "ĠBartholomew": 6861,
      "ĠPublic": 6862,
      "BA": 6863,
      "igue": 6864,
      "ibilities": 6865,
      "ĠNikolai": 6866,
      "ket": 6867,
      "ĠPerson": 6868,
      "Ġsubjective": 6869,
      "anqu": 6870,
      "iable": 6871,
      "oles": 6872,
      "Ġkick": 6873,
      "Ġvent": 6874,
      "Ġedited": 6875,
      "Ġfilmed": 6876,
      "rawing": 6877,
      "Ġprefer": 6878,
      "Ġretired": 6879,
      "aren": 6880,
      "Ġminimal": 6881,
      "ĠRav": 6882,
      "endo": 6883,
      "ĠBaghdad": 6884,
      "Ġspan": 6885,
      "ĠEmperor": 6886,
      "Ġsac": 6887,
      "Ġnut": 6888,
      "Ġscent": 6889,
      "Ġstopped": 6890,
      "Ġworn": 6891,
      "Ġpurification": 6892,
      "ĠRaphael": 6893,
      "Ġoffensive": 6894,
      "Ġboat": 6895,
      "eld": 6896,
      "Ġgross": 6897,
      "Ġath": 6898,
      "ype": 6899,
      "ĠOperation": 6900,
      "TC": 6901,
      "Ġaim": 6902,
      "ĠSylvia": 6903,
      "Ġroles": 6904,
      "Ġidentical": 6905,
      "Ġrisk": 6906,
      "Ġnegative": 6907,
      "ĠIndividual": 6908,
      "Ġaside": 6909,
      "Ġflows": 6910,
      "Ġelder": 6911,
      "Ġarguments": 6912,
      "run": 6913,
      "ĠJersey": 6914,
      "Ġcraftsmanship": 6915,
      "Ġdense": 6916,
      "Ġdrop": 6917,
      "ĠIsra": 6918,
      "Ġfold": 6919,
      "Ġcombine": 6920,
      "Ġpreservation": 6921,
      "Ġcarry": 6922,
      "ĠSquare": 6923,
      "ĠNathaniel": 6924,
      "Ġacts": 6925,
      "incess": 6926,
      "Ġhabitat": 6927,
      "16": 6928,
      "isers": 6929,
      "Ġextent": 6930,
      "13": 6931,
      "Ġshowing": 6932,
      "ĠSpain": 6933,
      "Ġconsecutive": 6934,
      "Ġrejected": 6935,
      "ĠSand": 6936,
      "Ġkilling": 6937,
      "etism": 6938,
      "Ġstake": 6939,
      "Ġmeteorology": 6940,
      "ĠIS": 6941,
      "ĠMul": 6942,
      "ĠUl": 6943,
      "yo": 6944,
      "ĠEnd": 6945,
      "Ġpec": 6946,
      "ĠMen": 6947,
      "ĠEp": 6948,
      "ĠLand": 6949,
      "body": 6950,
      "Ġdress": 6951,
      "ĠHoratio": 6952,
      "iner": 6953,
      "Ġbriefly": 6954,
      "Ġpracticed": 6955,
      "Ġfear": 6956,
      "Ġmineralogy": 6957,
      "Ġhydrology": 6958,
      "ĠPennsylvania": 6959,
      "Ġevac": 6960,
      "Ġintelligence": 6961,
      "Ġroof": 6962,
      "ĠArthur": 6963,
      "matic": 6964,
      "Ġcrystallography": 6965,
      "ĠPower": 6966,
      "ĠProduction": 6967,
      "eping": 6968,
      "ĠArtemis": 6969,
      "Ġmentioned": 6970,
      "Ġtelescope": 6971,
      "uit": 6972,
      "irds": 6973,
      "hus": 6974,
      "isely": 6975,
      "ĠElect": 6976,
      "Ġsalt": 6977,
      "borne": 6978,
      "ĠPers": 6979,
      "Ġzoology": 6980,
      "ĠCornelius": 6981,
      "Ġcommonly": 6982,
      "ĠWW": 6983,
      "Ġunusual": 6984,
      "Ġnote": 6985,
      "Ġmemories": 6986,
      "ĠRussia": 6987,
      "onent": 6988,
      "Ġtrav": 6989,
      "risis": 6990,
      "Ġwindows": 6991,
      "Ġentertain": 6992,
      "Ġcredited": 6993,
      "Ġacoustics": 6994,
      "ĠLiver": 6995,
      "Do": 6996,
      "zil": 6997,
      "Ġtransmission": 6998,
      "Ġbenefit": 6999,
      "ĠCy": 7000,
      "Ġskept": 7001,
      "Ġdefic": 7002,
      "ĠWithin": 7003,
      "Ġvisitors": 7004,
      "Ġpatronage": 7005,
      "Ġmeasured": 7006,
      "Ġfavour": 7007,
      "Ġangles": 7008,
      "Ġpharmacology": 7009,
      "Ġinhabitants": 7010,
      "ĠLo": 7011,
      "Ġgoes": 7012,
      "Ġ1939": 7013,
      "opp": 7014,
      "Ġcurrents": 7015,
      "Ġuncertainty": 7016,
      "ingly": 7017,
      "ĠDue": 7018,
      "Ġremind": 7019,
      "apse": 7020,
      "inth": 7021,
      "ĠUrsula": 7022,
      "ĠAlbum": 7023,
      "onies": 7024,
      "Ġcontain": 7025,
      "Ġefficiency": 7026,
      "ĠInstitute": 7027,
      "Ġsyn": 7028,
      "indu": 7029,
      "ĠBoard": 7030,
      "usal": 7031,
      "Ġlined": 7032,
      "ĠIrish": 7033,
      "inals": 7034,
      "Ġsteel": 7035,
      "Ġcloser": 7036,
      "Ġarticle": 7037,
      "ĠPenelope": 7038,
      "Ġhundreds": 7039,
      "mental": 7040,
      "Ġaccumulated": 7041,
      "Ġpartly": 7042,
      "ĠNap": 7043,
      "Ġconventions": 7044,
      "Ġspons": 7045,
      "istent": 7046,
      "iana": 7047,
      "ĠIndustrial": 7048,
      "Ġthrow": 7049,
      "inger": 7050,
      "ĠBroad": 7051,
      "ĠMiriam": 7052,
      "Ġsurrender": 7053,
      "oque": 7054,
      "uliar": 7055,
      "17": 7056,
      "sel": 7057,
      "Ġsections": 7058,
      "Ġmerchant": 7059,
      "Ġ1985": 7060,
      "Ġafternoon": 7061,
      "prise": 7062,
      "hire": 7063,
      "ĠBul": 7064,
      "Ġnoticed": 7065,
      "abled": 7066,
      "Ġfought": 7067,
      "Ġcosts": 7068,
      "ĠJes": 7069,
      "idelity": 7070,
      "ĠÎ": 7071,
      "Ġadapting": 7072,
      "ĠRepublican": 7073,
      "Ġelectromagnetism": 7074,
      "At": 7075,
      "ĠSingap": 7076,
      "Ġacquired": 7077,
      "ĠGenevieve": 7078,
      "pes": 7079,
      "Ġchest": 7080,
      "Ġdeliber": 7081,
      "Ġdeck": 7082,
      "ĠKorean": 7083,
      "Ġadventure": 7084,
      "Ġmanif": 7085,
      "Ġprecisely": 7086,
      "Ġwheel": 7087,
      "Ġexpanding": 7088,
      "Ġsimultane": 7089,
      "Ġislands": 7090,
      "inking": 7091,
      "FA": 7092,
      "Ġsolo": 7093,
      "season": 7094,
      "Ġtechnically": 7095,
      "Ġlistened": 7096,
      "Ġmetab": 7097,
      "Ġdecre": 7098,
      "Ġtheatre": 7099,
      "Ġgal": 7100,
      "ipping": 7101,
      "Ġsolar": 7102,
      "ĠHit": 7103,
      "ĠVivienne": 7104,
      "wall": 7105,
      "Ġfatigue": 7106,
      "Ġecological": 7107,
      "Ġdestruction": 7108,
      "Ġkilometres": 7109,
      "Ġinev": 7110,
      "Ġbeach": 7111,
      "Ġpret": 7112,
      "Ġmassive": 7113,
      "Ġcontinent": 7114,
      "ĠGro": 7115,
      "friend": 7116,
      "Ġgenus": 7117,
      "Ġdiam": 7118,
      "ĠSher": 7119,
      "Ġ1968": 7120,
      "state": 7121,
      "ĠSingapore": 7122,
      "Ġ44": 7123,
      "Ġheads": 7124,
      "ĠIngrid": 7125,
      "ĠCa": 7126,
      "ĠLibr": 7127,
      "Ġuniversal": 7128,
      "olt": 7129,
      "ificent": 7130,
      "ĠWho": 7131,
      "Ġsexual": 7132,
      "ĠPercival": 7133,
      "Ġ43": 7134,
      "Ġcomparable": 7135,
      "Ġtorpedo": 7136,
      "worth": 7137,
      "Ġformally": 7138,
      "He": 7139,
      "lines": 7140,
      "adelph": 7141,
      "Ġdeploy": 7142,
      "bound": 7143,
      "Ġarmed": 7144,
      "Ġorganizing": 7145,
      "Ġlanding": 7146,
      "ĠPu": 7147,
      "mic": 7148,
      "Ġholding": 7149,
      "Ġimprov": 7150,
      "Ġbudget": 7151,
      "Ġ1984": 7152,
      "Ġgolden": 7153,
      "Ġoxygen": 7154,
      "ĠValentina": 7155,
      "Ġlegitimacy": 7156,
      "Ġdisturb": 7157,
      "Ġvaluable": 7158,
      "eared": 7159,
      "Ġclearly": 7160,
      "ĠAlso": 7161,
      "Ġgetting": 7162,
      "Ġreplacing": 7163,
      "Ġfinish": 7164,
      "ĠPoint": 7165,
      "Ġgrounds": 7166,
      "Ġsave": 7167,
      "Ġnaturally": 7168,
      "ĠSecretary": 7169,
      "ocked": 7170,
      "Ġcollaps": 7171,
      "Ġcommittee": 7172,
      "Ġchampion": 7173,
      "ĠClark": 7174,
      "Ġpeculiar": 7175,
      "ĠAsh": 7176,
      "Ġachievement": 7177,
      "ĠAddition": 7178,
      "cho": 7179,
      "Ġinterested": 7180,
      "ĠPhiladelph": 7181,
      "ĠOphelia": 7182,
      "Ġdeepened": 7183,
      "Ġcomedy": 7184,
      "Ġproven": 7185,
      "ĠTech": 7186,
      "Ġegg": 7187,
      "Ġheritage": 7188,
      "awa": 7189,
      "inter": 7190,
      "Ġ46": 7191,
      "Ġattempting": 7192,
      "Ġcab": 7193,
      "ĠProt": 7194,
      "etts": 7195,
      "ubl": 7196,
      "Ġ65": 7197,
      "ii": 7198,
      "Ġbrid": 7199,
      "ĠDorothea": 7200,
      "ĠCambridge": 7201,
      "ĠSR": 7202,
      "ĠHead": 7203,
      "see": 7204,
      "ĠSi": 7205,
      "ĠTobias": 7206,
      "Ġconform": 7207,
      "Ġliked": 7208,
      "Ġseventh": 7209,
      "Ġfranch": 7210,
      "elle": 7211,
      "Ġasks": 7212,
      "Ġadvert": 7213,
      "ĠMagdalena": 7214,
      "Ġeat": 7215,
      "ooth": 7216,
      "ĠMu": 7217,
      "Ġauthent": 7218,
      "ĠEc": 7219,
      "ĠPolish": 7220,
      "ĠSS": 7221,
      "Ġshark": 7222,
      "Ġshelter": 7223,
      "Is": 7224,
      "ĠMov": 7225,
      "Ġmerit": 7226,
      "ĠSeraphina": 7227,
      "ĠCD": 7228,
      "Ġrecur": 7229,
      "jo": 7230,
      "Ġturning": 7231,
      "Ġ64": 7232,
      "ĠBurn": 7233,
      "aste": 7234,
      "ĠSup": 7235,
      "mith": 7236,
      "Ġtas": 7237,
      "Ġrequiring": 7238,
      "Ġspecialized": 7239,
      "ĠFam": 7240,
      "restling": 7241,
      "Ġcoun": 7242,
      "ĠFrancesca": 7243,
      "ĠPhiladelphia": 7244,
      "Ġmamm": 7245,
      "Ġnorthwest": 7246,
      "Ġgeometric": 7247,
      "ĠLysander": 7248,
      "ĠOctavia": 7249,
      "oding": 7250,
      "Ġreserv": 7251,
      "Ġheadquarters": 7252,
      "Ġstimulating": 7253,
      "ĠArg": 7254,
      "ĠScholars": 7255,
      "ĠHere": 7256,
      "Ġthousand": 7257,
      "Ġassistance": 7258,
      "Ġgrass": 7259,
      "ĠOhio": 7260,
      "Ġaid": 7261,
      "idem": 7262,
      "umented": 7263,
      "Ġclosely": 7264,
      "Ġdefine": 7265,
      "then": 7266,
      "Ġshorter": 7267,
      "eless": 7268,
      "greg": 7269,
      "Ġanswer": 7270,
      "ĠLiverpool": 7271,
      "Ġgroundwork": 7272,
      "Ġachieve": 7273,
      "Ġmaj": 7274,
      "Ġfocuses": 7275,
      "Ġundergo": 7276,
      "ramed": 7277,
      "Ġdeparture": 7278,
      "oom": 7279,
      "Ġtwentieth": 7280,
      "Ġintervention": 7281,
      "ĠCub": 7282,
      "Ġrecommended": 7283,
      "Americ": 7284,
      "Ġexamining": 7285,
      "ĠPrime": 7286,
      "Ġordinary": 7287,
      "ĠClassical": 7288,
      "ĠLieutenant": 7289,
      "Ġconsists": 7290,
      "Ġsuffering": 7291,
      "Ġorganizations": 7292,
      "Ġsubst": 7293,
      "Ġthemes": 7294,
      "Ġbattalion": 7295,
      "Ġcommissioned": 7296,
      "Ġdemonstrating": 7297,
      "ĠCarey": 7298,
      "Ġstew": 7299,
      "Ġdign": 7300,
      "Ġspend": 7301,
      "ĠOnly": 7302,
      "ategy": 7303,
      "Ġsatell": 7304,
      "Ġ1967": 7305,
      "iance": 7306,
      "ĠBud": 7307,
      "Ġwave": 7308,
      "Ġsoil": 7309,
      "Ġpulled": 7310,
      "Ġsad": 7311,
      "ĠPier": 7312,
      "nty": 7313,
      "ĠKatharina": 7314,
      "with": 7315,
      "Ġdrama": 7316,
      "Ġconfirm": 7317,
      "ĠClementine": 7318,
      "Ġ400": 7319,
      "Ġpossibility": 7320,
      "box": 7321,
      "Ġchain": 7322,
      "Ġspending": 7323,
      "breaking": 7324,
      "Ġawards": 7325,
      "ĠAsia": 7326,
      "Ã¸": 7327,
      "ĠBrazil": 7328,
      "Ġreceiving": 7329,
      "ĠTang": 7330,
      "ethe": 7331,
      "ato": 7332,
      "Ġaltered": 7333,
      "Ġthousands": 7334,
      "Ġceremony": 7335,
      "ware": 7336,
      "ĠHon": 7337,
      "claimed": 7338,
      "Ġ1983": 7339,
      "after": 7340,
      "Ġneu": 7341,
      "Ġpurchased": 7342,
      "Ġlaboratory": 7343,
      "Ġrequest": 7344,
      "ĠBeyon": 7345,
      "ss": 7346,
      "ĠDark": 7347,
      "Ġhummed": 7348,
      "Ġcategories": 7349,
      "oln": 7350,
      "Ġgiant": 7351,
      "ĠSa": 7352,
      "ĠChild": 7353,
      "ĠHell": 7354,
      "Ġdefensive": 7355,
      "Ġtitles": 7356,
      "Ġ52": 7357,
      "Ġillustrate": 7358,
      "Ġdedicated": 7359,
      "etime": 7360,
      "asp": 7361,
      "than": 7362,
      "Ġscheduled": 7363,
      "Ġunexpected": 7364,
      "long": 7365,
      "Ġlocations": 7366,
      "Ġabsorb": 7367,
      "Ġstrategic": 7368,
      "ĠTurn": 7369,
      "ĠNint": 7370,
      "ĠGeorgia": 7371,
      "ĠSix": 7372,
      "usted": 7373,
      "Ġsynthes": 7374,
      "Ġgain": 7375,
      "Ġintense": 7376,
      "ĠColumbia": 7377,
      "ĠPan": 7378,
      "ba": 7379,
      "Ġlic": 7380,
      "Ġappreciate": 7381,
      "Ġgeographic": 7382,
      "Station": 7383,
      "Ġfiction": 7384,
      "Ġadmitted": 7385,
      "Ġexactly": 7386,
      "function": 7387,
      "ĠImper": 7388,
      "ĠOffice": 7389,
      "ĠFin": 7390,
      "Ġrecru": 7391,
      "ĠCre": 7392,
      "ĠCommon": 7393,
      "ĠMiller": 7394,
      "ĠOlympic": 7395,
      "ĠOrder": 7396,
      "Ġfidelity": 7397,
      "ĠWater": 7398,
      "Ġprotection": 7399,
      "Ġapprenticeship": 7400,
      "ĠBad": 7401,
      "apping": 7402,
      "Ġstarts": 7403,
      "inable": 7404,
      "Ġdecor": 7405,
      "venues": 7406,
      "Ġ120": 7407,
      "Ġbeside": 7408,
      "Ġverd": 7409,
      "ĠBrook": 7410,
      "itational": 7411,
      "Ġvac": 7412,
      "Ġgoverned": 7413,
      "Ġincorporating": 7414,
      "ounder": 7415,
      "iform": 7416,
      "mann": 7417,
      "ĠSupp": 7418,
      "ĠPlayStation": 7419,
      "Ġcave": 7420,
      "Ġeventual": 7421,
      "Ġconven": 7422,
      "Ġsession": 7423,
      "Ġcomic": 7424,
      "Ġscales": 7425,
      "Ġexploring": 7426,
      "Ġoutcome": 7427,
      "erable": 7428,
      "Ġpros": 7429,
      "agle": 7430,
      "Ġmarks": 7431,
      "Ġlat": 7432,
      "ĠNintendo": 7433,
      "Ġdiplomatic": 7434,
      "Ġtouchdown": 7435,
      "Ġdocumented": 7436,
      "Ġtrains": 7437,
      "Ġsquad": 7438,
      "Ġmanufacturing": 7439,
      "ĠDie": 7440,
      "ĠLinc": 7441,
      "Ġyouth": 7442,
      "Ġbiod": 7443,
      "elly": 7444,
      "ĠImp": 7445,
      "ĠLewis": 7446,
      "ĠBronze": 7447,
      "Ġencompassing": 7448,
      "omber": 7449,
      "ĠCult": 7450,
      "Ġelabor": 7451,
      "Ġmountains": 7452,
      "encies": 7453,
      "Ġcriticism": 7454,
      "Ġpredecessors": 7455,
      "ĠRadio": 7456,
      "ĠBeyoncÃ©": 7457,
      "Ġlumin": 7458,
      "Ġcontaining": 7459,
      "Ġassess": 7460,
      "Ġdefence": 7461,
      "ĠFrancisco": 7462,
      "Ġperforming": 7463,
      "Ġprepared": 7464,
      "Ġlimits": 7465,
      "AT": 7466,
      "Ġsend": 7467,
      "achar": 7468,
      "ulative": 7469,
      "Ġwrong": 7470,
      "Ġshooting": 7471,
      "AR": 7472,
      "dem": 7473,
      "Ġweigh": 7474,
      "Ġinteract": 7475,
      "Ġdemonstrate": 7476,
      "Ġstayed": 7477,
      "Ġcontem": 7478,
      "Ġpale": 7479,
      "AP": 7480,
      "Ġseat": 7481,
      "Ġskin": 7482,
      "ĠAtt": 7483,
      "ĠDisney": 7484,
      "alities": 7485,
      "ĠTam": 7486,
      "Ġbanks": 7487,
      "anist": 7488,
      "ĠBern": 7489,
      "ĠGrant": 7490,
      "Ġunsu": 7491,
      "ĠSteve": 7492,
      "Ġ1982": 7493,
      "Ġexcellent": 7494,
      "Ġreframed": 7495,
      "Ġ1918": 7496,
      "Ġdisciplines": 7497,
      "Ġdegrad": 7498,
      "Ġ#": 7499,
      "ĠSus": 7500,
      "Ġtransc": 7501,
      "Ġpenal": 7502,
      "Ġpiano": 7503,
      "Ġ47": 7504,
      "ĠPress": 7505,
      "unior": 7506,
      "ĠHeart": 7507,
      "Ġsteam": 7508,
      "Ġtensions": 7509,
      "Ġdens": 7510,
      "Ġempt": 7511,
      "Ġkilometers": 7512,
      "bell": 7513,
      "mouth": 7514,
      "ĠSerb": 7515,
      "Ġopportunities": 7516,
      "idable": 7517,
      "ĠBrian": 7518,
      "ĠPot": 7519,
      "Ġcompromise": 7520,
      "Ġ1964": 7521,
      "Ġstability": 7522,
      "Ġorchest": 7523,
      "ulent": 7524,
      "iments": 7525,
      "Ġstrategy": 7526,
      "ilding": 7527,
      "Ġ1969": 7528,
      "Ġprotected": 7529,
      "Ġcontinu": 7530,
      "ulls": 7531,
      "ĠChap": 7532,
      "Ġstable": 7533,
      "Ġ1971": 7534,
      "Ġoverview": 7535,
      "rate": 7536,
      "ĠSol": 7537,
      "urance": 7538,
      "ĠUN": 7539,
      "Ġ1914": 7540,
      "ĠRem": 7541,
      "Ġrot": 7542,
      "Ġsuperior": 7543,
      "Ġfeedback": 7544,
      "ĠTreat": 7545,
      "agan": 7546,
      "Ġ1972": 7547,
      "ĠMah": 7548,
      "Ġhelps": 7549,
      "Ġstretching": 7550,
      "Ġ1979": 7551,
      "Ġsteady": 7552,
      "ĠLincoln": 7553,
      "ilton": 7554,
      "Ġinfl": 7555,
      "Ġty": 7556,
      "ĠJr": 7557,
      "Ġspar": 7558,
      "Ġtraveling": 7559,
      "Ġmeasures": 7560,
      "Ġcrown": 7561,
      "ĠPo": 7562,
      "ĠAnderson": 7563,
      "Ġdistinguished": 7564,
      "Ġdeparted": 7565,
      "Ġprocedural": 7566,
      "Ġsubstantive": 7567,
      "ĠJewish": 7568,
      "ĠSom": 7569,
      "Ġ\";": 7570,
      "ependent": 7571,
      "Ġbiodiversity": 7572,
      "Ġsymbol": 7573,
      "Ġpassionately": 7574,
      "ĠBaroque": 7575,
      "Ġdocuments": 7576,
      "ĠNHL": 7577,
      "Ġgall": 7578,
      "Ġhighlight": 7579,
      "Ġquietly": 7580,
      "ĠâĪ": 7581,
      "Ġcricket": 7582,
      "Ġ41": 7583,
      "Ġcitizens": 7584,
      "ignty": 7585,
      "ĠWhere": 7586,
      "Ġvolunte": 7587,
      "Ġoldest": 7588,
      "heres": 7589,
      "ĠReview": 7590,
      "Ġpromise": 7591,
      "Ġfundament": 7592,
      "Ġcharts": 7593,
      "anda": 7594,
      "olanda": 7595,
      "Ġbronze": 7596,
      "Ġbinding": 7597,
      "200": 7598,
      "ĠBetween": 7599,
      "ĠHollywood": 7600,
      "ĠNear": 7601,
      "Ġresident": 7602,
      "ĠConference": 7603,
      "riers": 7604,
      "Ġcomparison": 7605,
      "Ġdynamics": 7606,
      "iculous": 7607,
      "Ġmyself": 7608,
      "Ġachiev": 7609,
      "ĠDrawing": 7610,
      "Ġencouraged": 7611,
      "ownt": 7612,
      "ysfunction": 7613,
      "ĠPlan": 7614,
      "lighten": 7615,
      "Ġevolve": 7616,
      "ĠQuint": 7617,
      "ĠRomantic": 7618,
      "mun": 7619,
      "Ġgreatly": 7620,
      "Ġstern": 7621,
      "ĠGulf": 7622,
      "othing": 7623,
      "Ġambig": 7624,
      "ĠOriginal": 7625,
      "ĠNetwork": 7626,
      "Ġparad": 7627,
      "Ġcirculation": 7628,
      "Ġconstrained": 7629,
      "Ġrespected": 7630,
      "ĠSummer": 7631,
      "ĠGree": 7632,
      "Ġfunctions": 7633,
      "Ġhired": 7634,
      "ĠLab": 7635,
      "Ġfeas": 7636,
      "Ġhappened": 7637,
      "Ġ178": 7638,
      "Ġjoy": 7639,
      "Ġrestored": 7640,
      "put": 7641,
      "rub": 7642,
      "itably": 7643,
      "olph": 7644,
      "Ġeconomy": 7645,
      "Ġdear": 7646,
      "ĠKen": 7647,
      "FL": 7648,
      "ĠBor": 7649,
      "Ġsail": 7650,
      "taining": 7651,
      "Ġlacked": 7652,
      "tebr": 7653,
      "ĠRailway": 7654,
      "Ġcultivated": 7655,
      "mble": 7656,
      "Ġdramatic": 7657,
      "ĠWars": 7658,
      "ĠYears": 7659,
      "Ġcovers": 7660,
      "Ġ1975": 7661,
      "Ġsubjects": 7662,
      "Ġestate": 7663,
      "Ġsolemn": 7664,
      "archy": 7665,
      "ĠDemocratic": 7666,
      "Ġsovereignty": 7667,
      "Ġlimestone": 7668,
      "Ġinstance": 7669,
      "Ġeffectively": 7670,
      "Ġviewed": 7671,
      "pine": 7672,
      "Ġ1966": 7673,
      "ĠHeav": 7674,
      "ĠUnderstanding": 7675,
      "ĠBegin": 7676,
      "Ġrivers": 7677,
      "Ġassumption": 7678,
      "Ġwish": 7679,
      "Ġaust": 7680,
      "Ġenl": 7681,
      "ĠMarket": 7682,
      "Ġrobust": 7683,
      "Ġclimatic": 7684,
      "Ġmetall": 7685,
      "har": 7686,
      "ĠLes": 7687,
      "Ġ1974": 7688,
      "Ġbrothers": 7689,
      "igious": 7690,
      "Ġaccur": 7691,
      "Ġqualities": 7692,
      "Ġfacilitating": 7693,
      "Ġwel": 7694,
      "ĠDavis": 7695,
      "Ġfeels": 7696,
      "Ġmotor": 7697,
      "Ġhat": 7698,
      "ĠGreg": 7699,
      "Ġlap": 7700,
      "Ġepidem": 7701,
      "Ġapproved": 7702,
      "ĠBas": 7703,
      "Ġmand": 7704,
      "Ġ1965": 7705,
      "Ġhung": 7706,
      "ĠRa": 7707,
      "ĠLady": 7708,
      "Ġclimb": 7709,
      "Ġpublication": 7710,
      "ologists": 7711,
      "ĠWalter": 7712,
      "orization": 7713,
      "aked": 7714,
      "Ġcard": 7715,
      "akers": 7716,
      "onia": 7717,
      "Ġcasualties": 7718,
      "ĠBell": 7719,
      "Ġexclud": 7720,
      "78": 7721,
      "ĠBank": 7722,
      "ĠWild": 7723,
      "Ġrow": 7724,
      "ropri": 7725,
      "lightenment": 7726,
      "eria": 7727,
      "ashed": 7728,
      "aired": 7729,
      "atre": 7730,
      "Ġbrill": 7731,
      "acharias": 7732,
      "Ġengage": 7733,
      "Ġbasket": 7734,
      "ĠTokyo": 7735,
      "Ġvel": 7736,
      "Ġmanifest": 7737,
      "Ġcars": 7738,
      "ifies": 7739,
      "Ġ1973": 7740,
      "Ġapplicable": 7741,
      "Ġamaz": 7742,
      "ĠConn": 7743,
      "Ġcomprehension": 7744,
      "Ġsimultaneously": 7745,
      "Ġ1976": 7746,
      "iture": 7747,
      "Ġvariants": 7748,
      "ua": 7749,
      "Ġcellular": 7750,
      "Ġgravitational": 7751,
      "Ġsentiment": 7752,
      "Ġalle": 7753,
      "uven": 7754,
      "zant": 7755,
      "onym": 7756,
      "Ġconference": 7757,
      "....": 7758,
      "Ġhypotheses": 7759,
      "Ġfer": 7760,
      "Ġtowns": 7761,
      "ĠHay": 7762,
      "Ġcharity": 7763,
      "Ġmyth": 7764,
      "xic": 7765,
      "erts": 7766,
      "Ġtall": 7767,
      "Ġemphasize": 7768,
      "Ġlosses": 7769,
      "Ġpoll": 7770,
      "Ġsucceeded": 7771,
      "Ġupgraded": 7772,
      "Ġmagnificent": 7773,
      "Ġbridges": 7774,
      "ĠSupreme": 7775,
      "essions": 7776,
      "Ġemerges": 7777,
      "Ġ53": 7778,
      "Ġduty": 7779,
      "ĠSpecial": 7780,
      "heim": 7781,
      "Ġmissing": 7782,
      "antly": 7783,
      "Ġiv": 7784,
      "ĠKir": 7785,
      "Ġactress": 7786,
      "Ġrulers": 7787,
      "Ġboats": 7788,
      "Ġneighb": 7789,
      "But": 7790,
      "hilde": 7791,
      "Ġparch": 7792,
      "Ġtraversed": 7793,
      "umed": 7794,
      "Ġsiege": 7795,
      "Ġdinner": 7796,
      "ĠFat": 7797,
      "Ġsport": 7798,
      "structed": 7799,
      "Ġenzymes": 7800,
      "Ġdespair": 7801,
      "Ġregarding": 7802,
      "Ġwithdraw": 7803,
      "Ġschem": 7804,
      "abits": 7805,
      "coming": 7806,
      "Ġunsuccess": 7807,
      "ĠHan": 7808,
      "ĠHun": 7809,
      "Ġcollapse": 7810,
      "Ġresistance": 7811,
      "rint": 7812,
      "Ġinterrupt": 7813,
      "Ġformidable": 7814,
      "Ġgover": 7815,
      "aka": 7816,
      "Ġtunnel": 7817,
      "wick": 7818,
      "iffer": 7819,
      "achus": 7820,
      "Ġsecondary": 7821,
      "shore": 7822,
      "Ġadding": 7823,
      "Ġabsurd": 7824,
      "ĠWomen": 7825,
      "ĠTen": 7826,
      "ĠFel": 7827,
      "Ġorn": 7828,
      "Ġerosion": 7829,
      "ĠJour": 7830,
      "ĠSpring": 7831,
      "Ġlod": 7832,
      "Ġenable": 7833,
      "iomara": 7834,
      "Ġfine": 7835,
      "ivered": 7836,
      "Ġquantum": 7837,
      "Ġexceed": 7838,
      "utions": 7839,
      "Ġtempered": 7840,
      "iji": 7841,
      "no": 7842,
      "Ġprompted": 7843,
      "bat": 7844,
      "ĠSyd": 7845,
      "Ġvon": 7846,
      "ĠGermans": 7847,
      "Ġinjured": 7848,
      "Ġparchment": 7849,
      "Ġbarrier": 7850,
      "umes": 7851,
      "Ġequality": 7852,
      "ĠFair": 7853,
      "lime": 7854,
      "Ġinver": 7855,
      "ĠByzant": 7856,
      "Ġburied": 7857,
      "Ġselling": 7858,
      "ĠMain": 7859,
      "Ġirreduc": 7860,
      "Ġimposing": 7861,
      "Ġrenew": 7862,
      "Ġreligion": 7863,
      "Ġconverted": 7864,
      "They": 7865,
      "Ã¡n": 7866,
      "Ġimaging": 7867,
      "Ġefficient": 7868,
      "Ġretire": 7869,
      "idden": 7870,
      "istor": 7871,
      "Ġsemi": 7872,
      "Ġenjoyed": 7873,
      "rees": 7874,
      "Ġdisputes": 7875,
      "Ġrenamed": 7876,
      "Ġexha": 7877,
      "Ġdeclined": 7878,
      "ĠStation": 7879,
      "ko": 7880,
      "Ġones": 7881,
      "Ġfreeway": 7882,
      "ĠOliver": 7883,
      "Ġdismissed": 7884,
      "Ġ1917": 7885,
      "Ġoccurring": 7886,
      "ĠOffic": 7887,
      "sex": 7888,
      "Ġacknowledging": 7889,
      "ĠAbout": 7890,
      "ĠGib": 7891,
      "Ġinsects": 7892,
      "Ġsatellite": 7893,
      "Ġgraceful": 7894,
      "Ġgameplay": 7895,
      "Ġbottom": 7896,
      "osl": 7897,
      "Ġlb": 7898,
      "Ġrebu": 7899,
      "Ġcandle": 7900,
      "Ġshut": 7901,
      "Ġcrisis": 7902,
      "Ġneutron": 7903,
      "ĠPhilipp": 7904,
      "Ġlaunch": 7905,
      "Ġfranchise": 7906,
      "Ġreflections": 7907,
      "ĠEnlightenment": 7908,
      "ayer": 7909,
      "Ġgradually": 7910,
      "Ġ1946": 7911,
      "Ġ1981": 7912,
      "Ġinstructive": 7913,
      "Ġcited": 7914,
      "Ġplacing": 7915,
      "Ġready": 7916,
      "ĠGord": 7917,
      "ĠIV": 7918,
      "Ġsophistication": 7919,
      "Ġepistem": 7920,
      "oard": 7921,
      "ĠAli": 7922,
      "Ġincreases": 7923,
      "ĠOlympics": 7924,
      "warf": 7925,
      "Ġplease": 7926,
      "ribute": 7927,
      "ĠCommand": 7928,
      "Ġcheck": 7929,
      "oba": 7930,
      "istance": 7931,
      "Ġcivilization": 7932,
      "Ġguests": 7933,
      "ivalent": 7934,
      "Ġpopularity": 7935,
      "Ġidentification": 7936,
      "cont": 7937,
      "ĠRon": 7938,
      "Ġvir": 7939,
      "Ġsubmar": 7940,
      "Ġcatalog": 7941,
      "Ġsilk": 7942,
      "oma": 7943,
      "Ġapparently": 7944,
      "whel": 7945,
      "Ġarranged": 7946,
      "ĠMerc": 7947,
      "ĠNaz": 7948,
      "Ġpoem": 7949,
      "Ġfragment": 7950,
      "Ġromantic": 7951,
      "foot": 7952,
      "Ġ54": 7953,
      "Ġconfron": 7954,
      "ĠHMS": 7955,
      "Ġtranqu": 7956,
      "ĠHart": 7957,
      "pha": 7958,
      "do": 7959,
      "Ġconnecting": 7960,
      "ĠMassachus": 7961,
      "Ġstoryline": 7962,
      "Ġsandstone": 7963,
      "Ġdock": 7964,
      "ĠMas": 7965,
      "Ġretreat": 7966,
      "Ġeditor": 7967,
      "Ġstretched": 7968,
      "Ġelevation": 7969,
      "Ġstore": 7970,
      "ĠDynasty": 7971,
      "ĠCra": 7972,
      "aughed": 7973,
      "ĠMassachusetts": 7974,
      "ordial": 7975,
      "Ġscient": 7976,
      "Ġscope": 7977,
      "Ġflowers": 7978,
      "ĠPict": 7979,
      "ĠAdv": 7980,
      "erted": 7981,
      "Ġdisappeared": 7982,
      "35": 7983,
      "ĠAz": 7984,
      "ĠAirport": 7985,
      "rooms": 7986,
      "Ġmeadow": 7987,
      "ĠâĪĴ": 7988,
      "Ġ1948": 7989,
      "Ġappearing": 7990,
      "Ġdemanded": 7991,
      "ĠKentucky": 7992,
      "Ġenig": 7993,
      "Ġdignity": 7994,
      "Ġmuseum": 7995,
      "ĠNorway": 7996,
      "ĠGolden": 7997,
      "Ġnick": 7998,
      "ranean": 7999,
      "Ġrugged": 8000,
      "Ġivory": 8001,
      "Ġdict": 8002,
      "ĠStew": 8003,
      "Ġfeasible": 8004,
      "ĠFire": 8005,
      "ĠScientific": 8006,
      "My": 8007,
      "ĠHy": 8008,
      "ĠColonel": 8009,
      "Ġelectronic": 8010,
      "nut": 8011,
      "ĠMcG": 8012,
      "psons": 8013,
      "lane": 8014,
      "opes": 8015,
      "Ġaccel": 8016,
      "Ġinevitably": 8017,
      "ĠCape": 8018,
      "ĠNick": 8019,
      "Ġlights": 8020,
      "Ġviolence": 8021,
      "ĠRey": 8022,
      "Ġsublime": 8023,
      "Ġpaint": 8024,
      "Ġattending": 8025,
      "Ġcob": 8026,
      "ĠWhy": 8027,
      "Ġstatement": 8028,
      "Ġcolle": 8029,
      "tering": 8030,
      "Ġparties": 8031,
      "Ġlaughed": 8032,
      "ĠRhod": 8033,
      "ĠSimpsons": 8034,
      "leton": 8035,
      "Ġrecognize": 8036,
      "Ġcurric": 8037,
      "Ġcontinuing": 8038,
      "igration": 8039,
      "Ġranks": 8040,
      "Ġrose": 8041,
      "Ġscar": 8042,
      "Ġcir": 8043,
      "Ġtransp": 8044,
      "urches": 8045,
      "Ġimperfect": 8046,
      "Ġdisagreements": 8047,
      "ĠJay": 8048,
      "ignment": 8049,
      "hemer": 8050,
      "Ġindicates": 8051,
      "ĠInit": 8052,
      "ĠExploration": 8053,
      "Ġarrangement": 8054,
      "Ġluminous": 8055,
      "usation": 8056,
      "rett": 8057,
      "ĠRol": 8058,
      "Ġsomewhere": 8059,
      "Ġundergone": 8060,
      "Ġexquisite": 8061,
      "rise": 8062,
      "Ġmoderate": 8063,
      "Ġpromotion": 8064,
      "fl": 8065,
      "Ġprisoners": 8066,
      "Ġathlet": 8067,
      "Ġgovernance": 8068,
      "Ġcollaborators": 8069,
      "Ġacres": 8070,
      "Ġexplo": 8071,
      "Ġgoverning": 8072,
      "ĠRub": 8073,
      "Ġdelivered": 8074,
      "ĠMTV": 8075,
      "Ġdegradation": 8076,
      "ĠLabor": 8077,
      "ĠSel": 8078,
      "Ġhumans": 8079,
      "ĠShortly": 8080,
      "ĠImperial": 8081,
      "ĠGram": 8082,
      "Ġmolecular": 8083,
      "ĠGilbert": 8084,
      "Ġillustrates": 8085,
      "ĠMoore": 8086,
      "Ġreformers": 8087,
      "Ġradiant": 8088,
      "Ġbought": 8089,
      "ĠRos": 8090,
      "ĠKate": 8091,
      "angers": 8092,
      "ĠEarl": 8093,
      "Ġweakened": 8094,
      "Ġpastoral": 8095,
      "Ġfasc": 8096,
      "Ġquantit": 8097,
      "Ġbrilliant": 8098,
      "ano": 8099,
      "otor": 8100,
      "ĠDream": 8101,
      "Ġempty": 8102,
      "owntown": 8103,
      "tebrates": 8104,
      "Ġconsiders": 8105,
      "Ġhopeful": 8106,
      "unicip": 8107,
      "Ġprotein": 8108,
      "Ġerror": 8109,
      "Ġindicated": 8110,
      "ĠJustice": 8111,
      "Ġdisrupted": 8112,
      "ĠPass": 8113,
      "ĠGran": 8114,
      "Ġtrail": 8115,
      "Ġ1915": 8116,
      "Ġadvice": 8117,
      "Ġ160": 8118,
      "Ġillness": 8119,
      "ourse": 8120,
      "Ġpolitics": 8121,
      "urities": 8122,
      "ĠBase": 8123,
      "Ġ1978": 8124,
      "ati": 8125,
      "Ġdesigns": 8126,
      "Ġappeal": 8127,
      "iden": 8128,
      "Ġserene": 8129,
      "Ġindig": 8130,
      "Ġbattery": 8131,
      "Ġapart": 8132,
      "Ġbaseball": 8133,
      "rog": 8134,
      "ela": 8135,
      "Ġfaint": 8136,
      "Ġtargets": 8137,
      "Ġcrystalline": 8138,
      "ĠSet": 8139,
      "Ġsolid": 8140,
      "idal": 8141,
      "idian": 8142,
      "Ġentitled": 8143,
      "imm": 8144,
      "Ġtrip": 8145,
      "Ġplayoff": 8146,
      "Ġusual": 8147,
      "gal": 8148,
      "Ġretained": 8149,
      "Ġenigmatic": 8150,
      "Ġsymp": 8151,
      "Ġ56": 8152,
      "Ġaustere": 8153,
      "ĠYet": 8154,
      "Ġstadium": 8155,
      "Ġsupplies": 8156,
      "Ġpossibilities": 8157,
      "Ġoverwhel": 8158,
      "ĠSongs": 8159,
      "95": 8160,
      "Ġinfluences": 8161,
      "GN": 8162,
      "Ġmajestic": 8163,
      "mill": 8164,
      "ĠJane": 8165,
      "Ġrestruct": 8166,
      "Ġauthenticity": 8167,
      "ĠMaryland": 8168,
      "Ġpioneering": 8169,
      "ali": 8170,
      "Ġ1977": 8171,
      "Ġsoutheast": 8172,
      "lee": 8173,
      "Ġcontrolled": 8174,
      "Ġcolonial": 8175,
      "itors": 8176,
      "ĠVII": 8177,
      "Ġrecalled": 8178,
      "Ġnavigation": 8179,
      "Ġcapability": 8180,
      "Ġdestiny": 8181,
      "enity": 8182,
      "itime": 8183,
      "Ġconservative": 8184,
      "Ġnuclei": 8185,
      "Ġturbulent": 8186,
      "Ġpages": 8187,
      "Ġassistant": 8188,
      "hereal": 8189,
      "Ġorient": 8190,
      "ĠTheatre": 8191
    },
    "merges": [
      [
        "Ġ",
        "t"
      ],
      [
        "h",
        "e"
      ],
      [
        "Ġ",
        "a"
      ],
      [
        "i",
        "n"
      ],
      [
        "Ġt",
        "he"
      ],
      [
        "o",
        "n"
      ],
      [
        "e",
        "r"
      ],
      [
        "r",
        "e"
      ],
      [
        "Ġ",
        "s"
      ],
      [
        "a",
        "t"
      ],
      [
        "Ġ",
        "o"
      ],
      [
        "e",
        "d"
      ],
      [
        "Ġ",
        "w"
      ],
      [
        "e",
        "n"
      ],
      [
        "n",
        "d"
      ],
      [
        "Ġ",
        "c"
      ],
      [
        "i",
        "t"
      ],
      [
        "o",
        "r"
      ],
      [
        "e",
        "s"
      ],
      [
        "a",
        "l"
      ],
      [
        "i",
        "s"
      ],
      [
        "Ġ",
        "f"
      ],
      [
        "Ġo",
        "f"
      ],
      [
        "Ġ",
        "b"
      ],
      [
        "in",
        "g"
      ],
      [
        "Ġ",
        "in"
      ],
      [
        "a",
        "r"
      ],
      [
        "Ġ",
        "p"
      ],
      [
        "a",
        "n"
      ],
      [
        "Ġa",
        "nd"
      ],
      [
        "i",
        "c"
      ],
      [
        "r",
        "o"
      ],
      [
        "i",
        "on"
      ],
      [
        "a",
        "s"
      ],
      [
        "Ġ",
        "m"
      ],
      [
        "Ġ",
        "d"
      ],
      [
        "Ġt",
        "o"
      ],
      [
        "l",
        "e"
      ],
      [
        "Ġ",
        "h"
      ],
      [
        "o",
        "u"
      ],
      [
        "Ġt",
        "h"
      ],
      [
        "en",
        "t"
      ],
      [
        "Ġ",
        "re"
      ],
      [
        "Ġ",
        "T"
      ],
      [
        "s",
        "t"
      ],
      [
        "Ġ",
        "e"
      ],
      [
        "c",
        "t"
      ],
      [
        "i",
        "l"
      ],
      [
        "e",
        "l"
      ],
      [
        "o",
        "m"
      ],
      [
        "Ġ",
        "l"
      ],
      [
        "Ġ",
        "n"
      ],
      [
        "r",
        "a"
      ],
      [
        "Ġ",
        "S"
      ],
      [
        "u",
        "r"
      ],
      [
        "Ġ",
        "A"
      ],
      [
        "e",
        "t"
      ],
      [
        "ĠT",
        "he"
      ],
      [
        "o",
        "l"
      ],
      [
        "l",
        "y"
      ],
      [
        "c",
        "e"
      ],
      [
        "Ġ",
        "\""
      ],
      [
        "i",
        "m"
      ],
      [
        "Ġth",
        "at"
      ],
      [
        "i",
        "d"
      ],
      [
        "u",
        "t"
      ],
      [
        "Ġ",
        "on"
      ],
      [
        "Ġw",
        "as"
      ],
      [
        "a",
        "d"
      ],
      [
        "i",
        "v"
      ],
      [
        "Ġ",
        "g"
      ],
      [
        "at",
        "ion"
      ],
      [
        "Ġ",
        "C"
      ],
      [
        "a",
        "m"
      ],
      [
        "Ġ",
        "1"
      ],
      [
        "c",
        "h"
      ],
      [
        "Ġf",
        "or"
      ],
      [
        "Ġb",
        "e"
      ],
      [
        "o",
        "t"
      ],
      [
        "i",
        "g"
      ],
      [
        "i",
        "r"
      ],
      [
        "Ġs",
        "t"
      ],
      [
        "Ġc",
        "on"
      ],
      [
        "o",
        "w"
      ],
      [
        "Ġ",
        "I"
      ],
      [
        "Ġ",
        "M"
      ],
      [
        "s",
        "e"
      ],
      [
        "v",
        "er"
      ],
      [
        "Ġ",
        "B"
      ],
      [
        "it",
        "h"
      ],
      [
        "t",
        "er"
      ],
      [
        "Ġa",
        "s"
      ],
      [
        "he",
        "r"
      ],
      [
        "Ġw",
        "h"
      ],
      [
        "u",
        "l"
      ],
      [
        "Ġw",
        "ith"
      ],
      [
        "e",
        "m"
      ],
      [
        "Ġ",
        "u"
      ],
      [
        "a",
        "y"
      ],
      [
        "Ġ",
        "it"
      ],
      [
        "Ġ",
        "is"
      ],
      [
        "Ġ",
        "H"
      ],
      [
        "Ġp",
        "ro"
      ],
      [
        "Ġb",
        "y"
      ],
      [
        "o",
        "d"
      ],
      [
        "'",
        "s"
      ],
      [
        "a",
        "nd"
      ],
      [
        "er",
        "s"
      ],
      [
        "es",
        "t"
      ],
      [
        "Ġd",
        "e"
      ],
      [
        "is",
        "t"
      ],
      [
        "Ġ",
        "P"
      ],
      [
        "Ġa",
        "l"
      ],
      [
        "Ġa",
        "n"
      ],
      [
        "Ġa",
        "t"
      ],
      [
        "ro",
        "m"
      ],
      [
        "Ġ",
        "R"
      ],
      [
        "t",
        "h"
      ],
      [
        "u",
        "m"
      ],
      [
        "Ġ",
        "D"
      ],
      [
        "i",
        "f"
      ],
      [
        "a",
        "in"
      ],
      [
        "Ġc",
        "om"
      ],
      [
        "a",
        "v"
      ],
      [
        "q",
        "u"
      ],
      [
        "Ġ",
        "2"
      ],
      [
        "Ġ",
        "W"
      ],
      [
        "Ġf",
        "rom"
      ],
      [
        "o",
        "p"
      ],
      [
        "u",
        "s"
      ],
      [
        "g",
        "e"
      ],
      [
        "Ġe",
        "x"
      ],
      [
        "Ġ",
        "he"
      ],
      [
        "o",
        "s"
      ],
      [
        "i",
        "es"
      ],
      [
        "re",
        "s"
      ],
      [
        "Ġ",
        "F"
      ],
      [
        "a",
        "c"
      ],
      [
        "Ġs",
        "e"
      ],
      [
        "Ġ",
        "L"
      ],
      [
        "it",
        "y"
      ],
      [
        "Ġ",
        "v"
      ],
      [
        "o",
        "re"
      ],
      [
        "p",
        "p"
      ],
      [
        "Ġs",
        "u"
      ],
      [
        "ic",
        "al"
      ],
      [
        "l",
        "d"
      ],
      [
        "Ġ",
        "G"
      ],
      [
        "a",
        "b"
      ],
      [
        "r",
        "i"
      ],
      [
        "Ġ",
        "N"
      ],
      [
        "es",
        "s"
      ],
      [
        "Ġ",
        "("
      ],
      [
        "Ġ",
        ")"
      ],
      [
        "e",
        "w"
      ],
      [
        "Ġ",
        "E"
      ],
      [
        "an",
        "t"
      ],
      [
        "g",
        "h"
      ],
      [
        "il",
        "l"
      ],
      [
        "u",
        "d"
      ],
      [
        "Ġ1",
        "9"
      ],
      [
        "at",
        "e"
      ],
      [
        "Ġc",
        "h"
      ],
      [
        "Ġ",
        "J"
      ],
      [
        "ion",
        "s"
      ],
      [
        "u",
        "n"
      ],
      [
        "ig",
        "h"
      ],
      [
        "er",
        "e"
      ],
      [
        "Ġ",
        "r"
      ],
      [
        "iv",
        "e"
      ],
      [
        "ic",
        "h"
      ],
      [
        "al",
        "l"
      ],
      [
        "ro",
        "u"
      ],
      [
        "p",
        "t"
      ],
      [
        "e",
        "ct"
      ],
      [
        "m",
        "ent"
      ],
      [
        "0",
        "0"
      ],
      [
        "Ġh",
        "is"
      ],
      [
        "Ġ",
        "O"
      ],
      [
        "i",
        "p"
      ],
      [
        "or",
        "t"
      ],
      [
        "Ġs",
        "h"
      ],
      [
        "Ġw",
        "ere"
      ],
      [
        "en",
        "d"
      ],
      [
        "at",
        "ed"
      ],
      [
        "a",
        "k"
      ],
      [
        "o",
        "c"
      ],
      [
        "ar",
        "d"
      ],
      [
        "Ġ",
        "y"
      ],
      [
        "ar",
        "t"
      ],
      [
        "Ġo",
        "r"
      ],
      [
        "on",
        "g"
      ],
      [
        "Ġh",
        "ad"
      ],
      [
        "Ġn",
        "ot"
      ],
      [
        "n",
        "t"
      ],
      [
        "u",
        "re"
      ],
      [
        "o",
        "g"
      ],
      [
        "ĠI",
        "n"
      ],
      [
        "i",
        "al"
      ],
      [
        "Ġ",
        "le"
      ],
      [
        "Ġwh",
        "ich"
      ],
      [
        "b",
        "er"
      ],
      [
        "Ġa",
        "re"
      ],
      [
        "â",
        "Ģ"
      ],
      [
        "ou",
        "r"
      ],
      [
        "a",
        "g"
      ],
      [
        "a",
        "p"
      ],
      [
        "e",
        "ar"
      ],
      [
        "Ġ",
        "k"
      ],
      [
        "d",
        "u"
      ],
      [
        "or",
        "k"
      ],
      [
        "Ġin",
        "t"
      ],
      [
        "Ġs",
        "p"
      ],
      [
        "r",
        "u"
      ],
      [
        "Ġcom",
        "p"
      ],
      [
        "Ġa",
        "r"
      ],
      [
        "as",
        "t"
      ],
      [
        "Ġcon",
        "t"
      ],
      [
        "av",
        "e"
      ],
      [
        "o",
        "st"
      ],
      [
        "ar",
        "y"
      ],
      [
        "p",
        "er"
      ],
      [
        "igh",
        "t"
      ],
      [
        "in",
        "e"
      ],
      [
        "Ġit",
        "s"
      ],
      [
        "en",
        "ce"
      ],
      [
        "Ġb",
        "ut"
      ],
      [
        "Ġp",
        "l"
      ],
      [
        "o",
        "v"
      ],
      [
        "re",
        "d"
      ],
      [
        "Ġ",
        "K"
      ],
      [
        "el",
        "l"
      ],
      [
        "ou",
        "t"
      ],
      [
        "am",
        "e"
      ],
      [
        "ou",
        "ld"
      ],
      [
        "ation",
        "s"
      ],
      [
        "ou",
        "s"
      ],
      [
        "c",
        "l"
      ],
      [
        "ur",
        "ing"
      ],
      [
        "Ġ",
        "U"
      ],
      [
        "e",
        "c"
      ],
      [
        "Ġwh",
        "o"
      ],
      [
        "u",
        "st"
      ],
      [
        "Ġ",
        "en"
      ],
      [
        "an",
        "s"
      ],
      [
        "t",
        "her"
      ],
      [
        "c",
        "c"
      ],
      [
        "or",
        "d"
      ],
      [
        "r",
        "it"
      ],
      [
        "Ġh",
        "ave"
      ],
      [
        "Ġw",
        "he"
      ],
      [
        "i",
        "z"
      ],
      [
        "Ġa",
        "b"
      ],
      [
        "Ġth",
        "is"
      ],
      [
        "at",
        "er"
      ],
      [
        "it",
        "ion"
      ],
      [
        "Ġ",
        "âĢ"
      ],
      [
        "Ġre",
        "s"
      ],
      [
        "ĠS",
        "t"
      ],
      [
        "ct",
        "ion"
      ],
      [
        "Ġa",
        "pp"
      ],
      [
        "f",
        "f"
      ],
      [
        "or",
        "m"
      ],
      [
        "ul",
        "t"
      ],
      [
        "nd",
        "er"
      ],
      [
        "Ġthe",
        "ir"
      ],
      [
        "ig",
        "n"
      ],
      [
        "Ġa",
        "d"
      ],
      [
        "id",
        "e"
      ],
      [
        "Ġp",
        "er"
      ],
      [
        "i",
        "a"
      ],
      [
        "Ġon",
        "e"
      ],
      [
        "Ġh",
        "as"
      ],
      [
        "as",
        "s"
      ],
      [
        "Ġd",
        "is"
      ],
      [
        "Ġt",
        "ra"
      ],
      [
        "an",
        "ce"
      ],
      [
        "ac",
        "k"
      ],
      [
        "i",
        "e"
      ],
      [
        "p",
        "l"
      ],
      [
        "ir",
        "st"
      ],
      [
        "ĠT",
        "h"
      ],
      [
        "v",
        "el"
      ],
      [
        "om",
        "e"
      ],
      [
        "he",
        "d"
      ],
      [
        "u",
        "al"
      ],
      [
        "Ġt",
        "e"
      ],
      [
        "o",
        "k"
      ],
      [
        "i",
        "le"
      ],
      [
        "Ġ",
        "V"
      ],
      [
        "a",
        "ct"
      ],
      [
        "Ġc",
        "l"
      ],
      [
        "Ġbe",
        "en"
      ],
      [
        "Ġ",
        "im"
      ],
      [
        "r",
        "y"
      ],
      [
        "u",
        "e"
      ],
      [
        "a",
        "ch"
      ],
      [
        "Ġu",
        "n"
      ],
      [
        "Ġe",
        "v"
      ],
      [
        "Ġw",
        "ork"
      ],
      [
        "on",
        "d"
      ],
      [
        "rou",
        "gh"
      ],
      [
        "i",
        "an"
      ],
      [
        "ab",
        "le"
      ],
      [
        "s",
        "o"
      ],
      [
        "Ġ",
        "ro"
      ],
      [
        "Ġu",
        "nder"
      ],
      [
        "is",
        "h"
      ],
      [
        "Ġf",
        "irst"
      ],
      [
        "l",
        "ow"
      ],
      [
        "Ġs",
        "c"
      ],
      [
        "Ġd",
        "uring"
      ],
      [
        "or",
        "y"
      ],
      [
        "el",
        "y"
      ],
      [
        "Ġre",
        "c"
      ],
      [
        "i",
        "b"
      ],
      [
        "c",
        "ed"
      ],
      [
        "u",
        "b"
      ],
      [
        "ou",
        "nd"
      ],
      [
        "er",
        "v"
      ],
      [
        "im",
        "e"
      ],
      [
        "f",
        "ter"
      ],
      [
        "ic",
        "e"
      ],
      [
        "ĠC",
        "h"
      ],
      [
        "i",
        "re"
      ],
      [
        "Ġ",
        "her"
      ],
      [
        "m",
        "er"
      ],
      [
        "Ġo",
        "ver"
      ],
      [
        "a",
        "ge"
      ],
      [
        "Ġm",
        "an"
      ],
      [
        "Ġal",
        "so"
      ],
      [
        "Ġ",
        "j"
      ],
      [
        "Ġm",
        "e"
      ],
      [
        "Ġ",
        "qu"
      ],
      [
        "ou",
        "gh"
      ],
      [
        "in",
        "d"
      ],
      [
        "Ġt",
        "w"
      ],
      [
        "Ġm",
        "ore"
      ],
      [
        "c",
        "es"
      ],
      [
        "Ġw",
        "e"
      ],
      [
        "w",
        "e"
      ],
      [
        "en",
        "s"
      ],
      [
        "Ġb",
        "et"
      ],
      [
        "Ġp",
        "re"
      ],
      [
        "a",
        "re"
      ],
      [
        "e",
        "p"
      ],
      [
        "o",
        "od"
      ],
      [
        "Ġ2",
        "00"
      ],
      [
        "Ġ",
        "3"
      ],
      [
        "an",
        "g"
      ],
      [
        "ow",
        "n"
      ],
      [
        "Ġo",
        "ther"
      ],
      [
        "Ġd",
        "es"
      ],
      [
        "k",
        "e"
      ],
      [
        "cl",
        "ud"
      ],
      [
        "ĠH",
        "e"
      ],
      [
        "res",
        "s"
      ],
      [
        "Ġ2",
        "0"
      ],
      [
        "Ġp",
        "art"
      ],
      [
        "Ġa",
        "g"
      ],
      [
        "ar",
        "k"
      ],
      [
        "Ġn",
        "e"
      ],
      [
        "Ġbe",
        "c"
      ],
      [
        "f",
        "orm"
      ],
      [
        "ra",
        "ct"
      ],
      [
        "o",
        "ver"
      ],
      [
        "ent",
        "s"
      ],
      [
        "Ġat",
        "t"
      ],
      [
        "f",
        "er"
      ],
      [
        "on",
        "e"
      ],
      [
        "Ġ",
        "ra"
      ],
      [
        "Ġn",
        "ew"
      ],
      [
        "Ġc",
        "ent"
      ],
      [
        "Ġw",
        "ould"
      ],
      [
        "Ġin",
        "ter"
      ],
      [
        "re",
        "e"
      ],
      [
        "ou",
        "nt"
      ],
      [
        "i",
        "ed"
      ],
      [
        "Ġthe",
        "y"
      ],
      [
        "Ġre",
        "m"
      ],
      [
        "Ġm",
        "ost"
      ],
      [
        "r",
        "ic"
      ],
      [
        "Ġo",
        "ut"
      ],
      [
        "ĠâĢ",
        "ĵ"
      ],
      [
        "Ġs",
        "y"
      ],
      [
        "Ġth",
        "rough"
      ],
      [
        "ol",
        "og"
      ],
      [
        "Ġp",
        "r"
      ],
      [
        "ĠI",
        "t"
      ],
      [
        "ot",
        "h"
      ],
      [
        "Ġin",
        "clud"
      ],
      [
        "Ġsu",
        "b"
      ],
      [
        "le",
        "ct"
      ],
      [
        "l",
        "es"
      ],
      [
        "Ġin",
        "st"
      ],
      [
        "Ġint",
        "o"
      ],
      [
        "Ġtw",
        "o"
      ],
      [
        "if",
        "ic"
      ],
      [
        "Ġcom",
        "m"
      ],
      [
        "a",
        "u"
      ],
      [
        "p",
        "h"
      ],
      [
        "vel",
        "op"
      ],
      [
        "we",
        "en"
      ],
      [
        "or",
        "s"
      ],
      [
        "Ġy",
        "ou"
      ],
      [
        "a",
        "ce"
      ],
      [
        "rou",
        "nd"
      ],
      [
        "Ġpro",
        "du"
      ],
      [
        "in",
        "t"
      ],
      [
        "at",
        "ing"
      ],
      [
        "Ġcon",
        "s"
      ],
      [
        "Ġbet",
        "ween"
      ],
      [
        "Ġe",
        "ar"
      ],
      [
        "a",
        "il"
      ],
      [
        "Ġu",
        "p"
      ],
      [
        "at",
        "es"
      ],
      [
        "Ġ",
        "'"
      ],
      [
        "Ġu",
        "s"
      ],
      [
        "m",
        "s"
      ],
      [
        "i",
        "ous"
      ],
      [
        "Ġal",
        "l"
      ],
      [
        "g",
        "an"
      ],
      [
        "Ġk",
        "n"
      ],
      [
        "t",
        "e"
      ],
      [
        "v",
        "e"
      ],
      [
        "Ġt",
        "ime"
      ],
      [
        "Ġc",
        "an"
      ],
      [
        "n",
        "g"
      ],
      [
        "Ġim",
        "p"
      ],
      [
        "Ġab",
        "out"
      ],
      [
        "ur",
        "n"
      ],
      [
        "ad",
        "e"
      ],
      [
        "w",
        "n"
      ],
      [
        "Ġg",
        "en"
      ],
      [
        "ol",
        "d"
      ],
      [
        "Ġde",
        "velop"
      ],
      [
        "Ġ1",
        "8"
      ],
      [
        "Ġy",
        "ear"
      ],
      [
        "l",
        "and"
      ],
      [
        "as",
        "e"
      ],
      [
        "c",
        "k"
      ],
      [
        "Ġwhe",
        "n"
      ],
      [
        "ri",
        "b"
      ],
      [
        "Ġa",
        "fter"
      ],
      [
        "ĠA",
        "l"
      ],
      [
        "o",
        "se"
      ],
      [
        "st",
        "em"
      ],
      [
        "Ġ",
        "Y"
      ],
      [
        "Ġh",
        "im"
      ],
      [
        "Ġth",
        "an"
      ],
      [
        "ing",
        "s"
      ],
      [
        "Ġt",
        "r"
      ],
      [
        "Ġre",
        "g"
      ],
      [
        "it",
        "e"
      ],
      [
        "il",
        "d"
      ],
      [
        "h",
        "ip"
      ],
      [
        "on",
        "s"
      ],
      [
        "y",
        "s"
      ],
      [
        "Ġre",
        "p"
      ],
      [
        "ĠTh",
        "is"
      ],
      [
        "u",
        "res"
      ],
      [
        "Ġs",
        "he"
      ],
      [
        "in",
        "al"
      ],
      [
        "Ġs",
        "a"
      ],
      [
        "ic",
        "t"
      ],
      [
        "w",
        "ard"
      ],
      [
        "Ġ20",
        "1"
      ],
      [
        "Ġwh",
        "ile"
      ],
      [
        "Ġe",
        "m"
      ],
      [
        "ur",
        "al"
      ],
      [
        "w",
        "ay"
      ],
      [
        "Ġ",
        "4"
      ],
      [
        "n",
        "e"
      ],
      [
        "at",
        "h"
      ],
      [
        "Ġpl",
        "ay"
      ],
      [
        "Ġre",
        "l"
      ],
      [
        "ter",
        "n"
      ],
      [
        "ro",
        "s"
      ],
      [
        "ak",
        "e"
      ],
      [
        "ver",
        "y"
      ],
      [
        "Ġb",
        "oth"
      ],
      [
        "Ġ\"",
        "."
      ],
      [
        "Ġst",
        "ud"
      ],
      [
        "Ġa",
        "c"
      ],
      [
        "Ġm",
        "et"
      ],
      [
        "it",
        "ed"
      ],
      [
        "i",
        "el"
      ],
      [
        "Ġf",
[...]
