{
  "version": "1.0",
  "truncation": null,
  "padding": null,
  "added_tokens": [
    {
      "id": 0,
      "content": "<pad>",
      "single_word": false,
      "lstrip": false,
      "rstrip": false,
      "normalized": false,
      "special": true
    },
    {
      "id": 1,
      "content": "<unk>",
      "single_word": false,
      "lstrip": false,
      "rstrip": false,
      "normalized": false,
      "special": true
    },
    {
      "id": 2,
      "content": "<bos>",
      "single_word": false,
      "lstrip": false,
      "rstrip": false,
      "normalized": false,
      "special": true
    },
    {
      "id": 3,
      "content": "<eos>",
      "single_word": false,
      "lstrip": false,
      "rstrip": false,
      "normalized": false,
      "special": true
    }
  ],
  "normalizer": {
    "type": "NFC"
  },
  "pre_tokenizer": {
    "type": "ByteLevel",
    "add_prefix_space": false,
    "trim_offsets": true,
    "use_regex": true
  },
  "post_processor": null,
  "decoder": null,
  "model": {
    "type": "BPE",
    "dropout": null,
    "unk_token": "<unk>",
    "continuing_subword_prefix": null,
    "end_of_word_suffix": null,
    "fuse_unk": false,
    "byte_fallback": false,
    "ignore_merges": false,
    "vocab": {
      "<pad>": 0,
      "<unk>": 1,
      "<bos>": 2,
      "<eos>": 3,
      "!": 4,
      "\"": 5,
      "#": 6,
      "$": 7,
      "&": 8,
      "'": 9,
      "(": 10,
      ")": 11,
      "*": 12,
      "+": 13,
      ",": 14,
      "-": 15,
      ".": 16,
      "/": 17,
      "0": 18,
      "1": 19,
      "2": 20,
      "3": 21,
      "4": 22,
      "5": 23,
      "6": 24,
      "7": 25,
      "8": 26,
      "9": 27,
      ":": 28,
      ";": 29,
      "<": 30,
      "=": 31,
      ">": 32,
      "?": 33,
      "@": 34,
      "A": 35,
      "B": 36,
      "C": 37,
      "D": 38,
      "E": 39,
      "F": 40,
      "G": 41,
      "H": 42,
      "I": 43,
      "J": 44,
      "K": 45,
      "L": 46,
      "M": 47,
      "N": 48,
      "O": 49,
      "P": 50,
      "Q": 51,
      "R": 52,
      "S": 53,
      "T": 54,
      "U": 55,
      "V": 56,
      "W": 57,
      "X": 58,
      "Y": 59,
      "Z": 60,
      "[": 61,
      "\\": 62,
      "]": 63,
      "^": 64,
      "_": 65,
      "`": 66,
      "a": 67,
      "b": 68,
      "c": 69,
      "d": 70,
      "e": 71,
      "f": 72,
      "g": 73,
      "h": 74,
      "i": 75,
      "j": 76,
      "k": 77,
      "l": 78,
      "m": 79,
      "n": 80,
      "o": 81,
      "p": 82,
      "q": 83,
      "r": 84,
      "s": 85,
      "t": 86,
      "u": 87,
      "v": 88,
      "w": 89,
      "x": 90,
      "y": 91,
      "z": 92,
      "{": 93,
      "|": 94,
      "}": 95,
      "~": 96,
      "¡": 97,
      "¢": 98,
      "£": 99,
      "¤": 100,
      "¦": 101,
      "§": 102,
      "¨": 103,
      "©": 104,
      "ª": 105,
      "«": 106,
      "®": 107,
      "¯": 108,
      "±": 109,
      "²": 110,
      "³": 111,
      "´": 112,
      "µ": 113,
      "¶": 114,
      "¸": 115,
      "¹": 116,
      "º": 117,
      "»": 118,
      "¼": 119,
      "½": 120,
      "¿": 121,
      "Â": 122,
      "Ã": 123,
      "Å": 124,
      "Î": 125,
      "Ï": 126,
      "á": 127,
      "â": 128,
      "ĉ": 129,
      "Ċ": 130,
      "Ġ": 131,
      "Ģ": 132,
      "ģ": 133,
      "Ĥ": 134,
      "Ĩ": 135,
      "ĩ": 136,
      "Ī": 137,
      "ī": 138,
      "Ĵ": 139,
      "ĵ": 140,
      "Ķ": 141,
      "ķ": 142,
      "ĺ": 143,
      "Ļ": 144,
      "ľ": 145,
      "Ŀ": 146,
      "ł": 147,
      "Ń": 148,
      "Ġt": 149,
      "he": 150,
      "in": 151,
      "Ġa": 152,
      "on": 153,
      "re": 154,
      "Ġthe": 155,
      "at": 156,
      "er": 157,
      "Ġs": 158,
      "en": 159,
      "Ġo": 160,
      "Ġc": 161,
      "Ġw": 162,
      "it": 163,
      "nd": 164,
      "ed": 165,
      "al": 166,
      "es": 167,
      "ing": 168,
      "Ġof": 169,
      "is": 170,
      "Ġp": 171,
      "or": 172,
      "ion": 173,
      "Ġf": 174,
      "Ġb": 175,
      "Ġin": 176,
      "Ġm": 177,
      "Ġd": 178,
      "ic": 179,
      "ro": 180,
      "ar": 181,
      "Ġand": 182,
      "an": 183,
      "Ġth": 184,
      "ou": 185,
      "le": 186,
      "Ġe": 187,
      "st": 188,
      "ent": 189,
      "Ġh": 190,
      "Ġto": 191,
      "Ġre": 192,
      "ct": 193,
      "as": 194,
      "ĠT": 195,
      "Ġthat": 196,
      "el": 197,
      "om": 198,
      "ra": 199,
      "Ġn": 200,
      "Ġl": 201,
      "ur": 202,
      "ation": 203,
      "ly": 204,
      "et": 205,
      "ce": 206,
      "Ġcon": 207,
      "ut": 208,
      "ĠThe": 209,
      "ve": 210,
      "im": 211,
      "ol": 212,
      "se": 213,
      "il": 214,
      "Ġg": 215,
      "id": 216,
      "ver": 217,
      "ch": 218,
      "Ġbe": 219,
      "Ġst": 220,
      "Ġwh": 221,
      "ul": 222,
      "Ġfor": 223,
      "ot": 224,
      "ow": 225,
      "Ġit": 226,
      "Ġon": 227,
      "Ġpro": 228,
      "Ġde": 229,
      "ir": 230,
      "od": 231,
      "Ġu": 232,
      "ad": 233,
      "ig": 234,
      "qu": 235,
      "ment": 236,
      "Ġis": 237,
      "ical": 238,
      "ith": 239,
      "her": 240,
      "Ġex": 241,
      "if": 242,
      "Ġwith": 243,
      "ity": 244,
      "ĠI": 245,
      "ist": 246,
      "est": 247,
      "and": 248,
      "ions": 249,
      "Ġcom": 250,
      "rom": 251,
      "Ġwas": 252,
      "op": 253,
      "em": 254,
      "ay": 255,
      "ess": 256,
      "Ġy": 257,
      "ere": 258,
      "ab": 259,
      "res": 260,
      "ies": 261,
      "Ġfrom": 262,
      "Ġas": 263,
      "ore": 264,
      "Ġan": 265,
      "Ġint": 266,
      "ri": 267,
      "ain": 268,
      "Ġsu": 269,
      "ge": 270,
      "pp": 271,
      "Ġby": 272,
      "ld": 273,
      "ci": 274,
      "ect": 275,
      "ers": 276,
      "ru": 277,
      "os": 278,
      "Ġv": 279,
      "ant": 280,
      "Ġat": 281,
      "Ġyou": 282,
      "gh": 283,
      "Ġal": 284,
      "ĠA": 285,
      "og": 286,
      "pt": 287,
      "Ġch": 288,
      "am": 289,
      "rou": 290,
      "nt": 291,
      "ive": 292,
      "Ġne": 293,
      "Ġse": 294,
      "Ġhe": 295,
      "ork": 296,
      "ence": 297,
      "Ġnot": 298,
      "pl": 299,
      "ud": 300,
      "eri": 301,
      "Ġsh": 302,
      "Ġha": 303,
      "Ġen": 304,
      "ate": 305,
      "Ġar": 306,
      "iv": 307,
      "ations": 308,
      "ure": 309,
      "Ġ\"": 310,
      "ĠS": 311,
      "Ġcont": 312,
      "Ġcomp": 313,
      "du": 314,
      "Ġits": 315,
      "uring": 316,
      "ill": 317,
      "th": 318,
      "ac": 319,
      "all": 320,
      "Ġbut": 321,
      "ich": 322,
      "nder": 323,
      "Ġthis": 324,
      "end": 325,
      "ke": 326,
      "Ġr": 327,
      "Ġhave": 328,
      "igh": 329,
      "Ġle": 330,
      "ter": 331,
      "âĢ": 332,
      "Ġhad": 333,
      "ould": 334,
      "Ġare": 335,
      "ract": 336,
      "Ġunder": 337,
      "Ġsp": 338,
      "ated": 339,
      "us": 340,
      "um": 341,
      "Ġwho": 342,
      "Ġapp": 343,
      "Ġor": 344,
      "out": 345,
      "vel": 346,
      "Ġwhich": 347,
      "ine": 348,
      "ition": 349,
      "ight": 350,
      "Ġme": 351,
      "Ġab": 352,
      "Ġqu": 353,
      "Ġwork": 354,
      "Ġduring": 355,
      "Ġmo": 356,
      "ary": 357,
      "ĠB": 358,
      "ap": 359,
      "Ġhas": 360,
      "Ġev": 361,
      "ĠC": 362,
      "Ġres": 363,
      "red": 364,
      "ult": 365,
      "Ġexp": 366,
      "able": 367,
      "ual": 368,
      "ous": 369,
      "Ġdis": 370,
      "Ġim": 371,
      "Ġac": 372,
      "Ġone": 373,
      "rough": 374,
      "ong": 375,
      "Ġtra": 376,
      "hen": 377,
      "iz": 378,
      "ĠW": 379,
      "ort": 380,
      "yst": 381,
      "Ġwere": 382,
      "Ġinst": 383,
      "ĠM": 384,
      "olog": 385,
      "Ġte": 386,
      "ust": 387,
      "ance": 388,
      "Ġk": 389,
      "ruct": 390,
      "ach": 391,
      "ie": 392,
      "ble": 393,
      "Ġwe": 394,
      "Ġmore": 395,
      "Ġad": 396,
      "Ġinc": 397,
      "Ġbeen": 398,
      "act": 399,
      "ĠH": 400,
      "ved": 401,
      "Ġtheir": 402,
      "ĠTh": 403,
      "ast": 404,
      "Ġem": 405,
      "ome": 406,
      "Ġbet": 407,
      "lect": 408,
      "ther": 409,
      "ell": 410,
      "per": 411,
      "cess": 412,
      "velop": 413,
      "orm": 414,
      "Ġpract": 415,
      "very": 416,
      "ural": 417,
      "ard": 418,
      "ific": 419,
      "'s": 420,
      "Ġcent": 421,
      "Ġman": 422,
      "ystem": 423,
      "ran": 424,
      "Ġdevelop": 425,
      "ĠE": 426,
      "ind": 427,
      "Ġref": 428,
      "ces": 429,
      "ound": 430,
      "now": 431,
      "ced": 432,
      "ĠL": 433,
      "Ġunderst": 434,
      "Ġthrough": 435,
      "ile": 436,
      "hed": 437,
      "Ġsub": 438,
      "Ġso": 439,
      "ep": 440,
      "ign": 441,
      "Ġgen": 442,
      "un": 443,
      "Ġmat": 444,
      "Ġmost": 445,
      "eth": 446,
      "Ġbot": 447,
      "gu": 448,
      "ip": 449,
      "Ġpr": 450,
      "Ġrem": 451,
      "ff": 452,
      "ass": 453,
      "The": 454,
      "oc": 455,
      "ater": 456,
      "ful": 457,
      "ments": 458,
      "ory": 459,
      "ures": 460,
      "art": 461,
      "ide": 462,
      "Ġpre": 463,
      "ĠR": 464,
      "ern": 465,
      "we": 466,
      "Ġimp": 467,
      "ms": 468,
      "Ġthese": 469,
      "Ġun": 470,
      "Ġcan": 471,
      "Ġob": 472,
      "ys": 473,
      "itions": 474,
      "Ġabout": 475,
      "Ġsystem": 476,
      "ial": 477,
      "Ġsa": 478,
      "our": 479,
      "Ġnew": 480,
      "ice": 481,
      "ĠD": 482,
      "ood": 483,
      "--": 484,
      "ĠP": 485,
      "ely": 486,
      "Ġother": 487,
      "ĠF": 488,
      "Ġprodu": 489,
      "here": 490,
      "av": 491,
      "ĠThis": 492,
      "Ġstud": 493,
      "Ġj": 494,
      "ens": 495,
      "are": 496,
      "Ġboth": 497,
      "ars": 498,
      "Ġtrad": 499,
      "anding": 500,
      ".\"": 501,
      "ween": 502,
      "Ġbetween": 503,
      "Ġrec": 504,
      "li": 505,
      "Ġcons": 506,
      "Ġover": 507,
      "ities": 508,
      "ak": 509,
      "ather": 510,
      "atic": 511,
      "ating": 512,
      "Ġcl": 513,
      "Ġall": 514,
      "Ġreg": 515,
      "Ġknow": 516,
      "ag": 517,
      "Ġear": 518,
      "cipl": 519,
      "itut": 520,
      "Ġargu": 521,
      "Ġtim": 522,
      "Ġext": 523,
      "Ġro": 524,
      "erv": 525,
      "Ġhis": 526,
      "ough": 527,
      "gan": 528,
      "ec": 529,
      "eriod": 530,
      "Ġperiod": 531,
      "ink": 532,
      "Ġmod": 533,
      "ress": 534,
      "vers": 535,
      "ĠO": 536,
      "one": 537,
      "Ġcomm": 538,
      "ok": 539,
      "Ġcentur": 540,
      "ond": 541,
      "ount": 542,
      "Ġinf": 543,
      "Ġwhat": 544,
      "Ġwould": 545,
      "Ġpat": 546,
      "low": 547,
      "age": 548,
      "Ġthan": 549,
      "rit": 550,
      "Ġform": 551,
      "Ġgener": 552,
      "Ġph": 553,
      "Ġdes": 554,
      "Ġprocess": 555,
      "led": 556,
      "ose": 557,
      "iff": 558,
      "Ġstruct": 559,
      "Ġtran": 560,
      "Ġthey": 561,
      "hem": 562,
      "Ġdec": 563,
      "Ġwhen": 564,
      "ord": 565,
      "Ġfound": 566,
      "me": 567,
      "Ġyour": 568,
      "ros": 569,
      "irst": 570,
      "cept": 571,
      "iel": 572,
      "ang": 573,
      "chn": 574,
      "work": 575,
      "Ġpl": 576,
      "ays": 577,
      "Ġtrans": 578,
      "Ġprin": 579,
      "tain": 580,
      "ered": 581,
      "ject": 582,
      "Ġhist": 583,
      "Ġtechn": 584,
      "ors": 585,
      "Ġlo": 586,
      "ied": 587,
      "Ġwhile": 588,
      "lud": 589,
      "round": 590,
      "pect": 591,
      "Ġemp": 592,
      "Ġli": 593,
      "Ġup": 594,
      "Ġdist": 595,
      "Ġcontin": 596,
      "ings": 597,
      "ark": 598,
      ",\"": 599,
      "hip": 600,
      "Ġunderstanding": 601,
      "Ġrese": 602,
      "ts": 603,
      "Ġatt": 604,
      "Ġevery": 605,
      "Ġdem": 606,
      "Ġcond": 607,
      "Ġdo": 608,
      "Ġinstitut": 609,
      "Ġsm": 610,
      "ield": 611,
      "ace": 612,
      "ĠâĢ": 613,
      "Ġthem": 614,
      "ry": 615,
      "ue": 616,
      "Ġinto": 617,
      "ĠN": 618,
      "mental": 619,
      "ology": 620,
      "Ġrel": 621,
      "Ġtime": 622,
      "qui": 623,
      "lex": 624,
      "Ġquest": 625,
      "Ġco": 626,
      "Ġthink": 627,
      "ĠG": 628,
      "Ġam": 629,
      "Ġnat": 630,
      "Ġresear": 631,
      "Ġfe": 632,
      "ction": 633,
      "Ġdiff": 634,
      "Ġwill": 635,
      "Ġeff": 636,
      "rib": 637,
      "Ġinv": 638,
      "ise": 639,
      "ple": 640,
      "Ġpos": 641,
      "Ġdisc": 642,
      "Ġsome": 643,
      "Ġra": 644,
      "Ġout": 645,
      "ari": 646,
      "ame": 647,
      "reat": 648,
      "Ġpe": 649,
      "Ġind": 650,
      "ife": 651,
      "ake": 652,
      "row": 653,
      "hes": 654,
      "so": 655,
      "Ġlong": 656,
      "allen": 657,
      "Ġsc": 658,
      "Ġwor": 659,
      "Ġremain": 660,
      "ict": 661,
      "Ġag": 662,
      "Ġappro": 663,
      "ethod": 664,
      "Ġmethod": 665,
      "Ġobs": 666,
      "ands": 667,
      "Ġhim": 668,
      "ild": 669,
      "ross": 670,
      "ĠV": 671,
      "Ġfirst": 672,
      "Ġsign": 673,
      "ns": 674,
      "Ġ1": 675,
      "ning": 676,
      "ality": 677,
      "Ġwater": 678,
      "apt": 679,
      "und": 680,
      "Ġfield": 681,
      "Ġhow": 682,
      "Ġchallen": 683,
      "Ġrep": 684,
      "Ġus": 685,
      "Ġcentury": 686,
      "Ġrequi": 687,
      "Ġdi": 688,
      "ness": 689,
      "Ġcould": 690,
      "Ġsaid": 691,
      "Ġconst": 692,
      "ished": 693,
      "ible": 694,
      "ĠIn": 695,
      "Ġpart": 696,
      "ular": 697,
      "au": 698,
      "abl": 699,
      "Ġbec": 700,
      "Ġhum": 701,
      "ase": 702,
      "ĠâĢľ": 703,
      "tical": 704,
      "ized": 705,
      "ade": 706,
      "ents": 707,
      "por": 708,
      "âĢĿ": 709,
      "old": 710,
      "str": 711,
      "Ġinclud": 712,
      "Ġprov": 713,
      "ative": 714,
      "Ġset": 715,
      "ional": 716,
      "ined": 717,
      "sequ": 718,
      "Ġconditions": 719,
      "Ġlife": 720,
      "Ġexperi": 721,
      "Ġeven": 722,
      "Ġchar": 723,
      "ates": 724,
      "Ġsur": 725,
      "Ġpers": 726,
      "Ġfra": 727,
      "ub": 728,
      "Ġdra": 729,
      "lu": 730,
      "Ġonly": 731,
      "ious": 732,
      "ople": 733,
      "ks": 734,
      "Ġthough": 735,
      "hat": 736,
      "Ġspec": 737,
      "ason": 738,
      "Ġtheore": 739,
      "ne": 740,
      "Ġeach": 741,
      "Ġdet": 742,
      "Ġacc": 743,
      "Ġele": 744,
      "elf": 745,
      "Ġher": 746,
      "lic": 747,
      "Ġdevelopment": 748,
      "ail": 749,
      "Ġinter": 750,
      "iqu": 751,
      "ues": 752,
      "ree": 753,
      "ics": 754,
      "Ġsever": 755,
      "Ġwhose": 756,
      "int": 757,
      "Ġins": 758,
      "Ġest": 759,
      "Ġinflu": 760,
      "ish": 761,
      "hy": 762,
      "Ġconcept": 763,
      "Ġday": 764,
      "Ġno": 765,
      "Ġseveral": 766,
      "Ġadv": 767,
      "Ġproble": 768,
      "Ġess": 769,
      "ution": 770,
      "ellect": 771,
      "Ġpo": 772,
      "Ġconc": 773,
      "Ġmathem": 774,
      "Ġintellect": 775,
      "Ġacross": 776,
      "Ġmain": 777,
      "Ġpres": 778,
      "Ġsom": 779,
      "Ġintellectual": 780,
      "Ġinstitutions": 781,
      "ivid": 782,
      "Ġdiffere": 783,
      "Ġexperience": 784,
      "ility": 785,
      "Ġcharact": 786,
      "Ġestabl": 787,
      "ber": 788,
      "Ġval": 789,
      "Ġtradition": 790,
      "Ġalso": 791,
      "Ġanal": 792,
      "Ġworld": 793,
      "Ġthere": 794,
      "Ġtheoretical": 795,
      "Ġjust": 796,
      "Ġinstru": 797,
      "ned": 798,
      "ĠY": 799,
      "ten": 800,
      "Ġstructures": 801,
      "Ġsim": 802,
      "Ġper": 803,
      "Ġframe": 804,
      "Ġcur": 805,
      "Ġcomplex": 806,
      "Ġmethods": 807,
      "ron": 808,
      "Ġlear": 809,
      "Ġframework": 810,
      "Ġany": 811,
      "Ġsupp": 812,
      "Ġpractical": 813,
      "ĠSt": 814,
      "Ġtem": 815,
      "ential": 816,
      "âĢĻ": 817,
      "ĠIt": 818,
      "ciples": 819,
      "rodu": 820,
      "Ġsk": 821,
      "arm": 822,
      "Ġshe": 823,
      "Ġcult": 824,
      "Ġdraw": 825,
      "als": 826,
      "Ġcol": 827,
      "ysis": 828,
      "Ġwhere": 829,
      "Ġdeep": 830,
      "Ġevid": 831,
      "ĠK": 832,
      "ov": 833,
      "Ġcat": 834,
      "Ġsignific": 835,
      "Ġthose": 836,
      "Ġresult": 837,
      "ric": 838,
      "Ġmy": 839,
      "cial": 840,
      "?\"": 841,
      "fore": 842,
      "porary": 843,
      "form": 844,
      "ges": 845,
      "ack": 846,
      "ange": 847,
      "ational": 848,
      "Ġprinciples": 849,
      "Ġeng": 850,
      "Ġoff": 851,
      "cc": 852,
      "Ġstudy": 853,
      "uth": 854,
      "ite": 855,
      "chol": 856,
      "Ġreflect": 857,
      "ans": 858,
      "Ġpeople": 859,
      "Ġcre": 860,
      "sequent": 861,
      "ider": 862,
      "ng": 863,
      "hers": 864,
      "Ġbu": 865,
      "Ġearli": 866,
      "Ġmany": 867,
      "Ġer": 868,
      "Ġworking": 869,
      "ledge": 870,
      "Ġevidence": 871,
      "ĠJ": 872,
      "Ġrequired": 873,
      "ex": 874,
      "ism": 875,
      "Ġrather": 876,
      "ividual": 877,
      "unda": 878,
      "undamental": 879,
      "Ġfundamental": 880,
      "Ġprovid": 881,
      "ward": 882,
      "get": 883,
      "over": 884,
      "Ġsee": 885,
      "ince": 886,
      "Ġold": 887,
      "Ġshap": 888,
      "ear": 889,
      "ily": 890,
      "Ġcommun": 891,
      "Ġocc": 892,
      "Ġdeb": 893,
      "cy": 894,
      "Ġcare": 895,
      "te": 896,
      "Ġtw": 897,
      "Ġknowledge": 898,
      "Ġnatural": 899,
      "ices": 900,
      "Ġmaintain": 901,
      "Ġorgan": 902,
      "Ġmodern": 903,
      "Ġeffect": 904,
      "ons": 905,
      "Ġhistor": 906,
      "emporary": 907,
      "uch": 908,
      "Ġimport": 909,
      "Ġway": 910,
      "Ġcrit": 911,
      "ĠHe": 912,
      "Ġide": 913,
      "Ġmust": 914,
      "Ġstand": 915,
      "ering": 916,
      "Ġmon": 917,
      "Ġincluding": 918,
      "ire": 919,
      "Ġmade": 920,
      "Ġlike": 921,
      "olit": 922,
      "Ġsmall": 923,
      "ev": 924,
      "ething": 925,
      "Ġneed": 926,
      "Ġbr": 927,
      "Ġapproach": 928,
      "chers": 929,
      "ological": 930,
      "iron": 931,
      "ty": 932,
      "Ġsomething": 933,
      "Ġsince": 934,
      "eg": 935,
      "Ġintrodu": 936,
      "Ġhuman": 937,
      "ination": 938,
      "ody": 939,
      "iew": 940,
      "cholars": 941,
      "rent": 942,
      "Ġbegan": 943,
      "rap": 944,
      "ope": 945,
      "Ġincre": 946,
      "Ġsubject": 947,
      "Ġsett": 948,
      "Ġmeas": 949,
      "ia": 950,
      "aut": 951,
      "ib": 952,
      "Ġearly": 953,
      "Ġindividual": 954,
      "Ġter": 955,
      "Ġmuch": 956,
      "ilos": 957,
      "ilosop": 958,
      "Ġsignificant": 959,
      "ended": 960,
      "olution": 961,
      "Ġsystems": 962,
      "Ġobserv": 963,
      "Ġgood": 964,
      "Ġdeveloped": 965,
      "Ġec": 966,
      "Ġinn": 967,
      "ogn": 968,
      "Ġphilosop": 969,
      "Ġwithout": 970,
      "Ġrelations": 971,
      "ked": 972,
      "ances": 973,
      "Ġthen": 974,
      "Ġif": 975,
      "ollow": 976,
      "Ġregion": 977,
      "Ġquestions": 978,
      "Ġempir": 979,
      "Ġresearch": 980,
      "ctive": 981,
      "Ġmor": 982,
      "has": 983,
      "Ġequ": 984,
      "erg": 985,
      "Ġsubsequent": 986,
      "Ġincreas": 987,
      "Ġrelationship": 988,
      "Ġart": 989,
      "Ġhistorical": 990,
      "Ġvis": 991,
      "Ġfar": 992,
      "les": 993,
      "Ġour": 994,
      "Ġcity": 995,
      "Ġpartic": 996,
      "Ġcar": 997,
      "Ġgl": 998,
      "gg": 999,
      "aking": 1000,
      "Ġoften": 1001,
      "Ġbeaut": 1002,
      "Ġcomb": 1003,
      "Ġtur": 1004,
      "Ġmet": 1005,
      "ale": 1006,
      "Ġdesc": 1007,
      "cient": 1008,
      "Ġhistory": 1009,
      "Ġfind": 1010,
      "els": 1011,
      "Ġestablished": 1012,
      "ĠBut": 1013,
      "Ġstre": 1014,
      "Ġworks": 1015,
      "Ġpatter": 1016,
      "Ġmateri": 1017,
      "ears": 1018,
      "Ġent": 1019,
      "Ġdifferent": 1020,
      "ways": 1021,
      "Ġge": 1022,
      "Ġbetter": 1023,
      "Ġreform": 1024,
      "ena": 1025,
      "Ġcultural": 1026,
      "Ġleg": 1027,
      "Ġful": 1028,
      "uss": 1029,
      "Ġprev": 1030,
      "wn": 1031,
      "nce": 1032,
      "ends": 1033,
      "Ġscholars": 1034,
      "iss": 1035,
      "Ġconsider": 1036,
      "Ġalways": 1037,
      "Ġproper": 1038,
      "Ġsupport": 1039,
      "Ġcatal": 1040,
      "Ġquestion": 1041,
      "ving": 1042,
      "ause": 1043,
      "Ġstandard": 1044,
      "ize": 1045,
      "Ġinnov": 1046,
      "Ġfollow": 1047,
      "Ġchang": 1048,
      "Ġprof": 1049,
      "Ġexam": 1050,
      "Ġshow": 1051,
      "Ġresearchers": 1052,
      "Ġdiscipl": 1053,
      "Ġmay": 1054,
      "Ġtemper": 1055,
      "istic": 1056,
      "Ġbefore": 1057,
      "Ġseem": 1058,
      "Ġrecogn": 1059,
      "Ġseason": 1060,
      "Ġ--": 1061,
      "Ġapplic": 1062,
      "Ġgenerations": 1063,
      "ĠAnd": 1064,
      "ven": 1065,
      "Ġprec": 1066,
      "Ġsystematic": 1067,
      "Ġshould": 1068,
      "Ġpur": 1069,
      "ted": 1070,
      "Ġconf": 1071,
      "Ġpatterns": 1072,
      "rol": 1073,
      "Ġground": 1074,
      "Ġ---": 1075,
      "Ġcap": 1076,
      "Ġdiscuss": 1077,
      "Ġgre": 1078,
      "Ġthought": 1079,
      "zy": 1080,
      "ened": 1081,
      "ath": 1082,
      "uc": 1083,
      "Ġlook": 1084,
      "Ġprim": 1085,
      "Ġtwo": 1086,
      "oy": 1087,
      "inary": 1088,
      "abor": 1089,
      "ently": 1090,
      "ively": 1091,
      "Ġcor": 1092,
      "Ġri": 1093,
      "Ġincreasing": 1094,
      "Ġbel": 1095,
      "ention": 1096,
      "Ġcareful": 1097,
      "zed": 1098,
      "Ġposs": 1099,
      "Ġmean": 1100,
      "Ġarch": 1101,
      "ited": 1102,
      "up": 1103,
      "Ġessay": 1104,
      "egr": 1105,
      "Ġparticular": 1106,
      "Ġintegr": 1107,
      "Ġvari": 1108,
      "ves": 1109,
      "Ġyears": 1110,
      "Ġnow": 1111,
      "Ġop": 1112,
      "Ġlight": 1113,
      "Ġadd": 1114,
      "fter": 1115,
      "onstr": 1116,
      "Ġwell": 1117,
      "ribut": 1118,
      "ident": 1119,
      "Ġspe": 1120,
      "Ġdemonstr": 1121,
      "Ġfri": 1122,
      "Ġdrawing": 1123,
      "Ġbl": 1124,
      "Ġconvers": 1125,
      "ants": 1126,
      "Ġgrow": 1127,
      "Ġdep": 1128,
      "Ġtransform": 1129,
      "avi": 1130,
      "Ġtex": 1131,
      "ude": 1132,
      "ature": 1133,
      "Ġhy": 1134,
      "Ġview": 1135,
      "Ġvery": 1136,
      "Ġwrit": 1137,
      "Ġlast": 1138,
      "Ġemphas": 1139,
      "Ġbro": 1140,
      "Ġinstruments": 1141,
      "Ġpolit": 1142,
      "Ġprinci": 1143,
      "ades": 1144,
      "Ġnear": 1145,
      "Ġchallenge": 1146,
      "Ġbuild": 1147,
      "na": 1148,
      "chie": 1149,
      "Ġrepres": 1150,
      "ense": 1151,
      "Ġagain": 1152,
      "Ġel": 1153,
      "Ġpred": 1154,
      "Ġtens": 1155,
      "Ġtechniqu": 1156,
      "Ġanalysis": 1157,
      "Ġupon": 1158,
      "Ġmin": 1159,
      "Ġpolitical": 1160,
      "Ġcontemporary": 1161,
      "Ġperson": 1162,
      "osed": 1163,
      "ĠCon": 1164,
      "viron": 1165,
      "ruction": 1166,
      "Ġlet": 1167,
      "ally": 1168,
      "Ġnever": 1169,
      "Ġstill": 1170,
      "Ġsame": 1171,
      "Ġengine": 1172,
      "Ġtraditions": 1173,
      "Ġmathematic": 1174,
      "Ġachie": 1175,
      "rought": 1176,
      "Ġmeasure": 1177,
      "Ġpractice": 1178,
      "Ġpoint": 1179,
      "Ġfl": 1180,
      "Ġlar": 1181,
      "Ġloc": 1182,
      "Ġconcern": 1183,
      "med": 1184,
      "stant": 1185,
      "Ġbrought": 1186,
      "Ġlim": 1187,
      "less": 1188,
      "olved": 1189,
      "own": 1190,
      "ĠĠ": 1191,
      "Ġdid": 1192,
      "chan": 1193,
      "verse": 1194,
      "Ġact": 1195,
      "Ġothers": 1196,
      "Ġafter": 1197,
      "ian": 1198,
      "Ġpractition": 1199,
      "ared": 1200,
      "Ġdistin": 1201,
      "ically": 1202,
      "ĠWhat": 1203,
      "Ġnature": 1204,
      "Ġgra": 1205,
      "Ġimportant": 1206,
      "hens": 1207,
      "oring": 1208,
      "Ġempirical": 1209,
      "Ġproblems": 1210,
      "Ġbecause": 1211,
      "Ġser": 1212,
      "Ġargued": 1213,
      "ision": 1214,
      "Ġcritical": 1215,
      "ick": 1216,
      "Ġmer": 1217,
      "ien": 1218,
      "Ġenviron": 1219,
      "Ġbody": 1220,
      "acy": 1221,
      "Ġphys": 1222,
      "Ġdef": 1223,
      "ines": 1224,
      "ised": 1225,
      "Ġsec": 1226,
      "Ġrout": 1227,
      "Ġke": 1228,
      "Ġclass": 1229,
      "Ġuse": 1230,
      "Ġexpl": 1231,
      "Ġshaped": 1232,
      "Ġbeing": 1233,
      "Ġgenu": 1234,
      "ower": 1235,
      "dom": 1236,
      "ĠU": 1237,
      "Ġdecades": 1238,
      "Ġident": 1239,
      "Ġmake": 1240,
      "ives": 1241,
      "resh": 1242,
      "Ġinfluential": 1243,
      "ĠAs": 1244,
      "onom": 1245,
      "Ġbelie": 1246,
      "Ġdown": 1247,
      "Ġdiscipline": 1248,
      "Ġcommunities": 1249,
      "ience": 1250,
      "Ġreve": 1251,
      "Ġauth": 1252,
      "Ġsy": 1253,
      "Ġend": 1254,
      "Ġopp": 1255,
      "ending": 1256,
      "Ġshif": 1257,
      "Ġcount": 1258,
      "Ġwithin": 1259,
      "Ġgr": 1260,
      "ĠThey": 1261,
      "Ġremark": 1262,
      "ilit": 1263,
      "mit": 1264,
      "Ġskill": 1265,
      "Ġinsight": 1266,
      "Ġunderstood": 1267,
      "ties": 1268,
      "Ġauthor": 1269,
      "erm": 1270,
      "ĠWe": 1271,
      "Ġfresh": 1272,
      "Ġwis": 1273,
      "Ġmechan": 1274,
      "tle": 1275,
      "ll": 1276,
      "ither": 1277,
      "ext": 1278,
      "Ġcharacter": 1279,
      "Ġprop": 1280,
      "br": 1281,
      "Ġcenturies": 1282,
      "Ġriver": 1283,
      "com": 1284,
      "Ġrespect": 1285,
      "ived": 1286,
      "rect": 1287,
      "ggest": 1288,
      "ost": 1289,
      "Ġamong": 1290,
      "ĠAm": 1291,
      "Ġtexts": 1292,
      "Ġtheory": 1293,
      "Ġsuggest": 1294,
      "Ġgo": 1295,
      "Ġprinciple": 1296,
      "of": 1297,
      "ators": 1298,
      "Ġpractitioners": 1299,
      "Ġalong": 1300,
      "ining": 1301,
      "Ġbas": 1302,
      "Ġpub": 1303,
      "Ġconv": 1304,
      "Ġcoll": 1305,
      "Ġtension": 1306,
      "elt": 1307,
      "Ġera": 1308,
      "Ġproblem": 1309,
      "wer": 1310,
      "Ġbi": 1311,
      "Ġexist": 1312,
      "Ġass": 1313,
      "Ġattention": 1314,
      "ization": 1315,
      "ral": 1316,
      "Ġwisdom": 1317,
      "Ġresp": 1318,
      "cap": 1319,
      "Ġprevious": 1320,
      "Ġru": 1321,
      "Ġown": 1322,
      "Ġmark": 1323,
      "ried": 1324,
      "Ġbest": 1325,
      "cientific": 1326,
      "ograp": 1327,
      "Ġyoung": 1328,
      "Ġenzy": 1329,
      "Ġknown": 1330,
      "ert": 1331,
      "Ġlit": 1332,
      "ĠIf": 1333,
      "Ġless": 1334,
      "Ġextended": 1335,
      "Ġtechniques": 1336,
      "Ġsat": 1337,
      "its": 1338,
      "Ġcharacteri": 1339,
      "ertain": 1340,
      "Ġdesign": 1341,
      "Ġlater": 1342,
      "Ġcall": 1343,
      "Ġattract": 1344,
      "Ġthinkers": 1345,
      "Ġcontribut": 1346,
      "Ġspecific": 1347,
      "ook": 1348,
      "Ġdemands": 1349,
      "gen": 1350,
      "amp": 1351,
      "val": 1352,
      "Ġwind": 1353,
      "ouse": 1354,
      "Ġback": 1355,
      "Ġcontinue": 1356,
      "ability": 1357,
      "ave": 1358,
      "irc": 1359,
      "Ġdebate": 1360,
      "Ġdeterm": 1361,
      "where": 1362,
      "Ġsay": 1363,
      "Ġoccup": 1364,
      "Ġquality": 1365,
      "Ġcome": 1366,
      "Ġans": 1367,
      "Ġinvest": 1368,
      "Ġcontinues": 1369,
      "the": 1370,
      "Ġsuch": 1371,
      "duct": 1372,
      "lp": 1373,
      "Ġplace": 1374,
      "Ġproperties": 1375,
      "Ġda": 1376,
      "ists": 1377,
      "Ġinvestig": 1378,
      "Ġmathemat": 1379,
      "ĠLe": 1380,
      "iment": 1381,
      "Ġobser": 1382,
      "Ġma": 1383,
      "Ġprovided": 1384,
      "Ġprom": 1385,
      "ories": 1386,
      "cing": 1387,
      "other": 1388,
      "Ġcirc": 1389,
      "Ġearliest": 1390,
      "iet": 1391,
      "Ġill": 1392,
      "Ġcreating": 1393,
      "Ġproduced": 1394,
      "Ġstructural": 1395,
      "itect": 1396,
      "ĠIs": 1397,
      "ĠStep": 1398,
      "Ġresults": 1399,
      "itude": 1400,
      "iful": 1401,
      "Ġright": 1402,
      "ually": 1403,
      "Ġoper": 1404,
      "Ġhon": 1405,
      "Ġgu": 1406,
      "king": 1407,
      "Ġhelp": 1408,
      "ĠWh": 1409,
      "Ġmind": 1410,
      "Ġflow": 1411,
      "Ġbeh": 1412,
      "Ġaff": 1413,
      "nect": 1414,
      "Ġtoo": 1415,
      "vement": 1416,
      "Ġadapt": 1417,
      "Ġlocal": 1418,
      "ulation": 1419,
      "Ġtr": 1420,
      "Ġcompar": 1421,
      "ins": 1422,
      "Ġmult": 1423,
      "Ġopt": 1424,
      "..": 1425,
      "unction": 1426,
      "ina": 1427,
      "Ġpreviously": 1428,
      "ification": 1429,
      "Ġdiverse": 1430,
      "Ġaw": 1431,
      "Ġreason": 1432,
      "Ġed": 1433,
      "Ġearlier": 1434,
      "nthes": 1435,
      "Ġitself": 1436,
      "Ġpredict": 1437,
      "Ġimpro": 1438,
      "Ġapproac": 1439,
      "Ġcompre": 1440,
      "ching": 1441,
      "Ġbeg": 1442,
      "Ġdescrib": 1443,
      "Ġevent": 1444,
      "Ġdevelopments": 1445,
      "Ġcharacterized": 1446,
      "Ġcle": 1447,
      "hop": 1448,
      "Ġrepl": 1449,
      "ued": 1450,
      "ĠZ": 1451,
      "Ġarguing": 1452,
      "Ġlands": 1453,
      "It": 1454,
      "Ġlead": 1455,
      "Ġmight": 1456,
      "ting": 1457,
      "ĠThese": 1458,
      "Ġarchitect": 1459,
      "Ġquiet": 1460,
      "Ġobject": 1461,
      "Ġexpress": 1462,
      "Ġdim": 1463,
      "Ġintroduced": 1464,
      "Ġunderstand": 1465,
      "isms": 1466,
      "Ġlandscap": 1467,
      "plic": 1468,
      "Ġsing": 1469,
      "Ġroom": 1470,
      "Ġever": 1471,
      "Ġconduct": 1472,
      "Ġphilosophy": 1473,
      "eli": 1474,
      "Ġquant": 1475,
      "Ġmathematical": 1476,
      "ched": 1477,
      "Ġtru": 1478,
      "go": 1479,
      "tic": 1480,
      "Ġonce": 1481,
      "Ġbal": 1482,
      "Ġprog": 1483,
      "anced": 1484,
      "Ġchapt": 1485,
      "ĠYou": 1486,
      "ene": 1487,
      "alth": 1488,
      "Ġfact": 1489,
      "Ġspecies": 1490,
      "Ġperspect": 1491,
      "agement": 1492,
      "nal": 1493,
      "Ġtemperature": 1494,
      "Ġarri": 1495,
      "han": 1496,
      "imate": 1497,
      "Ġfull": 1498,
      "eting": 1499,
      "Ġaccount": 1500,
      "Ġair": 1501,
      "Ġanaly": 1502,
      "Ġpar": 1503,
      "Ġstr": 1504,
      "Ġbalance": 1505,
      "self": 1506,
      "hing": 1507,
      "Ġscientific": 1508,
      "akes": 1509,
      "Ġideas": 1510,
      "Ġcase": 1511,
      "Ġhope": 1512,
      "Ġmere": 1513,
      "Ġelement": 1514,
      "Ġmonit": 1515,
      "Qu": 1516,
      "ob": 1517,
      "Ġproductive": 1518,
      "assion": 1519,
      "land": 1520,
      "ilt": 1521,
      "ever": 1522,
      "yond": 1523,
      "rad": 1524,
      "Ġcombination": 1525,
      "not": 1526,
      "Ġgenuine": 1527,
      "ented": 1528,
      "day": 1529,
      "Ġprocesses": 1530,
      "ĠBe": 1531,
      "Ġcour": 1532,
      "Ġworkshop": 1533,
      "Ġbeyond": 1534,
      "ously": 1535,
      "Ġsaw": 1536,
      "let": 1537,
      "arily": 1538,
      "Ġelse": 1539,
      "Ġabs": 1540,
      "ĠWhen": 1541,
      "Ġcollabor": 1542,
      "ove": 1543,
      "ient": 1544,
      "Ġtravel": 1545,
      "Ġstandards": 1546,
      "ft": 1547,
      "ript": 1548,
      "Ġgreat": 1549,
      "Ġmultip": 1550,
      "Ġaspect": 1551,
      "Ġmultiple": 1552,
      "Ġmeaning": 1553,
      "versity": 1554,
      "Ġche": 1555,
      "Ġconnect": 1556,
      "Ġextens": 1557,
      "Ġpossible": 1558,
      "Ġtruth": 1559,
      "osystem": 1560,
      "ĠRes": 1561,
      "Ġaddress": 1562,
      "ged": 1563,
      "Ġessential": 1564,
      "erest": 1565,
      "etwork": 1566,
      "ai": 1567,
      "Ġfac": 1568,
      "Ġareas": 1569,
      "Ġhyd": 1570,
      "Ġpast": 1571,
      "icul": 1572,
      "mm": 1573,
      "Ġreact": 1574,
      "Ġpath": 1575,
      "ax": 1576,
      "Ġdom": 1577,
      "Ġste": 1578,
      "Ġdiscover": 1579,
      "Ġcurrent": 1580,
      "Ġfore": 1581,
      "gether": 1582,
      "Ġtogether": 1583,
      "lying": 1584,
      "ging": 1585,
      "Ġregions": 1586,
      "ences": 1587,
      "Ġrev": 1588,
      "Ġinterest": 1589,
      "Ġmechanisms": 1590,
      "usc": 1591,
      "Ġyet": 1592,
      "Ġlearned": 1593,
      "nam": 1594,
      "ĠAt": 1595,
      "Ġcomprehens": 1596,
      "Ġkind": 1597,
      "osity": 1598,
      "Ġsingle": 1599,
      "Ġlandscape": 1600,
      "Ġfeel": 1601,
      "ountain": 1602,
      "Ġcomplexity": 1603,
      "ze": 1604,
      "Ġstood": 1605,
      "Ġdaily": 1606,
      "Ġcentral": 1607,
      "Ġwat": 1608,
      "Ġchem": 1609,
      "ĠAge": 1610,
      "Ġinnovation": 1611,
      "nthesis": 1612,
      "Ġansw": 1613,
      "Ġcontrol": 1614,
      "Ġmorning": 1615,
      ".âĢĿ": 1616,
      "Ġresulting": 1617,
      "Ġcr": 1618,
      "Ġaround": 1619,
      "Ġeffects": 1620,
      "Ġemerg": 1621,
      "Ġparticularly": 1622,
      "Ġconcepts": 1623,
      "Ġmaterial": 1624,
      "Ġchanges": 1625,
      "ĠAlex": 1626,
      "ages": 1627,
      "Ġtoward": 1628,
      "Ġinform": 1629,
      "Ġdoc": 1630,
      "iled": 1631,
      "Ġfoundation": 1632,
      "Ġdetail": 1633,
      "Ġthings": 1634,
      "Ġagainst": 1635,
      "ier": 1636,
      "ha": 1637,
      "plications": 1638,
      "Ġecosystem": 1639,
      "Ġbehavi": 1640,
      "Ġmathematics": 1641,
      "Ġtransformed": 1642,
      "Ġdre": 1643,
      "Ġwarm": 1644,
      "Ġprovides": 1645,
      "Ġfa": 1646,
      "Ġwhe": 1647,
      "Ġbeauty": 1648,
      "usion": 1649,
      "ably": 1650,
      "Ġrest": 1651,
      "Ġstudies": 1652,
      "Ġaspects": 1653,
      "Ġachieved": 1654,
      "rain": 1655,
      "ĠWhile": 1656,
      "Ġremains": 1657,
      "cho": 1658,
      "lied": 1659,
      "alls": 1660,
      "Ġbehavior": 1661,
      "eral": 1662,
      "quir": 1663,
      "ows": 1664,
      "ths": 1665,
      "Ġhold": 1666,
      "olve": 1667,
      "Ġeffort": 1668,
      "Ġbeautiful": 1669,
      "Ġevening": 1670,
      "ety": 1671,
      "Ġmem": 1672,
      "Ġmonitoring": 1673,
      "Ġexc": 1674,
      "stain": 1675,
      "Ġcore": 1676,
      "ians": 1677,
      "Ġsw": 1678,
      "ets": 1679,
      "ĠHow": 1680,
      "Ġauthority": 1681,
      "Ġprep": 1682,
      "Ġnetwork": 1683,
      "Ġinstitutional": 1684,
      "aps": 1685,
      "'t": 1686,
      "ivity": 1687,
      "Ġlarge": 1688,
      "Ġposition": 1689,
      "Ġla": 1690,
      "Ġret": 1691,
      "Ġthinking": 1692,
      "Ġcompeting": 1693,
      "Ġproduction": 1694,
      "ately": 1695,
      "Ġconversation": 1696,
      "Ġscale": 1697,
      "Ġforces": 1698,
      "ilar": 1699,
      "Ġfriends": 1700,
      "Ġsil": 1701,
      "Ġlevel": 1702,
      "Ġsustain": 1703,
      "iced": 1704,
      "Ġunt": 1705,
      "Ġpublic": 1706,
      "ĠAlexand": 1707,
      "elves": 1708,
      "Ġelements": 1709,
      "ervation": 1710,
      "omet": 1711,
      "agn": 1712,
      "Ġfollowed": 1713,
      "Ġconstitut": 1714,
      "Ġprogress": 1715,
      "Ġmaterials": 1716,
      "Ġworked": 1717,
      "Ġincreasingly": 1718,
      "ought": 1719,
      "Ġord": 1720,
      "Ġorig": 1721,
      "Ġattracted": 1722,
      "Ġentire": 1723,
      "Ġsurround": 1724,
      "Ġpersonal": 1725,
      "Ġdecis": 1726,
      "ĠBru": 1727,
      "Ġasked": 1728,
      "ox": 1729,
      "Ġhand": 1730,
      "Ġcou": 1731,
      "mentation": 1732,
      "Ġlearning": 1733,
      "Ġmom": 1734,
      "Ġdeeply": 1735,
      "empt": 1736,
      "Ġtre": 1737,
      "Ġey": 1738,
      "Ġlittle": 1739,
      "icult": 1740,
      "Ġtest": 1741,
      "Ġengineering": 1742,
      "Ġhome": 1743,
      "ĠBar": 1744,
      "aries": 1745,
      "Ġconducted": 1746,
      "Ġav": 1747,
      "Ġspent": 1748,
      "Ġcapt": 1749,
      "Ġvalues": 1750,
      "Ġpurs": 1751,
      "Ġbuilding": 1752,
      "ify": 1753,
      "Ġexper": 1754,
      "ird": 1755,
      "Ġtend": 1756,
      "ingu": 1757,
      "Ġcollect": 1758,
      "ilitary": 1759,
      "Ġve": 1760,
      "Ġmodel": 1761,
      "Ġuni": 1762,
      "Ġjour": 1763,
      "Ġvisit": 1764,
      "Ġjustice": 1765,
      "Ġprofound": 1766,
      ",âĢĿ": 1767,
      "Ġtook": 1768,
      "Ġthree": 1769,
      "anted": 1770,
      "Ġexisting": 1771,
      "ime": 1772,
      "Ġharm": 1773,
      "ising": 1774,
      "line": 1775,
      "Ġdimens": 1776,
      "Ġbecame": 1777,
      "Ġmoment": 1778,
      "Ġfin": 1779,
      "Ġhapp": 1780,
      "Ġprecision": 1781,
      "Ġintegrity": 1782,
      "Ġapplication": 1783,
      "Ġcra": 1784,
      "Ġmerely": 1785,
      "Ġpractices": 1786,
      "Ġdest": 1787,
      "oph": 1788,
      "Ġtechnical": 1789,
      "Ġrange": 1790,
      "Ġindividuals": 1791,
      "Ġcal": 1792,
      "Ġrecord": 1793,
      "Ġinfluence": 1794,
      "Ġ2": 1795,
      "Ġcommit": 1796,
      "Ġreplied": 1797,
      "Ġspecial": 1798,
      "ret": 1799,
      "Ġdetermined": 1800,
      "Ġcarried": 1801,
      "Ġconsiderable": 1802,
      "Ġpri": 1803,
      "Ġgover": 1804,
      "Ġseries": 1805,
      "Ġslow": 1806,
      "Ġsimilar": 1807,
      "Ġregular": 1808,
      "Ġsubstant": 1809,
      "Ġbene": 1810,
      "lement": 1811,
      "iving": 1812,
      "Ġhouse": 1813,
      "ner": 1814,
      "Ġcircum": 1815,
      "That": 1816,
      "ix": 1817,
      "cious": 1818,
      "Ġcompos": 1819,
      "Ġsoph": 1820,
      "Ġtool": 1821,
      "Ġrig": 1822,
      "Ġattempt": 1823,
      "Ġgrowing": 1824,
      "Ġhere": 1825,
      "Ġrole": 1826,
      "Ġconstruction": 1827,
      "ik": 1828,
      "Ġtake": 1829,
      "Ġpresence": 1830,
      "Ġsought": 1831,
      "Ġproduct": 1832,
      "Ġpresent": 1833,
      "Ġfre": 1834,
      "Ġsophistic": 1835,
      "ger": 1836,
      "Ġcatalysis": 1837,
      "Ġenzyme": 1838,
      "Ġhealth": 1839,
      "any": 1840,
      "rid": 1841,
      "Ġcircumst": 1842,
      "ique": 1843,
      "Ġperiods": 1844,
      "irt": 1845,
      "ches": 1846,
      "erc": 1847,
      "Ġimplications": 1848,
      "going": 1849,
      "ified": 1850,
      "ĠEd": 1851,
      "Ġchallenges": 1852,
      "hetic": 1853,
      "ara": 1854,
      "Ġmanagement": 1855,
      "Ġarrived": 1856,
      "de": 1857,
      "Ġeas": 1858,
      "Ġstudied": 1859,
      "Ġharmon": 1860,
      "epend": 1861,
      "Ġsoci": 1862,
      "Ġreveal": 1863,
      "rial": 1864,
      "Ġcontext": 1865,
      "Ġread": 1866,
      "Ġep": 1867,
      "adem": 1868,
      "Ġnight": 1869,
      "isten": 1870,
      "Ġanother": 1871,
      "Ġbroad": 1872,
      "Ġmovement": 1873,
      "Ġexch": 1874,
      "You": 1875,
      "Ġpower": 1876,
      "Ġmar": 1877,
      "enced": 1878,
      "Ġproduce": 1879,
      "Ġempl": 1880,
      "ring": 1881,
      "Ġchild": 1882,
      "Ġfunction": 1883,
      "Ġdemonstrated": 1884,
      "Ġdocu": 1885,
      "ney": 1886,
      "Ġmaj": 1887,
      "Ġdirect": 1888,
      "Ġavail": 1889,
      "Ġargument": 1890,
      "Ġelect": 1891,
      "orn": 1892,
      "Ġforest": 1893,
      "Ġongoing": 1894,
      "Ġbegin": 1895,
      "Ġnetworks": 1896,
      "ĠGod": 1897,
      "fect": 1898,
      "Ġgeneration": 1899,
      "Ġmountain": 1900,
      "Ġenc": 1901,
      "Ġrul": 1902,
      "cience": 1903,
      "Ġcreated": 1904,
      "ologies": 1905,
      "Ġapprent": 1906,
      "Ġeveryone": 1907,
      "Ġsimple": 1908,
      "Ġestablish": 1909,
      "Ġchange": 1910,
      "Ġtechnologies": 1911,
      "Ġframeworks": 1912,
      "Ġadvance": 1913,
      "Ġreflected": 1914,
      "urn": 1915,
      "Ġunc": 1916,
      "Ġacadem": 1917,
      "Ġmilitary": 1918,
      "Ġappre": 1919,
      "onse": 1920,
      "henom": 1921,
      "io": 1922,
      "Ġdoes": 1923,
      "Ġformal": 1924,
      "Ġphenom": 1925,
      "ĠResear": 1926,
      "icism": 1927,
      "Ġ_": 1928,
      "Ġextra": 1929,
      "onomy": 1930,
      "Ġlay": 1931,
      "Ġroutes": 1932,
      "ters": 1933,
      "Ġfelt": 1934,
      "Ġprimarily": 1935,
      "Ġdifficult": 1936,
      "Ġelsewhere": 1937,
      "dis": 1938,
      "Ġlow": 1939,
      "Ġphenomena": 1940,
      "Ġthroughout": 1941,
      "Ġdimensions": 1942,
      "Ġtrade": 1943,
      "ĠThat": 1944,
      "Ġsit": 1945,
      "Ġresponse": 1946,
      "Ġmaintained": 1947,
      "oss": 1948,
      "Ġwalls": 1949,
      "ĠCont": 1950,
      "Ġcannot": 1951,
      "Ġple": 1952,
      "aces": 1953,
      "umin": 1954,
      "Ġimproved": 1955,
      "Ġdisp": 1956,
      "Ġseen": 1957,
      "Ġseemed": 1958,
      "Ġobservations": 1959,
      "ccess": 1960,
      "roup": 1961,
      "Ġextraord": 1962,
      "otion": 1963,
      "Ġkey": 1964,
      "read": 1965,
      "ogy": 1966,
      "ources": 1967,
      "Ġtal": 1968,
      "min": 1969,
      "Ġshape": 1970,
      "Ġeffective": 1971,
      "Ġdev": 1972,
      "Ġneeds": 1973,
      "atitude": 1974,
      "aster": 1975,
      "Ġcommon": 1976,
      "bra": 1977,
      "In": 1978,
      "Ġjourney": 1979,
      "Ġconsequ": 1980,
      "arly": 1981,
      "Ġaut": 1982,
      "Ġforms": 1983,
      "Ġshar": 1984,
      "Ġindu": 1985,
      "Ġwhether": 1986,
      "oice": 1987,
      "thing": 1988,
      "ĠEn": 1989,
      "Ġprofess": 1990,
      "Ġarticul": 1991,
      "Ġcreat": 1992,
      "Ġcertain": 1993,
      "Ġremarkable": 1994,
      "ria": 1995,
      "Ġmodels": 1996,
      "Ġage": 1997,
      "ler": 1998,
      "Ġrecent": 1999,
      "Ġstrong": 2000,
      "Ġcuri": 2001,
      "ĠEvery": 2002,
      "ock": 2003,
      "Ġbuilt": 2004,
      "Ġcuriosity": 2005,
      "Ġrece": 2006,
      "Ġvirt": 2007,
      "Ġstudents": 2008,
      "Ġsurrounding": 2009,
      "We": 2010,
      "Ġwal": 2011,
      "Ġchapter": 2012,
      "ration": 2013,
      "Ġargues": 2014,
      "Ġhead": 2015,
      "pir": 2016,
      "Ġnor": 2017,
      "ceed": 2018,
      "ĠCh": 2019,
      "Ġlearn": 2020,
      "ĠSam": 2021,
      "Ġbring": 2022,
      "Ġz": 2023,
      "ling": 2024,
      "Ġfully": 2025,
      "Ġinvolved": 2026,
      "izing": 2027,
      "Ġdat": 2028,
      "Ġapproaches": 2029,
      "ded": 2030,
      "Ġreal": 2031,
      "bur": 2032,
      "Ġdays": 2033,
      "ricult": 2034,
      "Ġlimit": 2035,
      "Ġserv": 2036,
      "Ġinvestigation": 2037,
      "atory": 2038,
      "ĠSec": 2039,
      "Ġconsequences": 2040,
      "ĠTim": 2041,
      "Ġclar": 2042,
      "Ġcompassion": 2043,
      "oke": 2044,
      "Ġdri": 2045,
      "ured": 2046,
      "uable": 2047,
      "oe": 2048,
      "Ġrang": 2049,
      "Ġsense": 2050,
      "Ġenvironmental": 2051,
      "Ġunderlying": 2052,
      "olving": 2053,
      "Ġprofessional": 2054,
      "Ġface": 2055,
      "Ġsky": 2056,
      "mselves": 2057,
      "osp": 2058,
      "acity": 2059,
      "Ġnav": 2060,
      "Ġinquir": 2061,
      "Ġskills": 2062,
      "Ġhour": 2063,
      "Ġstars": 2064,
      "Ġanswers": 2065,
      "Ġcomprehensive": 2066,
      "olid": 2067,
      "Ġant": 2068,
      "Ġcontributions": 2069,
      "Ġconvent": 2070,
      "Ġmill": 2071,
      "Ġshared": 2072,
      "uli": 2073,
      "Ġlegacy": 2074,
      "Ġstret": 2075,
      "Ġapplied": 2076,
      "piration": 2077,
      "Ġ(": 2078,
      "Ġcondition": 2079,
      "Ġemploy": 2080,
      "Ġnavig": 2081,
      "odern": 2082,
      "ellar": 2083,
      "Ġens": 2084,
      "Ġwa": 2085,
      "ĠFirst": 2086,
      "Ġwent": 2087,
      "Ġshel": 2088,
      "Ġmakes": 2089,
      "Ġdata": 2090,
      "Ġpass": 2091,
      "Ġfell": 2092,
      "Ġsocial": 2093,
      "rast": 2094,
      "Ġexchange": 2095,
      "Ġstart": 2096,
      "ĠDuring": 2097,
      "Ġlibr": 2098,
      "rm": 2099,
      "Ġextraordinary": 2100,
      "Ġvol": 2101,
      "Ġsignificantly": 2102,
      "imal": 2103,
      "Ġthemselves": 2104,
      "Ġdistant": 2105,
      "Ġver": 2106,
      "Ġfriend": 2107,
      "Ġimportance": 2108,
      "Ġword": 2109,
      "bon": 2110,
      "rogen": 2111,
      "Ġcapacity": 2112,
      "Ġdiscoveries": 2113,
      "ĠContemporary": 2114,
      "Ġformations": 2115,
      "air": 2116,
      "Ġty": 2117,
      "Ġinquiry": 2118,
      "Ġrecon": 2119,
      "Ġclassical": 2120,
      "ucle": 2121,
      "Ġaddressed": 2122,
      "ased": 2123,
      "pe": 2124,
      "Ġstate": 2125,
      "Ġsens": 2126,
      "Ġtherm": 2127,
      "Ġpress": 2128,
      "Ġhar": 2129,
      "rupt": 2130,
      "ĠSome": 2131,
      "aus": 2132,
      "Ġrepresented": 2133,
      "oub": 2134,
      "nels": 2135,
      "ĠMar": 2136,
      "ĠPra": 2137,
      "Ġrigor": 2138,
      "omm": 2139,
      "Ġcommitment": 2140,
      "Ġmut": 2141,
      "Ġstri": 2142,
      "Ġtreat": 2143,
      "ource": 2144,
      "Ġaffect": 2145,
      "atures": 2146,
      "?âĢĿ": 2147,
      "Ġeventually": 2148,
      "Ġcircumstances": 2149,
      "oland": 2150,
      "Ġappreci": 2151,
      "Ġhimself": 2152,
      "Ġobservation": 2153,
      "Ġgrew": 2154,
      "Ġcommunity": 2155,
      "ternal": 2156,
      "Ġcomparative": 2157,
      "Ġpatience": 2158,
      "iam": 2159,
      "ergy": 2160,
      "Ġphase": 2161,
      "Ġnothing": 2162,
      "Ġbelieve": 2163,
      "Ġexped": 2164,
      "ateg": 2165,
      "Ġneither": 2166,
      "ĠBruges": 2167,
      "ĠOver": 2168,
      "Ġopen": 2169,
      "Ġcontinued": 2170,
      "Ġmen": 2171,
      "Ġprimary": 2172,
      "Ġdy": 2173,
      "Ġrecognized": 2174,
      "Ġtimes": 2175,
      "Ġsynthesis": 2176,
      "Ġsecond": 2177,
      "idel": 2178,
      "matic": 2179,
      "Ġenergy": 2180,
      "estion": 2181,
      "Ġincor": 2182,
      "Ġgreater": 2183,
      "Ġencount": 2184,
      "Ġgroup": 2185,
      "Ġgather": 2186,
      "Ġbecome": 2187,
      "Ġhab": 2188,
      "ĠSecond": 2189,
      "Ġpredictions": 2190,
      "ĠLu": 2191,
      "augh": 2192,
      "haps": 2193,
      "Ġapplications": 2194,
      "know": 2195,
      "Ġincorpor": 2196,
      "Ġoccupied": 2197,
      "cel": 2198,
      "Ġjud": 2199,
      "ĠInd": 2200,
      "Ġways": 2201,
      "Ġexperiment": 2202,
      "Ġhig": 2203,
      "Ġpie": 2204,
      "Ġsent": 2205,
      "rs": 2206,
      "ren": 2207,
      "Ġimag": 2208,
      "Ġload": 2209,
      "Ġcarefully": 2210,
      "Ġdiscussion": 2211,
      "ided": 2212,
      "Ġdoub": 2213,
      "Ġemphasis": 2214,
      "Ġpop": 2215,
      "Ġcomput": 2216,
      "nswer": 2217,
      "ception": 2218,
      "Ġcalled": 2219,
      "rov": 2220,
      "Ġconceptual": 2221,
      "ĠAnswer": 2222,
      "Ġforward": 2223,
      "Ġdetect": 2224,
      "Question": 2225,
      "Ġbroader": 2226,
      "Ġwond": 2227,
      "Ġagricult": 2228,
      "Ġbrid": 2229,
      "ples": 2230,
      "Ġconfir": 2231,
      "Ġproved": 2232,
      "Ġmoral": 2233,
      "Ġapprentices": 2234,
      "Ġrecognition": 2235,
      "Ġsure": 2236,
      "ator": 2237,
      "gment": 2238,
      "Ġdistinctive": 2239,
      "Ġdiscussions": 2240,
      "Ġmaster": 2241,
      "Ġsuccess": 2242,
      "atom": 2243,
      "Ġoccur": 2244,
      "Ġcame": 2245,
      "Ġgeneral": 2246,
      "ĠNow": 2247,
      "Ġmarket": 2248,
      "Ġturned": 2249,
      "Ġbear": 2250,
      "Ġvast": 2251,
      "Ġ3": 2252,
      "side": 2253,
      "ck": 2254,
      "anded": 2255,
      "Ġtyp": 2256,
      "Ġinval": 2257,
      "Ġremained": 2258,
      "Ġmel": 2259,
      "Ġconscious": 2260,
      "Ġdeg": 2261,
      "Ġwee": 2262,
      "Ġdynam": 2263,
      "Ġefforts": 2264,
      "Ġrequires": 2265,
      "oms": 2266,
      "Ġscal": 2267,
      "ĠThere": 2268,
      "Ġtransl": 2269,
      "Ġused": 2270,
      "Ġrefine": 2271,
      "ah": 2272,
      "esthetic": 2273,
      "discipl": 2274,
      "onents": 2275,
      "ember": 2276,
      "Ġstructure": 2277,
      "pr": 2278,
      "ana": 2279,
      "Ġoffers": 2280,
      "erved": 2281,
      "ĠAr": 2282,
      "Ġunique": 2283,
      "ike": 2284,
      "Ġgive": 2285,
      "Ġassum": 2286,
      "strate": 2287,
      "Ġweather": 2288,
      "disciplinary": 2289,
      "ĠModern": 2290,
      "ission": 2291,
      "minist": 2292,
      "ĠCl": 2293,
      "Ġenorm": 2294,
      "Ġveget": 2295,
      "Ġsou": 2296,
      "ĠVal": 2297,
      "Ġfoundational": 2298,
      "ula": 2299,
      "Ġconcerns": 2300,
      "den": 2301,
      "ĠFor": 2302,
      "Ġadminist": 2303,
      "Ġmelan": 2304,
      "Ġsubstrate": 2305,
      "Ġidea": 2306,
      "Ġoppos": 2307,
      "Ġdel": 2308,
      "Ġcross": 2309,
      "ribution": 2310,
      "Ġtools": 2311,
      "Ġwriting": 2312,
      "Ġsal": 2313,
      "Ġargue": 2314,
      "Ġiron": 2315,
      "Ġphilosoph": 2316,
      "Ġreactions": 2317,
      "ĠBa": 2318,
      "con": 2319,
      "Ġexerc": 2320,
      "Ġdoubt": 2321,
      "Ġproced": 2322,
      "And": 2323,
      "illed": 2324,
      "ixed": 2325,
      "Ġchemical": 2326,
      "Ġsaf": 2327,
      "Ġdrew": 2328,
      "Ġinstruction": 2329,
      "Ġeither": 2330,
      "Ġprecise": 2331,
      "Ġcryst": 2332,
      "uf": 2333,
      "Ġwit": 2334,
      "Ġcourse": 2335,
      "Ġfew": 2336,
      "Ġancient": 2337,
      "Ġglass": 2338,
      "Ġalone": 2339,
      "Ġexplain": 2340,
      "head": 2341,
      "othe": 2342,
      "Ġperspective": 2343,
      "Ġdesigned": 2344,
      "Ġcrystall": 2345,
      "Ġplay": 2346,
      "Ġraised": 2347,
      "Ġmed": 2348,
      "olf": 2349,
      "Ġadj": 2350,
      "Ġbased": 2351,
      "What": 2352,
      "aim": 2353,
      "opic": 2354,
      "Ġslowly": 2355,
      "Ġstage": 2356,
      "ĠUnder": 2357,
      "ises": 2358,
      "ora": 2359,
      "Ġadapted": 2360,
      "Ġsubstantial": 2361,
      "Ġnod": 2362,
      "Ġside": 2363,
      "Ġstar": 2364,
      "Ġinteract": 2365,
      "osing": 2366,
      "ether": 2367,
      "Ġnucle": 2368,
      "Ġsolit": 2369,
      "Ġchan": 2370,
      "Ġmatter": 2371,
      "Ġextre": 2372,
      "Ġleast": 2373,
      "ĠĠĠĠ": 2374,
      "yal": 2375,
      "ĠEach": 2376,
      "oint": 2377,
      "Ġsophisticated": 2378,
      "aign": 2379,
      "eper": 2380,
      "Ġisol": 2381,
      "ampaign": 2382,
      "Ġexpect": 2383,
      "ley": 2384,
      "Ġtar": 2385,
      "Ġweeks": 2386,
      "Ġconsid": 2387,
      "Ġsettled": 2388,
      "Ġdraws": 2389,
      "Ġequal": 2390,
      "Ġmaking": 2391,
      "ston": 2392,
      "Ġabove": 2393,
      "Ġaway": 2394,
      "Ġchannels": 2395,
      "Ġsoon": 2396,
      "iant": 2397,
      "Ġindepend": 2398,
      "Ġconsolid": 2399,
      "Ġterrit": 2400,
      "Ġtoday": 2401,
      "most": 2402,
      "Ġsuggested": 2403,
      "Ġuntil": 2404,
      "icient": 2405,
      "ery": 2406,
      "ampaigns": 2407,
      "to": 2408,
      "Ġtraditional": 2409,
      "Ġsharp": 2410,
      "Ġobserve": 2411,
      "Ġvirtue": 2412,
      "Ġtou": 2413,
      "rage": 2414,
      "Ġtarget": 2415,
      "Ġcountry": 2416,
      "Ġcomprom": 2417,
      "Ġspace": 2418,
      "Ġstreng": 2419,
      "Ġexamines": 2420,
      "Ġillust": 2421,
      "enev": 2422,
      "Ġur": 2423,
      "Ġinit": 2424,
      "ilities": 2425,
      "Ġastr": 2426,
      "bor": 2427,
      "Ġanatom": 2428,
      "Ġfro": 2429,
      "mp": 2430,
      "Ġheart": 2431,
      "Ġvisible": 2432,
      "pid": 2433,
      "Ġwitness": 2434,
      "Ġincom": 2435,
      "Ġprocessing": 2436,
      "oman": 2437,
      "ienna": 2438,
      "ĠFrom": 2439,
      "Ġregard": 2440,
      "Ġsays": 2441,
      "ĠPer": 2442,
      "Ġstages": 2443,
      "Ġarchitecture": 2444,
      "Ġdeeper": 2445,
      "ibr": 2446,
      "Ġsurve": 2447,
      "Ġtax": 2448,
      "Ġdistingu": 2449,
      "comp": 2450,
      "gue": 2451,
      "Ġang": 2452,
      "ca": 2453,
      "Ġrigorous": 2454,
      "Ġchanging": 2455,
      "Ġevolution": 2456,
      "ease": 2457,
      "Ġmass": 2458,
      "Ġaesthetic": 2459,
      "Ġnodded": 2460,
      "Ġrapid": 2461,
      "ogether": 2462,
      "hold": 2463,
      "Ġperspectives": 2464,
      "Ġliber": 2465,
      "aring": 2466,
      "pered": 2467,
      "Ġgave": 2468,
      "ror": 2469,
      "imes": 2470,
      "Ġlegit": 2471,
      "Ġillustr": 2472,
      "ij": 2473,
      "Ġtransition": 2474,
      "Ġlimitations": 2475,
      "plete": 2476,
      "Ġmeasurement": 2477,
      "Ġask": 2478,
      "Ġorigins": 2479,
      "Ġscience": 2480,
      "ĠMe": 2481,
      "Ġexpedition": 2482,
      "ones": 2483,
      "ĠOne": 2484,
      "Ġindependently": 2485,
      "xt": 2486,
      "Ġmajor": 2487,
      "icate": 2488,
      "iven": 2489,
      "Ġincomplete": 2490,
      "Ġdescribed": 2491,
      "Ġexpression": 2492,
      "Ġcoast": 2493,
      "Ġsomeone": 2494,
      "Ġcorrect": 2495,
      "ĠTo": 2496,
      "Ġresolve": 2497,
      "Ġnu": 2498,
      "ĠTheir": 2499,
      "Ġdecisions": 2500,
      "fa": 2501,
      "Ġsmiled": 2502,
      "ĠShe": 2503,
      "Ġproposed": 2504,
      "Ġcenters": 2505,
      "Ġabsence": 2506,
      "racy": 2507,
      "Ġthing": 2508,
      "ored": 2509,
      "erior": 2510,
      "Ġhigh": 2511,
      "Ġrepresents": 2512,
      "Ġgratitude": 2513,
      "Ġmoving": 2514,
      "ille": 2515,
      "Ġfail": 2516,
      "Ġchallenged": 2517,
      "Ġperception": 2518,
      "Ġbeginning": 2519,
      "Ġproject": 2520,
      "Ġnuanced": 2521,
      "Ġnext": 2522,
      "Ġideal": 2523,
      "Ġquantities": 2524,
      "hic": 2525,
      "erful": 2526,
      "Ġdisease": 2527,
      "that": 2528,
      "Ġreceived": 2529,
      "Ġred": 2530,
      "reak": 2531,
      "Ġempiricism": 2532,
      "Ġaccess": 2533,
      "Ġinnovations": 2534,
      "ĠSub": 2535,
      "Ġsere": 2536,
      "ĠFl": 2537,
      "Ġspoke": 2538,
      "bu": 2539,
      "Ġterrain": 2540,
      "Ġtrue": 2541,
      "Ġliberty": 2542,
      "unt": 2543,
      "Ġ5": 2544,
      "Ġconsciousness": 2545,
      "Ġtruly": 2546,
      "Ġjudgment": 2547,
      "ĠGenev": 2548,
      "!âĢĿ": 2549,
      "gant": 2550,
      "Ġlegal": 2551,
      "Ġbridge": 2552,
      "arent": 2553,
      "Ġlove": 2554,
      "Ġhydrogen": 2555,
      "Ġcourage": 2556,
      "wor": 2557,
      "zh": 2558,
      "Ġphilosophical": 2559,
      "Ġdomin": 2560,
      "Ġindust": 2561,
      "ulated": 2562,
      "Ġgeomet": 2563,
      "Ġletter": 2564,
      "Ġinterdisciplinary": 2565,
      "stantin": 2566,
      "Ġfrequ": 2567,
      "yot": 2568,
      "Ġemerged": 2569,
      "hered": 2570,
      "Ġdescript": 2571,
      "Ġposed": 2572,
      "view": 2573,
      "Ġteac": 2574,
      "iny": 2575,
      "ĠCons": 2576,
      "Ġpure": 2577,
      "Ġanalytical": 2578,
      "ĠVen": 2579,
      "Ġimpact": 2580,
      "light": 2581,
      "Ġinteraction": 2582,
      "nity": 2583,
      "ains": 2584,
      "eated": 2585,
      "compass": 2586,
      "uscript": 2587,
      "Ġmanuscript": 2588,
      "Ġfilled": 2589,
      "Ġexposed": 2590,
      "Ġemphasized": 2591,
      "gical": 2592,
      "arrow": 2593,
      "Ġelegant": 2594,
      "ĠDe": 2595,
      "Ġpol": 2596,
      "ĠConstantin": 2597,
      "ĠConstantinople": 2598,
      "Ġopened": 2599,
      "Ġencompass": 2600,
      "rake": 2601,
      "Ġinsights": 2602,
      "Ġwords": 2603,
      "ĠSer": 2604,
      "Ġweight": 2605,
      "Ġing": 2606,
      "ĠMarrake": 2607,
      "ĠMarrakech": 2608,
      "Ġperse": 2609,
      "ricate": 2610,
      "ishing": 2611,
      "Ġneeded": 2612,
      "Ġmanuscripts": 2613,
      "ording": 2614,
      "ona": 2615,
      "Ġcaus": 2616,
      "Ġgard": 2617,
      "Ġrad": 2618,
      "Ġexternal": 2619,
      "Ġchallenging": 2620,
      "ey": 2621,
      "Ġharmony": 2622,
      "ĠRev": 2623,
      "Ġfixed": 2624,
      "Ġthoughtful": 2625,
      "Ġeyes": 2626,
      "Ġanim": 2627,
      "Ġintricate": 2628,
      "Ġsignificance": 2629,
      "ote": 2630,
      "arkand": 2631,
      "ĠSamarkand": 2632,
      "tu": 2633,
      "Ġteam": 2634,
      "rak": 2635,
      "Ġtechnology": 2636,
      "ĠVenice": 2637,
      "ulating": 2638,
      "ĠVienna": 2639,
      "stract": 2640,
      "Ġoffered": 2641,
      "Ġcapable": 2642,
      "Ġfas": 2643,
      "quence": 2644,
      "Ġacademic": 2645,
      "Ġmerch": 2646,
      "Ġwitnessed": 2647,
      "osc": 2648,
      "asi": 2649,
      "uit": 2650,
      "herent": 2651,
      "Ġhumility": 2652,
      "Ġbeneath": 2653,
      "hest": 2654,
      "ĠCusc": 2655,
      "ĠRevolution": 2656,
      "ĠCusco": 2657,
      "estic": 2658,
      "ĠVar": 2659,
      "ĠBarcel": 2660,
      "ĠBarcelona": 2661,
      "ĠAlexandria": 2662,
      "Ġopin": 2663,
      "Ġsuggests": 2664,
      "Ġleading": 2665,
      "buk": 2666,
      "inter": 2667,
      "ĠTimbuk": 2668,
      "ĠTimbuktu": 2669,
      "Ġfish": 2670,
      "sh": 2671,
      "eville": 2672,
      "ĠHang": 2673,
      "Ġsustained": 2674,
      "Ġconversations": 2675,
      "ĠKrak": 2676,
      "Ġfaith": 2677,
      "Ġenj": 2678,
      "uated": 2679,
      "Ġinterv": 2680,
      "ĠKrakow": 2681,
      "zhou": 2682,
      "ĠHangzhou": 2683,
      "Ġgeograp": 2684,
      "Ġfacilit": 2685,
      "Ġlarger": 2686,
      "anasi": 2687,
      "ĠVaranasi": 2688,
      "burgh": 2689,
      "Ġphysics": 2690,
      "Ġalmost": 2691,
      "ĠKyot": 2692,
      "ĠKyoto": 2693,
      "Ġagricultural": 2694,
      "inburgh": 2695,
      "ĠEdinburgh": 2696,
      "ĠSeville": 2697,
      "Ġanatomy": 2698,
      "verance": 2699,
      "Ġearth": 2700,
      "Ġran": 2701,
      "Ġconcl": 2702,
      "ĠLis": 2703,
      "ography": 2704,
      "ĠLisbon": 2705,
      "Ġgarden": 2706,
      "inely": 2707,
      "Ġorder": 2708,
      "Ġcenter": 2709,
      "Ġmic": 2710,
      "Ġtoler": 2711,
      "Ġinstrumentation": 2712,
      "ĠBy": 2713,
      "Ġguid": 2714,
      "Ġhyp": 2715,
      "Ġtold": 2716,
      "Ġinitial": 2717,
      "Ġsequence": 2718,
      "ĠIsfa": 2719,
      "ĠIsfahan": 2720,
      "Ġaware": 2721,
      "ĠFlore": 2722,
      "ĠFlorence": 2723,
      "Ġgeological": 2724,
      "Ġsmile": 2725,
      "ĠPrague": 2726,
      "Ġ'": 2727,
      "ats": 2728,
      "Ġcomple": 2729,
      "Ġenjoy": 2730,
      "ĠWith": 2731,
      "Ġanimals": 2732,
      "Ġseems": 2733,
      "man": 2734,
      "ĠTogether": 2735,
      "Ġheav": 2736,
      "Ġperseverance": 2737,
      "Ġmutual": 2738,
      "mb": 2739,
      "Ġmineral": 2740,
      "Ġstrengths": 2741,
      "Ġelev": 2742,
      "Ġlaw": 2743,
      "Ġevolved": 2744,
      "Ġdesp": 2745,
      "plom": 2746,
      "Ġterms": 2747,
      "Ġagree": 2748,
      "Ġdiplom": 2749,
      "Ġantiqu": 2750,
      "Ġsurvey": 2751,
      "Ġseek": 2752,
      "ocus": 2753,
      "Ġcell": 2754,
      "Ġsea": 2755,
      "Ġdemand": 2756,
      "Ġedge": 2757,
      "eared": 2758,
      "Ġlevels": 2759,
      "Ġbran": 2760,
      "ĠOn": 2761,
      "Ġinvaluable": 2762,
      "Ġfocus": 2763,
      "Ġvalley": 2764,
      "Ġsound": 2765,
      "Ġlower": 2766,
      "Ġlooking": 2767,
      "Ġconstra": 2768,
      "Ġdiversity": 2769,
      "rosc": 2770,
      "Ġwanted": 2771,
      "enn": 2772,
      "Ġcampaigns": 2773,
      "Ġdistribution": 2774,
      "Ġsettle": 2775,
      "Ġheavi": 2776,
      "Ġsupports": 2777,
      "Ġhighest": 2778,
      "Ġresil": 2779,
      "Ġresilience": 2780,
      "Ġinterp": 2781,
      "roscopic": 2782,
      "nces": 2783,
      "Ġheavier": 2784,
      "Ġcy": 2785,
      "Ġwalk": 2786,
      "Ġguidance": 2787,
      "bb": 2788,
      "Ġtrees": 2789,
      "Ġuseful": 2790,
      "new": 2791,
      "Ġabstract": 2792,
      "aken": 2793,
      "Ġaccounts": 2794,
      "Ġconclud": 2795,
      "Ġoccupies": 2796,
      "mosp": 2797,
      "ĠX": 2798,
      "istry": 2799,
      "Ġconclusion": 2800,
      "Ġshad": 2801,
      "Ġpap": 2802,
      "utation": 2803,
      "Ġbreat": 2804,
      "Ġconcerned": 2805,
      "Ġwilling": 2806,
      "Ġatmosp": 2807,
      "ĠâĢĶ": 2808,
      "Ġcomplete": 2809,
      "ĠEle": 2810,
      "atively": 2811,
      "Ġreveals": 2812,
      "Ġextensive": 2813,
      "by": 2814,
      "Ġfeed": 2815,
      "ĠEx": 2816,
      "medi": 2817,
      "inn": 2818,
      "Ġreflection": 2819,
      "Ġtell": 2820,
      "Ġamb": 2821,
      "Ġport": 2822,
      "Ġstay": 2823,
      "Ġcomposers": 2824,
      "Ġconsolidation": 2825,
      "Ġcalm": 2826,
      "entle": 2827,
      "imacy": 2828,
      "Ġwhole": 2829,
      "eties": 2830,
      "Ġnews": 2831,
      "Ġlate": 2832,
      "Ġeduc": 2833,
      "Ġinclude": 2834,
      "ander": 2835,
      "Ġadvances": 2836,
      "Ġhonest": 2837,
      "oked": 2838,
      "Ġyear": 2839,
      "Ġoverhead": 2840,
      "Ġ4": 2841,
      "Ġlonger": 2842,
      "Ġlies": 2843,
      "ologist": 2844,
      "Ġmonths": 2845,
      "ĠNo": 2846,
      "Ġalike": 2847,
      "Ġloyal": 2848,
      "Ġrational": 2849,
      "iction": 2850,
      "Ġremember": 2851,
      "Ġappear": 2852,
      "Ġperhaps": 2853,
      "Ġdistinction": 2854,
      "Ġenvironment": 2855,
      "soci": 2856,
      "Ġreputation": 2857,
      "Ġsurf": 2858,
      "Ġbo": 2859,
      "world": 2860,
      "Ġelectron": 2861,
      "Ġtraveled": 2862,
      "Ġoffering": 2863,
      "Ġvill": 2864,
      "oth": 2865,
      "ĠResearch": 2866,
      "Ġcyc": 2867,
      "âĢĶ": 2868,
      "Ġapproached": 2869,
      "Ġshall": 2870,
      "Ġdifferences": 2871,
      "ĠJo": 2872,
      "Ġfollowing": 2873,
      "There": 2874,
      "Ġavailable": 2875,
      "rium": 2876,
      "Ġstriking": 2877,
      "Ġengineers": 2878,
      "Ġsol": 2879,
      "ries": 2880,
      "Ġpositions": 2881,
      "Ġforg": 2882,
      "Ġexpanded": 2883,
      "ĠWest": 2884,
      "Ġresources": 2885,
      "Ġassumpt": 2886,
      "Ġextract": 2887,
      "Ġpursuit": 2888,
      "Ġshifted": 2889,
      "vere": 2890,
      "Ġplease": 2891,
      "Ġtrained": 2892,
      "Ġlasted": 2893,
      "uity": 2894,
      "Ġexperienced": 2895,
      "Ġassoci": 2896,
      "ĠAn": 2897,
      "quis": 2898,
      "Ġgentle": 2899,
      "Ġsuff": 2900,
      "Ġaccum": 2901,
      "Ġchoice": 2902,
      "ortun": 2903,
      "Ġclarity": 2904,
      "enture": 2905,
      "Ġpriv": 2906,
      "opy": 2907,
      "Ġdebated": 2908,
      "Ġsuper": 2909,
      "Ġpeace": 2910,
      "Ġchildren": 2911,
      "Ġmig": 2912,
      "Ġvalid": 2913,
      "Ġdriven": 2914,
      "Ġcollaborative": 2915,
      "Ġacknow": 2916,
      "Ġclaim": 2917,
      "Ġ18": 2918,
      "Ġillumin": 2919,
      "Ġvibr": 2920,
      "comes": 2921,
      "Ġenormously": 2922,
      "Ġshout": 2923,
      "Ġquick": 2924,
      "Ġexamples": 2925,
      "Ġsun": 2926,
      "ugh": 2927,
      "ode": 2928,
      "Ġcompan": 2929,
      "Ġexercise": 2930,
      "Ġpreserved": 2931,
      "pth": 2932,
      "Ġpatient": 2933,
      "Ġlisten": 2934,
      "Do": 2935,
      "iom": 2936,
      "lec": 2937,
      "Ġsociety": 2938,
      "Ġdepth": 2939,
      "chool": 2940,
      "Ġmid": 2941,
      "Ġvibrant": 2942,
      "How": 2943,
      "Ġsettings": 2944,
      "ieve": 2945,
      "uck": 2946,
      "ructure": 2947,
      "ĠAmong": 2948,
      "rying": 2949,
      "Ġvoc": 2950,
      "ĠEarly": 2951,
      "utes": 2952,
      "mitri": 2953,
      "resp": 2954,
      "Ġapproaching": 2955,
      "Ġintroducing": 2956,
      "abul": 2957,
      "Ġoutcomes": 2958,
      "Ġrequire": 2959,
      "Ġconservation": 2960,
      "bs": 2961,
      "Ġvillage": 2962,
      "Ġstories": 2963,
      "imize": 2964,
      "But": 2965,
      "Ġcomputational": 2966,
      "Ġcanopy": 2967,
      "Ġuncertain": 2968,
      "Ġvegetation": 2969,
      "ady": 2970,
      "respond": 2971,
      "Ġemployed": 2972,
      "abulary": 2973,
      "ocr": 2974,
      "Ġvocabulary": 2975,
      "icien": 2976,
      "Ġphysical": 2977,
      "Ġquite": 2978,
      "Ġtransformation": 2979,
      "standing": 2980,
      "Ġpubl": 2981,
      "alities": 2982,
      "olves": 2983,
      "Ġacknowled": 2984,
      "Ġorganiz": 2985,
      "Ġdelicate": 2986,
      "Ġbar": 2987,
      "Ġwillingness": 2988,
      "Ġoccas": 2989,
      "Ġlabor": 2990,
      "Ġconsidered": 2991,
      "osure": 2992,
      "ogue": 2993,
      "Ġget": 2994,
      "aph": 2995,
      "Ġconventional": 2996,
      "Ġschool": 2997,
      "Ġimmedi": 2998,
      "Ġcorrespond": 2999,
      "Ġdevotion": 3000,
      "Ġstory": 3001,
      "Ġoperates": 3002,
      "athered": 3003,
      "istem": 3004,
      "Ġpublished": 3005,
      "atherine": 3006,
      "Ġheld": 3007,
      "Ġwritten": 3008,
      "aught": 3009,
      "Ġstim": 3010,
      "Ġfur": 3011,
      "Ġorganization": 3012,
      "quisite": 3013,
      "Ġcommer": 3014,
      "Ġlamp": 3015,
      "ella": 3016,
      "Ġconviction": 3017,
      "Ġclean": 3018,
      "Ġdetails": 3019,
      "Ġleather": 3020,
      "Ġintroduction": 3021,
      "Ġlooked": 3022,
      "Ġexposure": 3023,
      "Ġsurpr": 3024,
      "rology": 3025,
      "water": 3026,
      "hent": 3027,
      "Ġmaintaining": 3028,
      "Ġshadows": 3029,
      "erence": 3030,
      "Ġstorm": 3031,
      "Ġentirely": 3032,
      "Ġdistinct": 3033,
      "Ġlost": 3034,
      "Ġprevail": 3035,
      "nes": 3036,
      "Ġwait": 3037,
      "Ġsumm": 3038,
      "Ġassociated": 3039,
      "Ġfam": 3040,
      "Ġwhom": 3041,
      "wh": 3042,
      "Ġhands": 3043,
      "thical": 3044,
      "Ġfree": 3045,
      "Ġcultiv": 3046,
      "Ġemer": 3047,
      "Ġisland": 3048,
      "Ġcop": 3049,
      "Ġapparent": 3050,
      "Ġpharm": 3051,
      "Ġhowever": 3052,
      "Ġtesting": 3053,
      "Ġcoherent": 3054,
      "Ġunivers": 3055,
      "ton": 3056,
      "Ġcel": 3057,
      "pping": 3058,
      "Ġpharmac": 3059,
      "ronze": 3060,
      "Ġcommercial": 3061,
      "Ġproof": 3062,
      "Ġharbor": 3063,
      "ae": 3064,
      "overy": 3065,
      "estial": 3066,
      "Ġinterests": 3067,
      "Ġult": 3068,
      "ĠPar": 3069,
      "oney": 3070,
      "Ġinstrument": 3071,
      "Ġcelestial": 3072,
      "nik": 3073,
      "ikol": 3074,
      "Ġrepeated": 3075,
      "Ġimm": 3076,
      "ilib": 3077,
      "Ġcontinent": 3078,
      "Ġdifference": 3079,
      "ilibrium": 3080,
      "Ġreach": 3081,
      "Ġequilibrium": 3082,
      "Ġartistic": 3083,
      "Ġexact": 3084,
      "Ġfields": 3085,
      "Ġturns": 3086,
      "ructed": 3087,
      "Ġeconom": 3088,
      "Ġsqu": 3089,
      "Ġmonu": 3090,
      "yl": 3091,
      "Ġes": 3092,
      "Ġtreatment": 3093,
      "Ġadvanced": 3094,
      "Ġremarkably": 3095,
      "aste": 3096,
      "Ġraw": 3097,
      "Ġenough": 3098,
      "Ġrefined": 3099,
      "Ġopposition": 3100,
      "Ġarchitectural": 3101,
      "rich": 3102,
      "Ġdiscovery": 3103,
      "Ġhonor": 3104,
      "Ġreflects": 3105,
      "hannes": 3106,
      "phe": 3107,
      "itive": 3108,
      "ute": 3109,
      "ital": 3110,
      "Ġtherap": 3111,
      "aint": 3112,
      "Ġreconc": 3113,
      "Ġimper": 3114,
      "cib": 3115,
      "athan": 3116,
      "aves": 3117,
      "Ġletters": 3118,
      "Ġretur": 3119,
      "Ġap": 3120,
      "emin": 3121,
      "pped": 3122,
      "Ġshift": 3123,
      "Ġlaid": 3124,
      "St": 3125,
      "itality": 3126,
      "Ġrhy": 3127,
      "Ġbelief": 3128,
      "Ġreasoning": 3129,
      "tem": 3130,
      "Ġgenerated": 3131,
      "ĠDmitri": 3132,
      "Ġregularly": 3133,
      "ĠEven": 3134,
      "ĠYour": 3135,
      "Ġtaken": 3136,
      "rose": 3137,
      "Ġenabl": 3138,
      "Ġmillenn": 3139,
      "par": 3140,
      "Ġmillennia": 3141,
      "Ġfinal": 3142,
      "Ġmathematicians": 3143,
      "Ġbus": 3144,
      "ias": 3145,
      "Ġrhyth": 3146,
      "lig": 3147,
      "Ġadvant": 3148,
      "Ġspans": 3149,
      "ĠMid": 3150,
      "apha": 3151,
      "aphael": 3152,
      "Ġbes": 3153,
      "erick": 3154,
      "yself": 3155,
      "ĠHav": 3156,
      "Ġpopul": 3157,
      "Ġmemories": 3158,
      "Ġconnection": 3159,
      "Ġunderg": 3160,
      "ĠExpl": 3161,
      "Ġkeep": 3162,
      "rice": 3163,
      "Ġlink": 3164,
      "Ġcontrad": 3165,
      "Ġidentity": 3166,
      "Ġenabling": 3167,
      "Ġrepresent": 3168,
      "Ġreconciled": 3169,
      "rederick": 3170,
      "Ġstreets": 3171,
      "Ġdecline": 3172,
      "Ġdecisive": 3173,
      "abella": 3174,
      "Ġintimate": 3175,
      "ection": 3176,
      "atio": 3177,
      "Ġcomponents": 3178,
      "omew": 3179,
      "Ġcontrast": 3180,
      "Ġlat": 3181,
      "endent": 3182,
      "Ġtable": 3183,
      "mma": 3184,
      "Ġsocieties": 3185,
      "Ġintended": 3186,
      "ienne": 3187,
      "Ġsummer": 3188,
      "Ġrespons": 3189,
      "Ġsolitude": 3190,
      "ateful": 3191,
      "Ġrhythms": 3192,
      "based": 3193,
      "Ġgovern": 3194,
      "for": 3195,
      "via": 3196,
      "Ġchapters": 3197,
      "Ġir": 3198,
      "Ġwinter": 3199,
      "Ġvariety": 3200,
      "thol": 3201,
      "Ġwar": 3202,
      "amet": 3203,
      "Ġremaining": 3204,
      "tholomew": 3205,
      "mond": 3206,
      "ĠIv": 3207,
      "ĠThen": 3208,
      "ivienne": 3209,
      "Ġdemanding": 3210,
      "Ġcritics": 3211,
      "titude": 3212,
      "ione": 3213,
      "anic": 3214,
      "gang": 3215,
      "entina": 3216,
      "Ġarticulated": 3217,
      "cks": 3218,
      "Ġprovide": 3219,
      "Ġadministr": 3220,
      "ung": 3221,
      "Ġpione": 3222,
      "Ġmus": 3223,
      "oratio": 3224,
      "endence": 3225,
      "Ġorigin": 3226,
      "Ġhours": 3227,
      "Ġbranch": 3228,
      "inston": 3229,
      "Ġdepends": 3230,
      "olfgang": 3231,
      "Ġoptimal": 3232,
      "anor": 3233,
      "ikolai": 3234,
      "istor": 3235,
      "Ġsemin": 3236,
      "arian": 3237,
      "Ġvo": 3238,
      "Ġpeaceful": 3239,
      "Ġbiological": 3240,
      "ronage": 3241,
      "Ġtargeted": 3242,
      "ĠCatherine": 3243,
      "Ġperfect": 3244,
      "Ġdebates": 3245,
      "Ġcontradict": 3246,
      "ĠDes": 3247,
      "Ġet": 3248,
      "omes": 3249,
      "odore": 3250,
      "opold": 3251,
      "Ġnum": 3252,
      "Ġdepending": 3253,
      "ulius": 3254,
      "aphina": 3255,
      "ĠSo": 3256,
      "Ġ12": 3257,
      "Ġgrav": 3258,
      "Ġresolution": 3259,
      "enel": 3260,
      "Ġinterpret": 3261,
      "ĠFran": 3262,
      "cival": 3263,
      "temis": 3264,
      "Ġstru": 3265,
      "Ġhabit": 3266,
      "ĠParis": 3267,
      "Ġarticulate": 3268,
      "Ġhousehold": 3269,
      "Ġheli": 3270,
      "ylvia": 3271,
      "Ġexcell": 3272,
      "Ġmist": 3273,
      "atrice": 3274,
      "Ġproducing": 3275,
      "lia": 3276,
      "athaniel": 3277,
      "ĠMosc": 3278,
      "agd": 3279,
      "ĠMr": 3280,
      "Ġhelium": 3281,
      "tered": 3282,
      "elius": 3283,
      "agdal": 3284,
      "ĠMoscow": 3285,
      "rsula": 3286,
      "agdalena": 3287,
      "enelope": 3288,
      "ysander": 3289,
      "ornelius": 3290,
      "ĠAlexander": 3291,
      "no": 3292,
      "Ġciv": 3293,
      "avia": 3294,
      "Ġopportun": 3295,
      "Ġreturn": 3296,
      "Ġcycle": 3297,
      "inrich": 3298,
      "iriam": 3299,
      "ils": 3300,
      "Ġlist": 3301,
      "ints": 3302,
      "Ġserve": 3303,
      "ply": 3304,
      "ctavia": 3305,
      "antic": 3306,
      "orothe": 3307,
      "orothea": 3308,
      "mund": 3309,
      "Ġsource": 3310,
      "Ġoutc": 3311,
      "Ġ13": 3312,
      "Ġrising": 3313,
      "ĠSubsequent": 3314,
      "Ġgrounded": 3315,
      "Ġvoices": 3316,
      "Ġtemperatures": 3317,
      "Ġensure": 3318,
      "Ġlan": 3319,
      "play": 3320,
      "ĠSal": 3321,
      "Ġsnow": 3322,
      "oud": 3323,
      "urd": 3324,
      "Ġpace": 3325,
      "Ġbenef": 3326,
      "eor": 3327,
      "Ġknew": 3328,
      "Ġrelationships": 3329,
      "Ġput": 3330,
      "elling": 3331,
      "ls": 3332,
      "athar": 3333,
      "Ġlibrary": 3334,
      "amm": 3335,
      "Ġparamet": 3336,
      "atharina": 3337,
      "Ġeasy": 3338,
      "ames": 3339,
      "Ġquar": 3340,
      "Ġpossib": 3341,
      "phelia": 3342,
      "Ġgla": 3343,
      "iolet": 3344,
      "Ġhaving": 3345,
      "Ġpressures": 3346,
      "Ġ19": 3347,
      "Ġ14": 3348,
      "ĠJohannes": 3349,
      "lementine": 3350,
      "Ġextend": 3351,
      "cesca": 3352,
      "Ġland": 3353,
      "Ġprove": 3354,
      "Ġfat": 3355,
      "Ġtide": 3356,
      "Ġinsp": 3357,
      "istency": 3358,
      "Ġcateg": 3359,
      "la": 3360,
      "Ġconstitutes": 3361,
      "dle": 3362,
      "obias": 3363,
      "choly": 3364,
      "ĠPro": 3365,
      "Ġprior": 3366,
      "Ġheating": 3367,
      "Ġcliff": 3368,
      "Ġsending": 3369,
      "isted": 3370,
      "Ġreturned": 3371,
      "Ġdoor": 3372,
      "Ġclear": 3373,
      "Ġmelancholy": 3374,
      "Ġconnected": 3375,
      "itional": 3376,
      "Ġcivil": 3377,
      "Ġwant": 3378,
      "Ġencountered": 3379,
      "egin": 3380,
      "Ġspring": 3381,
      "Ġsimply": 3382,
      "Ġpra": 3383,
      "uality": 3384,
      "aded": 3385,
      "Ġprepare": 3386,
      "Ġoblig": 3387,
      "isit": 3388,
      "berg": 3389,
      "Ġ16": 3390,
      "ĠTom": 3391,
      "Ġnon": 3392,
      "Ġmigr": 3393,
      "Ġconsistency": 3394,
      "Ġgold": 3395,
      "Ġsepar": 3396,
      "Ġcontinu": 3397,
      "Ġobjects": 3398,
      "Ġbur": 3399,
      "Ġsurgical": 3400,
      "Ġarms": 3401,
      "Ġmanner": 3402,
      "Ġopinions": 3403,
      "Ġability": 3404,
      "Ġgradu": 3405,
      "Ġstudying": 3406,
      "hab": 3407,
      "ira": 3408,
      "Ġseasonal": 3409,
      "Ġfeet": 3410,
      "Ġinfluenced": 3411,
      "app": 3412,
      "mes": 3413,
      "Ġrevolution": 3414,
      "Ġformulation": 3415,
      "Ġeag": 3416,
      "Ġhal": 3417,
      "Ġmead": 3418,
      "Ġ17": 3419,
      "Ġfriendship": 3420,
      "Ġdear": 3421,
      "Ġmort": 3422,
      "ructive": 3423,
      "osy": 3424,
      "Ġinspiration": 3425,
      "ĠIsabella": 3426,
      "roub": 3427,
      "ĠBegin": 3428,
      "Ġpurp": 3429,
      "Ġindustrial": 3430,
      "Ġlistened": 3431,
      "ĠFrederick": 3432,
      "iments": 3433,
      "Ġenric": 3434,
      "Ġsurprised": 3435,
      "Ġenriched": 3436,
      "Ġcand": 3437,
      "Ġreflecting": 3438,
      "Ġliving": 3439,
      "Ġremind": 3440,
      "Ġfeeling": 3441,
      "Ġappreciate": 3442,
      "Ġconstrain": 3443,
      "Ġroute": 3444,
      "ĠBartholomew": 3445,
      "Ġmeasurements": 3446,
      "istance": 3447,
      "Ġactivity": 3448,
      "Ġnoticed": 3449,
      "Ġmechanical": 3450,
      "Ġshifting": 3451,
      "Ġpassion": 3452,
      "Ġobserved": 3453,
      "omic": 3454,
      "iology": 3455,
      "othes": 3456,
      "Ġrepeatedly": 3457,
      "inable": 3458,
      "Ġpot": 3459,
      "inent": 3460,
      "range": 3461,
      "Ġgot": 3462,
      "Ġengag": 3463,
      "fts": 3464,
      "Ġpoints": 3465,
      "Ġwide": 3466,
      "Ġaspiration": 3467,
      "Ġseeks": 3468,
      "Ġwhy": 3469,
      "Ġsilence": 3470,
      "namics": 3471,
      "Ġclim": 3472,
      "Ġrecently": 3473,
      "Ġmeadow": 3474,
      "Ġcast": 3475,
      "Ġsomet": 3476,
      "ĠVivienne": 3477,
      "Ġtravers": 3478,
      "Ġfusion": 3479,
      "che": 3480,
      "ondon": 3481,
      "Ġavailability": 3482,
      "Ġstellar": 3483,
      "Ġbra": 3484,
      "ĠHeidel": 3485,
      "Ġdynamic": 3486,
      "Ġsometimes": 3487,
      "Ġrich": 3488,
      "Ġcost": 3489,
      "odynamics": 3490,
      "Ġthermodynamics": 3491,
      "Ġsomewhere": 3492,
      "Ġstandardized": 3493,
      "ĠResearchers": 3494,
      "Ġshelter": 3495,
      "Ġspeak": 3496,
      "Ġce": 3497,
      "Ġsensors": 3498,
      "Ġrenow": 3499,
      "Ġfurn": 3500,
      "osynthesis": 3501,
      "ĠNikolai": 3502,
      "ĠLeopold": 3503,
      "ĠHoratio": 3504,
      "ĠLondon": 3505,
      "Ġgeology": 3506,
      "ĠRaphael": 3507,
      "ĠHeidelberg": 3508,
      "ĠDub": 3509,
      "ĠWinston": 3510,
      "mpt": 3511,
      "him": 3512,
      "ĠWolfgang": 3513,
      "Ġtaxonomy": 3514,
      "Ġdon": 3515,
      "Ġoptics": 3516,
      "ĠGenevieve": 3517,
      "wing": 3518,
      "Ġ15": 3519,
      "Ġmeteor": 3520,
      "oration": 3521,
      "pected": 3522,
      "ĠJulius": 3523,
      "ĠTheodore": 3524,
      "Ġbiology": 3525,
      "Ġwaiting": 3526,
      "Ġtaught": 3527,
      "mans": 3528,
      "Ġtouches": 3529,
      "ĠValentina": 3530,
      "rary": 3531,
      "ench": 3532,
      "Ġproceed": 3533,
      "ĠEleanor": 3534,
      "Ġanyone": 3535,
      "ustom": 3536,
      "Ġdesert": 3537,
      "ĠSeraphina": 3538,
      "ool": 3539,
      "ĠArtemis": 3540,
      "Ġmineralogy": 3541,
      "Ġevenings": 3542,
      "ĠDesmond": 3543,
      "Ġsquare": 3544,
      "Ġastronomy": 3545,
      "ĠSylvia": 3546,
      "Ġmeteorology": 3547,
      "cessors": 3548,
      "rient": 3549,
      "Ġhydrology": 3550,
      "manship": 3551,
      "erious": 3552,
      "Ġoccasional": 3553,
      "Ġethical": 3554,
      "agnet": 3555,
      "rovnik": 3556,
      "ĠDubrovnik": 3557,
      "ĠBeatrice": 3558,
      "Ġnotable": 3559,
      "Ġrise": 3560,
      "ĠNathaniel": 3561,
      "ĠMiriam": 3562,
      "Ġcrafts": 3563,
      "ĠQu": 3564,
      "ĠRoland": 3565,
      "ifying": 3566,
      "Ġgroups": 3567,
      "ĠCornelius": 3568,
      "Ġecology": 3569,
      "ĠPercival": 3570,
      "erly": 3571,
      "Ġequally": 3572,
      "Ġstep": 3573,
      "Ġpor": 3574,
      "Ġconstant": 3575,
      "ĠPenelope": 3576,
      "Ġ20": 3577,
      "ĠIng": 3578,
      "Ġchemistry": 3579,
      "oust": 3580,
      "Ġnecess": 3581,
      "Ġgenuinely": 3582,
      "Ġcraftsmanship": 3583,
      "ĠHeinrich": 3584,
      "Ġauthorities": 3585,
      "Ġdocumentation": 3586,
      "ĠDorothea": 3587,
      "Ġpurification": 3588,
      "asure": 3589,
      "ĠAmb": 3590,
      "istent": 3591,
      "Ġsetting": 3592,
      "Ġsl": 3593,
      "ghed": 3594,
      "ĠLysander": 3595,
      "Ġthermal": 3596,
      "Ġpharmacology": 3597,
      "Ġpain": 3598,
      "ĠIngrid": 3599,
      "ĠEdmund": 3600,
      "acing": 3601,
      "Ġsmell": 3602,
      "Ġcatalyst": 3603,
      "erable": 3604,
      "Ġreference": 3605,
      "Ġplaces": 3606,
      "Ġworth": 3607,
      "ĠMagdalena": 3608,
      "ph": 3609,
      "Ġbotany": 3610,
      "amin": 3611,
      "ĠAmbrose": 3612,
      "ĠUrsula": 3613,
      "Ġcrystallography": 3614,
      "Ġpec": 3615,
      "nel": 3616,
      "ĠOctavia": 3617,
      "Ġzo": 3618,
      "Ġacoust": 3619,
      "istics": 3620,
      "Ġacoustics": 3621,
      "ĠOphelia": 3622,
      "Ġextreme": 3623,
      "Ġantiquity": 3624,
      "Ġzoology": 3625,
      "Ġnearly": 3626,
      "Ġdry": 3627,
      "Ġclimate": 3628,
      "Ġmedical": 3629,
      "ĠFrancesca": 3630,
      "lem": 3631,
      "Ġmood": 3632,
      "ĠKatharina": 3633,
      "Ġconfess": 3634,
      "odi": 3635,
      "Ġlau": 3636,
      "romagnet": 3637,
      "vious": 3638,
      "Ġshore": 3639,
      "Ġcraft": 3640,
      "Ġelectromagnet": 3641,
      "ired": 3642,
      "wise": 3643,
      "Ġlaughed": 3644,
      "Ġmyself": 3645,
      "Ġcharacteristics": 3646,
      "Ġmyst": 3647,
      "Ġcataly": 3648,
      "ĠClementine": 3649,
      "Ġmatters": 3650,
      "ĠRome": 3651,
      "Ġprominent": 3652,
      "Ġobservers": 3653,
      "iness": 3654,
      "Ġlived": 3655,
      "Ġdocument": 3656,
      "Ġelectromagnetism": 3657,
      "Ġdrawn": 3658,
      "Ġdetailed": 3659,
      "rote": 3660,
      "ĠDel": 3661,
      "Ġsafely": 3662,
      "Ġaccording": 3663,
      "Ġquarter": 3664,
      "roubles": 3665,
      "Ġplayed": 3666,
      "Ġbook": 3667,
      "Ġsubjective": 3668,
      "Ġconsum": 3669,
      "Ġisolation": 3670,
      "ĠTobias": 3671,
      "Ġscholarship": 3672,
      "Ġleft": 3673,
      "ĠDevelop": 3674,
      "Ġsand": 3675,
      "Ġredu": 3676,
      "hi": 3677,
      "Ġmagn": 3678,
      "Ġpracticed": 3679,
      "Ġlingu": 3680,
      "Ġexceed": 3681,
      "!\"": 3682,
      "Ġcrow": 3683,
      "Ġpeculi": 3684,
      "Ġinvestigations": 3685,
      "esc": 3686,
      "evit": 3687,
      "Ġtakes": 3688,
      "que": 3689,
      "ufact": 3690,
      "be": 3691,
      "Ġsources": 3692,
      "Ġhor": 3693,
      "Ġwrote": 3694,
      "lev": 3695,
      "Ġtypically": 3696,
      "dden": 3697,
      "Ġcontamin": 3698,
      "ĠTheory": 3699,
      "Ġmanufact": 3700,
      "Ġnarrow": 3701,
      "umn": 3702,
      "Ġthird": 3703,
      "Ġhalf": 3704,
      "Ġoutl": 3705,
      "Ġsupply": 3706,
      "Ġquietly": 3707,
      "ĠAl": 3708,
      "Ġmonumental": 3709,
      "Ġtwent": 3710,
      "ĠCur": 3711,
      "Ġscent": 3712,
      "Ġmove": 3713,
      "body": 3714,
      "orrow": 3715,
      "Ġgrateful": 3716,
      "Ġgradual": 3717,
      "Ġchance": 3718,
      "Ġreprodu": 3719,
      "Ġdone": 3720,
      "Ġsudden": 3721,
      "Ġpurpose": 3722,
      "Ġemerging": 3723,
      "Ġcharacteristic": 3724,
      "ĠAthens": 3725,
      "pro": 3726,
      "Ġfindings": 3727,
      "Ġbringing": 3728,
      "Ġmeans": 3729,
      "ĠBeij": 3730,
      "ĠBeijing": 3731,
      "Ġmotion": 3732,
      "Ġfoundations": 3733,
      "Ġprepar": 3734,
      "Ġconced": 3735,
      "yon": 3736,
      "ivities": 3737,
      "Ġartists": 3738,
      "gged": 3739,
      "Ġmerit": 3740,
      "Ġactivities": 3741,
      "Ġirre": 3742,
      "Ġthreat": 3743,
      "Ġextensively": 3744,
      "ases": 3745,
      "Ġpen": 3746,
      "Ġdeli": 3747,
      "Ġaccessible": 3748,
      "Ġmeasuring": 3749,
      "ĠHowever": 3750,
      "Ġiv": 3751,
      "Ġpeculiar": 3752,
      "lands": 3753,
      "Ġobvious": 3754,
      "Ġhopeful": 3755,
      "Ġunified": 3756,
      "Ġprocedures": 3757,
      "Ġtas": 3758,
      "Ġmorality": 3759,
      "Th": 3760,
      "igious": 3761,
      "Ġhummed": 3762,
      "pre": 3763,
      "Ġpropos": 3764,
      "ĠDelhi": 3765,
      "aced": 3766,
      "Ġwindow": 3767,
      "Ġphysic": 3768,
      "Ġruling": 3769,
      "Ġcorrespondence": 3770,
      "eed": 3771,
      "fer": 3772,
      "race": 3773,
      "Ġfrequently": 3774,
      "dad": 3775,
      "Ġdiscussing": 3776,
      "but": 3777,
      "ER": 3778,
      "ghdad": 3779,
      "ĠBaghdad": 3780,
      "ĠAg": 3781,
      "ĠAnna": 3782,
      "Ġcompelling": 3783,
      "men": 3784,
      "Ġcarrying": 3785,
      "Ġwaters": 3786,
      "Ġstimulating": 3787,
      "Ġhappen": 3788,
      "Ġreaction": 3789,
      "Ġsoft": 3790,
      "Ġaccu": 3791,
      "Ġlimited": 3792,
      "ban": 3793,
      "Ġrelated": 3794,
      "Ġexplan": 3795,
      "Ġinnovative": 3796,
      "Ġadventure": 3797,
      "une": 3798,
      "Ġeverything": 3799,
      "Ġadapting": 3800,
      "do": 3801,
      "Ġiss": 3802,
      "Ġivory": 3803,
      "ĠCai": 3804,
      "Ġrefra": 3805,
      "Ġfactors": 3806,
      "Ġprivate": 3807,
      "Ġfatig": 3808,
      "Ġinfrast": 3809,
      "Ġgroundwork": 3810,
      "Ġinfrastructure": 3811,
      "Ġcanyon": 3812,
      "Ġcave": 3813,
      "Ġplan": 3814,
      "Ġwonderful": 3815,
      "pecial": 3816,
      "Ġdeepened": 3817,
      "Ġcollection": 3818,
      "isf": 3819,
      "Ġpaper": 3820,
      "ĠCairo": 3821,
      "Ġlake": 3822,
      "Ġcandle": 3823,
      "Ġcustom": 3824,
      "ĠWhy": 3825,
      "Ġbreath": 3826,
      "Ġsentiment": 3827,
      "Ġdream": 3828,
      "Ġalive": 3829,
      "Ġranges": 3830,
      "iation": 3831,
      "zing": 3832,
      "Ġbeside": 3833,
      "Ġago": 3834,
      "Ġmerchants": 3835,
      "Ġreframed": 3836,
      "ims": 3837,
      "Ġindic": 3838,
      "Ġappreciation": 3839,
      "Ġmolec": 3840,
      "Ġfatigue": 3841,
      "ige": 3842,
      "Ġproport": 3843,
      "Ġsight": 3844,
      "Ġama": 3845,
      "Ġaccuracy": 3846,
      "Ġfash": 3847,
      "Ġdog": 3848,
      "ogist": 3849,
      "Ġcontent": 3850,
      "oral": 3851,
      "isely": 3852,
      "Ġstudent": 3853,
      "Ġcode": 3854,
      "Ġexistence": 3855,
      "Ġdistance": 3856,
      "atus": 3857,
      "sect": 3858,
      "unct": 3859,
      "Ġnest": 3860,
      "acks": 3861,
      "Ġfall": 3862,
      "idelity": 3863,
      "Ġresource": 3864,
      "Ġnaturally": 3865,
      "Ġdirections": 3866,
      "ygen": 3867,
      "Ġmortality": 3868,
      "Ġrelatively": 3869,
      "Ġcontest": 3870,
      "Ġgrace": 3871,
      "Ġsuccessful": 3872,
      "Ġaside": 3873,
      "Ġsurface": 3874,
      "Ġforce": 3875,
      "Ġvalue": 3876,
      "Ġfeatures": 3877,
      "Ġcombining": 3878,
      "pecially": 3879,
      "book": 3880,
      "Ġwhis": 3881,
      "istence": 3882,
      "Ġox": 3883,
      "Ġprecisely": 3884,
      "Ġdecision": 3885,
      "Ġbreak": 3886,
      "Ġlegitimacy": 3887,
      "ĠJack": 3888,
      "Ġfidelity": 3889,
      "Ġgeometric": 3890,
      "Ġfood": 3891,
      "inity": 3892,
      "Ġga": 3893,
      "mission": 3894,
      "Ġdescribe": 3895,
      "Ġapprenticeship": 3896,
      "Ġholds": 3897,
      "Ġvolc": 3898,
      "asis": 3899,
      "onial": 3900,
      "Ġinterpretation": 3901,
      "def": 3902,
      "Ġusing": 3903,
      "Ġreading": 3904,
      "Ġclock": 3905,
      "Ġske": 3906,
      "Ġhelps": 3907,
      "Ġmillions": 3908,
      "Ġreforms": 3909,
      "Ġhypothes": 3910,
      "rude": 3911,
      "Ġexpense": 3912,
      "iveness": 3913,
      "Ġpassionately": 3914,
      "Ġvolcanic": 3915,
      "lebr": 3916,
      "Ġchanged": 3917,
      "Ġdial": 3918,
      "Ġengagement": 3919,
      "Ġhear": 3920,
      "Ġarts": 3921,
      "essa": 3922,
      "Ġcer": 3923,
      "Ġdominant": 3924,
      "way": 3925,
      "Ġcelebr": 3926,
      "ilde": 3927,
      "Ġbarri": 3928,
      "Ġdestination": 3929,
      "ĠCurrent": 3930,
      "formation": 3931,
      "intessa": 3932,
      "making": 3933,
      "Ġdescription": 3934,
      "Ġneg": 3935,
      "Ġeconomic": 3936,
      "overed": 3937,
      "Ġwon": 3938,
      "Ġvoice": 3939,
      "Ġmodest": 3940,
      "ison": 3941,
      "Ġcombine": 3942,
      "Ġmeet": 3943,
      "Ġseeking": 3944,
      "Ġfinally": 3945,
      "Ġlik": 3946,
      "ommod": 3947,
      "Ġranging": 3948,
      "rane": 3949,
      "Ġsolem": 3950,
      "Ġexamining": 3951,
      "ĠPet": 3952,
      "Ġcultures": 3953,
      "Ġbroke": 3954,
      "Ġheight": 3955,
      "Ġtown": 3956,
      "Ġteacher": 3957,
      "Ġdemonstrate": 3958,
      "rawing": 3959,
      "nh": 3960,
      "Ġstates": 3961,
      "olanda": 3962,
      "nhilde": 3963,
      "Ġaccommod": 3964,
      "Ġespecially": 3965,
      "achari": 3966,
      "acharias": 3967,
      "ertrude": 3968,
      "Ġusage": 3969,
      "Ġpreservation": 3970,
      "ificent": 3971,
      "Ġgap": 3972,
      "ane": 3973,
      "Ġsigns": 3974,
      "Ġcomprehension": 3975,
      "Ġsection": 3976,
      "ĠRe": 3977,
      "iomara": 3978,
      "Ġadvoc": 3979,
      "Ġadministrative": 3980,
      "Ġtel": 3981,
      "Ġnorm": 3982,
      "ush": 3983,
      "ĠIndividual": 3984,
      "Ġpatronage": 3985,
      "Ġinvolving": 3986,
      "Ġoperating": 3987,
      "mbled": 3988,
      "Ġangles": 3989,
      "Ġbeliefs": 3990,
      "Ġwritings": 3991,
      "Ġtelesc": 3992,
      "Ġdecade": 3993,
      "Ġstake": 3994,
      "Ġuniversity": 3995,
      "Ġkindness": 3996,
      "Ġtelescope": 3997,
      "bers": 3998,
      "Ġconstrained": 3999,
      "ĠMax": 4000,
      "ĠUnderstanding": 4001,
      "roque": 4002,
      "chment": 4003,
      "Ġrecords": 4004,
      "Ġstress": 4005,
      "Ġcurrents": 4006,
      "Ġfacilitating": 4007,
      "ĠWestern": 4008,
      "Ġtechnically": 4009,
      "Ġurban": 4010,
      "Ġuncertainty": 4011,
      "Ġsolemn": 4012,
      "Ġissues": 4013,
      "oom": 4014,
      "Ġoverview": 4015,
      "Ġincluded": 4016,
      "Ġven": 4017,
      "Ġarm": 4018,
      "Ġawareness": 4019,
      "Ġthous": 4020,
      "Ġencompassing": 4021,
      "itable": 4022,
      "Ġbiodi": 4023,
      "Ġbiodiversity": 4024,
      "Ġdemonstrating": 4025,
      "Ġencounter": 4026,
      "Ġfilt": 4027,
      "Ġdisrupt": 4028,
      "icked": 4029,
      "Ġquickly": 4030,
      "Ġgrown": 4031,
      "Ġmature": 4032,
      "Ġcloud": 4033,
      "Ġparchment": 4034,
      "Ġirredu": 4035,
      "Ġresolved": 4036,
      "Ġfailure": 4037,
      "Ġbread": 4038,
      "Ġbecomes": 4039,
      "Ġeros": 4040,
      "Ġadvocate": 4041,
      "cies": 4042,
      "ĠAll": 4043,
      "Ġtalent": 4044,
      "Ġvaries": 4045,
      "ossible": 4046,
      "Ġteem": 4047,
      "issance": 4048,
      "Ġstretched": 4049,
      "ographer": 4050,
      "Ġrelev": 4051,
      "My": 4052,
      "Ġecological": 4053,
      "Ġclassification": 4054,
      "Ġcasting": 4055,
      "aried": 4056,
      "Ġincludes": 4057,
      "Ġconcludes": 4058,
      "than": 4059,
      "ĠDrawing": 4060,
      "orization": 4061,
      "ĠHis": 4062,
      "enaissance": 4063,
      "Ġmercy": 4064,
      "cip": 4065,
      "Ġscul": 4066,
      "Ġwhite": 4067,
      "ĠMore": 4068,
      "ocks": 4069,
      "Ġorganizing": 4070,
      "pare": 4071,
      "Ġskept": 4072,
      "Ġclimatic": 4073,
      "ĠCol": 4074,
      "Ġrefers": 4075,
      "Ġmysterious": 4076,
      "bal": 4077,
      "Ġinstructive": 4078,
      "Ġconventions": 4079,
      "ume": 4080,
      "reed": 4081,
      "Ġstone": 4082,
      "iciency": 4083,
      "Ġhypotheses": 4084,
      "Ġenvironments": 4085,
      "ĠBaroque": 4086,
      "Ġsculpt": 4087,
      "bil": 4088,
      "Ġzones": 4089,
      "Ġexplained": 4090,
      "Ġobjective": 4091,
      "Ġaccumulated": 4092,
      "Ġinevit": 4093,
      "Ġplant": 4094,
      "Ġbright": 4095,
      "Ġpieces": 4096,
      "Ġdam": 4097,
      "Ġpromote": 4098,
      "Ġillustrate": 4099,
      "Ġdisciplines": 4100,
      "Ġyield": 4101,
      "ĠTrad": 4102,
      "Ġleads": 4103,
      "Ġlined": 4104,
      "Ġsubstantive": 4105,
      "Ġdialogue": 4106,
      "undred": 4107,
      "ĠRenaissance": 4108,
      "Ġtempered": 4109,
      "ictor": 4110,
      "Ġwarmth": 4111,
      "Ġcollaboration": 4112,
      "Ġprocedural": 4113,
      "Ġbegins": 4114,
      "Ġvaried": 4115,
      "Ġvi": 4116,
      "Ġjoy": 4117,
      "Ġstrateg": 4118,
      "Ġproduces": 4119,
      "Ġblack": 4120,
      "ĠClass": 4121,
      "Ġfold": 4122,
      "Ġfaint": 4123,
      "function": 4124,
      "Ġpossess": 4125,
      "Ġforgiveness": 4126,
      "Ġepistem": 4127,
      "ĠIron": 4128,
      "Ġdating": 4129,
      "rud": 4130,
      "Ġsolution": 4131,
      "ients": 4132,
      "If": 4133,
      "ysfunction": 4134,
      "Ġwatched": 4135,
      "Yes": 4136,
      "Ġanswered": 4137,
      "Ġpassed": 4138,
      "ĠClassical": 4139,
      "Ġshowed": 4140,
      "Ġhabits": 4141,
      "ĠRom": 4142,
      "Ġbelieved": 4143,
      "Ġwid": 4144,
      "Ġcopper": 4145,
      "Ġdespair": 4146,
      "arge": 4147,
      "bing": 4148,
      "ernal": 4149,
      "Ġterritory": 4150,
      "Ġfinding": 4151,
      "Ġsaying": 4152,
      "Ġtraversed": 4153,
      "ĠDo": 4154,
      "Ġworn": 4155,
      "Ġanswer": 4156,
      "ium": 4157,
      "lime": 4158,
      "Ġrate": 4159,
      "ĠScholars": 4160,
      "Ġdecl": 4161,
      "Ġaction": 4162,
      "Ġconform": 4163,
      "Ġestablishment": 4164,
      "wards": 4165,
      "ima": 4166,
      "ius": 4167,
      "Ġappeared": 4168,
      "Ġdefine": 4169,
      "Ġwet": 4170,
      "Ġhundred": 4171,
      "Ġcompany": 4172,
      "Ġgeographic": 4173,
      "Ġlose": 4174,
      "ĠJames": 4175,
      "Ġgraceful": 4176,
      "Ġfair": 4177,
      "back": 4178,
      "Ġreflections": 4179,
      "Ġimperfect": 4180,
      "Ġevolve": 4181,
      "oster": 4182,
      "Ġsophistication": 4183,
      "Ġtranqu": 4184,
      "Ġefficiency": 4185,
      "elix": 4186,
      "Ġingred": 4187,
      "liver": 4188,
      "Ġqualities": 4189,
      "Ġplain": 4190,
      "Ġvariation": 4191,
      "Ġdress": 4192,
      "Ġhung": 4193,
      "Ġbrave": 4194,
      "lighten": 4195,
      "ĠHen": 4196,
      "Ġapplicable": 4197,
      "Ġingredients": 4198,
      "Ġabund": 4199,
      "Ġcoord": 4200,
      "Ġperform": 4201,
      "Ġsublime": 4202,
      "Ġfut": 4203,
      "Ġtrading": 4204,
      "ractical": 4205,
      "Ġtemporary": 4206,
      "anges": 4207,
      "Ġlinked": 4208,
      "iated": 4209,
      "Ġdign": 4210,
      "Ġsoftly": 4211,
      "Ġturn": 4212,
      "Ġradiant": 4213,
      "Ġthor": 4214,
      "idable": 4215,
      "Ġrespected": 4216,
      "agree": 4217,
      "Ġrob": 4218,
      "ĠInst": 4219,
      "Ġsituated": 4220,
      "Ġstarting": 4221,
      "Ġserene": 4222,
      "Ġscar": 4223,
      "Ġconfirmed": 4224,
      "Ġlines": 4225,
      "Ġlasting": 4226,
      "ift": 4227,
      "Ġhappy": 4228,
      "Ġdegree": 4229,
      "Ġgoing": 4230,
      "va": 4231,
      "Ġallows": 4232,
      "Ġstretching": 4233,
      "lightenment": 4234,
      "Ġgolden": 4235,
      "Ġunto": 4236,
      "Ġlayer": 4237,
      "Ġarguments": 4238,
      "lla": 4239,
      "Ġthorough": 4240,
      "Ġimpossible": 4241,
      "mat": 4242,
      "Ġotherwise": 4243,
      "Ġpopulations": 4244,
      "omp": 4245,
      "Ġsalt": 4246,
      "loe": 4247,
      "Ġrevolutionary": 4248,
      "Ġpursue": 4249,
      "Ġemerges": 4250,
      "ĠMiddle": 4251,
      "bre": 4252,
      "ĠBen": 4253,
      "Ġmagnificent": 4254,
      "Ġneigh": 4255,
      "Ġcareer": 4256,
      "ila": 4257,
      "Ġdynamics": 4258,
      "Ġcases": 4259,
      "Ġexquisite": 4260,
      "ĠAges": 4261,
      "Ġfellow": 4262,
      "rink": 4263,
      "xim": 4264,
      "Ġmac": 4265,
      "Ġsites": 4266,
      "Ġfuture": 4267,
      "ĠEnlightenment": 4268,
      "Ġsket": 4269,
      "Ġwish": 4270,
      "Ġplants": 4271,
      "Ġtranquil": 4272,
      "Ġlikely": 4273,
      "Ġvariations": 4274,
      "Ġtechnique": 4275,
      "iga": 4276,
      "ĠVictor": 4277,
      "abol": 4278,
      "Ġcapture": 4279,
      "Ġconfirm": 4280,
      "Ġinternal": 4281,
      "Ġmajestic": 4282,
      "Ġinevitably": 4283,
      "ites": 4284,
      "ieval": 4285,
      "Ġanything": 4286,
      "Ġrecur": 4287,
      "ĠIndust": 4288,
      "ront": 4289,
      "ĠIndustrial": 4290,
      "Ġabsurd": 4291,
      "Ġnut": 4292,
      "ĠPle": 4293,
      "Ġgently": 4294,
      "Ġfarm": 4295,
      "Ġexploring": 4296,
      "Ġcellular": 4297,
      "Ġbasic": 4298,
      "Ġenig": 4299,
      "Ġsum": 4300,
      "Ġacknowledging": 4301,
      "ĠExploration": 4302,
      "Ġdisagree": 4303,
      "ordial": 4304,
      "ĠVictorian": 4305,
      "Ġeye": 4306,
      "Ġassumption": 4307,
      "Ġformidable": 4308,
      "Ġquantit": 4309,
      "iculous": 4310,
      "uminous": 4311,
      "uby": 4312,
      "Ġtransmission": 4313,
      "Ġpredicted": 4314,
      "Ġaust": 4315,
      "Ġverd": 4316,
      "Ġservice": 4317,
      "Ġbenefit": 4318,
      "Ġluminous": 4319,
      "luded": 4320,
      "Ġthin": 4321,
      "ĠLoc": 4322,
      "Ġsilk": 4323,
      "Ġreality": 4324,
      "Ġarrival": 4325,
      "At": 4326,
      "Ġleaves": 4327,
      "Ġproven": 4328,
      "Let": 4329,
      "brahim": 4330,
      "ached": 4331,
      "Is": 4332,
      "Ġimposing": 4333,
      "Ġaustere": 4334,
      "ĠConsider": 4335,
      "Ġvenerable": 4336,
      "ules": 4337,
      "ĠBronze": 4338,
      "ĠOh": 4339,
      "inding": 4340,
      "bul": 4341,
      "Ġdignity": 4342,
      "atima": 4343,
      "ĠQuintessa": 4344,
      "hemeral": 4345,
      "Ġmetabol": 4346,
      "Ġephemeral": 4347,
      "hereal": 4348,
      "Ġhill": 4349,
      "ĠRomantic": 4350,
      "rew": 4351,
      "ulative": 4352,
      "Ġidentify": 4353,
      "Ġethereal": 4354,
      "Ġportions": 4355,
      "ĠIvy": 4356,
      "Ġwise": 4357,
      "Ġexample": 4358,
      "Ġcred": 4359,
      "ĠNoah": 4360,
      "set": 4361,
      "Ġshare": 4362,
      "Ġsatisf": 4363,
      "Ġclaims": 4364,
      "Ġfather": 4365,
      "ĠNora": 4366,
      "Ġsimpl": 4367,
      "asible": 4368,
      "Ġlangu": 4369,
      "He": 4370,
      "ped": 4371,
      "assan": 4372,
      "Ġspecialized": 4373,
      "Ġfeasible": 4374,
      "Ġalongside": 4375,
      "Ġimaging": 4376,
      "Ġdegrad": 4377,
      "Ġliked": 4378,
      "Ġwealth": 4379,
      "Ġexperimental": 4380,
      "Ġcultivated": 4381,
      "Ġemphasize": 4382,
      "Ġbond": 4383,
      "ahra": 4384,
      "yed": 4385,
      "Ġblow": 4386,
      "ĠYolanda": 4387,
      "ĠXiomara": 4388,
      "Ġenigmatic": 4389,
      "Ġspend": 4390,
      "Ġcountless": 4391,
      "Ġrugged": 4392,
      "ĠGertrude": 4393,
      "ĠDan": 4394,
      "Ġtransfer": 4395,
      "ots": 4396,
      "Ġsomber": 4397,
      "night": 4398,
      "ĠMay": 4399,
      "Ġthou": 4400,
      "depend": 4401,
      "Ġharmonious": 4402,
      "plendent": 4403,
      "Ġprud": 4404,
      "Ġwhispered": 4405,
      "ĠZacharias": 4406,
      "Ġillustrates": 4407,
      "ying": 4408,
      "Ġresplendent": 4409,
      "Ġcomparable": 4410,
      "Ġtext": 4411,
      "ĠNot": 4412,
      "Ġgoverned": 4413,
      "ĠCo": 4414,
      "Ġdoct": 4415,
      "Ġverdant": 4416,
      "Ġbrood": 4417,
      "usuf": 4418,
      "Ġreformers": 4419,
      "ales": 4420,
      "Ġbird": 4421,
      "ounds": 4422,
      "Ġpolic": 4423,
      "Step": 4424,
      "Ġattempted": 4425,
      "athy": 4426,
      "Ġcharity": 4427,
      "Ġmiss": 4428,
      "Ġspeaking": 4429,
      "Ġrecomm": 4430,
      "ont": 4431,
      "Ġexperiments": 4432,
      "Ġtranslated": 4433,
      "Ġgravit": 4434,
      "Ġcrystalline": 4435,
      "Ġheard": 4436,
      "Ġfu": 4437,
      "lls": 4438,
      "ĠBrunhilde": 4439,
      "Ġprimordial": 4440,
      "Ġeducational": 4441,
      "Ġsize": 4442,
      "Ġinterdepend": 4443,
      "Ġfollows": 4444,
      "rovers": 4445,
      "Ġeluded": 4446,
      "ĠOliver": 4447,
      "Ġmetal": 4448,
      "Ġdestiny": 4449,
      "idem": 4450,
      "ubb": 4451,
      "Ġturbul": 4452,
      "esign": 4453,
      "Ġsovere": 4454,
      "wen": 4455,
      "Ġepidem": 4456,
      "Ġturbulent": 4457,
      "Ġanalyzing": 4458,
      "icity": 4459,
      "Ġeter": 4460,
      "Ġcontrovers": 4461,
      "Ġbuildings": 4462,
      "der": 4463,
      "Ġvaluable": 4464,
      "Ġdegradation": 4465,
      "atch": 4466,
      "aval": 4467,
      "Ġparad": 4468,
      "Ġarea": 4469,
      "ĠFelix": 4470,
      "Ġadditional": 4471,
      "Ġinvited": 4472,
      "sc": 4473,
      "Ġconcent": 4474,
      "Ġdecided": 4475,
      "Ġpastoral": 4476,
      "Ġbrooding": 4477,
      "upp": 4478,
      "alking": 4479,
      "Ġline": 4480,
      "Ġrobust": 4481,
      "Ġserenity": 4482,
      "heres": 4483,
      "Ġincorporating": 4484,
      "Ġfeedback": 4485,
      "ĠKate": 4486,
      "ĠSara": 4487,
      "Ġdisapp": 4488,
      "Ġoccurred": 4489,
      "II": 4490,
      "uff": 4491,
      "Ġshows": 4492,
      "Ġestablishing": 4493,
      "Ġbinding": 4494,
      "ops": 4495,
      "ĠHenry": 4496,
      "ieth": 4497,
      "Ġtemple": 4498,
      "Ġgenerosity": 4499,
      "Ġdisagreements": 4500,
      "Ġcollaborators": 4501,
      "Ġmeaningful": 4502,
      "Ġcontract": 4503,
      "Ġequality": 4504,
      "Ġscales": 4505,
      "Ġexcept": 4506,
      "Ġordinary": 4507,
      "Ġgravitational": 4508,
      "Ġhistorians": 4509,
      "ĠChloe": 4510,
      "Ġfurther": 4511,
      "Ġundergone": 4512,
      "Ġself": 4513,
      "Ġgest": 4514,
      "ĠOther": 4515,
      "Ġconcede": 4516,
      "Ġtaking": 4517,
      "Ġanx": 4518,
      "Ġtemperance": 4519,
      "Ġlanguage": 4520,
      "Ġbree": 4521,
      "Ġcoral": 4522,
      "Ġsty": 4523,
      "ĠLord": 4524,
      "Ġfortitude": 4525,
      "Ġrus": 4526,
      "Ġprudence": 4527,
      "Ġliter": 4528,
      "cibility": 4529,
      "Ġcart": 4530,
      "Ġeternity": 4531,
      "Ġcontroversial": 4532,
      "Ġreproducibility": 4533,
      "ĠLeo": 4534,
      "breaking": 4535,
      "Ġinher": 4536,
      "Ġuniversal": 4537,
      "Ġtwentieth": 4538,
      "ayla": 4539,
      "ĠLiam": 4540,
      "icted": 4541,
      "Ġparadox": 4542,
      "Ġundergo": 4543,
      "Ġisolated": 4544,
      "Ġactive": 4545,
      "Ġparticip": 4546,
      "ĠInt": 4547,
      "Ġobjectivity": 4548,
      "Ġgathered": 4549,
      "ifically": 4550,
      "ĠApp": 4551,
      "Ġequin": 4552,
      "stone": 4553,
      "Ġappoint": 4554,
      "Ġpreparation": 4555,
      "Ġmethodology": 4556,
      "Ġneighb": 4557,
      "Ġcausation": 4558,
      "Ġequinox": 4559,
      "Ġcoval": 4560,
      "zyme": 4561,
      "Ġenzymatic": 4562,
      "Ġenzymes": 4563,
      "Ġspecificity": 4564,
      "ĠEnzyme": 4565,
      "Ġcovalent": 4566,
      "Ġprede": 4567,
      "Ġcities": 4568,
      "aching": 4569,
      "Ġsad": 4570,
      "cholic": 4571,
      "Ġrules": 4572,
      "ĠGrace": 4573,
      "Ġflowers": 4574,
      "Ġhonesty": 4575,
      "Ġmelancholic": 4576,
      "Ġrough": 4577,
      "Ġdoing": 4578,
      "Ġachievement": 4579,
      "Ġligh": 4580,
      "Ġgroundbreaking": 4581,
      "Ġseminal": 4582,
      "Ġobservable": 4583,
      "Ġspecifically": 4584,
      "Ġpredecessors": 4585,
      "ette": 4586,
      "Ġexpanding": 4587,
      "Ġrecorded": 4588,
      "ofia": 4589,
      "iguity": 4590,
      "Ġswe": 4591,
      "Ġinitially": 4592,
      "ĠHana": 4593,
      "Ġcut": 4594,
      "Ġloyalty": 4595,
      "Ġprincip": 4596,
      "ĠLeila": 4597,
      "nty": 4598,
      "ĠRuby": 4599,
      "Ġpolicy": 4600,
      "Ġsend": 4601,
      "Ġwaste": 4602,
      "Ġcommunic": 4603,
      "Ġauthent": 4604,
      "Ġshells": 4605,
      "imag": 4606,
      "Ġnegot": 4607,
      "Ġmeticulous": 4608,
      "ĠAria": 4609,
      "Ġtransc": 4610,
      "Ġconven": 4611,
      "ĠIbrahim": 4612,
      "ĠDy": 4613,
      "Ġneut": 4614,
      "ram": 4615,
      "Ġabsurdity": 4616,
      "ĠZahra": 4617,
      "Ġpioneering": 4618,
      "Ġregime": 4619,
      "Ġvalued": 4620,
      "chard": 4621,
      "Ġarises": 4622,
      "Ġign": 4623,
      "HA": 4624,
      "ĠMia": 4625,
      "hedral": 4626,
      "ignty": 4627,
      "Ġmanif": 4628,
      "Ġduality": 4629,
      "ĠRose": 4630,
      "Ġcomposer": 4631,
      "Ġfrost": 4632,
      "Ġgovernance": 4633,
      "Ġax": 4634,
      "Ġaccept": 4635,
      "Ġquantum": 4636,
      "Ġambiguity": 4637,
      "lo": 4638,
      "ĠObs": 4639,
      "Ġsubjectivity": 4640,
      "tt": 4641,
      "ĠElla": 4642,
      "Ġsovereignty": 4643,
      "Ġceram": 4644,
      "ructuring": 4645,
      "ĠLily": 4646,
      "Ġrestructuring": 4647,
      "imens": 4648,
      "Ġration": 4649,
      "Ġorchard": 4650,
      "ĠFatima": 4651,
      "look": 4652,
      "Ġeasily": 4653,
      "Ġcompanion": 4654,
      "Ġcathedral": 4655,
      "ĠHassan": 4656,
      "Ġauthenticity": 4657,
      "Ġtranslators": 4658,
      "Ġfru": 4659,
      "ĠZoe": 4660,
      "like": 4661,
      "Ġhard": 4662,
      "Ġtun": 4663,
      "Ġsteady": 4664,
      "Ġrationality": 4665,
      "Ġdense": 4666,
      "Ġmil": 4667,
      "Ġcountries": 4668,
      "Ġgoods": 4669,
      "Ġvision": 4670,
      "auc": 4671,
      "Ġsolst": 4672,
      "Ġarid": 4673,
      "Ġhid": 4674,
      "Ġsolstice": 4675,
      "Ġbusy": 4676,
      "Ġprincipal": 4677,
      "thouse": 4678,
      "ĠAli": 4679,
      "Ġdepart": 4680,
      "ĠLocal": 4681,
      "ĠYusuf": 4682,
      "Ġrevealed": 4683,
      "Ġthri": 4684,
      "Ġlighthouse": 4685,
      "nast": 4686,
      "Ġmanifest": 4687,
      "ĠAmir": 4688,
      "estone": 4689,
      "Ġatomic": 4690,
      "Ġvariants": 4691,
      "Ġname": 4692,
      "Ġisot": 4693,
      "Ġhonored": 4694,
      "Ġinhab": 4695,
      "iling": 4696,
      "eriously": 4697,
      "Ġtranscendence": 4698,
      "ĠAmira": 4699,
      "urities": 4700,
      "Ġatmospheres": 4701,
      "Why": 4702,
      "Ġresist": 4703,
      "Ġtraining": 4704,
      "Ġsustainable": 4705,
      "Ġlimestone": 4706,
      "Ġround": 4707,
      "Ġprogressively": 4708,
      "Ġnuclei": 4709,
      "ĠStellar": 4710,
      "Ġnucleosynthesis": 4711,
      "Ġneutron": 4712,
      "Ġsuitable": 4713,
      "Ġyourself": 4714,
      "hap": 4715,
      "Ġunimag": 4716,
      "Ġnavigation": 4717,
      "ĠEthan": 4718,
      "Ġbeach": 4719,
      "tyard": 4720,
      "Ġempathy": 4721,
      "Ġparameters": 4722,
      "Ġcourtyard": 4723,
      "noon": 4724,
      "Ġwalked": 4725,
      "Ġwidely": 4726,
      "Ġtop": 4727,
      "ĠOwen": 4728,
      "Ġunimaginable": 4729,
      "Ġbuilders": 4730,
      "venues": 4731,
      "Ġimpurities": 4732,
      "Ġinspired": 4733,
      "Ġgestures": 4734,
      "Ġstanding": 4735,
      "Ġtalk": 4736,
      "Ġscaling": 4737,
      "ĠTake": 4738,
      "rior": 4739,
      "Ġinformation": 4740,
      "Ġformer": 4741,
      "Ġworkshops": 4742,
      "Ġvehic": 4743,
      "Ġrestr": 4744,
      "onic": 4745,
      "Ġvolume": 4746,
      "Ġtransmit": 4747,
      "Ġidentical": 4748,
      "Ġpul": 4749,
      "ĠLet": 4750,
      "Ġopportunities": 4751,
      "Ġoasis": 4752,
      "Ġsed": 4753,
      "Ġrainy": 4754,
      "Ġglacial": 4755,
      "Ġvers": 4756,
      "Ġpark": 4757,
      "....": 4758,
      "Ġthreatened": 4759,
      "ĠFinn": 4760,
      "Ġreshap": 4761,
      "ĠSp": 4762,
      "ĠKai": 4763,
      "Ġban": 4764,
      "Ġtraveler": 4765,
      "Ġtruths": 4766,
      "ĠLucy": 4767,
      "rope": 4768,
      "Ġnone": 4769,
      "Ġproud": 4770,
      "Ġsupporters": 4771,
      "Ġliterature": 4772,
      "rown": 4773,
      "Ġcertainty": 4774,
      "Ġatmosphere": 4775,
      "Ġfig": 4776,
      "erate": 4777,
      "Ġseriously": 4778,
      "Ġbreaks": 4779,
      "dv": 4780,
      "Ġdeath": 4781,
      "Ġinformed": 4782,
      "Ġeld": 4783,
      "Ġrulers": 4784,
      "Ġgiven": 4785,
      "ĠAva": 4786,
      "Ġcivilization": 4787,
      "Ġbloom": 4788,
      "Ġopponents": 4789,
      "Ġcreative": 4790,
      "Ġcry": 4791,
      "Ġglob": 4792,
      "Ġcontraction": 4793,
      "Ġoutcome": 4794,
      "Ġpossibilities": 4795,
      "Ġafternoon": 4796,
      "ĠClara": 4797,
      "Ġgathering": 4798,
      "rat": 4799,
      "ĠMugh": 4800,
      "ĠMughal": 4801,
      "Ġtensions": 4802,
      "ĠLayla": 4803,
      "Ġshouted": 4804,
      "Ġincl": 4805,
      "Ġspecimens": 4806,
      "ĠMaya": 4807,
      "ttoman": 4808,
      "Ġsecure": 4809,
      "Ġsandstone": 4810,
      "Ġtower": 4811,
      "ĠEmma": 4812,
      "ilded": 4813,
      "...": 4814,
      "Ġwatching": 4815,
      "Ġmis": 4816,
      "ĠOttoman": 4817,
      "Ġlatter": 4818,
      "Ġcommunication": 4819,
      "Ġcompromise": 4820,
      "Ġsummit": 4821,
      "Ġfacts": 4822,
      "Ġarrange": 4823,
      "ĠScientific": 4824,
      "Ġinhabit": 4825,
      "rable": 4826,
      "Ġleaders": 4827,
      "ĠLuke": 4828,
      "Ġpointing": 4829,
      "Ġedited": 4830,
      "Ġpoor": 4831,
      "Ġflows": 4832,
      "Ġconvenience": 4833,
      "Ġfocuses": 4834,
      "ĠColonial": 4835,
      "Ġlessons": 4836,
      "Ġoce": 4837,
      "Ġtea": 4838,
      "Ġemphasizing": 4839,
      "Ġsympt": 4840,
      "ĠSofia": 4841,
      "Ġrestricted": 4842,
      "Ġcontrary": 4843,
      "hood": 4844,
      "Ġrank": 4845,
      "Ġdawn": 4846,
      "Ġanxious": 4847,
      "Ġeasier": 4848,
      "ĠGilded": 4849,
      "Ġreasons": 4850,
      "Ġwool": 4851,
      "ĠYet": 4852,
      "arch": 4853,
      "hib": 4854,
      "Ġwood": 4855,
      "opted": 4856,
      "Ġunex": 4857,
      "Ġrepresenting": 4858,
      "duc": 4859,
      "Ġsymptoms": 4860,
      "urg": 4861,
      "imately": 4862,
      "ĠPract": 4863,
      "fort": 4864,
      "ĠPlease": 4865,
      "Ġsuns": 4866,
      "Ġdivid": 4867,
      "Ġenable": 4868,
      "Ġdevelops": 4869,
      "Ġfacilities": 4870,
      "quiring": 4871,
      "Ġdomestic": 4872,
      "ĠTheo": 4873,
      "iji": 4874,
      "ĠMeiji": 4875,
      "lict": 4876,
      "rin": 4877,
      "Ġphilosopher": 4878,
      "Ġbarrier": 4879,
      "Ġchecks": 4880,
      "ĠEu": 4881,
      "Ġtraveling": 4882,
      "Ġinco": 4883,
      "Ġpool": 4884,
      "Ġadvantages": 4885,
      "nasty": 4886,
      "icing": 4887,
      "Ġgone": 4888,
      "Ġlaboratory": 4889,
      "structed": 4890,
      "Ġmusical": 4891,
      "ĠReformation": 4892,
      "arth": 4893,
      "Ġgiving": 4894,
      "Ġcurious": 4895,
      "Ġsuggesting": 4896,
      "Ġformation": 4897,
      "ef": 4898,
      "Ġcurric": 4899,
      "Ġsmelled": 4900,
      "Ġhorse": 4901,
      "Ġcontaminants": 4902,
      "Ġcurricula": 4903,
      "ceived": 4904,
      "ides": 4905,
      "aven": 4906,
      "ĠVisit": 4907,
      "Ġimmediate": 4908,
      "Ġcompromised": 4909,
      "Ġmerc": 4910,
      "Ġpromise": 4911,
      "Ġmelt": 4912,
      "ĠTang": 4913,
      "ĠDynasty": 4914,
      "Ġloads": 4915,
      "ĠEurope": 4916,
      "Ġvitality": 4917,
      "Ġscrib": 4918,
      "Ġminimize": 4919,
      "oundations": 4920,
      "Ġcatalog": 4921,
      "Ġtheorems": 4922,
      "ĠOverview": 4923,
      "Ġpopulation": 4924,
      "Ġadaptation": 4925,
      "tenance": 4926,
      "Ġgoverning": 4927,
      "Ġflora": 4928,
      "ĠSh": 4929,
      "Ġmaintenance": 4930,
      "Ã¡": 4931,
      "Ġrequiring": 4932,
      "break": 4933,
      "Ġprevailing": 4934,
      "Ġastronom": 4935,
      "Ġbound": 4936,
      "Ġcarav": 4937,
      "Ġleadership": 4938,
      "Ġreached": 4939,
      "Ã³": 4940,
      "Ġtiss": 4941,
      "idian": 4942,
      "itage": 4943,
      "Ġheritage": 4944,
      "Ġadministration": 4945,
      "Ġdisrupted": 4946,
      "TER": 4947,
      "Ġmetall": 4948,
      "Ġerosion": 4949,
      "itch": 4950,
      "Ġchron": 4951,
      "Ġkil": 4952,
      "Ġdifficulty": 4953,
      "Ġdistinguishing": 4954,
      "Ġstability": 4955,
      "Ġencompasses": 4956,
      "Ġinstrumental": 4957,
      "Ġmarked": 4958,
      "Ġultimately": 4959,
      "Ġstern": 4960,
      "Ġrain": 4961,
      "Ġappointment": 4962,
      "Ġkilomet": 4963,
      "tebr": 4964,
      "Ġintervention": 4965,
      "Ġfruit": 4966,
      "Ġunexpected": 4967,
      "Ġkilometers": 4968,
      "Ġinhabitants": 4969,
      "selves": 4970,
      "Ġtect": 4971,
      "Ġobsidian": 4972,
      "istorical": 4973,
      "Ġtectonic": 4974,
      "Ġinver": 4975,
      "usk": 4976,
      "Ġskepticism": 4977,
      "ĠEarth": 4978,
      "Ġscope": 4979,
      "Ġstyles": 4980,
      "Ġorganized": 4981,
      "Ġthus": 4982,
      "Ġspices": 4983,
      "Ġdeveloping": 4984,
      "ĠQuestion": 4985,
      "Ġidentification": 4986,
      "xic": 4987,
      "inner": 4988,
      "Ġhearing": 4989,
      "Ġherbal": 4990,
      "Ġecosystems": 4991,
      "Ġrefinement": 4992,
      "Ġchronic": 4993,
      "iden": 4994,
      "ĠPrior": 4995,
      "Ġdisputes": 4996,
      "Ġglobal": 4997,
      "Ġcapability": 4998,
      "inical": 4999,
      "Ġvess": 5000,
      "Ġdol": 5001,
      "Ġfamily": 5002,
      "Ġmicroscopic": 5003,
      "Ġbotan": 5004,
      "ĠĠĠĠĠĠĠĠ": 5005,
      "Ġagreed": 5006,
      "Ġsurv": 5007,
      "Ġconstraints": 5008,
      "Ġgenerating": 5009,
      "Ġcomputer": 5010,
      "Ġrelative": 5011,
      "Ġsurveying": 5012,
      "ĠDevelopment": 5013,
      "etr": 5014,
      "Ġdocumented": 5015,
      "ese": 5016,
      "Ġsold": 5017,
      "tebrates": 5018,
      "Ġinvertebrates": 5019,
      "Ġteams": 5020,
      "Ġexport": 5021,
      "gency": 5022,
      "Ġneighbors": 5023,
      "Ġmanufacturing": 5024,
      "Ġurgency": 5025,
      "Ġmetallurg": 5026,
      "Ã©": 5027,
      "burg": 5028,
      "Ġstormy": 5029,
      "Ġdominated": 5030,
      "Ġchest": 5031,
      "ead": 5032,
      "acent": 5033,
      "Ġreminds": 5034,
      "ables": 5035,
      "Ġtimely": 5036,
      "Ġshifts": 5037,
      "Ġrapidly": 5038,
      "Ġtolerances": 5039,
      "Ġalc": 5040,
      "Ġflo": 5041,
      "Ġdivided": 5042,
      "iffere": 5043,
      "Ġeventual": 5044,
      "Ġdysfunction": 5045,
      "tained": 5046,
      "Ġrelevance": 5047,
      "izes": 5048,
      "Ġcategories": 5049,
      "Ġ[": 5050,
      "lit": 5051,
      "uros": 5052,
      "lications": 5053,
      "Ġneuros": 5054,
      "Ġneuroscience": 5055,
      "Ġcru": 5056,
      "Ġow": 5057,
      "Ġsunset": 5058,
      "Ġingen": 5059,
      "Ġmeltwater": 5060,
      "ĠJa": 5061,
      "Ġdesire": 5062,
      "ĠApplications": 5063,
      "Ġconflict": 5064,
      "Ġspending": 5065,
      "Ġprogram": 5066,
      "Ġscru": 5067,
      "Ġtheolog": 5068,
      "ests": 5069,
      "izable": 5070,
      "Ġteaches": 5071,
      "Ġcreatures": 5072,
      "Ġpal": 5073,
      "Ġgenet": 5074,
      "Ġalchem": 5075,
      "Ġaffected": 5076,
      "Ġadjacent": 5077,
      "Ġgeometry": 5078,
      "imp": 5079,
      "Ġadjud": 5080,
      "Ġdaybreak": 5081,
      "Ġoperations": 5082,
      "vest": 5083,
      "Ġcheerful": 5084,
      "Ġexhib": 5085,
      "Ġmidnight": 5086,
      "Ġcustomary": 5087,
      "Ġrecognize": 5088,
      "aman": 5089,
      "ifferent": 5090,
      "Ġstruck": 5091,
      "Ġbure": 5092,
      "Ġcreates": 5093,
      "Ġjoint": 5094,
      "rection": 5095,
      "Ġcool": 5096,
      "Ġmap": 5097,
      "pres": 5098,
      "ada": 5099,
      "Ġsubst": 5100,
      "Ġexactly": 5101,
      "rise": 5102,
      "lection": 5103,
      "Ġeras": 5104,
      "Ġrice": 5105,
      "Ġlod": 5106,
      "Ġchair": 5107,
      "Ġtowards": 5108,
      "Ġdinner": 5109,
      "Ġimmediately": 5110,
      "Ġrelie": 5111,
      "looking": 5112,
      "Ġdiplomatic": 5113,
      "Ġserved": 5114,
      "Ġdefin": 5115,
      "Ġsoul": 5116,
      "Ġminutes": 5117,
      "Ġbureauc": 5118,
      "tering": 5119,
      "ressed": 5120,
      "Ġapothe": 5121,
      "Ġcho": 5122,
      "Ġdusk": 5123,
      "Ġrabb": 5124,
      "cary": 5125,
      "Ġfacilitated": 5126,
      "Am": 5127,
      "Ġol": 5128,
      "Ġsilver": 5129,
      "Ġapothecary": 5130,
      "Then": 5131,
      "Ġemot": 5132,
      "Ġsort": 5133,
      "Ġpersonnel": 5134,
      "Ġwel": 5135,
      "ming": 5136,
      "Ġoutdo": 5137,
      "Ġfit": 5138,
      "Ġsoup": 5139,
      "Ġmarkers": 5140,
      "Ġscarlet": 5141,
      "Ġcomfort": 5142,
      "Ġdescribing": 5143,
      "Ġphysician": 5144,
      "Ġindig": 5145,
      "Ġvent": 5146,
      "lest": 5147,
      "Ġroof": 5148,
      "rav": 5149,
      "Ġacademies": 5150,
      "Ġpict": 5151,
      "Ġlif": 5152,
      "Ġexcess": 5153,
      "Ġuniverse": 5154,
      "Ġfriendly": 5155,
      "Ġsunrise": 5156,
      "Ġfalling": 5157,
      "asp": 5158,
      "Ġclearly": 5159,
      "ught": 5160,
      "nov": 5161,
      "Ġcoordin": 5162,
      "rop": 5163,
      "Ġfear": 5164,
      "gor": 5165,
      "Ġhoney": 5166,
      "Ġolives": 5167,
      "isl": 5168,
      "Ġmach": 5169,
      "Ġgrap": 5170,
      "apter": 5171,
      "Ġminute": 5172,
      "Ġinstance": 5173,
      "Ġsurviving": 5174,
      "lessly": 5175,
      "Ġfrog": 5176,
      "Ġgenerous": 5177,
      "iture": 5178,
      "ean": 5179,
      "Ġsettlement": 5180,
      "Ġeat": 5181,
      "Ġgreet": 5182,
      "Ġsounds": 5183,
      "imson": 5184,
      "Ġwolf": 5185,
      "Ġcompanions": 5186,
      "Ġcreation": 5187,
      "Ġharvest": 5188,
      "ĠWhere": 5189,
      "ĠThose": 5190,
      "Ġstew": 5191,
      "Ġshade": 5192,
      "Ġingenuity": 5193,
      "Ġorient": 5194,
      "Ġcrimson": 5195,
      "ourse": 5196,
      "Ġknowing": 5197,
      "orter": 5198,
      "Ġenter": 5199,
      "ground": 5200,
      "Ġscrub": 5201,
      "Ġled": 5202,
      "Ġindigo": 5203,
      "Ġdestro": 5204,
      "ĠQ": 5205,
      "Ġscrubland": 5206,
      "Ġcheese": 5207,
      "Ġexcited": 5208,
      "Ġclos": 5209,
      "Ġlent": 5210,
      "Ġkn": 5211,
      "ĠResistance": 5212,
      "Ġorientation": 5213,
      "Ġopposite": 5214,
      "Ġhosp": 5215,
      "Ġthousand": 5216,
      "Ġspan": 5217,
      "Ġinvestigators": 5218,
      "Ġregulation": 5219,
      "Ġambition": 5220,
      "Ġachieve": 5221,
      "ĠHaving": 5222,
      "oot": 5223,
      "riage": 5224,
      "Ġemotional": 5225,
      "scale": 5226,
      "Ġcombined": 5227,
      "Ġtry": 5228,
      "Ġeast": 5229,
      "Ġplanting": 5230,
      "Ġyounger": 5231,
      "Ġthy": 5232,
      "ta": 5233,
      "ervative": 5234,
      "Ġdisappeared": 5235,
      "Ch": 5236,
      "Ġoccurring": 5237,
      "Ġinclination": 5238,
      "ĠCart": 5239,
      "On": 5240,
      "Ġviolet": 5241,
      "Not": 5242,
      "Ġlogist": 5243,
      "Ġrare": 5244,
      "ĠBefore": 5245,
      "Ġfrequent": 5246,
      "Ġextraction": 5247,
      "Ġtow": 5248,
      "Ġasks": 5249,
      "Ġlogistical": 5250,
      "ĠFe": 5251,
      "Ġeducation": 5252,
      "Ġwheel": 5253,
      "mer": 5254,
      "Ġmountains": 5255,
      "Ġshorter": 5256,
      "uz": 5257,
      "Ġrefinements": 5258,
      "Ġpiece": 5259,
      "Ġexpected": 5260,
      "Ġprot": 5261,
      "Ġlimits": 5262,
      "_,": 5263,
      "Ġcontem": 5264,
      "ĠAng": 5265,
      "Ġfaithful": 5266,
      "Ġsolar": 5267,
      "Ġadmit": 5268,
      "Ġmilk": 5269,
      "Ġlively": 5270,
      "Ġalp": 5271,
      "rict": 5272,
      "Ġlam": 5273,
      "Ġpassing": 5274,
      "Ġdark": 5275,
      "HE": 5276,
      "ready": 5277,
      "HAP": 5278,
      "mic": 5279,
      "tains": 5280,
      "ĠOnce": 5281,
      "Ġinterrupt": 5282,
      "Ġweigh": 5283,
      "HAPTER": 5284,
      "Ġthick": 5285,
      "Ġsolitary": 5286,
      "unted": 5287,
      "coming": 5288,
      "Ġtheor": 5289,
      "Ġbed": 5290,
      "Ġcoex": 5291,
      "hank": 5292,
      "Ġdisplay": 5293,
      "mon": 5294,
      "Ġshown": 5295,
      "Ġthoughts": 5296,
      "Ġguests": 5297,
      "'ll": 5298,
      "sp": 5299,
      "Ġwr": 5300,
      "Ġmoney": 5301,
      "Ġfurniture": 5302,
      "Ġlean": 5303,
      "Ġfasc": 5304,
      "Ġdeliber": 5305,
      "Ġcourts": 5306,
      "Ġlives": 5307,
      "Ġviability": 5308,
      "Ġmir": 5309,
      "Ġlentils": 5310,
      "Ġdistrict": 5311,
      "ĠPe": 5312,
      "Ġpainting": 5313,
      "ester": 5314,
      "Ġgreetings": 5315,
      "Ġterritories": 5316,
      "Ġalpine": 5317,
      "Ġtherefore": 5318,
      "Ġstop": 5319,
      "Ġhumble": 5320,
      "eut": 5321,
      "Ġwhale": 5322,
      "Ġoccasionally": 5323,
      "Ġprecip": 5324,
      "Ġamazed": 5325,
      "Ġvisited": 5326,
      "Ġelites": 5327,
      "Ġcrossing": 5328,
      "Ġempt": 5329,
      "Ġmolecular": 5330,
      "Ġpale": 5331,
      "Ġpige": 5332,
      "Ġtherapeut": 5333,
      "Ġtherapeutic": 5334,
      "Ġbooks": 5335,
      "Ġmerchant": 5336,
      "Ġdw": 5337,
      "Ġsynthes": 5338,
      "Ġexcellence": 5339,
      "Ġsynthesized": 5340,
      "Thank": 5341,
      "Ġpotential": 5342,
      "ilation": 5343,
      "ĠRel": 5344,
      "with": 5345,
      "erson": 5346,
      "Ġunpre": 5347,
      "present": 5348,
      "Ġhaw": 5349,
      "Ġmeasured": 5350,
      "ĠOut": 5351,
      "ocratic": 5352,
      "Ġstrategic": 5353,
      "Well": 5354,
      "Ġdates": 5355,
      "Ġaltered": 5356,
      "Ġcorner": 5357,
      "Ġassumptions": 5358,
      "aw": 5359,
      "Ġreport": 5360,
      "nut": 5361,
      "Ġreli": 5362,
      "Ġourselves": 5363,
      "Ġrefus": 5364,
      "Ġcentralized": 5365,
      "Ġcommission": 5366,
      "ava": 5367,
      "Ġgreen": 5368,
      "hol": 5369,
      "Ġloaded": 5370,
      "enty": 5371,
      "Ġpurely": 5372,
      "Ġrelieved": 5373,
      "ĠBerg": 5374,
      "Ġdamage": 5375,
      "inced": 5376,
      "Ġgul": 5377,
      "avor": 5378,
      "Ġdispos": 5379,
      "cedented": 5380,
      "gers": 5381,
      "Ġunprecedented": 5382,
      "hend": 5383,
      "Ġvessels": 5384,
      "ĠMark": 5385,
      "Ġamount": 5386,
      "Ġbackground": 5387,
      "Ġfox": 5388,
      "Ġarist": 5389,
      "Ġprecipit": 5390,
      "Ġblue": 5391,
      "Ġfast": 5392,
      "Ġrights": 5393,
      "Ġcobb": 5394,
      "Ġstream": 5395,
      "Ġgrapes": 5396,
      "Ġpigeons": 5397,
      "Ġmedieval": 5398,
      "Ġprojects": 5399,
      "aeological": 5400,
      "Ġentered": 5401,
      "Ġblowing": 5402,
      "Ġdoctr": 5403,
      "Ġchased": 5404,
      "Ġwatch": 5405,
      "Ġshouts": 5406,
      "Ġgenerally": 5407,
      "oted": 5408,
      "ibility": 5409,
      "erald": 5410,
      "Ġerror": 5411,
      "Ġconstructed": 5412,
      "ubborn": 5413,
      "ĠAgain": 5414,
      "Ġelderly": 5415,
      "Ġmot": 5416,
      "Ġstubborn": 5417,
      "ĠGran": 5418,
      "Ġbeautifully": 5419,
      "Ġnoon": 5420,
      "ĠPetra": 5421,
      "ĠTol": 5422,
      "Ġimposed": 5423,
      "ĠRiga": 5424,
      "tling": 5425,
      "icial": 5426,
      "Ġemerald": 5427,
      "anz": 5428,
      "Ġrenown": 5429,
      "Ġaston": 5430,
      "Ġapples": 5431,
      "Ġstorms": 5432,
      "Ġmerciful": 5433,
      "Ġbott": 5434,
      "Ġreliable": 5435,
      "Ġ6": 5436,
      "kes": 5437,
      "kor": 5438,
      "Ġminimal": 5439,
      "Ġhospitality": 5440,
      "ĠCord": 5441,
      "ĠRaven": 5442,
      "ĠAngkor": 5443,
      "ĠYoung": 5444,
      "letta": 5445,
      "ĠValletta": 5446,
      "Ġefficient": 5447,
      "Ġwelcoming": 5448,
      "fly": 5449,
      "Ġamber": 5450,
      "Ġorganize": 5451,
      "Ġgod": 5452,
      "Ġscribe": 5453,
      "Ġchestnut": 5454,
      "Ġpolished": 5455,
      "nius": 5456,
      "ĠBrat": 5457,
      "matically": 5458,
      "islava": 5459,
      "Ġmirror": 5460,
      "ĠBratislava": 5461,
      "Ġtire": 5462,
      "ĠWalking": 5463,
      "Ġdetermination": 5464,
      "ĠTall": 5465,
      "ecause": 5466,
      "Ġfiltration": 5467,
      "Ġcurtains": 5468,
      "bout": 5469,
      "ubl": 5470,
      "Ġengaging": 5471,
      "Ġought": 5472,
      "agena": 5473,
      "ĠCartagena": 5474,
      "ĠRavenna": 5475,
      "ĠOhrid": 5476,
      "edo": 5477,
      "ĠTallinn": 5478,
      "oba": 5479,
      "Ġlinguist": 5480,
      "ĠCordoba": 5481,
      "ĠVil": 5482,
      "tops": 5483,
      "Ġultrav": 5484,
      "Ġultraviolet": 5485,
      "iers": 5486,
      "Ġcarbon": 5487,
      "ĠGranada": 5488,
      "Ġhigher": 5489,
      "ĠVilnius": 5490,
      "Ġforged": 5491,
      "Ġderi": 5492,
      "Ġcouples": 5493,
      "Ġwares": 5494,
      "Ġsubsequently": 5495,
      "Ġlibrarian": 5496,
      "bang": 5497,
      "isi": 5498,
      "adequ": 5499,
      "ĠHavana": 5500,
      "Ġempty": 5501,
      "Ġalready": 5502,
      "Ġhaunted": 5503,
      "Ġraise": 5504,
      "Ġweighing": 5505,
      "ĠOutside": 5506,
      "Ġnavigator": 5507,
      "Ġselection": 5508,
      "Ġadvantage": 5509,
      "uven": 5510,
      "ĠSi": 5511,
      "Ġlodging": 5512,
      "Ġvegetables": 5513,
      "Ġexcellent": 5514,
      "Ġinadequ": 5515,
      "ĠPrabang": 5516,
      "ĠLuang": 5517,
      "ĠSiena": 5518,
      "Ġris": 5519,
      "ĠMarket": 5520,
      "ells": 5521,
      "Ġpulled": 5522,
      "Ġrun": 5523,
      "known": 5524,
      "ĠRey": 5525,
      "ek": 5526,
      "Ġtheological": 5527,
      "alous": 5528,
      "Ġastronomer": 5529,
      "ĠTbil": 5530,
      "ĠTbilisi": 5531,
      "Ġengaged": 5532,
      "Ġevents": 5533,
      "Ġwarmly": 5534,
      "ny": 5535,
      "endors": 5536,
      "Ġoverall": 5537,
      "Ġoverlooking": 5538,
      "Ġusefulness": 5539,
      "Ġdispl": 5540,
      "ĠGhent": 5541,
      "ĠBergen": 5542,
      "Ġfashions": 5543,
      "Ġstubbornly": 5544,
      "Ġafford": 5545,
      "jana": 5546,
      "jubl": 5547,
      "Ġship": 5548,
      "ĠLjubl": 5549,
      "Ġthinks": 5550,
      "Ġcaptains": 5551,
      "ĠLjubljana": 5552,
      "Ġconvinced": 5553,
      "Ġexamine": 5554,
      "Ġsitting": 5555,
      "lestones": 5556,
      "Ġpicture": 5557,
      "Ġcold": 5558,
      "ĠReligious": 5559,
      "ĠToledo": 5560,
      "ridge": 5561,
      "Ġperfectly": 5562,
      "Ġcobblestones": 5563,
      "Ġactions": 5564,
      "Ġhabitat": 5565,
      "Ġaccommodating": 5566,
      "Ġextent": 5567,
      "Ġbotanist": 5568,
      "ĠFez": 5569,
      "Ġweathered": 5570,
      "avik": 5571,
      "Ġconstituted": 5572,
      "Ġvendors": 5573,
      "Ġrooftops": 5574,
      "Ġtirelessly": 5575,
      "javik": 5576,
      "kjavik": 5577,
      "Ġpreced": 5578,
      "Ġeastern": 5579,
      "ĠReykjavik": 5580,
      "ank": 5581,
      "Ġactual": 5582,
      "Ġcouns": 5583,
      "Ġseparate": 5584,
      "ipur": 5585,
      "ĠJaipur": 5586,
      "ĠStock": 5587,
      "Ġnaturalist": 5588,
      "Ġunlo": 5589,
      "Ġgatherings": 5590,
      "Ġoutlived": 5591,
      "Ġpow": 5592,
      "Ġcalls": 5593,
      "erment": 5594,
      "Ġpartly": 5595,
      "Ġabsor": 5596,
      "holm": 5597,
      "ĠStockholm": 5598,
      "ellow": 5599,
      "Ġdirection": 5600,
      "ĠLeuven": 5601,
      "front": 5602,
      "Ġunset": 5603,
      "Ġhappened": 5604,
      "Ġcried": 5605,
      "oved": 5606,
      "Ġobtained": 5607,
      "Ġacqui": 5608,
      "Ġmetallurgist": 5609,
      "Ġdramatically": 5610,
      "Ġbrother": 5611,
      "olut": 5612,
      "Ġlimitation": 5613,
      "),": 5614,
      "sal": 5615,
      "uous": 5616,
      "Ġdock": 5617,
      "Ġlistening": 5618,
      "ĠLhas": 5619,
      "ĠLhasa": 5620,
      "ĠSalaman": 5621,
      "Ġsculptor": 5622,
      "ĠSalamanca": 5623,
      "No": 5624,
      "Ġchronicler": 5625,
      "Ġunf": 5626,
      "Ġobligation": 5627,
      "Ġwheeling": 5628,
      "ibar": 5629,
      "Ġwindows": 5630,
      "ĠZanz": 5631,
      "ĠZanzibar": 5632,
      "workers": 5633,
      "bench": 5634,
      "ĠLeiden": 5635,
      "Ġoxygen": 5636,
      "Ġdead": 5637,
      "hern": 5638,
      "Ġreplacing": 5639,
      "Ġfailures": 5640,
      "Ġglow": 5641,
      "Ġinterplay": 5642,
      "Ġseasons": 5643,
      "Ġmathematician": 5644,
      "Ġdue": 5645,
      "urich": 5646,
      "ĠZurich": 5647,
      "imbra": 5648,
      "ĠCoimbra": 5649,
      "usted": 5650,
      "quipped": 5651,
      "zburg": 5652,
      "Ġexacting": 5653,
      "Ġalchemist": 5654,
      "Ġunloaded": 5655,
      "isher": 5656,
      "ĠGeneva": 5657,
      "Ġdoctrine": 5658,
      "ologna": 5659,
      "chel": 5660,
      "Ġapply": 5661,
      "Ġapprenticed": 5662,
      "Ġshelves": 5663,
      "ĠSalzburg": 5664,
      "Ġseas": 5665,
      "Ġends": 5666,
      "ĠBologna": 5667,
      "Ġtechnological": 5668,
      "Ġcartographer": 5669,
      "itime": 5670,
      "acked": 5671,
      "Ġheavens": 5672,
      "Ġfreshwater": 5673,
      "Ġguild": 5674,
      "Ġmaritime": 5675,
      "Ġderived": 5676,
      "Ġworkbench": 5677,
      "Ġwaterfront": 5678,
      "Ġenormous": 5679,
      "Ġgulls": 5680,
      "Ġdockworkers": 5681,
      "Ġstran": 5682,
      "Ġcomprehend": 5683,
      "Ġcircumstance": 5684,
      "Ġfour": 5685,
      "Ġmother": 5686,
      "ĠPerhaps": 5687,
      "Ġdiscovering": 5688,
      "vent": 5689,
      "ĠCHAPTER": 5690,
      "Ġsparrow": 5691,
      "Ġstead": 5692,
      "Ġunsettling": 5693,
      "otor": 5694,
      "Ġalgor": 5695,
      "ĠKotor": 5696,
      "Ġdolph": 5697,
      "Ġalgorith": 5698,
      "Ġgeographer": 5699,
      "Ġrenowned": 5700,
      "Ġtheologian": 5701,
      "equipped": 5702,
      "Ġdiplomat": 5703,
      "jected": 5704,
      "Ġindifferent": 5705,
      "Ġnighting": 5706,
      "ĠTok": 5707,
      "ellig": 5708,
      "term": 5709,
      "Ġtwice": 5710,
      "Ġoffer": 5711,
      "Ġcam": 5712,
      "len": 5713,
      "isible": 5714,
      "Ġstrugg": 5715,
      "duous": 5716,
      "Ġcommitted": 5717,
      "ongs": 5718,
      "Ġdefend": 5719,
      "Ġnecessarily": 5720,
      "Ġarduous": 5721,
      "ĠYears": 5722,
      "Ġfade": 5723,
      "Ġrivers": 5724,
      "onsider": 5725,
      "Ġbrill": 5726,
      "exp": 5727,
      "Ġwoman": 5728,
      "reaching": 5729,
      "ĠUpp": 5730,
      "Ġsatchel": 5731,
      "Ġbad": 5732,
      "Ġfundamentals": 5733,
      "Ġeternal": 5734,
      "ĠMy": 5735,
      "Ġgaz": 5736,
      "Ġdistinguished": 5737,
      "Ġdistinguish": 5738,
      "alt": 5739,
      "Ġdebating": 5740,
      "Ġbrings": 5741,
      "Ġviews": 5742,
      "Ġassert": 5743,
      "erve": 5744,
      "Ġrespects": 5745,
      "Ġsup": 5746,
      "Ġformative": 5747,
      "Ġcandlelit": 5748,
      "Ġopposed": 5749,
      "Ġgrasp": 5750,
      "Ġreceive": 5751,
      "Ġmanag": 5752,
      "Ġdefined": 5753,
      "Ġinsect": 5754,
      "Very": 5755,
      "Ġreward": 5756,
      "iece": 5757,
      "Ġgrand": 5758,
      "Ġpursued": 5759,
      "Ġembra": 5760,
      "Ġfamil": 5761,
      "Ġmamm": 5762,
      "Ġrooms": 5763,
      "Ġsway": 5764,
      "sala": 5765,
      "ĠUppsala": 5766,
      "ole": 5767,
      "Ġvan": 5768,
      "itrogen": 5769,
      "ersonal": 5770,
      "Ġspot": 5771,
      "rance": 5772,
      "Ġsufficient": 5773,
      "Ġtroubles": 5774,
      "Ġflood": 5775,
      "Ġstated": 5776,
      "ultane": 5777,
      "Ġmarble": 5778,
      "Ġincorporated": 5779,
      "Ġmode": 5780,
      "Ġdiscourse": 5781,
      "whe": 5782,
      "Ġexha": 5783,
      "Ġfigures": 5784,
      "uzz": 5785,
      "cl": 5786,
      "ometimes": 5787,
      "Ġfloor": 5788,
      "Ġporridge": 5789,
      "Ġvary": 5790,
      "Ġunre": 5791,
      "owed": 5792,
      "irect": 5793,
      "Ġengage": 5794,
      "Ġcomparison": 5795,
      "Ġsweet": 5796,
      "urable": 5797,
      "ciences": 5798,
      "Ġhous": 5799,
      "Ġbutter": 5800,
      "aker": 5801,
      "Ġconcerning": 5802,
      "Ġextrem": 5803,
      "Ġmarks": 5804,
      "Ġbore": 5805,
      "Ġpoets": 5806,
      "Ġkeeps": 5807,
      "ĠPre": 5808,
      "Ġbrilliant": 5809,
      "Ġfeels": 5810,
      "Ġsurrounded": 5811,
      "Ġshaking": 5812,
      "Ġdict": 5813,
      "Ġmoved": 5814,
      "ĠMiss": 5815,
      "Ġindeed": 5816,
      "Ġbench": 5817,
      "Ġoutside": 5818,
      "Ġstra": 5819,
      "amed": 5820,
      "Ġtraces": 5821,
      "ĠProv": 5822,
      "Ġusual": 5823,
      "Ġglimp": 5824,
      "Ġlights": 5825,
      "Ġemergence": 5826,
      "Ġpost": 5827,
      "Ġappar": 5828,
      "Ġliv": 5829,
      "entions": 5830,
      "Ġsimultane": 5831,
      "elle": 5832,
      "Ġtasks": 5833,
      "mith": 5834,
      "Ġlive": 5835,
      "Ġrigid": 5836,
      "ĠShall": 5837,
      "Ġfreed": 5838,
      "Ġcounsel": 5839,
      "Ġthereby": 5840,
      "Ġwrite": 5841,
      "ael": 5842,
      "Ġhost": 5843,
      "Ġpresents": 5844,
      "ÃŃ": 5845,
      "omed": 5846,
      "Ġintimacy": 5847,
      "Ġinvisible": 5848,
      "Ġbehind": 5849,
      "key": 5850,
      "eline": 5851,
      "Ġspect": 5852,
      "Ġyellow": 5853,
      "ĠBoth": 5854,
      "ifications": 5855,
      "Ġsuccessive": 5856,
      "ĠLook": 5857,
      "Ġruns": 5858,
      "Ġrush": 5859,
      "Ġrests": 5860,
      "which": 5861,
      "Ġproceeds": 5862,
      "Ġsuperf": 5863,
      "Ġunknown": 5864,
      "Ġperman": 5865,
      "Ġdeliberate": 5866,
      "Ġconject": 5867,
      "Ġabrupt": 5868,
      "aver": 5869,
      "ifies": 5870,
      "Ġvisitors": 5871,
      "Ġoccurs": 5872,
      "Ġfil": 5873,
      "Ġvel": 5874,
      "Ġaddressing": 5875,
      "Ġagreement": 5876,
      "Ġinfl": 5877,
      "ĠDid": 5878,
      "Ġgranted": 5879,
      "Ġvivid": 5880,
      "ĠNext": 5881,
      "Ġrespond": 5882,
      "Ġexcessive": 5883,
      "just": 5884,
      "Ġborn": 5885,
      "emb": 5886,
      "Ġsoil": 5887,
      "Ġomit": 5888,
      "Ġlesson": 5889,
      "Ġleaned": 5890,
      "Ġtill": 5891,
      "Ġmeeting": 5892,
      "Ġdetermine": 5893,
      "Ġsuddenly": 5894,
      "Ġdeclare": 5895,
      "osition": 5896,
      "ccording": 5897,
      "Ġcoastal": 5898,
      "Ġintellig": 5899,
      "Ġinsects": 5900,
      "eping": 5901,
      "Ġsmallest": 5902,
      "pin": 5903,
      "cible": 5904,
      "Ġgas": 5905,
      "Ġsets": 5906,
      "Ġecho": 5907,
      "exam": 5908,
      "Ġsciences": 5909,
      "Ġsouth": 5910,
      "Ġexhausted": 5911,
      "cients": 5912,
      "Ġglimpse": 5913,
      "Ġpuzz": 5914,
      "Ġrushing": 5915,
      "Ġstation": 5916,
      "Ġnote": 5917,
      "force": 5918,
      "Ġtask": 5919,
      "Ġfolded": 5920,
      "ĠOthers": 5921,
      "Ġrabbit": 5922,
      "rooms": 5923,
      "Ġancients": 5924,
      "ĠImp": 5925,
      "ĠBel": 5926,
      "ĠGu": 5927,
      "Ġbanks": 5928,
      "Ġsen": 5929,
      "Ġgrows": 5930,
      "ocity": 5931,
      "Ġsatisfy": 5932,
      "Ġsteadily": 5933,
      "Ġapparatus": 5934,
      "Ġtri": 5935,
      "Ġdestroyed": 5936,
      "Ġsang": 5937,
      "Ġherself": 5938,
      "Ġfreedom": 5939,
      "ĠLarge": 5940,
      "Ġaccumulation": 5941,
      "esterday": 5942,
      "Ġdoorway": 5943,
      "Ġsle": 5944,
      "Ġrepro": 5945,
      "Ġlifel": 5946,
      "co": 5947,
      "erous": 5948,
      "Ġpropose": 5949,
      "Ġstrikes": 5950,
      "Ġsuperior": 5951,
      "Ġfountain": 5952,
      "Ġdifferently": 5953,
      "Ġvehicle": 5954,
      "Ġvig": 5955,
      "Ġcritic": 5956,
      "Ġsubjects": 5957,
      "Ġsimultaneously": 5958,
      "cile": 5959,
      "Ġfire": 5960,
      "Ġbust": 5961,
      "Ġcrowded": 5962,
      "Ġsubtle": 5963,
      "vered": 5964,
      "Ġbare": 5965,
      "Ġclose": 5966,
      "Ġindustry": 5967,
      "Ġfaces": 5968,
      "Ġuncon": 5969,
      "Ġton": 5970,
      "Every": 5971,
      "Ġpin": 5972,
      "ĠTe": 5973,
      "ĠMich": 5974,
      "archy": 5975,
      "Ġdispositions": 5976,
      "Ġdust": 5977,
      "osis": 5978,
      "Ġnowhere": 5979,
      "Ġmemory": 5980,
      "Ġproportion": 5981,
      "acksmith": 5982,
      "ĠPr": 5983,
      "Ġdescending": 5984,
      "Ġdidn": 5985,
      "Ġguided": 5986,
      "Ġsoldiers": 5987,
      "De": 5988,
      "antage": 5989,
      "ĠPl": 5990,
      "alle": 5991,
      "Ġsketch": 5992,
      "ĠAccording": 5993,
      "Ġeagle": 5994,
      "Ġpressing": 5995,
      "Ġexercises": 5996,
      "Ġtowers": 5997,
      "Ġpermanent": 5998,
      "Ġabruptly": 5999,
      "Ġendless": 6000,
      "isy": 6001,
      "Ġresembled": 6002,
      "Ġheavily": 6003,
      "eating": 6004,
      "Ġdiscovered": 6005,
      "rove": 6006,
      "road": 6007,
      "Ġabsorbing": 6008,
      "Ġrein": 6009,
      "Ġplacing": 6010,
      "Ġblacksmith": 6011,
      "Ġsharply": 6012,
      "Ġimpersonal": 6013,
      "brow": 6014,
      "iche": 6015,
      "Ġstir": 6016,
      "Ġextension": 6017,
      "ior": 6018,
      "Ġattending": 6019,
      "Ġdictated": 6020,
      "Ġreally": 6021,
      "Ġresponded": 6022,
      "ĠMichael": 6023,
      "Ġupward": 6024,
      "Ġpuzzled": 6025,
      "Ġplenty": 6026,
      "Ġcircles": 6027,
      "ducation": 6028,
      "Ġmoist": 6029,
      "Ġfreely": 6030,
      "Ġbronze": 6031,
      "arf": 6032,
      "ĠFri": 6033,
      "Ġhur": 6034,
      "ash": 6035,
      "Ġentom": 6036,
      "Ġwonder": 6037,
      "Ġconsiders": 6038,
      "Ġremainder": 6039,
      "Ġlooks": 6040,
      "Ġdespite": 6041,
      "Ġinterior": 6042,
      "Ġconfident": 6043,
      "Ġcomplet": 6044,
      "Ġdomain": 6045,
      "istory": 6046,
      "Ġpattern": 6047,
      "Ġtid": 6048,
      "ĠSometimes": 6049,
      "Ġmeets": 6050,
      "Ġinvalid": 6051,
      "Ġbee": 6052,
      "Ġcomfortable": 6053,
      "ishermen": 6054,
      "yo": 6055,
      "Ġcovered": 6056,
      "Ġpowers": 6057,
      "Ġliveli": 6058,
      "Ġcarved": 6059,
      "Ġreconcile": 6060,
      "Ġbutterfly": 6061,
      "Ġtheme": 6062,
      "Ġpunct": 6063,
      "Ġlifelong": 6064,
      "cepts": 6065,
      "Education": 6066,
      "Ġoak": 6067,
      "Ġfaded": 6068,
      "ulate": 6069,
      "Ġbrown": 6070,
      "stand": 6071,
      "Ġlatest": 6072,
      "Ġfaintly": 6073,
      "Ġcause": 6074,
      "ĠAccess": 6075,
      "Ġshort": 6076,
      "Ġspeculative": 6077,
      "Ġclassrooms": 6078,
      "Ġpersonalized": 6079,
      "Ġhundreds": 6080,
      "Ġdove": 6081,
      "Ġcutting": 6082,
      "Ġelabor": 6083,
      "Ġconstitute": 6084,
      "Ġcontinuously": 6085,
      "Ġdependence": 6086,
      "Ġsuccessfully": 6087,
      "ĠTokyo": 6088,
      "Ġtribut": 6089,
      "Ġcultivation": 6090,
      "Ġmammals": 6091,
      ",--": 6092,
      "ĠNear": 6093,
      "Ġrefusal": 6094,
      "mind": 6095,
      "nected": 6096,
      "Ġadjust": 6097,
      "Ġeyebrow": 6098,
      "Ġenterpr": 6099,
      "roduction": 6100,
      "irds": 6101,
      "ĠThird": 6102,
      "cibly": 6103,
      "Ġtraced": 6104,
      "Ġservants": 6105,
      "igrap": 6106,
      "Ġmodifications": 6107,
      "Ġcalligrap": 6108,
      "Chapter": 6109,
      "urally": 6110,
      "Ġmos": 6111,
      "Ġmutually": 6112,
      "ĠRec": 6113,
      "Ġnewly": 6114,
      "Ġtypes": 6115,
      "Ġlegitimate": 6116,
      "Ġincons": 6117,
      "unctions": 6118,
      "Ġplays": 6119,
      "Ġdistribut": 6120,
      "Ġassertion": 6121,
      "lm": 6122,
      "rick": 6123,
      "Ġdimly": 6124,
      "Ġmarine": 6125,
      "Ġgran": 6126,
      "ĠâĢĺ": 6127,
      "herence": 6128,
      "upt": 6129,
      "Ġwash": 6130,
      "Ġinterrupting": 6131,
      "Ġagriculture": 6132,
      "Ġvelocity": 6133,
      "Ġlivelihood": 6134,
      "Ġpret": 6135,
      "Ġdemonstration": 6136,
      "Ġminim": 6137,
      "Ġextends": 6138,
      "ĠRoman": 6139,
      "Ġinherited": 6140,
      "About": 6141,
      "Ġastonishing": 6142,
      "shore": 6143,
      "Ġproportional": 6144,
      "Ġchoosing": 6145,
      "cer": 6146,
      "Ġcollaps": 6147,
      "Ġconjectures": 6148,
      "Ġconnecting": 6149,
      "Ġcompletely": 6150,
      "Ġfallen": 6151,
      "places": 6152,
      "Ġtracing": 6153,
      "Ġhumanity": 6154,
      "Ġdescribes": 6155,
      "Ġserves": 6156,
      "Ġhypocr": 6157,
      "oping": 6158,
      "Ġusually": 6159,
      "Ġexclud": 6160,
      "Ġmant": 6161,
      "ĠGreat": 6162,
      "ronted": 6163,
      "Ġexplanations": 6164,
      "Ġdecept": 6165,
      "Ġboundaries": 6166,
      "Ġbloss": 6167,
      "you": 6168,
      "Ġexpressive": 6169,
      "Ġexcl": 6170,
      "Ġdeer": 6171,
      "Ġhelping": 6172,
      "Ġaffecting": 6173,
      "Ġtonight": 6174,
      "Ġhypocrisy": 6175,
      "celain": 6176,
      "Ġsurfaces": 6177,
      "Ġsediment": 6178,
      "Ġreinforce": 6179,
      "examination": 6180,
      "Be": 6181,
      "Ġcomplications": 6182,
      "ĠSet": 6183,
      "Ġunob": 6184,
      "Ġtypical": 6185,
      "Ġelaborate": 6186,
      "Ġcontradictory": 6187,
      "Ġrevolves": 6188,
      "Ġcliffs": 6189,
      "melt": 6190,
      "Ġpeak": 6191,
      "ortant": 6192,
      "defined": 6193,
      "ĠRem": 6194,
      "ĠStud": 6195,
      "Ġproviding": 6196,
      "Ġflat": 6197,
      "Ġmatured": 6198,
      "Ġpatrol": 6199,
      "Ġengra": 6200,
      "Ġmeanings": 6201,
      "Ġemerge": 6202,
      "Ġcite": 6203,
      "Ġextremely": 6204,
      "Ġenterprise": 6205,
      "Ġanom": 6206,
      "Ġsnowmelt": 6207,
      "Ġporcelain": 6208,
      "Ġstreams": 6209,
      "Ġsenior": 6210,
      "Ġlends": 6211,
      "Ġinvoked": 6212,
      "Ġinsistence": 6213,
      "Ġrisks": 6214,
      "Ġattend": 6215,
      "Ġrespective": 6216,
      "Ġconfirmation": 6217,
      "Ġsubstances": 6218,
      "To": 6219,
      "uate": 6220,
      "Ġimpover": 6221,
      "Ġoutlined": 6222,
      "Ġperv": 6223,
      "Ġrelent": 6224,
      "Ġfullest": 6225,
      "Ġcloser": 6226,
      "Ġsuperficial": 6227,
      "mble": 6228,
      "Ġvalidated": 6229,
      "Ġnegotiation": 6230,
      "Ġgranite": 6231,
      "Ġtheorem": 6232,
      "Ġconnections": 6233,
      "Ġcomposition": 6234,
      "Ġstretches": 6235,
      "Ġelevation": 6236,
      "Ġsentimentality": 6237,
      "Ġuphe": 6238,
      "Ġarchiv": 6239,
      "Ġunderpin": 6240,
      "Ġintellectually": 6241,
      "Ġexceeded": 6242,
      "ĠStudents": 6243,
      "Ġfoster": 6244,
      "Ġacid": 6245,
      "ĠFoundations": 6246,
      "Ġrelates": 6247,
      "Ġanalyzed": 6248,
      "lementary": 6249,
      "Ġrecurring": 6250,
      "Ġdeceptively": 6251,
      "Ġrooted": 6252,
      "Ġcritique": 6253,
      "Ġconfronted": 6254,
      "Ġprecedence": 6255,
      "Ġmanaging": 6256,
      "Ġstatic": 6257,
      "Ġweb": 6258,
      "Ġmaintains": 6259,
      "Ġmeaningless": 6260,
      "Ġtransitional": 6261,
      "Ġinflamm": 6262,
      "Ġbands": 6263,
      "Ġpeered": 6264,
      "Ġdocuments": 6265,
      "Ġlayers": 6266,
      "Ġcontested": 6267,
      "blow": 6268,
      "Ġwrong": 6269,
      "vable": 6270,
      "ppings": 6271,
      "Ġchain": 6272,
      "Ġincent": 6273,
      "ensive": 6274,
      "Ġmethodological": 6275,
      "Ġswells": 6276,
      "Ġsocially": 6277,
      "Ġexperimentation": 6278,
      "Ġpools": 6279,
      "itutions": 6280,
      "Ġflocks": 6281,
      "Ġconcluding": 6282,
      "Ġboiling": 6283,
      "Ġmoisture": 6284,
      "Ġimpoverished": 6285,
      "Dear": 6286,
      "Ġcollective": 6287,
      "Ġnormal": 6288,
      "ores": 6289,
      "Ġroutine": 6290,
      "enable": 6291,
      "Ġframing": 6292,
      "Ġobligations": 6293,
      "Ġtributaries": 6294,
      "aic": 6295,
      "Ġintroduces": 6296,
      "Ġvolunt": 6297,
      "Ġtouched": 6298,
      "Consider": 6299,
      "ethe": 6300,
      "oking": 6301,
      "Ġdramatic": 6302,
      "Ġrepresentation": 6303,
      "Ġthinkable": 6304,
      "rowth": 6305,
      "Ġfaun": 6306,
      "ĠIntroduction": 6307,
      "Ġfunctions": 6308,
      "connected": 6309,
      "Ġincoherence": 6310,
      "Ġdwarf": 6311,
      "oise": 6312,
      "Ġlacked": 6313,
      "urgical": 6314,
      "owered": 6315,
      "Ġapplying": 6316,
      "irected": 6317,
      "Troubles": 6318,
      "sing": 6319,
      "Ġgrounding": 6320,
      "ventional": 6321,
      "Ġcollapsing": 6322,
      "what": 6323,
      "Ġson": 6324,
      "Ġcompressed": 6325,
      "Ġoccupying": 6326,
      "Ġclarifying": 6327,
      "Ġbustle": 6328,
      "ĠTechn": 6329,
      "gy": 6330,
      "norm": 6331,
      "Ġgir": 6332,
      "ilemma": 6333,
      "Ġreformed": 6334,
      "Ġstewards": 6335,
      "ufficient": 6336,
      "ĠAgainst": 6337,
      "Ġrigidity": 6338,
      "Ġinflammation": 6339,
      "Ġsav": 6340,
      "Ġproposals": 6341,
      "ĠIndividuals": 6342,
      "Ġirreducible": 6343,
      "Ġunconventional": 6344,
      "Ġincentives": 6345,
      "iological": 6346,
      "Ġhier": 6347,
      "Ġredefined": 6348,
      "Ġintegrative": 6349,
      "Ġintegrates": 6350,
      "Ġexpressible": 6351,
      "Ġconstitutive": 6352,
      "Ġproposes": 6353,
      "Ġnorms": 6354,
      "Ġrelentless": 6355,
      "Ġjustification": 6356,
      "Ġignore": 6357,
      "Ġechoing": 6358,
      "Ġcriticized": 6359,
      "Ġprovoked": 6360,
      "Ġsecuring": 6361,
      "Ġcomplementary": 6362,
      "Ġopportunity": 6363,
      "Ġseparates": 6364,
      "ĠBelow": 6365,
      "ingly": 6366,
      "Ġeveryday": 6367,
      "Ġcheck": 6368,
      "ĠText": 6369,
      "Ġilluminate": 6370,
      "Ġlion": 6371,
      "Ġoral": 6372,
      "Ġtransitions": 6373,
      "Ġtidal": 6374,
      "Ġdilemma": 6375,
      "ister": 6376,
      "Ġdomains": 6377,
      "Ġconformity": 6378,
      "Ġabnorm": 6379,
      "worldly": 6380,
      "Ġcontinental": 6381,
      "Ġteeming": 6382,
      "Ġblossoms": 6383,
      "ximate": 6384,
      "Ġevolving": 6385,
      "Ġrote": 6386,
      "Ġintegrate": 6387,
      "Ġtherapies": 6388,
      "Ġunobstructed": 6389,
      "ĠChanges": 6390,
      "Ġnavigated": 6391,
      "Ġparticipation": 6392,
      "Ġmantle": 6393,
      "itize": 6394,
      "aluated": 6395,
      "Ġreexamination": 6396,
      "Ġevaluated": 6397,
      "Ġroutinely": 6398,
      "Ġfinished": 6399,
      "Ġprioritize": 6400,
      "Ġvantage": 6401,
      "Ġturtle": 6402,
      "Ġthrived": 6403,
      "Ġniche": 6404,
      "ĠFishermen": 6405,
      "Ġnesting": 6406,
      "Ġlamb": 6407,
      "Ġotherworldly": 6408,
      "Ġoffshore": 6409,
      "Ġpredators": 6410,
      "Ġassistance": 6411,
      "Ġmonitored": 6412,
      "Ġsalinity": 6413,
      "Ġcoastline": 6414,
      "Ġshoreline": 6415,
      "Ġstresses": 6416,
      "Ġnutrient": 6417,
      "Ġadjusting": 6418,
      "Ġanomalous": 6419,
      "Ġstewardship": 6420,
      "Ġcrane": 6421,
      "Ġapproximate": 6422,
      "Ġincreases": 6423,
      "ncy": 6424,
      "Ġamenable": 6425,
      "Ġpersistence": 6426,
      "Ġsatell": 6427,
      "Ġwondered": 6428,
      "Ġtimel": 6429,
      "ritical": 6430,
      "Ġmemorization": 6431,
      "Ġreconceived": 6432,
      "Ġrequirements": 6433,
      "Ġundergrowth": 6434,
      "ĠInstitutions": 6435,
      "mass": 6436,
      "Ġobservatory": 6437,
      "Ġirreducibly": 6438,
      "Ġinconsistent": 6439,
      "Ġsolve": 6440,
      "epiece": 6441,
      "Ġcontributors": 6442,
      "Ġcategorization": 6443,
      "Ġerupt": 6444,
      "ierre": 6445,
      "Ġindicates": 6446,
      "vering": 6447,
      "Ġdoomed": 6448,
      "Ġsimplify": 6449,
      "Ġpaus": 6450,
      "Ġhat": 6451,
      "Ġteems": 6452,
      "Ġtissue": 6453,
      "ĠBirds": 6454,
      "Ġevil": 6455,
      "Ġmeasurable": 6456,
      "Ġphysiology": 6457,
      "Ġanalytic": 6458,
      "Ġpunctuate": 6459,
      "Ġplatitude": 6460,
      "ĠConcepts": 6461,
      "Ġlowland": 6462,
      "iciencies": 6463,
      "Ġacknowledges": 6464,
      "Ġorganizes": 6465,
      "Ġquantitatively": 6466,
      "Ġpervades": 6467,
      "Ġupheaval": 6468,
      "Key": 6469,
      "Text": 6470,
      "fact": 6471,
      "Ġduck": 6472,
      "Ġconserved": 6473,
      "Ġengineered": 6474,
      "Ġeyepiece": 6475,
      "Ġformalism": 6476,
      "Ġredirected": 6477,
      "Ġhabitats": 6478,
      "Ġmacroscopic": 6479,
      "Ġtextbook": 6480,
      "Ġstruggle": 6481,
      "Ġfiltering": 6482,
      "ĠTextbook": 6483,
      "Ġstatus": 6484,
      "ĠStret": 6485,
      "Ġexplanatory": 6486,
      "Ġmosaic": 6487,
      "Ġachievable": 6488,
      "Ġdeficiencies": 6489,
      "roppings": 6490,
      "Ġcalend": 6491,
      "Ġoutcroppings": 6492,
      "Ġacquires": 6493,
      "Ġtimelines": 6494,
      "Ġcontributes": 6495,
      "Ġfauna": 6496,
      "Ġdescriptive": 6497,
      "Ġacts": 6498,
      "asts": 6499,
      "Ġcoerc": 6500,
      "Ġexcludes": 6501,
      "Ġformally": 6502,
      "Ġaccur": 6503,
      "Ġdiscoverable": 6504,
      "Ġclouds": 6505,
      "Ġmanifestations": 6506,
      "Ġmigrating": 6507,
      "Ġtaste": 6508,
      "Ġtried": 6509,
      "Ġhues": 6510,
      "Ġtranspare": 6511,
      "Ġempowered": 6512,
      "Ġcooked": 6513,
      "Ġensuring": 6514,
      "Ġsatellite": 6515,
      "Ġimplement": 6516,
      "taining": 6517,
      "Ġlowlands": 6518,
      "Ġtransparency": 6519,
      "nith": 6520,
      "Ġlush": 6521,
      "Ġadvice": 6522,
      "Ġlaws": 6523,
      "Ġnarrowed": 6524,
      "Ġcredibility": 6525,
      "Ġcoercion": 6526,
      "Ġcomes": 6527,
      "Ġindividualism": 6528,
      "Ġnearby": 6529,
      "Ġuniversities": 6530,
      "Ġclarified": 6531,
      "Ġbir": 6532,
      "otom": 6533,
      "Ġjut": 6534,
      "Ġmigratory": 6535,
      "Ġimprove": 6536,
      "Ġorganizations": 6537,
      "ĠObservation": 6538,
      "Ġinvalidate": 6539,
      "Ġhierarchy": 6540,
      "Historical": 6541,
      "Of": 6542,
      "Ġsorrow": 6543,
      "Ġexec": 6544,
      "Ġidentifies": 6545,
      "Ġpredictive": 6546,
      "Ġversions": 6547,
      "Deep": 6548,
      "Ġticked": 6549,
      "Ġdich": 6550,
      "ivism": 6551,
      "Ġreply": 6552,
      "Ġlandscapes": 6553,
      "Ġrevisit": 6554,
      "Ġcaptures": 6555,
      "Ġdetecting": 6556,
      "rors": 6557,
      "Ġrevision": 6558,
      "Ġbroadly": 6559,
      "Ġtolerates": 6560,
      "ĠRecent": 6561,
      "Ġabnormalities": 6562,
      "Ġclinical": 6563,
      "holders": 6564,
      "Ġocean": 6565,
      "Ġeruptions": 6566,
      "Ġinterjected": 6567,
      "Ġintegrated": 6568,
      "Ġcontributing": 6569,
      "Ġpathology": 6570,
      "ĠSubstant": 6571,
      "Ġinterventions": 6572,
      "Ġvigor": 6573,
      "Practical": 6574,
      "Ġ.": 6575,
      "Ġornith": 6576,
      "Ġinterdependence": 6577,
      "Ġpalette": 6578,
      "ĠStretching": 6579,
      "Ġovere": 6580,
      "Ġinterconnected": 6581,
      "Ġmapping": 6582,
      "Ġaccountability": 6583,
      "Ġuncritical": 6584,
      "Ġscaled": 6585,
      "Ġlandmass": 6586,
      "Ġwetlands": 6587,
      "Ġceramic": 6588,
      "Ġowl": 6589,
      "Ġcalendars": 6590,
      "cedurally": 6591,
      "Ġshaping": 6592,
      "hasize": 6593,
      "Ġoptions": 6594,
      "Ġcollectivism": 6595,
      "Ġmarketplaces": 6596,
      "mphasize": 6597,
      "Ġorganizational": 6598,
      "ĠProcedurally": 6599,
      "Ġnonethe": 6600,
      "Ġstakeholders": 6601,
      "Ġimplementing": 6602,
      "otomies": 6603,
      "Ġdichotomies": 6604,
      "ĠSubstantively": 6605,
      "Ġoveremphasize": 6606,
      "Ġnonetheless": 6607,
      "ĠWere": 6608,
      "exts": 6609,
      "Ġradiation": 6610,
      "Ġincorporate": 6611,
      "requisite": 6612,
      "Ġsynt": 6613,
      "Ġseminar": 6614,
      "ĠRemember": 6615,
      "Ġglassblow": 6616,
      "ĠThink": 6617,
      "Ġelevations": 6618,
      "'d": 6619,
      "Ġimagery": 6620,
      "Ġsuperficiality": 6621,
      "Ġsimilarities": 6622,
      "Ġepidemiology": 6623,
      "Ġaxiom": 6624,
      "Ġinstitute": 6625,
      "Ġsynthetic": 6626,
      "Ġsolving": 6627,
      "Ġimmun": 6628,
      "pistem": 6629,
      "Ġcontexts": 6630,
      "Ġprerequisite": 6631,
      "Ġinstitutionalized": 6632,
      "defeating": 6633,
      "Ġepistemology": 6634,
      "ĠMeasure": 6635,
      "pistemology": 6636,
      "Ġcomplexities": 6637,
      "Ġintegrating": 6638,
      "Ġindicators": 6639,
      "Ġaltitude": 6640,
      "Ġredesign": 6641,
      "Ġparameter": 6642,
      "ĠPierre": 6643,
      "Ġable": 6644,
      "Ġdistur": 6645,
      "Ġendem": 6646,
      "ciers": 6647,
      "embered": 6648,
      "Ġclockm": 6649,
      "Ġaxiomatic": 6650,
      "count": 6651,
      "Ġdemanded": 6652,
      "Ġflavor": 6653,
      "Ġpinch": 6654,
      "Ġmount": 6655,
      "Ġgenetics": 6656,
      "Ġimmunology": 6657,
      "Ġmetabolic": 6658,
      "Ġpurple": 6659,
      "Ġbelow": 6660,
      "Ġraven": 6661,
      "Ġglaciers": 6662,
      "orning": 6663,
      "Ġthread": 6664,
      "ky": 6665,
      "Ġunm": 6666,
      "af": 6667,
      "Ġspir": 6668,
      "Ġparalle": 6669,
      "life": 6670,
      "oir": 6671,
      "Ġmajority": 6672,
      "Ġremembered": 6673,
      "Ġpet": 6674,
      "Ġcreate": 6675,
      "Ġsupported": 6676,
      "Ġremoved": 6677,
      "Ġinsufficient": 6678,
      "Ġturqu": 6679,
      "ontology": 6680,
      "Ġembraces": 6681,
      "etic": 6682,
      "Ġvarious": 6683,
      "cogn": 6684,
      "Ġalter": 6685,
      "Ġturquoise": 6686,
      "osen": 6687,
      "Ġlexic": 6688,
      "Ġclearing": 6689,
      "Ġcalc": 6690,
      "Ġpaleontology": 6691,
      "ĠCome": 6692,
      "Ġimprovement": 6693,
      "Ġhawk": 6694,
      "Ġmusic": 6695,
      "Tom": 6696,
      "bit": 6697,
      "Ġcircle": 6698,
      "ums": 6699,
      "Ġsuffering": 6700,
      "Ġpersonality": 6701,
      "Ġlock": 6702,
      "ĠServe": 6703,
      "ĠPrepare": 6704,
      "Ġoverwhe": 6705,
      "Ġsimmer": 6706,
      "Ġportra": 6707,
      "Ġleave": 6708,
      "Ġparallel": 6709,
      "ĠImportant": 6710,
      "Ġreproach": 6711,
      "Ġbirth": 6712,
      "ĠCat": 6713,
      "Ġraising": 6714,
      "Ġspider": 6715,
      "urance": 6716,
      "ĠCre": 6717,
      "des": 6718,
      "Ġintersect": 6719,
      "Ġsooner": 6720,
      "Ġpaused": 6721,
      "using": 6722,
      "Ġpapers": 6723,
      "disc": 6724,
      "Ġcompanionship": 6725,
      "Ġangle": 6726,
      "Ġden": 6727,
      "Ġeats": 6728,
      "ems": 6729,
      "Ġswift": 6730,
      "ĠTHE": 6731,
      "Ġcatalogue": 6732,
      "Ġobst": 6733,
      "Ġintense": 6734,
      "Ġopinion": 6735,
      "Ex": 6736,
      "Ġnovel": 6737,
      "Ġinside": 6738,
      "Ġut": 6739,
      "Ġwife": 6740,
      "cape": 6741,
      "Ġhom": 6742,
      "Ġdefect": 6743,
      "Ġassumed": 6744,
      "ĠStart": 6745,
      "Ġtreatise": 6746,
      "Ġunrecogn": 6747,
      "Ġpractitioner": 6748,
      "Ġconsidering": 6749,
      "Ġcapturing": 6750,
      "isation": 6751,
      "Ġresponsive": 6752,
      "Ġconqu": 6753,
      "Ġgif": 6754,
      "Ġpleasure": 6755,
      "Ġteach": 6756,
      "Ġunrecognizable": 6757,
      "Ġmembers": 6758,
      "Ġfashion": 6759,
      "Ġmouse": 6760,
      "ĠFollow": 6761,
      "Ġinspire": 6762,
      "expanding": 6763,
      "Ġcaused": 6764,
      "ĠCare": 6765,
      "Ġdisciplinary": 6766,
      "Ġnumber": 6767,
      "Ġintersections": 6768,
      "Ġbusiness": 6769,
      "hire": 6770,
      "zen": 6771,
      "Ġpink": 6772,
      "Ġmarriage": 6773,
      "Ġcells": 6774,
      "Ġendured": 6775,
      "hus": 6776,
      "Ġrelate": 6777,
      "Ġorange": 6778,
      "Ġmaxim": 6779,
      "Ġprompt": 6780,
      "Ġarrangements": 6781,
      "ekly": 6782,
      "Ġdig": 6783,
      "Ġtenden": 6784,
      "Ġsafest": 6785,
      "ĠSpend": 6786,
      "cid": 6787,
      "gebra": 6788,
      "Ġintelligence": 6789,
      "Ġportrait": 6790,
      "ĠLev": 6791,
      "plicity": 6792,
      "Ġaffinity": 6793,
      "ĠProvide": 6794,
      "uct": 6795,
      "ĠDrink": 6796,
      "Ġreligious": 6797,
      "ĠCreate": 6798,
      "oys": 6799,
      "Ġchosen": 6800,
      "erness": 6801,
      "Ġconsiderations": 6802,
      "ug": 6803,
      "Ġbig": 6804,
      "Ġwrites": 6805,
      "Ġrecommends": 6806,
      "ooth": 6807,
      "rys": 6808,
      "ioned": 6809,
      "Ġkeen": 6810,
      "ĠGuide": 6811,
      "Ġkin": 6812,
      "ief": 6813,
      "aged": 6814,
      "ĠExploring": 6815,
      "Ġnumbers": 6816,
      "Ġtrial": 6817,
      "Ġentrance": 6818,
      "Ġaccel": 6819,
      "Ġconsiderably": 6820,
      "Ġwithstand": 6821,
      "Ġye": 6822,
      "Those": 6823,
      "Ġunus": 6824,
      "Ġhot": 6825,
      "apse": 6826,
      "minded": 6827,
      "Ġspread": 6828,
      "Ġdecent": 6829,
      "Ġfinds": 6830,
      "Ġgrass": 6831,
      "yd": 6832,
      "Ġpages": 6833,
      "Ġdiv": 6834,
      "ĠDa": 6835,
      "uration": 6836,
      "Ġgifts": 6837,
      "iles": 6838,
      "Ġpleas": 6839,
      "Ġinduced": 6840,
      "Ġdolphin": 6841,
      "acles": 6842,
      "Ġproceeded": 6843,
      "Ġsecre": 6844,
      "Ġconver": 6845,
      "Ġspeed": 6846,
      "Ġdependent": 6847,
      "Ġpressure": 6848,
      "ĠSupp": 6849,
      "Me": 6850,
      "Ġranks": 6851,
      "Ġresponsible": 6852,
      "Ġsmooth": 6853,
      "ĠEvening": 6854,
      "Ġequation": 6855,
      "Ġaccurately": 6856,
      "Ġpun": 6857,
      "Ar": 6858,
      "omen": 6859,
      "Ġsapp": 6860,
      "Ġnightingale": 6861,
      "Ġweaver": 6862,
      "Ġbonds": 6863,
      "Ġfuel": 6864,
      "otic": 6865,
      "Ġfog": 6866,
      "Ġtravels": 6867,
      "Ġdriving": 6868,
      "Ġdecomp": 6869,
      "atever": 6870,
      "Ġsimplicity": 6871,
      "Ġric": 6872,
      "ĠDaily": 6873,
      "ĠPractice": 6874,
      "ĠThrough": 6875,
      "ĠWeekly": 6876,
      "Ġjournal": 6877,
      "ĠComm": 6878,
      "Ġattempting": 6879,
      "ĊĊ": 6880,
      "ulg": 6881,
      "ĠMidday": 6882,
      "Ġadopted": 6883,
      "aimed": 6884,
      "Ġskin": 6885,
      "Ġyields": 6886,
      "Ġferv": 6887,
      "Ġdiss": 6888,
      "Ġsapphire": 6889,
      "Ġtermin": 6890,
      "Ġentomologist": 6891,
      "Ġcalligrapher": 6892,
      "Ġworkers": 6893,
      "Ġcapital": 6894,
      "Ġbreathing": 6895,
      "rest": 6896,
      "Ġcot": 6897,
      "Ġstat": 6898,
      "Ġunlike": 6899,
      "Ġhungry": 6900,
      "Ġencou": 6901,
      "though": 6902,
      "Oh": 6903,
      "Ġcoming": 6904,
      "Ġsensitive": 6905,
      "Ġpromising": 6906,
      "ĠBu": 6907,
      "Ġwhereas": 6908,
      "Ġpopulace": 6909,
      "Ġinert": 6910,
      "Ġasse": 6911,
      "Ġstayed": 6912,
      "Ġextracts": 6913,
      "Ġmaximum": 6914,
      "Re": 6915,
      "Ġnoted": 6916,
      "Ġimpr": 6917,
      "Ġcovers": 6918,
      "ĠMake": 6919,
      "Ġstopped": 6920,
      "Ġdecomposition": 6921,
      "Ġunp": 6922,
      "Ġautumn": 6923,
      "Ġpenetr": 6924,
      "Ġcompet": 6925,
      "Ġincreased": 6926,
      "IN": 6927,
      "Ġfoot": 6928,
      "ocracy": 6929,
      "Ġstationed": 6930,
      "orry": 6931,
      "Ġrecognizes": 6932,
      "Ġcollected": 6933,
      "Look": 6934,
      "cales": 6935,
      "uition": 6936,
      "factors": 6937,
      "ĠMed": 6938,
      "conduct": 6939,
      "Ġcamel": 6940,
      "Ġsite": 6941,
      "Ġstable": 6942,
      "Ġventure": 6943,
      "Ġinterested": 6944,
      ".'": 6945,
      "Ġgal": 6946,
      "Ġmatching": 6947,
      "Ġprecious": 6948,
      "Ġburden": 6949,
      "ximity": 6950,
      "Ġvariant": 6951,
      "Ġore": 6952,
      "Ġproximity": 6953,
      "Ġassurance": 6954,
      "Ġconcentration": 6955,
      "alysis": 6956,
      "Ġcontact": 6957,
      "umnal": 6958,
      "Ġincremental": 6959,
      "Ġautumnal": 6960,
      "Ġtimescales": 6961,
      "Ġtunnel": 6962,
      "Ġexecution": 6963,
      "Ġunusual": 6964,
      "Ġbat": 6965,
      "Ġwarmer": 6966,
      "Ġvanished": 6967,
      "use": 6968,
      "Ġregards": 6969,
      "Ġunmist": 6970,
      "base": 6971,
      "Ġcontribution": 6972,
      "Ġfaction": 6973,
      "ronts": 6974,
      "Ġmand": 6975,
      "Ġsurveyor": 6976,
      "Ġaccelerate": 6977,
      "itched": 6978,
      "Ġhalls": 6979,
      "containing": 6980,
      "akable": 6981,
      "Ġbreezy": 6982,
      "Ġopening": 6983,
      "Ġhiding": 6984,
      "Ġfamilies": 6985,
      "Ġmassive": 6986,
      "Because": 6987,
      "Ġtast": 6988,
      "Ġfury": 6989,
      "Ġgravity": 6990,
      "Ġbew": 6991,
      "hemistry": 6992,
      "tein": 6993,
      "Ġimmense": 6994,
      "Ġkinetic": 6995,
      "Ġmas": 6996,
      "Ġprow": 6997,
      "Ġoverwhelm": 6998,
      "Ġchur": 6999,
      "Ġdeserve": 7000,
      "Ġmolecules": 7001,
      "Ġillness": 7002,
      "Ġhelped": 7003,
      "enten": 7004,
      "romo": 7005,
      "Ġroll": 7006,
      "Ġextensions": 7007,
      "ray": 7008,
      "Ġcompounds": 7009,
      "Ġhostile": 7010,
      "ĠPrince": 7011,
      "Ġloss": 7012,
      "ĠPeople": 7013,
      "Ġfervent": 7014,
      "Menten": 7015,
      "Ġion": 7016,
      "Ġavenues": 7017,
      "Ġgiant": 7018,
      "Ġprotein": 7019,
      "ochemistry": 7020,
      "Ġmodulate": 7021,
      "orship": 7022,
      "Ġcofactors": 7023,
      "chanisms": 7024,
      "Ġbiochemistry": 7025,
      "Ġreactive": 7026,
      "lecules": 7027,
      "Ġfurnaces": 7028,
      "Ġcatalytic": 7029,
      "Ġcatalyze": 7030,
      "ĠAlloster": 7031,
      "Ġconformational": 7032,
      "Ġmacromo": 7033,
      "Ġmetabolism": 7034,
      "Ġprotons": 7035,
      "ĠMichaelis": 7036,
      "ĠCatalysis": 7037,
      "Mechanisms": 7038,
      "Ġtunneling": 7039,
      "ĠAllosteric": 7040,
      "Ġmacromolecules": 7041,
      "rinciples": 7042,
      "Ġfronts": 7043,
      "Ġreminded": 7044,
      "ĠInstead": 7045,
      "Ġgazelle": 7046,
      "soon": 7047,
      "Ġcloudy": 7048,
      "Ġbreeze": 7049,
      "inen": 7050,
      "Ġenthus": 7051,
      "Ġflowed": 7052,
      "Ġvernal": 7053,
      "Ġarchivist": 7054,
      "lived": 7055,
      "Ġfeat": 7056,
      "Ġrival": 7057,
      "theless": 7058,
      "Ġreducing": 7059,
      "group": 7060,
      "Ġcracks": 7061,
      "teries": 7062,
      "Ġsmart": 7063,
      "Ġtransformations": 7064,
      "Ġhoused": 7065,
      "Ġcountrys": 7066,
      "Ġcountryside": 7067,
      "Ġconservative": 7068,
      "reek": 7069,
      "Ġdefied": 7070,
      "Ġeagerly": 7071,
      "Ġarbit": 7072,
      "Ġrecover": 7073,
      "Ġlibraries": 7074,
      "rench": 7075,
      "Ġsecrets": 7076,
      "ption": 7077,
      "Ġconsistent": 7078,
      "Ġmerg": 7079,
      "Ġdorm": 7080,
      "Ġthee": 7081,
      "Ġkept": 7082,
      "Ġrefining": 7083,
      "Ġtimber": 7084,
      "Ġextracting": 7085,
      "Ġroyal": 7086,
      "Ġresponses": 7087,
      "Ġmandates": 7088,
      "Ġcompromising": 7089,
      "ĠQuality": 7090,
      "Ġclay": 7091,
      "Ġnavigating": 7092,
      "ĠIvan": 7093,
      "Ġceramicist": 7094,
      "ĠNote": 7095,
      "Ġcontinuous": 7096,
      "Ġmounted": 7097,
      "ĠBuild": 7098,
      "Ġsupplied": 7099,
      "Ġstirred": 7100,
      "semble": 7101,
      "Ġarchives": 7102,
      "Ġengraver": 7103,
      "Ġworry": 7104,
      "Ġcurrently": 7105,
      "Ġquantitative": 7106,
      "Ġdeparted": 7107,
      "Ġforums": 7108,
      "Ġconversion": 7109,
      "ĠDevelopments": 7110,
      "Ġreshaped": 7111,
      "Ġforget": 7112,
      "Ġregret": 7113,
      "Ġsignature": 7114,
      "Ġsewer": 7115,
      "Ġcurator": 7116,
      "Ġelu": 7117,
      "Ġintuition": 7118,
      "intensive": 7119,
      "Ġoptimize": 7120,
      "oxygen": 7121,
      "ĠEverything": 7122,
      "Ġelucid": 7123,
      "Ġcauses": 7124,
      "abled": 7125,
      "ĠCut": 7126,
      "more": 7127,
      "right": 7128,
      "Ġball": 7129,
      "Ġapprehens": 7130,
      "alp": 7131,
      "Ġherbalist": 7132,
      "ĠHell": 7133,
      "Ġflowing": 7134,
      "Ġwealthy": 7135,
      "bid": 7136,
      "Ġvariability": 7137,
      "actly": 7138,
      "ĠGather": 7139,
      "Ġerrors": 7140,
      "Ġbasis": 7141,
      "Ġapolog": 7142,
      "Ġunmistakable": 7143,
      "Ġdormant": 7144,
      "eter": 7145,
      "Ġcatching": 7146,
      "icated": 7147,
      "anna": 7148,
      "ĠDef": 7149,
      "Ġlinen": 7150,
      "Ġsoaking": 7151,
      "Ġsensation": 7152,
      "Ġoxid": 7153,
      "Ġtranslator": 7154,
      "urm": 7155,
      "Ġstronger": 7156,
      "Ġexhibits": 7157,
      "discovered": 7158,
      "bel": 7159,
      "iguration": 7160,
      "Ġornithologist": 7161,
      "Ġboy": 7162,
      "Ġprivile": 7163,
      "rees": 7164,
      "Ġcollapse": 7165,
      "Ġilluminator": 7166,
      "ĠEuropean": 7167,
      "ifficult": 7168,
      "ĠAssemble": 7169,
      "Ġmathematically": 7170,
      "Ġtriple": 7171,
      "conductors": 7172,
      "rence": 7173,
      "Ġexpert": 7174,
      "pleted": 7175,
      "Ġelevated": 7176,
      "Ġelectrons": 7177,
      "Ġinterst": 7178,
      "ĠStructure": 7179,
      "Ġfuse": 7180,
      "Ġclockmaker": 7181,
      "Ġbrick": 7182,
      "Ġantiquarian": 7183,
      "Ġemission": 7184,
      "Ġperiodic": 7185,
      "Ġconcentric": 7186,
      "Ġprob": 7187,
      "Ġseed": 7188,
      "ĠYes": 7189,
      "Ġsmaller": 7190,
      "Ġsharpen": 7191,
      "Ġterminates": 7192,
      "raged": 7193,
      "Ġcaptured": 7194,
      "Ġelucidating": 7195,
      "Ġinspect": 7196,
      "Ġconfiguration": 7197,
      "Ġimprint": 7198,
      "Ġfeaturing": 7199,
      "Ġnan": 7200,
      "autumn": 7201,
      "Ġoxidation": 7202,
      "Ġtracer": 7203,
      "oscale": 7204,
      "Ġsuperconductors": 7205,
      "Ġcatalysts": 7206,
      "Atomic": 7207,
      "Ġbonding": 7208,
      "Ġisotope": 7209,
      "Ġisotopic": 7210,
      "Ġspectroscopic": 7211,
      "Ġinterstellar": 7212,
      "Ġnanoscale": 7213,
      ":--": 7214,
      "ogene": 7215,
      "actic": 7216,
      "ĠLife": 7217,
      "Ġcontradicted": 7218,
      "Ġblood": 7219,
      "Ġproducts": 7220,
      "Would": 7221,
      "iations": 7222,
      "ĠWithin": 7223,
      "Ġbarely": 7224,
      "Ġexclaimed": 7225,
      "Ġevolves": 7226,
      "ĠElements": 7227,
      "Ġglassblower": 7228,
      "Ġasy": 7229,
      "Ġshi": 7230,
      "nitrogen": 7231,
      "alpha": 7232,
      "Ġfusing": 7233,
      "ĠWell": 7234,
      "Ġgalactic": 7235,
      "Principles": 7236,
      "Ġlaugh": 7237,
      "Ġsalmon": 7238,
      "Ġarteries": 7239,
      "Ġcores": 7240,
      "Ġreduce": 7241,
      "Ġproton": 7242,
      "Ġdepleted": 7243,
      "ĠNucle": 7244,
      "Ġendother": 7245,
      "Ġnuclear": 7246,
      "Ġsupernov": 7247,
      "mptotic": 7248,
      "proton": 7249,
      "Ġabundances": 7250,
      "Ġmergers": 7251,
      "Ġasymptotic": 7252,
      "ĠNucleosynthesis": 7253,
      "Ġendothermic": 7254,
      "Ġsupernovae": 7255,
      "orial": 7256,
      "plain": 7257,
      "Ġsir": 7258,
      "Ġoriginal": 7259,
      "Father": 7260,
      "Ġsuppose": 7261,
      "Ġinnate": 7262,
      "Ġhomogene": 7263,
      "Like": 7264,
      "Ġreplaced": 7265,
      "Ġsuited": 7266,
      "Ġaltern": 7267,
      "Ġobjections": 7268,
      "Ġsnowy": 7269,
      "Ġfolds": 7270,
      "Ġcaravans": 7271,
      "Ġarbitrary": 7272,
      "bert": 7273,
      "ĠJim": 7274,
      "Ġfaced": 7275,
      "Ind": 7276,
      "Ġglance": 7277,
      "Ġcoexisted": 7278,
      "Ġwoke": 7279,
      "ury": 7280,
      "antry": 7281,
      "Ġenabled": 7282,
      "Ġblooming": 7283,
      "Ġtested": 7284,
      "Ġsix": 7285,
      "Ġprevailed": 7286,
      "Ġrediscovered": 7287,
      "Ġerode": 7288,
      "Ġidentities": 7289,
      "Ġserving": 7290,
      "Ġlinguistic": 7291,
      "Ġexceptional": 7292,
      "Ġexpertise": 7293,
      "Ġhomogeneity": 7294,
      "Ġtund": 7295,
      "Ġtundra": 7296,
      "educt": 7297,
      "Ġmurm": 7298,
      "ecks": 7299,
      "pper": 7300,
      "Ġpersisted": 7301,
      "Ġcalculation": 7302,
      "liz": 7303,
      "Ġmonsoon": 7304,
      "Ġwarr": 7305,
      "Ġassembled": 7306,
      "organ": 7307,
      "Ġamaze": 7308,
      "Ġprompted": 7309,
      "Ġpeop": 7310,
      "Ġdefects": 7311,
      "Ġfort": 7312,
      "ards": 7313,
      "Ġdevices": 7314,
      "Ġmanufacture": 7315,
      "Ġaccommodate": 7316,
      "fed": 7317,
      "ĠThings": 7318,
      "Ġprofile": 7319,
      "ffic": 7320,
      "bed": 7321,
      "grad": 7322,
      "ĠFrench": 7323,
      "Ġstillness": 7324,
      "Ġmerits": 7325,
      "istical": 7326,
      "Ġreserv": 7327,
      "Ġshelf": 7328,
      "ologists": 7329,
      "Ġobstacles": 7330,
      "atible": 7331,
      "Ġmineralogist": 7332,
      "Ġrevel": 7333,
      "Ġreef": 7334,
      "This": 7335,
      "Ġstores": 7336,
      "Ġsettling": 7337,
      "Ġcorrected": 7338,
      "Ġaqu": 7339,
      "ĠSim": 7340,
      "Ġshowing": 7341,
      "atches": 7342,
      "Ġranged": 7343,
      "ĠLevin": 7344,
      "Ġamazement": 7345,
      "hog": 7346,
      "Ġworship": 7347,
      ".]": 7348,
      "ios": 7349,
      "Adv": 7350,
      "Ġrevised": 7351,
      "Ġconsumption": 7352,
      "Ġlexicographer": 7353,
      "Ġcopied": 7354,
      "ĠAlso": 7355,
      "Ġcotton": 7356,
      "ĠCommun": 7357,
      "ĠAdv": 7358,
      "ĠEmm": 7359,
      "fection": 7360,
      "borne": 7361,
      "Ġwatchful": 7362,
      "Ġapologize": 7363,
      "An": 7364,
      "Ġwomen": 7365,
      "Ġrecurs": 7366,
      "roads": 7367,
      "ees": 7368,
      "asc": 7369,
      "Ġprevent": 7370,
      "Ġgrades": 7371,
      "Ġdeviations": 7372,
      "Ġvolunte": 7373,
      "Ġconstruct": 7374,
      "Ġfundamentally": 7375,
      "Ġregularity": 7376,
      "Ġfoggy": 7377,
      "Ġtheorists": 7378,
      "Ġdisin": 7379,
      "Ġdestruction": 7380,
      "Ġtastes": 7381,
      "Ġrecommended": 7382,
      "Ġpenetrated": 7383,
      "kind": 7384,
      "Ġconstraining": 7385,
      "Ġpeoples": 7386,
      "Ġresolut": 7387,
      "Ġcollecting": 7388,
      "gence": 7389,
      "Ġitems": 7390,
      "Ġglided": 7391,
      "Ġunfold": 7392,
      "Ġperched": 7393,
      "Ġmemb": 7394,
      "Ġbridges": 7395,
      "Ġexperimentalists": 7396,
      "Ġexported": 7397,
      "_.": 7398,
      "Ġoptim": 7399,
      "Ġinterdependent": 7400,
      "ighter": 7401,
      "ensation": 7402,
      "ĠUsing": 7403,
      "Ġimaginable": 7404,
      "Indeed": 7405,
      "Ġalert": 7406,
      "Ġscrew": 7407,
      "Ġcontrolling": 7408,
      "Ġanimal": 7409,
      "Ġchamp": 7410,
      "duced": 7411,
      "Ġupgrad": 7412,
      "Ġautom": 7413,
      "Ġdelivering": 7414,
      "Advances": 7415,
      "Ġupgraded": 7416,
      "Ġawe": 7417,
      "Ġsignal": 7418,
      "Ġcooking": 7419,
      "Ġeffectively": 7420,
      "Ġtalented": 7421,
      "Ġdeterior": 7422,
      "Ġroughly": 7423,
      "Ġmembrane": 7424,
      "Ġprest": 7425,
      "Ġdiffer": 7426,
      "Ġknowledgeable": 7427,
      "Ġfrosty": 7428,
      "Ġrewarding": 7429,
      "Ġrelied": 7430,
      "Ġcompatible": 7431,
      "Ġimperative": 7432,
      "Ġcontradictions": 7433,
      "design": 7434,
      "ask": 7435,
      "section": 7436,
      "ĠOr": 7437,
      "was": 7438,
      "Ġdisposing": 7439,
      "Ġmeasures": 7440,
      "Ġbewild": 7441,
      "nching": 7442,
      "ĠHoping": 7443,
      "Ġflowering": 7444,
      "oirs": 7445,
      "Water": 7446,
      "ĠPat": 7447,
      "Ġbasins": 7448,
      "Ġcontempl": 7449,
      "abeth": 7450,
      "Ġricher": 7451,
      "ew": 7452,
      "Ġfle": 7453,
      "Ġmanual": 7454,
      "Ġhydra": 7455,
      "Ġinspection": 7456,
      "Ġwithstanding": 7457,
      "Ġking": 7458,
      "Ġpreparing": 7459,
      "Ġprowess": 7460,
      "Ġapprehension": 7461,
      "Ġdecree": 7462,
      "Ġfrag": 7463,
      "Ġbasalt": 7464,
      "Ġtreatises": 7465,
      "Ġepidemic": 7466,
      "Ġdisturbing": 7467,
      "iary": 7468,
      "Ġstrange": 7469,
      "ĠLibr": 7470,
      "Ġbatch": 7471,
      "Ġstaying": 7472,
      "Ġwarranted": 7473,
      "Ġknelt": 7474,
      "Ġstatistical": 7475,
      "Ġproblematic": 7476,
      "Ġadmitted": 7477,
      "Ġmanufacturers": 7478,
      "Ġvolunteered": 7479,
      "Ġprestige": 7480,
      "lizabeth": 7481,
      "Ġintersection": 7482,
      "Ġgratefully": 7483,
      "Ġenthusi": 7484,
      "kit": 7485,
      "Ġsongs": 7486,
      "Ġtargets": 7487,
      "Ġrelying": 7488,
      "ivated": 7489,
      "Ġemploys": 7490,
      "Really": 7491,
      "ratic": 7492,
      "urity": 7493,
      "ulic": 7494,
      "ĠEnviron": 7495,
      "Ġplanning": 7496,
      "batch": 7497,
      "rocess": 7498,
      "Ġstaged": 7499,
      "Ġtraded": 7500,
      "Ġmahog": 7501,
      "Ġoperators": 7502,
      "Ġpreprocess": 7503,
      "ĠTraditional": 7504,
      "Ġbottlen": 7505,
      "Ġautomation": 7506,
      "ĠEnvironmental": 7507,
      "Ġmahogany": 7508,
      "Ġpreprocessing": 7509,
      "Ġbottlenecks": 7510,
      "Eat": 7511,
      "Ġopenness": 7512,
      "Ġdeteriorated": 7513,
      "port": 7514,
      "Ġsits": 7515,
      "Ġcrunching": 7516,
      "Ġlas": 7517,
      "rous": 7518,
      "Ġtenderness": 7519,
      "Ġimprov": 7520,
      "Ġaccounting": 7521,
      "Ġcrossroads": 7522,
      "ifficulties": 7523,
      "Ġhydraulic": 7524,
      "Ġtraffic": 7525,
      "Ġfiltered": 7526,
      "Ġwetland": 7527,
      "Exactly": 7528,
      "Ġaqueduct": 7529,
      "arl": 7530,
      "Ġtransforming": 7531,
      "Ġminist": 7532,
      "Ġtolerant": 7533,
      "Ġfocused": 7534,
      "Ġlinking": 7535,
      "Ġtunnels": 7536,
      "Ġreservoirs": 7537,
      "Ġmaps": 7538,
      "ĠHere": 7539,
      "Ġarchaeological": 7540,
      "Ġmodeling": 7541,
      "Ġmasked": 7542,
      "ĠAdvanced": 7543,
      "error": 7544,
      "Ġrevenues": 7545,
      "Ġconsolidated": 7546,
      "Ġcontaminated": 7547,
      "Ġdisinfection": 7548,
      "Ġaging": 7549,
      "Ġattendees": 7550,
      "Ġwaterborne": 7551,
      "Ġtoolkit": 7552,
      "Ġsewerage": 7553,
      "Ġoptimization": 7554,
      "Ġcum": 7555,
      "Ġdemonstrations": 7556,
      "Ġcris": 7557,
      "ĠYesterday": 7558,
      "Ġexpeditions": 7559,
      "Ġinflux": 7560,
      "Ġstudios": 7561,
      "Ġsword": 7562,
      "Ġbureaucratic": 7563,
      "ĠTax": 7564,
      "Ġloyalties": 7565,
      "Ġreshape": 7566,
      "Ġadjudicated": 7567,
      "Ġrivaled": 7568,
      "Ġensured": 7569,
      "Ġventures": 7570,
      "Ġexchanges": 7571,
      "olly": 7572,
      "Ġcompilation": 7573,
      "Ġced": 7574,
      "earning": 7575,
      "Ġpowerful": 7576,
      "Ġmisty": 7577,
      "Ġpriority": 7578,
      "Ġmang": 7579,
      "Ġnutr": 7580,
      "Ġthinned": 7581,
      "Ġdiscern": 7582,
      "Ġevident": 7583,
      "Ġtheat": 7584,
      "Ġjade": 7585,
      "Ġbackgrounds": 7586,
      "ĠCommunities": 7587,
      "Ġcedar": 7588,
      "Ġhumid": 7589,
      "Ġconvergence": 7590,
      "aple": 7591,
      "ĠLibraries": 7592,
      "Ġgau": 7593,
      "Ġobservational": 7594,
      "Ġcollaborated": 7595,
      "Ġhair": 7596,
      "ĠDifficulties": 7597,
      "Ġbrighter": 7598,
      "Ġsweetness": 7599,
      "designed": 7600,
      "div": 7601,
      "induced": 7602,
      "Ġlonging": 7603,
      "Ġfollowers": 7604,
      "Ġflour": 7605,
      "Ġsketching": 7606,
      "bat": 7607,
      "Ġrecording": 7608,
      "Ġknows": 7609,
      "Ġmoss": 7610,
      "Ġdism": 7611,
      "Ġpatch": 7612,
      "Ġready": 7613,
      "counters": 7614,
      "Ġimprovisation": 7615,
      "ream": 7616,
      "Ġstaple": 7617,
      "redict": 7618,
      "Ġspecialists": 7619,
      "Ġdispatches": 7620,
      "ule": 7621,
      "Ġforced": 7622,
      "Ġspons": 7623,
      "Ġimpractical": 7624,
      "Ġaccomp": 7625,
      "Ġmulti": 7626,
      "Ġcelebrations": 7627,
      "Ġsimplified": 7628,
      "ĠMass": 7629,
      "Ġpracticing": 7630,
      "Ġacademy": 7631,
      "Ġterritorial": 7632,
      "redictable": 7633,
      "igg": 7634,
      "airs": 7635,
      "Ġeconomically": 7636,
      "ĠSupply": 7637,
      "Ġunpredictable": 7638,
      "Ġwild": 7639,
      "Ġcorros": 7640,
      "brid": 7641,
      "ĠEncounters": 7642,
      "Ġmotivated": 7643,
      "Ġsponsoring": 7644,
      "Ġdripping": 7645,
      "Ġcrisis": 7646,
      "Ġcorrosion": 7647,
      "linear": 7648,
      "ato": 7649,
      "Ġcompensation": 7650,
      "Tomorrow": 7651,
      "Ġproportioning": 7652,
      "Ġseism": 7653,
      "Ġformalization": 7654,
      "Ġnonlinear": 7655,
      "Ġcumulative": 7656,
      "Ġseismic": 7657,
      "Ġbog": 7658,
      "Ġcompetent": 7659,
      "Ġnutrition": 7660,
      "Ġally": 7661,
      "while": 7662,
      "Ġprivileges": 7663,
      "Ġpracticality": 7664,
      "Ġtendencies": 7665,
      "alism": 7666,
      "Ġswitched": 7667,
      "Ġmangrove": 7668,
      "Ġarmies": 7669,
      "Ġhast": 7670,
      "keeping": 7671,
      "Ġexplo": 7672,
      "Ġaristocracy": 7673,
      "Ġencouraged": 7674,
      "avalry": 7675,
      "erving": 7676,
      "ĠJean": 7677,
      "Ġconquered": 7678,
      "Ġaf": 7679,
      "Ġring": 7680,
      "Ġten": 7681,
      "Ġordering": 7682,
      "issed": 7683,
      "Ġcosts": 7684,
      "Ġstrangers": 7685,
      "Ġgreatly": 7686,
      "ĊĠĠ": 7687,
      "Ġain": 7688,
      "ishment": 7689,
      "Ġconce": 7690,
      "Ġwary": 7691,
      "abilities": 7692,
      "Ġsharper": 7693,
      "Ġpetals": 7694,
      "Ġmobil": 7695,
      "Ġinstituted": 7696,
      "will": 7697,
      "Ġupper": 7698,
      "osely": 7699,
      "Ġreck": 7700,
      "ken": 7701,
      "Ġnecessary": 7702,
      "Ġcontentious": 7703,
      "Ġalternative": 7704,
      "Ġdut": 7705,
      "Ġpositive": 7706,
      "Ġresolutions": 7707,
      "Ġschol": 7708,
      "Ġblocks": 7709,
      "ression": 7710,
      "Ġexploit": 7711,
      "Ġdepended": 7712,
      "ĠIde": 7713,
      "Ġpeat": 7714,
      "Ġcivilian": 7715,
      "Ġsecular": 7716,
      "Ġreverence": 7717,
      "Ġskilled": 7718,
      "Ġconfirms": 7719,
      "ĠKnow": 7720,
      "Ġmetals": 7721,
      "Ġwindy": 7722,
      "Ġprecipitated": 7723,
      "inc": 7724,
      "gely": 7725,
      "Ġartis": 7726,
      "Ġprofoundly": 7727,
      "Ġtheatre": 7728,
      "ee": 7729,
      "Ġfiss": 7730,
      "Ġaud": 7731,
      "forest": 7732,
      "Ġempire": 7733,
      "ĠNever": 7734,
      "ibration": 7735,
      "Ġsymp": 7736,
      "Ġmultipl": 7737,
      "ensely": 7738,
      "leys": 7739,
      "Ġinstances": 7740,
      "Ġinfantry": 7741,
      "Ġoutdoor": 7742,
      "Ġmobilized": 7743,
      "backs": 7744,
      "Ġapparently": 7745,
      "organization": 7746,
      "Ġpatchwork": 7747,
      "ĠAb": 7748,
      "Ġloved": 7749,
      "Ġgardening": 7750,
      "Ġmachines": 7751,
      "Ġpref": 7752,
      "ĠPower": 7753,
      "Ġfissures": 7754,
      "Ġinadequacy": 7755,
      "his": 7756,
      "Ġdang": 7757,
      "Ġrolling": 7758,
      "eng": 7759,
      "Ġvisiting": 7760,
      "anal": 7761,
      "Ġwarn": 7762,
      "rometer": 7763,
      "Ġrationalizing": 7764,
      "Ġpriorities": 7765,
      "Ġenthusiasts": 7766,
      "tiary": 7767,
      "Ġreorganization": 7768,
      "Ġchampioned": 7769,
      "Ġsetbacks": 7770,
      "Ġmeritocratic": 7771,
      "Ġposts": 7772,
      "Ġministries": 7773,
      "they": 7774,
      "ĠMari": 7775,
      "Ġtertiary": 7776,
      "Ġrainforest": 7777,
      "Ġobserving": 7778,
      "Ġgirl": 7779,
      "Ġcommod": 7780,
      "ĠAhab": 7781,
      "Ġunits": 7782,
      "Ġweights": 7783,
      "rible": 7784,
      "orses": 7785,
      "Ġhardly": 7786,
      "Ġsubdiv": 7787,
      "Ġcoordinate": 7788,
      "ĠFriend": 7789,
      "Ġplains": 7790,
      "Ġverifying": 7791,
      "ON": 7792,
      "rouble": 7793,
      "Ġoptical": 7794,
      "Ġsunny": 7795,
      "nier": 7796,
      "ĠNat": 7797,
      "Ġcup": 7798,
      "Ġcelebration": 7799,
      "Ġfive": 7800,
      "Ġbewilderment": 7801,
      "Ġelation": 7802,
      "Ġwhatever": 7803,
      "Ġdimensional": 7804,
      "Ġpossibility": 7805,
      "Ġscrews": 7806,
      "Ġgauge": 7807,
      "Ġhighly": 7808,
      "Ġsubdivision": 7809,
      "Ġcontribute": 7810,
      "Ġshipping": 7811,
      "Ġtact": 7812,
      "Ġdiffusion": 7813,
      "Ġcapabilities": 7814,
      "Ġbox": 7815,
      "ĠHel": 7816,
      "Ġdivers": 7817,
      "Ġmicro": 7818,
      "opes": 7819,
      "Ġcaravan": 7820,
      "Ġtimekeeping": 7821,
      "Ġcomparators": 7822,
      "Ġquantify": 7823,
      "Ġcalibration": 7824,
      "Ġreadout": 7825,
      "Ġvernier": 7826,
      "Ġincorporates": 7827,
      "Ġmicrometer": 7828,
      "Ġelectronic": 7829,
      "processors": 7830,
      "Ġalgorithms": 7831,
      "Ġdigital": 7832,
      "gebraic": 7833,
      "Ġmurmured": 7834,
      "Ġlaser": 7835,
      "Ġmicroprocessors": 7836,
      "modern": 7837,
      "First": 7838,
      "alg": 7839,
      "ĠMrs": 7840,
      "ĠIdeas": 7841,
      "arsh": 7842,
      "Ġspirit": 7843,
      "Ġcommodities": 7844,
      "Ġlanes": 7845,
      "Ġrecognizing": 7846,
      "Ġregulating": 7847,
      "Ġdimin": 7848,
      "Ġgods": 7849,
      "take": 7850,
      "So": 7851,
      "Ġnost": 7852,
      "Cl": 7853,
      "Ġstimulated": 7854,
      "ires": 7855,
      "this": 7856,
      "outh": 7857,
      "ĠTrade": 7858,
      "Ġstarts": 7859,
      "Ġconsumer": 7860,
      "Ġmarkets": 7861,
      "Ġpac": 7862,
      "Ġfan": 7863,
      "Ġnumerous": 7864,
      "Ġhus": 7865,
      "ĠAgricult": 7866,
      "isting": 7867,
      "Ġvalleys": 7868,
      "ĠSecondary": 7869,
      "stries": 7870,
      "Ġindustries": 7871,
      "Ġparticipants": 7872,
      "Ġcatered": 7873,
      "Ġconsumers": 7874,
      "iggering": 7875,
      "algia": 7876,
      "Ġnostalgia": 7877,
      "Ġflex": 7878,
      "Ġfragment": 7879,
      "Ġcontentment": 7880,
      "Ġoverland": 7881,
      "ĠWeather": 7882,
      "ĠNetwork": 7883,
      "Ġtriggering": 7884,
      "Ġspecialization": 7885,
      "Ġtextiles": 7886,
      "Ġceramics": 7887,
      "Ġadjudicate": 7888,
      "Ġscholarly": 7889,
      "Ġartisanal": 7890,
      "Ġmultiplier": 7891,
      "ĠAgricultural": 7892,
      "ĠNetworks": 7893,
      "ĠState": 7894,
      "Ġfert": 7895,
      "Ġheaven": 7896,
      "Ġenem": 7897,
      "Ġinstant": 7898,
      "Ġdegrees": 7899,
      "uary": 7900,
      "Ġsie": 7901,
      "ĠHim": 7902,
      "Ġoutdoors": 7903,
      "Ġfascination": 7904,
      "sequently": 7905,
      "Ġdeclared": 7906,
      "ull": 7907,
      "Ġtactics": 7908,
      "Ġalli": 7909,
      "Ġdisplaced": 7910,
      "ighed": 7911,
      "Ġmodification": 7912,
      "Ġoperated": 7913,
      "Ġhorses": 7914,
      "ĠElizabeth": 7915,
      "iliated": 7916,
      "Ġbell": 7917,
      "Ġflexible": 7918,
      "Ġdrink": 7919,
      "Ġdisch": 7920,
      "Ġsystemat": 7921,
      "Ġsiege": 7922,
      "For": 7923,
      "Ġdaugh": 7924,
      "Ġinherit": 7925,
      "Ġfool": 7926,
      "Ġstrategy": 7927,
      "Ġaccompan": 7928,
      "asper": 7929,
      "ĠHistor": 7930,
      "Ġhybrid": 7931,
      "Ġfever": 7932,
      "Ġsavanna": 7933,
      "Ġsorry": 7934,
      "Ġbit": 7935,
      "ĠMarius": 7936,
      ",'": 7937,
      "Ã¡s": 7938,
      "Ġcertainly": 7939,
      "ĠBeginning": 7940,
      "Ġdensely": 7941,
      "Ġimage": 7942,
      "Ġfactions": 7943,
      "Ġstraight": 7944,
      "Ġwaves": 7945,
      "ĠHer": 7946,
      "Ġbre": 7947,
      "fully": 7948,
      "combat": 7949,
      "Ġdogs": 7950,
      "band": 7951,
      "Ġflourished": 7952,
      "Ġsharing": 7953,
      "Ġcover": 7954,
      "ailed": 7955,
      "Ġadministrators": 7956,
      "Ġdiscernible": 7957,
      "Ġpacification": 7958,
      "ĠHistorians": 7959,
      "ĠWho": 7960,
      "Ġintegration": 7961,
      "Military": 7962,
      "Ġconcess": 7963,
      "oses": 7964,
      "ĠCavalry": 7965,
      "Ġcoordinated": 7966,
      "ĠCampaigns": 7967,
      "Ġdepots": 7968,
      "Ġforested": 7969,
      "ĠDefeated": 7970,
      "Ġfragmentation": 7971,
      "combatant": 7972,
      "Ġloosely": 7973,
      "Ġexamined": 7974,
      "ĠMary": 7975,
      "ony": 7976,
      "Ġsn": 7977,
      "Ġtransport": 7978,
      "Ġbureaucracy": 7979,
      "Ġsister": 7980,
      "Ġfrozen": 7981,
      "arse": 7982,
      "Ġentity": 7983,
      "fall": 7984,
      "Ġgrounds": 7985,
      "Ġconcessions": 7986,
      "Ġdepend": 7987,
      "ĠHellen": 7988,
      "equ": 7989,
      "sky": 7990,
      "Ġpromulg": 7991,
      "Ġalliances": 7992,
      "ovitch": 7993,
      "aving": 7994,
      "Ġadded": 7995,
      "Ġthousands": 7996,
      "Ġpromulgated": 7997,
      "Ġvied": 7998,
      "Ġautonomy": 7999,
      "eless": 8000,
      "Ġaffiliated": 8001,
      "Ġpretty": 8002,
      "Ġsystematized": 8003,
      "Ġlegitimize": 8004,
      "aid": 8005,
      "under": 8006,
      "Ġnobody": 8007,
      "ovna": 8008,
      "olidation": 8009,
      "Ġsafety": 8010,
      "ĠConsolidation": 8011,
      "Ġcatalyzed": 8012,
      "Ġnegotiated": 8013,
      "ĠPatronage": 8014,
      "Ġfragmented": 8015,
      "ogical": 8016,
      "ĠEng": 8017,
      "irm": 8018,
      "point": 8019,
      "there": 8020,
      "inating": 8021,
      "Ġslight": 8022,
      "Ġinsisted": 8023,
      "ĠPlato": 8024,
      "ppe": 8025,
      "Ġlocation": 8026,
      "Ġcounter": 8027,
      "Ġpray": 8028,
      "Were": 8029,
      "aj": 8030,
      "inct": 8031,
      "ĠOF": 8032,
      "Ġboat": 8033,
      "ĠPracticing": 8034,
      "ĠObserving": 8035,
      "gn": 8036,
      "Ġtrouble": 8037,
      "Ġmixed": 8038,
      "Ġaccompanied": 8039,
      "Ġoffic": 8040,
      "'ve": 8041,
      "Some": 8042,
      "essen": 8043,
      "field": 8044,
      "occ": 8045,
      "Ġparts": 8046,
      "Ġleng": 8047,
      "Stir": 8048,
      "Ġreaching": 8049,
      "ĠEmmeline": 8050,
      "ĠPh": 8051,
      "Ġthrive": 8052,
      "Ġgives": 8053,
      "Ġprair": 8054,
      "Ã¡sha": 8055,
      "ĠHyd": 8056,
      "Ġprison": 8057,
      "Ġeverywhere": 8058,
      "Ġperformed": 8059,
      "Before": 8060,
      "Ġvirtuous": 8061,
      "rowing": 8062,
      "Ġchief": 8063,
      "ĠDi": 8064,
      "Ġmention": 8065,
      "They": 8066,
      "Ġsecurity": 8067,
      "Ġdeparture": 8068,
      "Ġretreat": 8069,
      "Ġrom": 8070,
      "antern": 8071,
      "aired": 8072,
      "âĢľ": 8073,
      "Ġprairie": 8074,
      "ĠIts": 8075,
      "ensity": 8076,
      "lyos": 8077,
      "lyosha": 8078,
      "EN": 8079,
      "Ġlad": 8080,
      "Ġreduced": 8081,
      "Ġbranches": 8082,
      "bl": 8083,
      "ĠFunction": 8084,
      "Ġhusband": 8085,
      "ips": 8086,
      "Ġreckon": 8087,
      "uppose": 8088,
      "ĠHelena": 8089,
      "rist": 8090,
      "ĠRuss": 8091,
      "Ġmad": 8092,
      "ĠGil": 8093,
      "Morning": 8094,
      "outhern": 8095,
      "ĠNature": 8096,
      "Ġfascinating": 8097,
      "Ġsighed": 8098,
      "reated": 8099,
      "rus": 8100,
      "Ġdelight": 8101,
      "Ġrenew": 8102,
      "Ġprefers": 8103,
      ").": 8104,
      "Ġpay": 8105,
      "Ġdate": 8106,
      "ĠJasper": 8107,
      "Ġbirds": 8108,
      "ket": 8109,
      "nest": 8110,
      "ours": 8111,
      "Ġagent": 8112,
      "Ġvariable": 8113,
      "ĠHellenistic": 8114,
      "ĠDay": 8115,
      "ĠOur": 8116,
      "ĠGilbert": 8117,
      "Ġlantern": 8118,
      "Ġestuary": 8119,
      "Now": 8120,
      "raid": 8121,
      "Ġswamp": 8122,
      "ĠNevertheless": 8123,
      "how": 8124,
      "ĠAlyosha": 8125,
      "Ġglad": 8126,
      "Ġcrown": 8127,
      "Ġwounds": 8128,
      "guer": 8129,
      "tent": 8130,
      "ĠArch": 8131,
      "ĠMoreover": 8132,
      "Ġrestored": 8133,
      "rel": 8134,
      "icacy": 8135,
      "Ġmoderate": 8136,
      "ĠOf": 8137,
      "Ġsleep": 8138,
      "bo": 8139,
      "Ġfront": 8140,
      "Ġviol": 8141,
      "Ġparent": 8142,
      "Ġsteppe": 8143,
      "Ġsect": 8144,
      "Ġjum": 8145,
      "ĠMarguer": 8146,
      "ĠTherefore": 8147,
      "ĠMarguerite": 8148,
      "Ġforever": 8149,
      "run": 8150,
      "Le": 8151,
      "Ġarrangement": 8152,
      "Ġshield": 8153,
      "Ġilluminated": 8154,
      "Ġsuppl": 8155,
      "Ġlargely": 8156,
      "Ġnamed": 8157,
      "Ġsentiments": 8158,
      "ocrates": 8159,
      "orthern": 8160,
      "Ġcouldn": 8161,
      "pan": 8162,
      "adora": 8163,
      "geon": 8164,
      "ĠIsadora": 8165,
      "Ġcelebrated": 8166,
      "Ġrid": 8167,
      "ĠNor": 8168,
      "ĠNatÃ¡sha": 8169,
      "Ġgri": 8170,
      "'m": 8171,
      "Ġdie": 8172,
      "Ġinfluences": 8173,
      "Ġpersons": 8174,
      "Ġhidden": 8175,
      "Ġlength": 8176,
      "Ġblank": 8177,
      "Ġaims": 8178,
      "ĠMedieval": 8179,
      "ES": 8180,
      "Ġflower": 8181,
      "Ġwouldn": 8182,
      "Ġdeal": 8183,
      "Ġvarying": 8184,
      "ĠKnowledge": 8185,
      "Ġdownst": 8186,
      "Make": 8187,
      "Ġdischarge": 8188,
      "Greek": 8189,
      "jord": 8190,
      "Ġta": 8191
    },
    "merges": [
      [
        "Ġ",
        "t"
      ],
      [
        "h",
        "e"
      ],
      [
        "i",
        "n"
      ],
      [
        "Ġ",
        "a"
      ],
      [
        "o",
        "n"
      ],
      [
        "r",
        "e"
      ],
      [
        "Ġt",
        "he"
      ],
      [
        "a",
        "t"
      ],
      [
        "e",
        "r"
      ],
      [
        "Ġ",
        "s"
      ],
      [
        "e",
        "n"
      ],
      [
        "Ġ",
        "o"
      ],
      [
        "Ġ",
        "c"
      ],
      [
        "Ġ",
        "w"
      ],
      [
        "i",
        "t"
      ],
      [
        "n",
        "d"
      ],
      [
        "e",
        "d"
      ],
      [
        "a",
        "l"
      ],
      [
        "e",
        "s"
      ],
      [
        "in",
        "g"
      ],
      [
        "Ġo",
        "f"
      ],
      [
        "i",
        "s"
      ],
      [
        "Ġ",
        "p"
      ],
      [
        "o",
        "r"
      ],
      [
        "i",
        "on"
      ],
      [
        "Ġ",
        "f"
      ],
      [
        "Ġ",
        "b"
      ],
      [
        "Ġ",
        "in"
      ],
      [
        "Ġ",
        "m"
      ],
      [
        "Ġ",
        "d"
      ],
      [
        "i",
        "c"
      ],
      [
        "r",
        "o"
      ],
      [
        "a",
        "r"
      ],
      [
        "Ġa",
        "nd"
      ],
      [
        "a",
        "n"
      ],
      [
        "Ġt",
        "h"
      ],
      [
        "o",
        "u"
      ],
      [
        "l",
        "e"
      ],
      [
        "Ġ",
        "e"
      ],
      [
        "s",
        "t"
      ],
      [
        "en",
        "t"
      ],
      [
        "Ġ",
        "h"
      ],
      [
        "Ġt",
        "o"
      ],
      [
        "Ġ",
        "re"
      ],
      [
        "c",
        "t"
      ],
      [
        "a",
        "s"
      ],
      [
        "Ġ",
        "T"
      ],
      [
        "Ġth",
        "at"
      ],
      [
        "e",
        "l"
      ],
      [
        "o",
        "m"
      ],
      [
        "r",
        "a"
      ],
      [
        "Ġ",
        "n"
      ],
      [
        "Ġ",
        "l"
      ],
      [
        "u",
        "r"
      ],
      [
        "at",
        "ion"
      ],
      [
        "l",
        "y"
      ],
      [
        "e",
        "t"
      ],
      [
        "c",
        "e"
      ],
      [
        "Ġc",
        "on"
      ],
      [
        "u",
        "t"
      ],
      [
        "ĠT",
        "he"
      ],
      [
        "v",
        "e"
      ],
      [
        "i",
        "m"
      ],
      [
        "o",
        "l"
      ],
      [
        "s",
        "e"
      ],
      [
        "i",
        "l"
      ],
      [
        "Ġ",
        "g"
      ],
      [
        "i",
        "d"
      ],
      [
        "v",
        "er"
      ],
      [
        "c",
        "h"
      ],
      [
        "Ġb",
        "e"
      ],
      [
        "Ġs",
        "t"
      ],
      [
        "Ġw",
        "h"
      ],
      [
        "u",
        "l"
      ],
      [
        "Ġf",
        "or"
      ],
      [
        "o",
        "t"
      ],
      [
        "o",
        "w"
      ],
      [
        "Ġ",
        "it"
      ],
      [
        "Ġ",
        "on"
      ],
      [
        "Ġp",
        "ro"
      ],
      [
        "Ġd",
        "e"
      ],
      [
        "i",
        "r"
      ],
      [
        "o",
        "d"
      ],
      [
        "Ġ",
        "u"
      ],
      [
        "a",
        "d"
      ],
      [
        "i",
        "g"
      ],
      [
        "q",
        "u"
      ],
      [
        "m",
        "ent"
      ],
      [
        "Ġ",
        "is"
      ],
      [
        "ic",
        "al"
      ],
      [
        "it",
        "h"
      ],
      [
        "he",
        "r"
      ],
      [
        "Ġe",
        "x"
      ],
      [
        "i",
        "f"
      ],
      [
        "Ġw",
        "ith"
      ],
      [
        "it",
        "y"
      ],
      [
        "Ġ",
        "I"
      ],
      [
        "is",
        "t"
      ],
      [
        "es",
        "t"
      ],
      [
        "a",
        "nd"
      ],
      [
        "ion",
        "s"
      ],
      [
        "Ġc",
        "om"
      ],
      [
        "ro",
        "m"
      ],
      [
        "Ġw",
        "as"
      ],
      [
        "o",
        "p"
      ],
      [
        "e",
        "m"
      ],
      [
        "a",
        "y"
      ],
      [
        "es",
        "s"
      ],
      [
        "Ġ",
        "y"
      ],
      [
        "e",
        "re"
      ],
      [
        "a",
        "b"
      ],
      [
        "re",
        "s"
      ],
      [
        "i",
        "es"
      ],
      [
        "Ġf",
        "rom"
      ],
      [
        "Ġa",
        "s"
      ],
      [
        "o",
        "re"
      ],
      [
        "Ġa",
        "n"
      ],
      [
        "Ġin",
        "t"
      ],
      [
        "r",
        "i"
      ],
      [
        "a",
        "in"
      ],
      [
        "Ġs",
        "u"
      ],
      [
        "g",
        "e"
      ],
      [
        "p",
        "p"
      ],
      [
        "Ġb",
        "y"
      ],
      [
        "l",
        "d"
      ],
      [
        "c",
        "i"
      ],
      [
        "e",
        "ct"
      ],
      [
        "er",
        "s"
      ],
      [
        "r",
        "u"
      ],
      [
        "o",
        "s"
      ],
      [
        "Ġ",
        "v"
      ],
      [
        "an",
        "t"
      ],
      [
        "Ġa",
        "t"
      ],
      [
        "Ġy",
        "ou"
      ],
      [
        "g",
        "h"
      ],
      [
        "Ġa",
        "l"
      ],
      [
        "Ġ",
        "A"
      ],
      [
        "o",
        "g"
      ],
      [
        "p",
        "t"
      ],
      [
        "Ġc",
        "h"
      ],
      [
        "a",
        "m"
      ],
      [
        "ro",
        "u"
      ],
      [
        "n",
        "t"
      ],
      [
        "i",
        "ve"
      ],
      [
        "Ġn",
        "e"
      ],
      [
        "Ġs",
        "e"
      ],
      [
        "Ġ",
        "he"
      ],
      [
        "or",
        "k"
      ],
      [
        "en",
        "ce"
      ],
      [
        "Ġn",
        "ot"
      ],
      [
        "p",
        "l"
      ],
      [
        "u",
        "d"
      ],
      [
        "er",
        "i"
      ],
      [
        "Ġs",
        "h"
      ],
      [
        "Ġh",
        "a"
      ],
      [
        "Ġ",
        "en"
      ],
      [
        "at",
        "e"
      ],
      [
        "Ġa",
        "r"
      ],
      [
        "i",
        "v"
      ],
      [
        "ation",
        "s"
      ],
      [
        "u",
        "re"
      ],
      [
        "Ġ",
        "\""
      ],
      [
        "Ġ",
        "S"
      ],
      [
        "Ġcon",
        "t"
      ],
      [
        "Ġcom",
        "p"
      ],
      [
        "d",
        "u"
      ],
      [
        "Ġit",
        "s"
      ],
      [
        "ur",
        "ing"
      ],
      [
        "il",
        "l"
      ],
      [
        "t",
        "h"
      ],
      [
        "a",
        "c"
      ],
      [
        "al",
        "l"
      ],
      [
        "Ġb",
        "ut"
      ],
      [
        "ic",
        "h"
      ],
      [
        "nd",
        "er"
      ],
      [
        "Ġth",
        "is"
      ],
      [
        "en",
        "d"
      ],
      [
        "k",
        "e"
      ],
      [
        "Ġ",
        "r"
      ],
      [
        "Ġha",
        "ve"
      ],
      [
        "ig",
        "h"
      ],
      [
        "Ġ",
        "le"
      ],
      [
        "t",
        "er"
      ],
      [
        "â",
        "Ģ"
      ],
      [
        "Ġh",
        "ad"
      ],
      [
        "ou",
        "ld"
      ],
      [
        "Ġa",
        "re"
      ],
      [
        "ra",
        "ct"
      ],
      [
        "Ġu",
        "nder"
      ],
      [
        "Ġs",
        "p"
      ],
      [
        "at",
        "ed"
      ],
      [
        "u",
        "s"
      ],
      [
        "u",
        "m"
      ],
      [
        "Ġwh",
        "o"
      ],
      [
        "Ġa",
        "pp"
      ],
      [
        "Ġo",
        "r"
      ],
      [
        "ou",
        "t"
      ],
      [
        "v",
        "el"
      ],
      [
        "Ġwh",
        "ich"
      ],
      [
        "in",
        "e"
      ],
      [
        "it",
        "ion"
      ],
      [
        "igh",
        "t"
      ],
      [
        "Ġm",
        "e"
      ],
      [
        "Ġa",
        "b"
      ],
      [
        "Ġ",
        "qu"
      ],
      [
        "Ġw",
        "ork"
      ],
      [
        "Ġd",
        "uring"
      ],
      [
        "Ġm",
        "o"
      ],
      [
        "ar",
        "y"
      ],
      [
        "Ġ",
        "B"
      ],
      [
        "a",
        "p"
      ],
      [
        "Ġh",
        "as"
      ],
      [
        "Ġe",
        "v"
      ],
      [
        "Ġ",
        "C"
      ],
      [
        "Ġre",
        "s"
      ],
      [
        "re",
        "d"
      ],
      [
        "ul",
        "t"
      ],
      [
        "Ġex",
        "p"
      ],
      [
        "ab",
        "le"
      ],
      [
        "u",
        "al"
      ],
      [
        "ou",
        "s"
      ],
      [
        "Ġd",
        "is"
      ],
      [
        "Ġ",
        "im"
      ],
      [
        "Ġa",
        "c"
      ],
      [
        "Ġon",
        "e"
      ],
      [
        "rou",
        "gh"
      ],
      [
        "on",
        "g"
      ],
      [
        "Ġt",
        "ra"
      ],
      [
        "he",
        "n"
      ],
      [
        "i",
        "z"
      ],
      [
        "Ġ",
        "W"
      ],
      [
        "or",
        "t"
      ],
      [
        "y",
        "st"
      ],
      [
        "Ġw",
        "ere"
      ],
      [
        "Ġin",
        "st"
      ],
      [
        "Ġ",
        "M"
      ],
      [
        "ol",
        "og"
      ],
      [
        "Ġt",
        "e"
      ],
      [
        "u",
        "st"
      ],
      [
        "an",
        "ce"
      ],
      [
        "Ġ",
        "k"
      ],
      [
        "ru",
        "ct"
      ],
      [
        "a",
        "ch"
      ],
      [
        "i",
        "e"
      ],
      [
        "b",
        "le"
      ],
      [
        "Ġw",
        "e"
      ],
      [
        "Ġm",
        "ore"
      ],
      [
        "Ġa",
        "d"
      ],
      [
        "Ġin",
        "c"
      ],
      [
        "Ġbe",
        "en"
      ],
      [
        "a",
        "ct"
      ],
      [
        "Ġ",
        "H"
      ],
      [
        "v",
        "ed"
      ],
      [
        "Ġthe",
        "ir"
      ],
      [
        "ĠT",
        "h"
      ],
      [
        "a",
        "st"
      ],
      [
        "Ġe",
        "m"
      ],
      [
        "om",
        "e"
      ],
      [
        "Ġb",
        "et"
      ],
      [
        "le",
        "ct"
      ],
      [
        "t",
        "her"
      ],
      [
        "el",
        "l"
      ],
      [
        "p",
        "er"
      ],
      [
        "c",
        "ess"
      ],
      [
        "vel",
        "op"
      ],
      [
        "or",
        "m"
      ],
      [
        "Ġp",
        "ract"
      ],
      [
        "ver",
        "y"
      ],
      [
        "ur",
        "al"
      ],
      [
        "ar",
        "d"
      ],
      [
        "if",
        "ic"
      ],
      [
        "'",
        "s"
      ],
      [
        "Ġc",
        "ent"
      ],
      [
        "Ġm",
        "an"
      ],
      [
        "yst",
        "em"
      ],
      [
        "r",
        "an"
      ],
      [
        "Ġde",
        "velop"
      ],
      [
        "Ġ",
        "E"
      ],
      [
        "in",
        "d"
      ],
      [
        "Ġre",
        "f"
      ],
      [
        "c",
        "es"
      ],
      [
        "ou",
        "nd"
      ],
      [
        "n",
        "ow"
      ],
      [
        "c",
        "ed"
      ],
      [
        "Ġ",
        "L"
      ],
      [
        "Ġunder",
        "st"
      ],
      [
        "Ġth",
        "rough"
      ],
      [
        "i",
        "le"
      ],
      [
        "he",
        "d"
      ],
      [
        "Ġsu",
        "b"
      ],
      [
        "Ġs",
        "o"
      ],
      [
        "e",
        "p"
      ],
      [
        "ig",
        "n"
      ],
      [
        "Ġg",
        "en"
      ],
      [
        "u",
        "n"
      ],
      [
        "Ġm",
        "at"
      ],
      [
        "Ġmo",
        "st"
      ],
      [
        "et",
        "h"
      ],
      [
        "Ġb",
        "ot"
      ],
      [
        "g",
        "u"
      ],
      [
        "i",
        "p"
      ],
      [
        "Ġp",
        "r"
      ],
      [
        "Ġre",
        "m"
      ],
      [
        "f",
        "f"
      ],
      [
        "as",
        "s"
      ],
      [
        "T",
        "he"
      ],
      [
        "o",
        "c"
      ],
      [
        "at",
        "er"
      ],
      [
        "f",
        "ul"
      ],
      [
        "ment",
        "s"
      ],
      [
        "or",
        "y"
      ],
      [
        "u",
        "res"
      ],
      [
        "ar",
        "t"
      ],
      [
        "id",
        "e"
      ],
      [
        "Ġp",
        "re"
      ],
      [
        "Ġ",
        "R"
      ],
      [
        "er",
        "n"
      ],
      [
        "w",
        "e"
      ],
      [
        "Ġim",
        "p"
      ],
      [
        "m",
        "s"
      ],
      [
        "Ġthe",
        "se"
      ],
      [
        "Ġu",
        "n"
      ],
      [
        "Ġc",
        "an"
      ],
      [
        "Ġo",
        "b"
      ],
      [
        "y",
        "s"
      ],
      [
        "it",
        "ions"
      ],
      [
        "Ġab",
        "out"
      ],
      [
        "Ġs",
        "ystem"
      ],
      [
        "i",
        "al"
      ],
      [
        "Ġs",
        "a"
      ],
      [
        "ou",
        "r"
      ],
      [
        "Ġne",
        "w"
      ],
      [
        "ic",
        "e"
      ],
      [
        "Ġ",
        "D"
      ],
      [
        "o",
        "od"
      ],
      [
        "-",
        "-"
      ],
      [
        "Ġ",
        "P"
      ],
      [
        "el",
        "y"
      ],
      [
        "Ġo",
        "ther"
      ],
      [
        "Ġ",
        "F"
      ],
      [
        "Ġpro",
        "du"
      ],
      [
        "he",
        "re"
      ],
      [
        "a",
        "v"
      ],
      [
        "ĠTh",
        "is"
      ],
      [
        "Ġst",
        "ud"
      ],
      [
        "Ġ",
        "j"
      ],
      [
        "en",
        "s"
      ],
      [
        "a",
        "re"
      ],
      [
        "Ġbot",
        "h"
      ],
      [
        "ar",
        "s"
      ],
      [
        "Ġtra",
        "d"
      ],
      [
[...]
