{
  "version": "1.0",
  "truncation": null,
  "padding": {
    "strategy": "BatchLongest",
    "direction": "Right",
    "pad_to_multiple_of": null,
    "pad_id": 0,
    "pad_type_id": 0,
    "pad_token": "<pad>"
  },
  "added_tokens": [
    {
      "id": 0,
      "content": "<pad>",
      "single_word": false,
      "lstrip": false,
      "rstrip": false,
      "normalized": false,
      "special": true
    },
    {
      "id": 1,
      "content": "<unk>",
      "single_word": false,
      "lstrip": false,
      "rstrip": false,
      "normalized": false,
      "special": true
    },
    {
      "id": 2,
      "content": "<bos>",
      "single_word": false,
      "lstrip": false,
      "rstrip": false,
      "normalized": false,
      "special": true
    },
    {
      "id": 3,
      "content": "<eos>",
      "single_word": false,
      "lstrip": false,
      "rstrip": false,
      "normalized": false,
      "special": true
    }
  ],
  "normalizer": null,
  "pre_tokenizer": {
    "type": "ByteLevel",
    "add_prefix_space": false,
    "trim_offsets": true,
    "use_regex": true
  },
  "post_processor": {
    "type": "TemplateProcessing",
    "single": [
      {
        "SpecialToken": {
          "id": "<bos>",
          "type_id": 0
        }
      },
      {
        "Sequence": {
          "id": "A",
          "type_id": 0
        }
      },
      {
        "SpecialToken": {
          "id": "<eos>",
          "type_id": 0
        }
      }
    ],
    "pair": [
      {
        "SpecialToken": {
          "id": "<bos>",
          "type_id": 0
        }
      },
      {
        "Sequence": {
          "id": "A",
          "type_id": 0
        }
      },
      {
        "SpecialToken": {
          "id": "<eos>",
          "type_id": 0
        }
      },
      {
        "SpecialToken": {
          "id": "<bos>",
          "type_id": 1
        }
      },
      {
        "Sequence": {
          "id": "B",
          "type_id": 1
        }
      },
      {
        "SpecialToken": {
          "id": "<eos>",
          "type_id": 1
        }
      }
    ],
    "special_tokens": {
      "<bos>": {
        "id": "<bos>",
        "ids": [
          2
        ],
        "tokens": [
          "<bos>"
        ]
      },
      "<eos>": {
        "id": "<eos>",
        "ids": [
          3
        ],
        "tokens": [
          "<eos>"
        ]
      }
    }
  },
  "decoder": null,
  "model": {
    "type": "BPE",
    "dropout": null,
    "unk_token": "<unk>",
    "continuing_subword_prefix": null,
    "end_of_word_suffix": null,
    "fuse_unk": false,
    "byte_fallback": false,
    "ignore_merges": false,
    "vocab": {
      "<pad>": 0,
      "<unk>": 1,
      "<bos>": 2,
      "<eos>": 3,
      "!": 4,
      "\"": 5,
      "'": 6,
      ",": 7,
      "-": 8,
      ".": 9,
      "0": 10,
      "1": 11,
      "2": 12,
      "3": 13,
      "4": 14,
      "5": 15,
      "6": 16,
      "7": 17,
      "8": 18,
      "9": 19,
      ":": 20,
      ";": 21,
      "?": 22,
      "A": 23,
      "B": 24,
      "C": 25,
      "D": 26,
      "E": 27,
      "F": 28,
      "G": 29,
      "H": 30,
      "I": 31,
      "J": 32,
      "K": 33,
      "L": 34,
      "M": 35,
      "N": 36,
      "O": 37,
      "P": 38,
      "Q": 39,
      "R": 40,
      "S": 41,
      "T": 42,
      "U": 43,
      "V": 44,
      "W": 45,
      "Y": 46,
      "Z": 47,
      "`": 48,
      "a": 49,
      "b": 50,
      "c": 51,
      "d": 52,
      "e": 53,
      "f": 54,
      "g": 55,
      "h": 56,
      "i": 57,
      "j": 58,
      "k": 59,
      "l": 60,
      "m": 61,
      "n": 62,
      "o": 63,
      "p": 64,
      "q": 65,
      "r": 66,
      "s": 67,
      "t": 68,
      "u": 69,
      "v": 70,
      "w": 71,
      "x": 72,
      "y": 73,
      "z": 74,
      "Ċ": 75,
      "Ġ": 76,
      "he": 77,
      "Ġt": 78,
      "Ġa": 79,
      "Ġthe": 80,
      "Ġw": 81,
      "in": 82,
      "ed": 83,
      "Ġs": 84,
      "er": 85,
      "nd": 86,
      "Ġf": 87,
      "ou": 88,
      "Ġb": 89,
      "it": 90,
      "re": 91,
      "ar": 92,
      "Ġd": 93,
      "Ġc": 94,
      "at": 95,
      "Ġand": 96,
      "Ġo": 97,
      "Ġto": 98,
      "ĠT": 99,
      "is": 100,
      "ing": 101,
      "or": 102,
      "me": 103,
      "Ġl": 104,
      "Ġp": 105,
      "Ġh": 106,
      "ay": 107,
      "as": 108,
      "ne": 109,
      "ĠThe": 110,
      "en": 111,
      "ll": 112,
      "an": 113,
      "ver": 114,
      "Ġbe": 115,
      "Ġin": 116,
      "ri": 117,
      "Ġg": 118,
      "Ġwas": 119,
      "ve": 120,
      "Ġm": 121,
      "le": 122,
      "Ġit": 123,
      "on": 124,
      "Ġe": 125,
      "Ġy": 126,
      "gh": 127,
      "Ġth": 128,
      "Ġof": 129,
      "Ġyou": 130,
      "ra": 131,
      "ĠA": 132,
      "se": 133,
      "ro": 134,
      "ght": 135,
      "Ġwh": 136,
      "ce": 137,
      "Ġthey": 138,
      "et": 139,
      "ith": 140,
      "Ġn": 141,
      "Ġu": 142,
      "Ġday": 143,
      "Ġfor": 144,
      "ĠH": 145,
      "od": 146,
      "ĠL": 147,
      "im": 148,
      "very": 149,
      "ld": 150,
      "ĠI": 151,
      "id": 152,
      "Ġfe": 153,
      "st": 154,
      "ow": 155,
      "ĠS": 156,
      "ame": 157,
      "ul": 158,
      "ind": 159,
      "Ġhe": 160,
      "am": 161,
      "Ġwith": 162,
      "ful": 163,
      "ch": 164,
      "th": 165,
      "ly": 166,
      "her": 167,
      "Ġli": 168,
      "Ġha": 169,
      "es": 170,
      "ome": 171,
      "Ġis": 172,
      "ĠG": 173,
      "ĠO": 174,
      "Ġsa": 175,
      "ill": 176,
      "Ġk": 177,
      "rou": 178,
      "Ġre": 179,
      "li": 180,
      "ut": 181,
      "ck": 182,
      "ved": 183,
      "Ġwho": 184,
      "ard": 185,
      "pp": 186,
      "ir": 187,
      "Ġthem": 188,
      "The": 189,
      "ur": 190,
      "lt": 191,
      "ĠGod": 192,
      "ĠThey": 193,
      "nt": 194,
      "ĠM": 195,
      "out": 196,
      "ke": 197,
      "Ġso": 198,
      "ĠW": 199,
      "Ġfelt": 200,
      "Ġup": 201,
      "Ġdo": 202,
      "Ġst": 203,
      "om": 204,
      "al": 205,
      "ant": 206,
      "Ġab": 207,
      "Ġthere": 208,
      "Ġevery": 209,
      "end": 210,
      "Ġsh": 211,
      "il": 212,
      "Ġabout": 213,
      "Ġno": 214,
      "ose": 215,
      "ss": 216,
      "ere": 217,
      "Ġwill": 218,
      "Ġlo": 219,
      "ĠB": 220,
      "ec": 221,
      "ĠE": 222,
      "Ġare": 223,
      "riend": 224,
      "Ġfriend": 225,
      "ent": 226,
      "lp": 227,
      "Ġwo": 228,
      "one": 229,
      "rom": 230,
      "Ġne": 231,
      "Ġwere": 232,
      "Ġsaid": 233,
      "ge": 234,
      "ion": 235,
      "ong": 236,
      "ple": 237,
      "ack": 238,
      "ate": 239,
      "Ġcame": 240,
      "Ġpl": 241,
      "Ġthat": 242,
      "Ġpe": 243,
      "ĠF": 244,
      "nder": 245,
      "Ġbrou": 246,
      "Ġbrought": 247,
      "Ġfind": 248,
      "Ġ\"": 249,
      "mb": 250,
      "ound": 251,
      "hed": 252,
      "Ġle": 253,
      "get": 254,
      "ĠOne": 255,
      "gether": 256,
      "Ġj": 257,
      "Ġfriends": 258,
      "Ġcar": 259,
      "ked": 260,
      "ared": 261,
      "ist": 262,
      "Ġsu": 263,
      "Ġhelp": 264,
      "ried": 265,
      "Ġfo": 266,
      "rave": 267,
      "ĠN": 268,
      "Ġi": 269,
      "ĠHe": 270,
      "Ġnot": 271,
      "hen": 272,
      "Ġme": 273,
      "Ġplay": 274,
      "Ġone": 275,
      "Ġtheir": 276,
      "ft": 277,
      "all": 278,
      "Ġsp": 279,
      "wn": 280,
      "lie": 281,
      "Ġbec": 282,
      "ight": 283,
      "Ġv": 284,
      "ĠTh": 285,
      "ĠAnd": 286,
      "Ġfrom": 287,
      "Ġag": 288,
      "ave": 289,
      "au": 290,
      "Ġas": 291,
      "Ġcom": 292,
      "ise": 293,
      "ous": 294,
      "ad": 295,
      "Ġhad": 296,
      "Ġbut": 297,
      "ain": 298,
      "qu": 299,
      "ched": 300,
      "Ġpat": 301,
      "ĠBut": 302,
      "tle": 303,
      ".\"": 304,
      "Ġwat": 305,
      "Ġbecame": 306,
      "Ġex": 307,
      "our": 308,
      "ok": 309,
      "Ġfound": 310,
      "ĠSo": 311,
      "ould": 312,
      "Ġwant": 313,
      "oe": 314,
      "Ġthose": 315,
      "ee": 316,
      "Ġtogether": 317,
      "Ġlived": 318,
      "ĠWe": 319,
      "Ġwanted": 320,
      "Ġon": 321,
      "Ġsk": 322,
      "Ġif": 323,
      "Ġan": 324,
      "thing": 325,
      "mber": 326,
      "Ġreme": 327,
      "ah": 328,
      "Ġkind": 329,
      "Ġgr": 330,
      "Ġremember": 331,
      "Ġsm": 332,
      "Ġcarried": 333,
      "us": 334,
      "Ġor": 335,
      "Ġby": 336,
      "Ġshared": 337,
      "Ġbelie": 338,
      "ĠJ": 339,
      "Ġde": 340,
      "erc": 341,
      "ket": 342,
      "ia": 343,
      "ĠD": 344,
      "ward": 345,
      "Ġcomp": 346,
      "ect": 347,
      "ord": 348,
      "ĠK": 349,
      "ĠIn": 350,
      "ry": 351,
      "Ġfa": 352,
      "ĠThen": 353,
      "Ġgo": 354,
      "ople": 355,
      "Ġhave": 356,
      "ned": 357,
      "arm": 358,
      "Ġbl": 359,
      "Ġyour": 360,
      "Ġpeople": 361,
      "Ġits": 362,
      "ĠIt": 363,
      "Ġr": 364,
      "ĠZ": 365,
      "Ġal": 366,
      "ĠLi": 367,
      "ĠLu": 368,
      "ies": 369,
      "Ġbo": 370,
      "Ġhas": 371,
      "Ġcl": 372,
      "Ġte": 373,
      "by": 374,
      "Ġtur": 375,
      "mm": 376,
      "ance": 377,
      "Ġwhen": 378,
      "llow": 379,
      "ĠY": 380,
      "ness": 381,
      "ach": 382,
      "Ġwhat": 383,
      "here": 384,
      "ity": 385,
      "Ġper": 386,
      "Ġway": 387,
      "Ġar": 388,
      "Ġback": 389,
      "Ġsky": 390,
      "ĠLord": 391,
      "Ġhome": 392,
      "uch": 393,
      "ouse": 394,
      "Ġhapp": 395,
      "aught": 396,
      "Ġqu": 397,
      "ive": 398,
      "ven": 399,
      "rough": 400,
      "Ġnear": 401,
      "Ġthrough": 402,
      "ake": 403,
      "Ġhu": 404,
      "Ġmuch": 405,
      "Ġtoo": 406,
      "Ġmerc": 407,
      "ateful": 408,
      "ink": 409,
      "Ġdis": 410,
      "arned": 411,
      "iet": 412,
      "Ġtaught": 413,
      "Ġeveryone": 414,
      "ittle": 415,
      "Ġnight": 416,
      "imp": 417,
      "Ġlook": 418,
      "Ġlittle": 419,
      "Ġneed": 420,
      "nce": 421,
      "ĠSome": 422,
      "Ġgrateful": 423,
      "ther": 424,
      "and": 425,
      "ment": 426,
      "Ġvery": 427,
      "Ġbrave": 428,
      "Ġquiet": 429,
      "Ġsun": 430,
      "Ġago": 431,
      "Ġspec": 432,
      "ories": 433,
      "Ġliked": 434,
      "Ġheld": 435,
      "ial": 436,
      "Ġfinding": 437,
      "Ġwatched": 438,
      "Ġfaith": 439,
      "Once": 440,
      "Ġlearned": 441,
      "Ġspecial": 442,
      "ather": 443,
      "ener": 444,
      "ream": 445,
      "Ġwoke": 446,
      "Ġpati": 447,
      "Ġdream": 448,
      "ish": 449,
      "Ġgener": 450,
      "Ġforg": 451,
      "ey": 452,
      "'s": 453,
      "Ġwonder": 454,
      "ter": 455,
      "Ġri": 456,
      "Ġtrave": 457,
      "iled": 458,
      "pped": 459,
      "Ġtravel": 460,
      "ions": 461,
      "now": 462,
      "ure": 463,
      "Ġju": 464,
      "rah": 465,
      "Ġsmiled": 466,
      "Ġwould": 467,
      "Ġremembered": 468,
      "ig": 469,
      "Ġhim": 470,
      "Ġhelped": 471,
      "low": 472,
      "Ġcu": 473,
      "ted": 474,
      "Ġlam": 475,
      "Ġwor": 476,
      "Ġsee": 477,
      "iful": 478,
      "ings": 479,
      "Ġthis": 480,
      "ol": 481,
      "ĠR": 482,
      "ĠC": 483,
      "Ġgood": 484,
      "Ġthen": 485,
      "ers": 486,
      "are": 487,
      "Ġra": 488,
      "Ġupon": 489,
      "Ġsome": 490,
      "cro": 491,
      "Ġall": 492,
      "hi": 493,
      "Ġco": 494,
      "ern": 495,
      "Ġat": 496,
      "Ġover": 497,
      "la": 498,
      "way": 499,
      "ass": 500,
      "ara": 501,
      "inn": 502,
      "ite": 503,
      "ĠGra": 504,
      "Ġdes": 505,
      "brah": 506,
      "na": 507,
      "rown": 508,
      "Ġman": 509,
      "ide": 510,
      "el": 511,
      "va": 512,
      "Ġfollow": 513,
      "Ġcal": 514,
      "ĠNo": 515,
      "Ġwind": 516,
      "liver": 517,
      "Ġpo": 518,
      "uf": 519,
      "ak": 520,
      "cy": 521,
      "ames": 522,
      "ĠThat": 523,
      "lf": 524,
      "ell": 525,
      "Ġcalm": 526,
      "Ġother": 527,
      "enry": 528,
      "ount": 529,
      "usuf": 530,
      "ria": 531,
      "ace": 532,
      "ira": 533,
      "Ġwarm": 534,
      "ĠWhen": 535,
      "fia": 536,
      "Ġapp": 537,
      "vy": 538,
      "ntil": 539,
      "Ġagain": 540,
      "ayla": 541,
      "ima": 542,
      "Ġbri": 543,
      "atima": 544,
      "lla": 545,
      "than": 546,
      "aya": 547,
      "hl": 548,
      "nna": 549,
      "ahra": 550,
      "hloe": 551,
      "ray": 552,
      "ora": 553,
      "eo": 554,
      "ag": 555,
      "wen": 556,
      "brahim": 557,
      "Ġcompass": 558,
      "hat": 559,
      "ana": 560,
      "ax": 561,
      "ai": 562,
      "Ġpath": 563,
      "mira": 564,
      "Ġeverything": 565,
      "mma": 566,
      "arden": 567,
      "ĠTo": 568,
      "uby": 569,
      "Ġuntil": 570,
      "ort": 571,
      "ĠNoah": 572,
      "ale": 573,
      "Ġbelieved": 574,
      "ĠSam": 575,
      "Ġdu": 576,
      "Ġtoward": 577,
      "ĠThere": 578,
      "ĠHenry": 579,
      "ĠYusuf": 580,
      "ert": 581,
      "row": 582,
      "Ġunder": 583,
      "ĠBen": 584,
      "Ġthings": 585,
      "ĠLayla": 586,
      "ĠFatima": 587,
      "ĠFinn": 588,
      "ĠLuke": 589,
      "ĠAria": 590,
      "ĠAli": 591,
      "ĠJames": 592,
      "ĠEthan": 593,
      "ĠSofia": 594,
      "ĠZahra": 595,
      "ĠLucy": 596,
      "ĠLiam": 597,
      "Ġaft": 598,
      "ĠAnna": 599,
      "ĠZoe": 600,
      "ĠElla": 601,
      "ised": 602,
      "ng": 603,
      "ined": 604,
      "ĠMaya": 605,
      "ĠLeo": 606,
      "Ġho": 607,
      "Ġfore": 608,
      "ĠKate": 609,
      "ĠChloe": 610,
      "pt": 611,
      "erm": 612,
      "bit": 613,
      "Ġcould": 614,
      "ĠDan": 615,
      "ĠIvy": 616,
      "oy": 617,
      "Ġmar": 618,
      "ĠJack": 619,
      "ĠGrace": 620,
      "ĠOwen": 621,
      "ĠIbrahim": 622,
      "Ġsay": 623,
      "Ġpar": 624,
      "ĠMax": 625,
      "Ġus": 626,
      "Ġwhere": 627,
      "stand": 628,
      "ĠAva": 629,
      "ĠHana": 630,
      "ret": 631,
      "Ġbest": 632,
      "Ġown": 633,
      "ĠTheo": 634,
      "ru": 635,
      "Ġunderstand": 636,
      "ĠThis": 637,
      "ĠLily": 638,
      "ick": 639,
      "Ġknow": 640,
      "ĠNora": 641,
      "ĠSara": 642,
      "ĠOliver": 643,
      "med": 644,
      "ĠAmira": 645,
      "ime": 646,
      "Ġwa": 647,
      "ĠTim": 648,
      "ĠEmma": 649,
      "eep": 650,
      "ĠKai": 651,
      "Ġpatient": 652,
      "Ġse": 653,
      "ĠTom": 654,
      "Ġtime": 655,
      "ĠMia": 656,
      "ited": 657,
      "ĠRuby": 658,
      "gu": 659,
      "Ġfish": 660,
      "Ġdist": 661,
      "Ġduck": 662,
      "Ġdet": 663,
      "Ġlight": 664,
      "nts": 665,
      "Ġfollowed": 666,
      "Ġsomething": 667,
      "age": 668,
      "Ġbear": 669,
      "Ġgave": 670,
      "Ġthink": 671,
      "Ġwolf": 672,
      "rog": 673,
      "pe": 674,
      "Ġgather": 675,
      "Ġkne": 676,
      "Ġriver": 677,
      "Ġpro": 678,
      "In": 679,
      "Ġpray": 680,
      "Ġothers": 681,
      "Ġmany": 682,
      "Ġkeep": 683,
      "Ġhor": 684,
      "Ġshare": 685,
      "What": 686,
      "erful": 687,
      "Ġpeace": 688,
      "ird": 689,
      "isten": 690,
      "Ġgarden": 691,
      "Ġey": 692,
      "Ġwait": 693,
      "ty": 694,
      "old": 695,
      "Ġshow": 696,
      "Ġhorse": 697,
      "Ġvis": 698,
      "wl": 699,
      "Ġlisten": 700,
      "ct": 701,
      "Ġhis": 702,
      "inted": 703,
      "Ġowl": 704,
      "ermined": 705,
      "Ġfeed": 706,
      "Ġknew": 707,
      "Ġspar": 708,
      "Ġfox": 709,
      "Ġbird": 710,
      "Ġche": 711,
      "Ġeyes": 712,
      "Ġasked": 713,
      "Ġhappy": 714,
      "roud": 715,
      "cited": 716,
      "hin": 717,
      "Ġproud": 718,
      "ature": 719,
      "Ġsmall": 720,
      "wer": 721,
      "Ġmount": 722,
      "Ġappe": 723,
      "az": 724,
      "ded": 725,
      "Ġdog": 726,
      "ced": 727,
      "Ġcat": 728,
      "Ġlamb": 729,
      "Ġsing": 730,
      "Ġeag": 731,
      "Ġturtle": 732,
      "icked": 733,
      "Ġfar": 734,
      "mble": 735,
      "Ġperf": 736,
      "Ġdetermined": 737,
      "Ġmountain": 738,
      "Ġdolp": 739,
      "Ġdolphin": 740,
      "dge": 741,
      "Ġsparrow": 742,
      "Ġdove": 743,
      "ingale": 744,
      "Ġlion": 745,
      "Ġnightingale": 746,
      "Ġfaithful": 747,
      "Ġeagle": 748,
      "Ġgent": 749,
      "Ġcompan": 750,
      "terf": 751,
      "Ġgathered": 752,
      "Ġforgive": 753,
      "Ġwaiting": 754,
      "Ġbutterf": 755,
      "Ġbutterfly": 756,
      "rious": 757,
      "Ġgenerous": 758,
      "ney": 759,
      "Ġjour": 760,
      "Ġjourney": 761,
      "Ġcheerful": 762,
      "Ġgentle": 763,
      "Ġcour": 764,
      "Ġargu": 765,
      "Ġmouse": 766,
      "Ġrab": 767,
      "Ġpeaceful": 768,
      "Ġwise": 769,
      "Ġjoy": 770,
      "Ġfeel": 771,
      "Ġgaz": 772,
      "Ġteach": 773,
      "Ġcurious": 774,
      "Ġever": 775,
      "Every": 776,
      "Ġleft": 777,
      "Ġvisit": 778,
      "ists": 779,
      "Ġgazell": 780,
      "Ġimp": 781,
      "ening": 782,
      "Ġrabbit": 783,
      "Ġalong": 784,
      "Ġsur": 785,
      "Ġhar": 786,
      "Ġmerciful": 787,
      "Ġsaw": 788,
      "There": 789,
      "Ġsto": 790,
      "Ġhumble": 791,
      "Ġdistant": 792,
      "Ġdesert": 793,
      "Ġlost": 794,
      "Ġmercy": 795,
      "Ġhouse": 796,
      "bor": 797,
      "Ġcamel": 798,
      "Ġhope": 799,
      "retched": 800,
      "Ġold": 801,
      "os": 802,
      "Ġsad": 803,
      "ice": 804,
      "Ġgre": 805,
      "Ġsat": 806,
      "Ġsound": 807,
      "Ġbas": 808,
      "Ġcompanions": 809,
      "Ġfrog": 810,
      "Ġcaring": 811,
      "Ġfeeling": 812,
      "Ġboth": 813,
      "Ġwide": 814,
      "Ġyoung": 815,
      "Ġnod": 816,
      "Ġpointed": 817,
      "Ġlong": 818,
      "Ġnodded": 819,
      "Ġarri": 820,
      "Ġthinking": 821,
      "Ġappeared": 822,
      "Ġsor": 823,
      "Ġhelping": 824,
      "tyard": 825,
      "Ġcourtyard": 826,
      "ning": 827,
      "Ġcave": 828,
      "llect": 829,
      "Long": 830,
      "Ġstories": 831,
      "It": 832,
      "Ġseemed": 833,
      "Ġexcited": 834,
      "Ġteaching": 835,
      "chard": 836,
      "Ġorchard": 837,
      "ence": 838,
      "Ġstopped": 839,
      "Ġhappening": 840,
      "ways": 841,
      "Ġsumm": 842,
      "adow": 843,
      "Ġquietly": 844,
      "Under": 845,
      "ĠNature": 846,
      "Ġsinging": 847,
      "Ġforward": 848,
      "Ġbasket": 849,
      "pr": 850,
      "At": 851,
      "Ġacro": 852,
      "Ġstretched": 853,
      "Ġcollect": 854,
      "ĠTogether": 855,
      "Ġacross": 856,
      "alley": 857,
      "Ġperfect": 858,
      "Ġvalley": 859,
      "Ġoas": 860,
      "Ġoasis": 861,
      "Ġbig": 862,
      "Ġtem": 863,
      "Ġsummit": 864,
      "Ġsoft": 865,
      "Ġtower": 866,
      "Ġhill": 867,
      "Ġfriendly": 868,
      "Ġnearby": 869,
      "ĠEvery": 870,
      "amed": 871,
      "Ġlooking": 872,
      "Ġarrived": 873,
      "Ġmarket": 874,
      "ĠFrom": 875,
      "lowed": 876,
      "Ġsoftly": 877,
      "Ġharbor": 878,
      "Ġwe": 879,
      "Ġmeadow": 880,
      "Ġsimp": 881,
      "Ġglowed": 882,
      "Ġmome": 883,
      "Ġsimply": 884,
      "Ġmoments": 885,
      "Ġtemple": 886,
      "Ġhum": 887,
      "Ġplaying": 888,
      "ĠSoon": 889,
      "Ġalways": 890,
      "where": 891,
      "Ġhopeful": 892,
      "Ġfarm": 893,
      "Ġwatch": 894,
      "Ġnamed": 895,
      "Ġclose": 896,
      "Ġwent": 897,
      "Ġpark": 898,
      "Ġtried": 899,
      "Ġargument": 900,
      "Ġpicked": 901,
      "Ġtraveler": 902,
      "Ġforest": 903,
      "Ġsurpr": 904,
      "Ġsurprised": 905,
      "Ġexists": 906,
      "Ġsc": 907,
      "Ġworth": 908,
      "One": 909,
      "Ġeverywhere": 910,
      "Ġbeach": 911,
      "Ġbridge": 912,
      "Ġsch": 913,
      "Ġmem": 914,
      "Ġremembering": 915,
      "olding": 916,
      "ered": 917,
      "Ġvill": 918,
      "ory": 919,
      "ĠHolding": 920,
      "Ġmemories": 921,
      "Ġvillage": 922,
      "ool": 923,
      "Ġschool": 924,
      "Ġwatching": 925,
      "Ġloved": 926,
      "de": 927,
      "Ġimport": 928,
      "Ġneeded": 929,
      "Ġsorry": 930,
      "Ġimportance": 931,
      "ore": 932,
      "Ġdeer": 933,
      "Ġlake": 934,
      "Ġbelieve": 935,
      "ĠEveryone": 936,
      "Ġeven": 937,
      "be": 938,
      "Ġgazelle": 939,
      "Ġear": 940,
      "co": 941,
      "Ġbee": 942,
      "ue": 943,
      "Ġforgiveness": 944,
      "Ġsw": 945,
      "mer": 946,
      "ĠHis": 947,
      "Ġmor": 948,
      "Ġcon": 949,
      "Ġmorning": 950,
      "oon": 951,
      "Ġlove": 952,
      "Ġmid": 953,
      "son": 954,
      "Ġam": 955,
      "Ġpur": 956,
      "reak": 957,
      "Ġye": 958,
      "mp": 959,
      "ci": 960,
      "eng": 961,
      "belie": 962,
      "Ġearth": 963,
      "night": 964,
      "Ġmidnight": 965,
      "awn": 966,
      "Ġemer": 967,
      "Ġfle": 968,
      "Ġdawn": 969,
      "Ġwhi": 970,
      "ĠDay": 971,
      "vered": 972,
      "Ġgu": 973,
      "ange": 974,
      "bed": 975,
      "Ġjust": 976,
      "usk": 977,
      "Ġperse": 978,
      "Ġdusk": 979,
      "ernoon": 980,
      "Ġafternoon": 981,
      "ald": 982,
      "rise": 983,
      "Ġred": 984,
      "un": 985,
      "Ġsunrise": 986,
      "Ġwal": 987,
      "Ġprayed": 988,
      "break": 989,
      "Ġemerald": 990,
      "Ġdaybreak": 991,
      "Ġdisco": 992,
      "Ġdiscovered": 993,
      "onest": 994,
      "dom": 995,
      "Ġsil": 996,
      "let": 997,
      "set": 998,
      "Ġran": 999,
      "ĠHim": 1000,
      "Ġsunset": 1001,
      "Ġpink": 1002,
      "ude": 1003,
      "Ġbrown": 1004,
      "Ġyellow": 1005,
      "rim": 1006,
      "ang": 1007,
      "vory": 1008,
      "Ġivory": 1009,
      "ility": 1010,
      "Ġwis": 1011,
      "Ġblue": 1012,
      "Ġgreen": 1013,
      "Ġhonest": 1014,
      "Ġplayed": 1015,
      "ĠP": 1016,
      "Ġwondered": 1017,
      "Ġevening": 1018,
      "anced": 1019,
      "Ġpurple": 1020,
      "Ġpersever": 1021,
      "Ġdisbelie": 1022,
      "Ġjump": 1023,
      "Ġjumped": 1024,
      "Ġflew": 1025,
      "Ġgold": 1026,
      "Ġblack": 1027,
      "Ġsilver": 1028,
      "Ġwhite": 1029,
      "Ġwalked": 1030,
      "itude": 1031,
      "Ġdanced": 1032,
      "read": 1033,
      "Ġsapp": 1034,
      "hire": 1035,
      "Ġhonesty": 1036,
      "Ġsapphire": 1037,
      "Ġtraveled": 1038,
      "Ġlau": 1039,
      "Ġgeneros": 1040,
      "Ġgenerosity": 1041,
      "Ġcompassion": 1042,
      "Ġcrim": 1043,
      "Ġwisdom": 1044,
      "Ġperseverance": 1045,
      "Ġswam": 1046,
      "ble": 1047,
      "vers": 1048,
      "Ġjustice": 1049,
      "Ġgolden": 1050,
      "Ġclim": 1051,
      "atitude": 1052,
      "Ġcou": 1053,
      "Ġcrimson": 1054,
      "Ġtru": 1055,
      "Ġpatience": 1056,
      "Ġkindness": 1057,
      "Ġclimbed": 1058,
      "Ġsang": 1059,
      "arlet": 1060,
      "Ġforgave": 1061,
      "Ġscarlet": 1062,
      "ipped": 1063,
      "isp": 1064,
      "Ġwhisp": 1065,
      "Ġskipped": 1066,
      "ghed": 1067,
      "Ġlaughed": 1068,
      "rage": 1069,
      "Ġorange": 1070,
      "Ġgratitude": 1071,
      "Ġwhispered": 1072,
      "Ġbef": 1073,
      "Ġhumility": 1074,
      "oise": 1075,
      "quoise": 1076,
      "Ġturquoise": 1077,
      "Ġcourage": 1078,
      "Ġreve": 1079,
      "ror": 1080,
      "Ġflow": 1081,
      "cept": 1082,
      "af": 1083,
      "?\"": 1084,
      "ated": 1085,
      "ĠSay": 1086,
      "Ġbook": 1087,
      "Ġstar": 1088,
      "Ġhat": 1089,
      "Ġbefore": 1090,
      "Ġcle": 1091,
      "ire": 1092,
      "Ġbell": 1093,
      "Ġcup": 1094,
      "Ġmay": 1095,
      "Ġmy": 1096,
      "ĠYou": 1097,
      "Ġstone": 1098,
      "ĠThose": 1099,
      "Ġclear": 1100,
      "Ġball": 1101,
      "Ġmir": 1102,
      "Ġmirror": 1103,
      "Ġbread": 1104,
      "Ġtoy": 1105,
      "Ġfeather": 1106,
      "arl": 1107,
      "Ġkey": 1108,
      "Ġlamp": 1109,
      "Ġpearl": 1110,
      "Ġseed": 1111,
      "Ġany": 1112,
      "anket": 1113,
      "Ġblanket": 1114,
      "Ġcome": 1115,
      "ation": 1116,
      "Ġwhich": 1117,
      "Ġleaf": 1118,
      "Ġlant": 1119,
      "Ġlantern": 1120,
      "Ġcre": 1121,
      "Ġbox": 1122,
      "if": 1123,
      "Ġwr": 1124,
      "Ġint": 1125,
      "Ġcrown": 1126,
      "ast": 1127,
      "Ġonly": 1128,
      "Ġpun": 1129,
      "Ġhear": 1130,
      "ĠMerc": 1131,
      "orm": 1132,
      "Ġcomm": 1133,
      "Ġhea": 1134,
      "ĠMerciful": 1135,
      "croll": 1136,
      "Ġamong": 1137,
      "Ġscroll": 1138,
      "ĠWh": 1139,
      "Ġright": 1140,
      "Ġnor": 1141,
      "own": 1142,
      "Ġbet": 1143,
      "ade": 1144,
      "ot": 1145,
      "Ġpunish": 1146,
      "Ġcake": 1147,
      "enger": 1148,
      "Ġkite": 1149,
      "ost": 1150,
      "ves": 1151,
      "Ġring": 1152,
      "Ġflower": 1153,
      "Ġmess": 1154,
      "Ġheaven": 1155,
      "Ġtruth": 1156,
      "ess": 1157,
      "Ġdown": 1158,
      "Ġgive": 1159,
      "Ġguid": 1160,
      "ving": 1161,
      "ations": 1162,
      "Ġout": 1163,
      "Ġmade": 1164,
      "ĠOur": 1165,
      "Ġwrong": 1166,
      "Ġaway": 1167,
      "the": 1168,
      "ign": 1169,
      "led": 1170,
      "Ġpre": 1171,
      "Ġexcept": 1172,
      "Ġdid": 1173,
      "Ġpunishment": 1174,
      "Ġad": 1175,
      "eous": 1176,
      "Ġcan": 1177,
      "Ġthan": 1178,
      "ĠIf": 1179,
      "ts": 1180,
      "Ġinto": 1181,
      "Ġfear": 1182,
      "Ġheavens": 1183,
      "less": 1184,
      "Ġun": 1185,
      "Ġrighteous": 1186,
      "Ġgi": 1187,
      "ause": 1188,
      "ĠMess": 1189,
      "ath": 1190,
      "Ġser": 1191,
      "ic": 1192,
      "sel": 1193,
      "hip": 1194,
      "We": 1195,
      "Ġsent": 1196,
      "cious": 1197,
      "Ġsign": 1198,
      "Ġret": 1199,
      "other": 1200,
      "Ġreveal": 1201,
      "Ġgiven": 1202,
      "selves": 1203,
      "ants": 1204,
      "Ġafter": 1205,
      "Ġour": 1206,
      "Ġac": 1207,
      "fe": 1208,
      "ship": 1209,
      "Ġrain": 1210,
      "oud": 1211,
      "Ġcall": 1212,
      "ĠDo": 1213,
      "ĠU": 1214,
      "Ġch": 1215,
      "Ġagainst": 1216,
      "ĠMessenger": 1217,
      "ls": 1218,
      "we": 1219,
      "Ġcloud": 1220,
      "ans": 1221,
      "Ġbelievers": 1222,
      "Ġcreated": 1223,
      "ĠFor": 1224,
      "Ġmist": 1225,
      "Ġev": 1226,
      "Ġlike": 1227,
      "Ġstorm": 1228,
      "ny": 1229,
      "Ġstormy": 1230,
      "Ġbright": 1231,
      "Ġused": 1232,
      "ff": 1233,
      "Ġcool": 1234,
      "ĠIs": 1235,
      "Ġwhom": 1236,
      "Ġdoes": 1237,
      "oses": 1238,
      "Ġrainy": 1239,
      "sp": 1240,
      "Ġsin": 1241,
      "Ġwindy": 1242,
      "Ġrevel": 1243,
      "Ġsnow": 1244,
      "Ġsnowy": 1245,
      "ring": 1246,
      "sid": 1247,
      "Ġwills": 1248,
      "cri": 1249,
      "Ġmisty": 1250,
      "Ġprom": 1251,
      "Ġob": 1252,
      "ĠMy": 1253,
      "Ġrep": 1254,
      "Ġserv": 1255,
      "Ġcloudy": 1256,
      "Ġrem": 1257,
      "Ġrevealed": 1258,
      "ween": 1259,
      "Ġsunny": 1260,
      "able": 1261,
      "Ġhearts": 1262,
      "Ġen": 1263,
      "Ġden": 1264,
      "Ġbetween": 1265,
      "ren": 1266,
      "ĠMoses": 1267,
      "ĠGracious": 1268,
      "Ġreward": 1269,
      "oever": 1270,
      "Ġworship": 1271,
      "Ġrevelations": 1272,
      "Ġtw": 1273,
      "Ġname": 1274,
      "Ġturn": 1275,
      "Ġmake": 1276,
      "Ġlife": 1277,
      "Ġnothing": 1278,
      "Ġanother": 1279,
      "Ġdisbelieve": 1280,
      "Ġretur": 1281,
      "ĠAs": 1282,
      "pture": 1283,
      "engers": 1284,
      "ors": 1285,
      "Ġknows": 1286,
      "Ġprov": 1287,
      "ied": 1288,
      "Ġsou": 1289,
      "Ġrej": 1290,
      "ledge": 1291,
      "God": 1292,
      "hild": 1293,
      "ĠWhoever": 1294,
      "ĠYour": 1295,
      "fter": 1296,
      "race": 1297,
      "ĠFire": 1298,
      "ily": 1299,
      "ook": 1300,
      "Ġass": 1301,
      "ction": 1302,
      "Ġnever": 1303,
      "ates": 1304,
      "ses": 1305,
      "Su": 1306,
      "ware": 1307,
      "eds": 1308,
      "Ġgod": 1309,
      "Ġwar": 1310,
      "ĠOr": 1311,
      "Ġmessengers": 1312,
      "Surah": 1313,
      "Ġwit": 1314,
      "Ġthemselves": 1315,
      "Lu": 1316,
      "after": 1317,
      "ever": 1318,
      "urre": 1319,
      "Ġbecause": 1320,
      "ĠThese": 1321,
      "hildren": 1322,
      "est": 1323,
      "ps": 1324,
      "Ġmost": 1325,
      "Ġlet": 1326,
      "Ġleave": 1327,
      "Ġsigns": 1328,
      "Ġtwo": 1329,
      "ough": 1330,
      "Ġland": 1331,
      "Ġknowledge": 1332,
      "Ġreject": 1333,
      "gi": 1334,
      "long": 1335,
      "ood": 1336,
      "Ġbring": 1337,
      "ĠHere": 1338,
      "ĠScri": 1339,
      "Ġcommand": 1340,
      "ĠScripture": 1341,
      "Ġbelong": 1342,
      "self": 1343,
      "Ġdeeds": 1344,
      "phe": 1345,
      "Ġset": 1346,
      "Ġacc": 1347,
      "Ġmis": 1348,
      "ĠOn": 1349,
      "Ġwhoever": 1350,
      "ĠBook": 1351,
      "Ġask": 1352,
      "ust": 1353,
      "Ġwhile": 1354,
      "Ġref": 1355,
      "Ġtowards": 1356,
      "Ġservants": 1357,
      "ĠHereafter": 1358,
      "Ġtake": 1359,
      "omever": 1360,
      "den": 1361,
      "mit": 1362,
      "omen": 1363,
      "ull": 1364,
      "ws": 1365,
      "Ġdi": 1366,
      "Ġhow": 1367,
      "Ġdev": 1368,
      "Ġwarn": 1369,
      "Ġwomen": 1370,
      "Ġexp": 1371,
      "Ġdest": 1372,
      "Ġguided": 1373,
      "iz": 1374,
      "ress": 1375,
      "ĠMost": 1376,
      "Ġbecome": 1377,
      "Ġbetter": 1378,
      "ree": 1379,
      "Ġhand": 1380,
      "Ġrec": 1381,
      "ĠWise": 1382,
      "ĠUs": 1383,
      "do": 1384,
      "red": 1385,
      "Ġbeing": 1386,
      "Ġbene": 1387,
      "Ġsub": 1388,
      "Ġseek": 1389,
      "ĠForgi": 1390,
      "Ġdec": 1391,
      "ĠHell": 1392,
      "Ġdisbelievers": 1393,
      "Th": 1394,
      "Ġmore": 1395,
      "Ġwrongdo": 1396,
      "Ġevil": 1397,
      "Ġher": 1398,
      "Ġsend": 1399,
      "its": 1400,
      "du": 1401,
      "Ġson": 1402,
      "Ġange": 1403,
      "Ġtest": 1404,
      "ĠKnow": 1405,
      "Ġkill": 1406,
      "Ġtherein": 1407,
      "Ġdesire": 1408,
      "Ġreturn": 1409,
      "Ġreg": 1410,
      "Ġguidance": 1411,
      "not": 1412,
      "Ġshe": 1413,
      "ither": 1414,
      "lig": 1415,
      "atever": 1416,
      "Ġtor": 1417,
      "Ġinf": 1418,
      "akes": 1419,
      "Ġbeh": 1420,
      "Ġwhomever": 1421,
      "ac": 1422,
      "oh": 1423,
      "ĠQ": 1424,
      "ĠRes": 1425,
      "My": 1426,
      "gn": 1427,
      "tect": 1428,
      "Ġent": 1429,
      "Ġbeen": 1430,
      "Ġgreat": 1431,
      "Ġhuman": 1432,
      "Ġsoul": 1433,
      "urrection": 1434,
      "ites": 1435,
      "fer": 1436,
      "ious": 1437,
      "ks": 1438,
      "ĠThus": 1439,
      "Ġwitness": 1440,
      "Ġfact": 1441,
      "Ġworld": 1442,
      "Ġatt": 1443,
      "Ġangels": 1444,
      "hes": 1445,
      "Ġdou": 1446,
      "ided": 1447,
      "Ġguide": 1448,
      "ify": 1449,
      "ĠForgiving": 1450,
      "Ġbirds": 1451,
      "ab": 1452,
      "hara": 1453,
      "ase": 1454,
      "ĠEx": 1455,
      "ĠPhara": 1456,
      "ĠResurrection": 1457,
      "ĠPharaoh": 1458,
      ",\"": 1459,
      "Ġbless": 1460,
      "Ġpos": 1461,
      "Ġpart": 1462,
      "Ġmessenger": 1463,
      "sides": 1464,
      "Ġbelongs": 1465,
      "No": 1466,
      "but": 1467,
      "Ġbesides": 1468,
      "cess": 1469,
      "Ġturned": 1470,
      "ives": 1471,
      "Ġanything": 1472,
      "This": 1473,
      "Ġtorment": 1474,
      "reat": 1475,
      "Ġres": 1476,
      "Ġrest": 1477,
      "Ġwhose": 1478,
      "ĠMe": 1479,
      "Ġnews": 1480,
      "Ġpromise": 1481,
      "cted": 1482,
      "Ġbro": 1483,
      "Ġpain": 1484,
      "ighty": 1485,
      "Ġdeath": 1486,
      "Ġobey": 1487,
      "Our": 1488,
      "iss": 1489,
      "sess": 1490,
      "ces": 1491,
      "ĠHad": 1492,
      "Ġrea": 1493,
      "Ġsuff": 1494,
      "braham": 1495,
      "Ġcont": 1496,
      "Ġdisbelieved": 1497,
      "Ġdeny": 1498,
      "of": 1499,
      "Ġinc": 1500,
      "Ġinv": 1501,
      "Ġrelig": 1502,
      "uran": 1503,
      "ĠWhat": 1504,
      "Ġwater": 1505,
      "So": 1506,
      "You": 1507,
      "ha": 1508,
      "oc": 1509,
      "Ġsec": 1510,
      "ĠAbraham": 1511,
      "Ġstri": 1512,
      "Ġcommit": 1513,
      "Ġpres": 1514,
      "ĠQuran": 1515,
      "Ġplace": 1516,
      "Ġforever": 1517,
      "Ġpainful": 1518,
      "If": 1519,
      "Ġchildren": 1520,
      "Ġrepent": 1521,
      "Ġwrongdoers": 1522,
      "Ġreligion": 1523,
      "Ġcause": 1524,
      "atan": 1525,
      "Ġmat": 1526,
      "ĠGarden": 1527,
      "liz": 1528,
      "Ġmen": 1529,
      "Ġadv": 1530,
      "Ġcannot": 1531,
      "Ġdoub": 1532,
      "Ġshall": 1533,
      "Ġsupp": 1534,
      "ĠRe": 1535,
      "Ġchar": 1536,
      "Kate": 1537,
      "Ġgl": 1538,
      "ĠSatan": 1539,
      "Ġprodu": 1540,
      "Ġbrother": 1541,
      "Sofia": 1542,
      "Henry": 1543,
      "Jack": 1544,
      "Sam": 1545,
      "ĠHave": 1546,
      "Ġwithout": 1547,
      "round": 1548,
      "Ġvi": 1549,
      "Ġdisp": 1550,
      "Ġprotect": 1551,
      "Ġconf": 1552,
      "cient": 1553,
      "aste": 1554,
      "Noah": 1555,
      "Ġbears": 1556,
      "oci": 1557,
      "Ġfam": 1558,
      "vere": 1559,
      "Ġeat": 1560,
      "Ġequ": 1561,
      "ower": 1562,
      "ĠWho": 1563,
      "Ġassoci": 1564,
      "Ġbehind": 1565,
      "Lily": 1566,
      "Ġdeers": 1567,
      "Do": 1568,
      "Ġtr": 1569,
      "Ġword": 1570,
      "ars": 1571,
      "Ġpra": 1572,
      "ribut": 1573,
      "Ġwhatever": 1574,
      "Ġconsid": 1575,
      "Tom": 1576,
      "Yusuf": 1577,
      "Hana": 1578,
      "Tim": 1579,
      "Ġwolfs": 1580,
      "Chloe": 1581,
      "Maya": 1582,
      "Ben": 1583,
      "He": 1584,
      "Li": 1585,
      "Oliver": 1586,
      "vor": 1587,
      "Ġaff": 1588,
      "Ġfull": 1589,
      "roy": 1590,
      "ult": 1591,
      "Ġneither": 1592,
      "Ġcommun": 1593,
      "Liam": 1594,
      "Layla": 1595,
      "Lucy": 1596,
      "Ali": 1597,
      "Dan": 1598,
      "Owen": 1599,
      "Aria": 1600,
      "air": 1601,
      "rink": 1602,
      "ĠAll": 1603,
      "alth": 1604,
      "Ġdestroy": 1605,
      "Ella": 1606,
      "Amira": 1607,
      "Ethan": 1608,
      "Ivy": 1609,
      "Anna": 1610,
      "Ibrahim": 1611,
      "Nora": 1612,
      "ap": 1613,
      "Ġfir": 1614,
      "Ġnone": 1615,
      "Ġremind": 1616,
      "Ġhands": 1617,
      "Ġpossess": 1618,
      "Fatima": 1619,
      "Zoe": 1620,
      "Ġlambs": 1621,
      "Ava": 1622,
      "Sara": 1623,
      "Ġro": 1624,
      "Ġid": 1625,
      "Ġharm": 1626,
      "als": 1627,
      "Ġappro": 1628,
      "Ġcomes": 1629,
      "Zahra": 1630,
      "Theo": 1631,
      "Ġfoxs": 1632,
      "Ġcamels": 1633,
      "James": 1634,
      "Max": 1635,
      "Luke": 1636,
      "Ġdoves": 1637,
      "Ġast": 1638,
      "Ġaware": 1639,
      "ĠTheir": 1640,
      "Ġend": 1641,
      "lds": 1642,
      "Ġastray": 1643,
      "Emma": 1644,
      "Mia": 1645,
      "just": 1646,
      "rie": 1647,
      "Ġthough": 1648,
      "Ġyourselves": 1649,
      "Ġhomes": 1650,
      "Ġprophe": 1651,
      "Ġprayer": 1652,
      "Ġtruthful": 1653,
      "Finn": 1654,
      "Kai": 1655,
      "Ġowls": 1656,
      "Ġlions": 1657,
      "Ruby": 1658,
      "Ġducks": 1659,
      "Ġmouses": 1660,
      "par": 1661,
      "ary": 1662,
      "Ġsuc": 1663,
      "Ġdef": 1664,
      "Ġhorses": 1665,
      "Ġwealth": 1666,
      "Ġdogs": 1667,
      "Ġfishs": 1668,
      "Ġfrogs": 1669,
      "miss": 1670,
      "ove": 1671,
      "ph": 1672,
      "ud": 1673,
      "Ġfather": 1674,
      "Ġbur": 1675,
      "Ġdrink": 1676,
      "Ġlies": 1677,
      "Ġrel": 1678,
      "Ġrece": 1679,
      "Ġspe": 1680,
      "Ġcons": 1681,
      "Ġtrue": 1682,
      "Ġsins": 1683,
      "Ġbees": 1684,
      "Leo": 1685,
      "Ġsparrows": 1686,
      "Ġdolphins": 1687,
      "Ġrabbits": 1688,
      "Ġfight": 1689,
      "Ġpass": 1690,
      "Ġresp": 1691,
      "Ġrivers": 1692,
      "Ġcats": 1693,
      "these": 1694,
      "Ġpromised": 1695,
      "Ġbeneath": 1696,
      "Ġdoubt": 1697,
      "Ġfamily": 1698,
      "Grace": 1699,
      "ie": 1700,
      "te": 1701,
      "Ġthese": 1702,
      "ine": 1703,
      "Ġdif": 1704,
      "ating": 1705,
      "Ġtown": 1706,
      "Ġforb": 1707,
      "Ġgazelles": 1708,
      "Ġremain": 1709,
      "Ġidol": 1710,
      "Ġeagles": 1711,
      "Ġnightingales": 1712,
      "for": 1713,
      "gress": 1714,
      "ision": 1715,
      "Ġoff": 1716,
      "ĠAl": 1717,
      "ertain": 1718,
      "Ġturtles": 1719,
      "Ġbutterflys": 1720,
      "ĠPro": 1721,
      "Ġprovided": 1722,
      "Ġspeak": 1723,
      "Ġer": 1724,
      "Ġwell": 1725,
      "Ġpare": 1726,
      "nem": 1727,
      "Ġinde": 1728,
      "Ġenem": 1729,
      "Ġuna": 1730,
      "ulf": 1731,
      "ired": 1732,
      "urely": 1733,
      "Ġtrust": 1734,
      "Ġindeed": 1735,
      "ond": 1736,
      "pen": 1737,
      "ser": 1738,
      "cend": 1739,
      "ĠWor": 1740,
      "Ġdone": 1741,
      "Ġord": 1742,
      "Ġdeliver": 1743,
      "ĠChildren": 1744,
      "ĠPe": 1745,
      "Ġunless": 1746,
      "Ġaccord": 1747,
      "Ġdesires": 1748,
      "ĠExcept": 1749,
      "Ġtaste": 1750,
      "Ġpower": 1751,
      "Ġinsp": 1752,
      "Ġwilled": 1753,
      "Ġlead": 1754,
      "ĠYet": 1755,
      "Ġcalled": 1756,
      "Ġreturned": 1757,
      "Ġinform": 1758,
      "Wh": 1759,
      "ible": 1760,
      "Ġwhe": 1761,
      "ĠHow": 1762,
      "Ġconce": 1763,
      "Ġenj": 1764,
      "Ġrejected": 1765,
      "Ġparents": 1766,
      "ead": 1767,
      "rings": 1768,
      "ished": 1769,
      "rael": 1770,
      "Ġstra": 1771,
      "Ġshould": 1772,
      "ĠBy": 1773,
      "Ġdead": 1774,
      "Ġcreation": 1775,
      "ĠIsrael": 1776,
      "Ġwarner": 1777,
      "Ġregard": 1778,
      "Ġmatter": 1779,
      "Ġforbid": 1780,
      "ulfill": 1781,
      "rate": 1782,
      "um": 1783,
      "Ġfall": 1784,
      "Ġpu": 1785,
      "Ġpri": 1786,
      "Ġput": 1787,
      "Ġeach": 1788,
      "ĠSurely": 1789,
      "vail": 1790,
      "Ġproof": 1791,
      "Ġgardens": 1792,
      "Ġanyone": 1793,
      "ified": 1794,
      "they": 1795,
      "Ġbenef": 1796,
      "Ġtrans": 1797,
      "Ġpearls": 1798,
      "ear": 1799,
      "ild": 1800,
      "ob": 1801,
      "ock": 1802,
      "sses": 1803,
      "Ġfulfill": 1804,
      "Ġcur": 1805,
      "Ġgrace": 1806,
      "Ġgrie": 1807,
      "Ġlive": 1808,
      "lty": 1809,
      "Ġarrog": 1810,
      "Ġstraight": 1811,
      "Ġstars": 1812,
      "Ġstones": 1813,
      "hood": 1814,
      "up": 1815,
      "Ġim": 1816,
      "Ġter": 1817,
      "Ġtre": 1818,
      "Ġact": 1819,
      "ering": 1820,
      "nde": 1821,
      "Ġpay": 1822,
      "Ġins": 1823,
      "ute": 1824,
      "ĠWill": 1825,
      "inners": 1826,
      "Ġlanterns": 1827,
      "Ġgives": 1828,
      "Ġsouls": 1829,
      "Ġconsidered": 1830,
      "Ġbreads": 1831,
      "Ġkeys": 1832,
      "Ġbooks": 1833,
      "Ġau": 1834,
      "Ġcertain": 1835,
      "Ġinst": 1836,
      "ons": 1837,
      "ĠHour": 1838,
      "Ġabove": 1839,
      "ĠBe": 1840,
      "Ġpla": 1841,
      "Ġfavor": 1842,
      "Ġmarve": 1843,
      "Ġwronged": 1844,
      "Ġrighteousness": 1845,
      "gniz": 1846,
      "Ġreached": 1847,
      "Ġwords": 1848,
      "Ġcups": 1849,
      "And": 1850,
      "kind": 1851,
      "sed": 1852,
      "Ġaround": 1853,
      "Ġwish": 1854,
      "Ġfru": 1855,
      "ought": 1856,
      "Ġple": 1857,
      "Ġlos": 1858,
      "Ġlest": 1859,
      "ĠHear": 1860,
      "Ġadmit": 1861,
      "Ġcharity": 1862,
      "Ġfirst": 1863,
      "Ġaccording": 1864,
      "Ġhats": 1865,
      "cl": 1866,
      "mighty": 1867,
      "Ġwicked": 1868,
      "Ġcor": 1869,
      "Ġthus": 1870,
      "Ġreco": 1871,
      "irt": 1872,
      "Ġstay": 1873,
      "Ġbelieving": 1874,
      "Ġblind": 1875,
      "Ġhimself": 1876,
      "Ġappo": 1877,
      "Ġsays": 1878,
      "Ġseiz": 1879,
      "Ġguides": 1880,
      "Ġunjust": 1881,
      "ĠUntil": 1882,
      "Ġaccount": 1883,
      "Ġsubmit": 1884,
      "ĠKnowing": 1885,
      "Ġpresent": 1886,
      "ĠAlmighty": 1887,
      "ĠWorlds": 1888,
      "Ġregarding": 1889,
      "Ġbells": 1890,
      "ms": 1891,
      "ners": 1892,
      "well": 1893,
      "ĠV": 1894,
      "Ġtou": 1895,
      "ark": 1896,
      "asure": 1897,
      "Ġinter": 1898,
      "rif": 1899,
      "Ġmeans": 1900,
      "Ġworks": 1901,
      "Ġsomeone": 1902,
      "Ġmankind": 1903,
      "aken": 1904,
      "Ġmountains": 1905,
      "Ġprev": 1906,
      "Ġdie": 1907,
      "Ġincre": 1908,
      "mission": 1909,
      "Ġburden": 1910,
      "ĠPeople": 1911,
      "Ġconceal": 1912,
      "Ġarrogant": 1913,
      "Ġlosers": 1914,
      "Ġfeathers": 1915,
      "Ġmirrors": 1916,
      "Ġseeds": 1917,
      "aid": 1918,
      "dic": 1919,
      "ian": 1920,
      "poc": 1921,
      "ten": 1922,
      "ypoc": 1923,
      "Ġfire": 1924,
      "Ġopp": 1925,
      "Ġhypoc": 1926,
      "ased": 1927,
      "Ġmag": 1928,
      "rain": 1929,
      "ĠMary": 1930,
      "Ġign": 1931,
      "Ġperson": 1932,
      "Ġjudge": 1933,
      "Ġguard": 1934,
      "Ġlamps": 1935,
      "Ġdenied": 1936,
      "Ġgods": 1937,
      "Ġrefu": 1938,
      "ĠKnower": 1939,
      "Ġkilled": 1940,
      "ĠGardens": 1941,
      "Ġassociate": 1942,
      "Ġerror": 1943,
      "Ġenjoy": 1944,
      "Ġhypocr": 1945,
      "Ġflowers": 1946,
      "Ġtoys": 1947,
      "aut": 1948,
      "Ġbount": 1949,
      "ition": 1950,
      "ities": 1951,
      "arad": 1952,
      "ative": 1953,
      "ens": 1954,
      "Ġmother": 1955,
      "Ġyet": 1956,
      "raise": 1957,
      "ides": 1958,
      "Ġsaved": 1959,
      "Ġspread": 1960,
      "Ġdescend": 1961,
      "Ġseen": 1962,
      "Ġscrolls": 1963,
      "Ġprep": 1964,
      "lize": 1965,
      "Ġaffli": 1966,
      "Ġcommunity": 1967,
      "Ġinspired": 1968,
      "Ġplaced": 1969,
      "aradise": 1970,
      "gment": 1971,
      "male": 1972,
      "oke": 1973,
      "so": 1974,
      "ery": 1975,
      "erable": 1976,
      "Ġdwell": 1977,
      "aster": 1978,
      "right": 1979,
      "Ġfemale": 1980,
      "owed": 1981,
      "light": 1982,
      "Ġstand": 1983,
      "Ġplan": 1984,
      "Ġext": 1985,
      "Ġridic": 1986,
      "Ġprop": 1987,
      "ĠParadise": 1988,
      "Ġaccept": 1989,
      "Ġcommanded": 1990,
      "Ġenter": 1991,
      "haps": 1992,
      "Ġdestroyed": 1993,
      "Ġauth": 1994,
      "Ġmarvels": 1995,
      "Ġrings": 1996,
      "Ġavail": 1997,
      "Ġsinners": 1998,
      "reci": 1999,
      "never": 2000,
      "rible": 2001,
      "Ġgrou": 2002,
      "cest": 2003,
      "ĠSh": 2004,
      "ths": 2005,
      "ils": 2006,
      "Ġspend": 2007,
      "Ġancest": 2008,
      "Ġsevere": 2009,
      "Ġheart": 2010,
      "Ġresurre": 2011,
      "habit": 2012,
      "Ġglor": 2013,
      "Ġprepared": 2014,
      "Ġauthor": 2015,
      "Ġancestors": 2016,
      "Ġblankets": 2017,
      "Ġboxs": 2018,
      "Ġcrowns": 2019,
      "Ġballs": 2020,
      "av": 2021,
      "ived": 2022,
      "Ġterm": 2023,
      "Ġwives": 2024,
      "ination": 2025,
      "les": 2026,
      "Ġearned": 2027,
      "ĠAm": 2028,
      "ĠInde": 2029,
      "ĠSuch": 2030,
      "ample": 2031,
      "Ġpled": 2032,
      "Ġment": 2033,
      "Ġvirt": 2034,
      "ained": 2035,
      "Ġgrant": 2036,
      "Ġfaces": 2037,
      "Ġru": 2038,
      "Ġdesp": 2039,
      "Ġsea": 2040,
      "Ġpartners": 2041,
      "Ġsupport": 2042,
      "Ġvict": 2043,
      "Ġsuccess": 2044,
      "Ġpassed": 2045,
      "Ġpurif": 2046,
      "Ġimm": 2047,
      "Ġcakes": 2048,
      "asss": 2049,
      "Ġcompasss": 2050,
      "Ġleafs": 2051,
      "you": 2052,
      "Ġill": 2053,
      "Ġbrings": 2054,
      "rely": 2055,
      "Ġdark": 2056,
      "Ġopen": 2057,
      "nesses": 2058,
      "lect": 2059,
      "rone": 2060,
      "Ġdays": 2061,
      "ĠLast": 2062,
      "ioned": 2063,
      "Ġmeet": 2064,
      "ains": 2065,
      "Ġblame": 2066,
      "Ġprayers": 2067,
      "Ġobser": 2068,
      "Ġexpl": 2069,
      "Ġsends": 2070,
      "Ġreminder": 2071,
      "Ġidolat": 2072,
      "Ġterrible": 2073,
      "Ġkites": 2074,
      "Are": 2075,
      "ged": 2076,
      "ili": 2077,
      "ming": 2078,
      "Ġalt": 2079,
      "Ġnu": 2080,
      "Ġrev": 2081,
      "ardon": 2082,
      "Ġcomple": 2083,
      "Ġexample": 2084,
      "ĠDid": 2085,
      "ments": 2086,
      "Ġwork": 2087,
      "ption": 2088,
      "Ġprost": 2089,
      "Ġdisbelief": 2090,
      "Ġmessage": 2091,
      "Ġsett": 2092,
      "Ġseeking": 2093,
      "Ġsons": 2094,
      "Ġsecret": 2095,
      "part": 2096,
      "Ġorder": 2097,
      "Ġcorru": 2098,
      "Ġignor": 2099,
      "Did": 2100,
      "hold": 2101,
      "rong": 2102,
      "int": 2103,
      "itable": 2104,
      "Ġinher": 2105,
      "Ġinhabit": 2106,
      "Ġmon": 2107,
      "ĠAd": 2108,
      "ĠAre": 2109,
      "ceed": 2110,
      "Ġheed": 2111,
      "Ġhaving": 2112,
      "uring": 2113,
      "ĠMighty": 2114,
      "ĠWere": 2115,
      "ĠNor": 2116,
      "Ġancient": 2117,
      "Ġalone": 2118,
      "Ġsche": 2119,
      "Ġswear": 2120,
      "Ġgui": 2121,
      "ife": 2122,
      "Ġsinc": 2123,
      "Ġservant": 2124,
      "Ġwitnesses": 2125,
      "Ġblessed": 2126,
      "Ġblessings": 2127,
      "Ġprophet": 2128,
      "Ġwhether": 2129,
      "Ġtransgress": 2130,
      "Ġrecogniz": 2131,
      "Ġprevent": 2132,
      "Ġbounty": 2133,
      "Ġauthority": 2134,
      "Be": 2135,
      "alt": 2136,
      "ches": 2137,
      "mn": 2138,
      "pted": 2139,
      "sc": 2140,
      "val": 2141,
      "Ġtri": 2142,
      "Ġwom": 2143,
      "Ġwife": 2144,
      "Ġfal": 2145,
      "Ġpen": 2146,
      "Ġhon": 2147,
      "Ġhard": 2148,
      "asy": 2149,
      "Ġget": 2150,
      "Ġmoon": 2151,
      "Ġest": 2152,
      "ĠLot": 2153,
      "ĠShe": 2154,
      "Ġrecited": 2155,
      "ĠWord": 2156,
      "oseph": 2157,
      "Ġsurely": 2158,
      "ush": 2159,
      "Ġpermission": 2160,
      "Ġyears": 2161,
      "Ġsuffering": 2162,
      "Ġinvent": 2163,
      "Ġproduce": 2164,
      "ribution": 2165,
      "Ġdiff": 2166,
      "ĠProphe": 2167,
      "Ġdelivered": 2168,
      "Ġbenefit": 2169,
      "Ġgrieve": 2170,
      "reciative": 2171,
      "Ġsincere": 2172,
      "fore": 2173,
      "su": 2174,
      "Ġ1": 2175,
      "Ġsight": 2176,
      "erhaps": 2177,
      "reng": 2178,
      "ĠTru": 2179,
      "ises": 2180,
      "ony": 2181,
      "amood": 2182,
      "though": 2183,
      "lythe": 2184,
      "urity": 2185,
      "ĠWith": 2186,
      "Ġstru": 2187,
      "ĠBest": 2188,
      "Ġjinn": 2189,
      "Ġmeasure": 2190,
      "ĠThamood": 2191,
      "Ġjud": 2192,
      "Ġgoodness": 2193,
      "Ġperform": 2194,
      "osed": 2195,
      "Ġenc": 2196,
      "Ġprovision": 2197,
      "Ġregul": 2198,
      "Ġgreater": 2199,
      "Who": 2200,
      "Ġproofs": 2201,
      "ĠAmong": 2202,
      "Ġdarkness": 2203,
      "Ġguilty": 2204,
      "Ġfalse": 2205,
      "bs": 2206,
      "day": 2207,
      "igh": 2208,
      "oice": 2209,
      "sh": 2210,
      "Ġbar": 2211,
      "Ġbad": 2212,
      "Ġdire": 2213,
      "Ġoath": 2214,
      "Ġtook": 2215,
      "verse": 2216,
      "Ġmakes": 2217,
      "Ġoffer": 2218,
      "ĠSt": 2219,
      "Ġwithin": 2220,
      "esus": 2221,
      "ĠWhe": 2222,
      "Ġstreng": 2223,
      "omp": 2224,
      "ality": 2225,
      "ally": 2226,
      "ĠJesus": 2227,
      "Ġquest": 2228,
      "Ġsingle": 2229,
      "Ġconc": 2230,
      "Ġintend": 2231,
      "asting": 2232,
      "Ġevid": 2233,
      "Ġmiserable": 2234,
      "Ġenemy": 2235,
      "Ġfruits": 2236,
      "Ġhypocrites": 2237,
      "Ġgroup": 2238,
      "ĠIndeed": 2239,
      "Ġsettled": 2240,
      "Ġinherit": 2241,
      "Ġinhabitants": 2242,
      "ĠAdam": 2243,
      "Ġancients": 2244,
      "ĠProphet": 2245,
      "lytheists": 2246,
      "aj": 2247,
      "gin": 2248,
      "mates": 2249,
      "then": 2250,
      "uct": 2251,
      "yond": 2252,
      "ze": 2253,
      "erses": 2254,
      "Ġdaught": 2255,
      "Ġla": 2256,
      "Ġpast": 2257,
      "Ġbeyond": 2258,
      "Ġinmates": 2259,
      "Ġeasy": 2260,
      "ĠAad": 2261,
      "roo": 2262,
      "ĠEven": 2263,
      "ads": 2264,
      "ĠJoseph": 2265,
      "Ġyours": 2266,
      "Ġcoven": 2267,
      "irac": 2268,
      "Ġadvers": 2269,
      "Ġturns": 2270,
      "Ġleaves": 2271,
      "Ġreflect": 2272,
      "Ġbecomes": 2273,
      "Ġhumanity": 2274,
      "Ġattribut": 2275,
      "Ġviol": 2276,
      "Ġequal": 2277,
      "airs": 2278,
      "Ġunaware": 2279,
      "Ġseized": 2280,
      "ĠVerses": 2281,
      "Ġresurrected": 2282,
      "Know": 2283,
      "ges": 2284,
      "ip": 2285,
      "lu": 2286,
      "lory": 2287,
      "Ġsick": 2288,
      "Ġduring": 2289,
      "Ġtoday": 2290,
      "ric": 2291,
      "Ġgra": 2292,
      "Ġmust": 2293,
      "Ġem": 2294,
      "Ġesc": 2295,
      "Ġwhy": 2296,
      "owerful": 2297,
      "Ġreach": 2298,
      "uted": 2299,
      "Ġcarry": 2300,
      "Ġsup": 2301,
      "eem": 2302,
      "Ġans": 2303,
      "Ġanim": 2304,
      "Ġtell": 2305,
      "igned": 2306,
      "Ġraised": 2307,
      "Ġcond": 2308,
      "aking": 2309,
      "ages": 2310,
      "Ġsaying": 2311,
      "Ġseven": 2312,
      "ĠHimself": 2313,
      "Ġthank": 2314,
      "Ġunbelie": 2315,
      "abl": 2316,
      "Ġconfir": 2317,
      "Ġpraise": 2318,
      "Ġpract": 2319,
      "upon": 2320,
      "Ġrefuge": 2321,
      "Ġpledge": 2322,
      "Ġestabl": 2323,
      "Ġdaughters": 2324,
      "Ġcovenant": 2325,
      "ix": 2326,
      "ici": 2327,
      "icient": 2328,
      "rance": 2329,
      "ume": 2330,
      "uous": 2331,
      "wful": 2332,
      "Ġtreat": 2333,
      "Ġapart": 2334,
      "Ġsame": 2335,
      "Ġbu": 2336,
      "Ġdrown": 2337,
      "ingly": 2338,
      "Ġpardon": 2339,
      "ason": 2340,
      "Ġind": 2341,
      "Ġmight": 2342,
      "Ġmale": 2343,
      "cell": 2344,
      "ĠSee": 2345,
      "those": 2346,
      "cks": 2347,
      "ckon": 2348,
      "mbrance": 2349,
      "Ġones": 2350,
      "ĠThrone": 2351,
      "Ġremembrance": 2352,
      "Ġdefe": 2353,
      "Ġbacks": 2354,
      "Ġdisg": 2355,
      "iety": 2356,
      "Ġgenerations": 2357,
      "Ġpursu": 2358,
      "Ġcreate": 2359,
      "Ġadd": 2360,
      "Ġserve": 2361,
      "Ġretribution": 2362,
      "Ġsinful": 2363,
      "Ġpresence": 2364,
      "apable": 2365,
      "Ġreceived": 2366,
      "Ġdiffer": 2367,
      "Ġenemies": 2368,
      "Ġforbidden": 2369,
      "obey": 2370,
      "Ġinstead": 2371,
      "Ġappointed": 2372,
      "Ġintercess": 2373,
      "Ġfalsehood": 2374,
      "Ġoaths": 2375,
      "Sh": 2376,
      "When": 2377,
      "bric": 2378,
      "ex": 2379,
      "nou": 2380,
      "oid": 2381,
      "will": 2382,
      "Ġ'": 2383,
      "Ġtra": 2384,
      "eri": 2385,
      "Ġfur": 2386,
      "Ġbre": 2387,
      "Ġbreak": 2388,
      "Ġdra": 2389,
      "asphe": 2390,
      "vert": 2391,
      "Ġwaste": 2392,
      "ĠAware": 2393,
      "Ġfew": 2394,
      "Ġking": 2395,
      "irit": 2396,
      "ured": 2397,
      "nty": 2398,
      "Ġupright": 2399,
      "Ġorph": 2400,
      "ĠJe": 2401,
      "Ġfabric": 2402,
      "Ġblasphe": 2403,
      "Ġalread": 2404,
      "Ġcla": 2405,
      "ignty": 2406,
      "ĠCh": 2407,
      "Ġfollows": 2408,
      "Ġdust": 2409,
      "Ġhost": 2410,
      "cts": 2411,
      "Ġscri": 2412,
      "ĠPraise": 2413,
      "Ġbefall": 2414,
      "ific": 2415,
      "their": 2416,
      "Ġdevot": 2417,
      "Ġdestination": 2418,
      "Ġwrongdoing": 2419,
      "acred": 2420,
      "Ġsuppor": 2421,
      "vereignty": 2422,
      "Ġapproach": 2423,
      "Ġprophets": 2424,
      "Ġsucceed": 2425,
      "Ġreceive": 2426,
      "Ġcurse": 2427,
      "ĠHearing": 2428,
      "Ġvictory": 2429,
      "alted": 2430,
      "Ġanswer": 2431,
      "Ġunbelievers": 2432,
      "cellent": 2433,
      "Ġalready": 2434,
      "cu": 2435,
      "cing": 2436,
      "fort": 2437,
      "ians": 2438,
      "Ġtaken": 2439,
      "Ġbow": 2440,
      "aron": 2441,
      "atives": 2442,
      "ored": 2443,
      "Ġpiety": 2444,
      "Ġbeg": 2445,
      "ĠAble": 2446,
      "ĠAaron": 2447,
      "Ġung": 2448,
      "Ġforget": 2449,
      "ĠHome": 2450,
      "ĠSacred": 2451,
      "Ġheard": 2452,
      "Ġlie": 2453,
      "Ġliars": 2454,
      "esson": 2455,
      "Ġsave": 2456,
      "Ġreason": 2457,
      "ĠWoe": 2458,
      "Ġabide": 2459,
      "Ġfood": 2460,
      "Ġaggress": 2461,
      "used": 2462,
      "Ġcompens": 2463,
      "Ġfair": 2464,
      "ĠLike": 2465,
      "Ġdisobey": 2466,
      "ĠCle": 2467,
      "arable": 2468,
      "Ġpolytheists": 2469,
      "elled": 2470,
      "osqu": 2471,
      "bedi": 2472,
      "Ġcreature": 2473,
      "ĠWhatever": 2474,
      "Ġwarnings": 2475,
      "Ġworldly": 2476,
      "Ġstrive": 2477,
      "lized": 2478,
      "Ġfully": 2479,
      "Ġpossessions": 2480,
      "Ġridicu": 2481,
      "Ġglorify": 2482,
      "Ġmention": 2483,
      "Ġcomplete": 2484,
      "Ġconcern": 2485,
      "Ġadversity": 2486,
      "Ġemig": 2487,
      ".'": 2488,
      "Have": 2489,
      "ape": 2490,
      "most": 2491,
      "ron": 2492,
      "rateful": 2493,
      "rated": 2494,
      "to": 2495,
      "vil": 2496,
      "void": 2497,
      "Ġsl": 2498,
      "reme": 2499,
      "Ġdri": 2500,
      "Ġcount": 2501,
      "Ġlesson": 2502,
      "anct": 2503,
      "Ġgone": 2504,
      "Ġmirac": 2505,
      "Ġel": 2506,
      "Ġthing": 2507,
      "Ġthought": 2508,
      "ĠHouse": 2509,
      "inder": 2510,
      "thy": 2511,
      "like": 2512,
      "ury": 2513,
      "aled": 2514,
      "Ġthereby": 2515,
      "iling": 2516,
      "Ġdece": 2517,
      "Ġyourself": 2518,
      "hibit": 2519,
      "Ġovert": 2520,
      "Ġpoor": 2521,
      "Ġhold": 2522,
      "Ġappear": 2523,
      "ences": 2524,
      "Ġweak": 2525,
      "Ġhumans": 2526,
      "ĠPerhaps": 2527,
      "Ġhearing": 2528,
      "ĠUn": 2529,
      "Ġenough": 2530,
      "Ġprovide": 2531,
      "ully": 2532,
      "Ġtestify": 2533,
      "Ġrests": 2534,
      "Ġproduced": 2535,
      "Ġrelatives": 2536,
      "Ġconscious": 2537,
      "Ġpena": 2538,
      "Ġjudgment": 2539,
      "Knowing": 2540,
      "Ġanimals": 2541,
      "Ġconduct": 2542,
      "Ġpractice": 2543,
      "Ġdisgrace": 2544,
      "Ġclaim": 2545,
      "Ġungrateful": 2546,
      "Is": 2547,
      "Pe": 2548,
      "iers": 2549,
      "vi": 2550,
      "vious": 2551,
      "wor": 2552,
      "Ġtroo": 2553,
      "Ġfree": 2554,
      "iting": 2555,
      "Ġtong": 2556,
      "ĠTor": 2557,
      "ened": 2558,
      "Ġbeaut": 2559,
      "iding": 2560,
      "that": 2561,
      "Ġliving": 2562,
      "Ġreb": 2563,
      "Ġread": 2564,
      "iring": 2565,
      "Ġsovereignty": 2566,
      "Ġstill": 2567,
      "Ġstray": 2568,
      "Ġshi": 2569,
      "Ġface": 2570,
      "Ġclar": 2571,
      "tered": 2572,
      "Ġprosp": 2573,
      "Ġprohibit": 2574,
      "Ġhumili": 2575,
      "Ġloves": 2576,
      "Ġthanks": 2577,
      "Ġacce": 2578,
      "Ġchange": 2579,
      "Ġmisgu": 2580,
      "ressed": 2581,
      "Ġrecom": 2582,
      "Ġrealize": 2583,
      "Ġcommitted": 2584,
      "Ġendure": 2585,
      "Ġfulfilled": 2586,
      "Ġfavored": 2587,
      "Ġincrease": 2588,
      "Ġmagic": 2589,
      "Ġdespair": 2590,
      "Ġobserve": 2591,
      "Ġnumber": 2592,
      "Ġrecognize": 2593,
      "Ġdiffic": 2594,
      "Ġregular": 2595,
      "Ġthankful": 2596,
      "Ġestablished": 2597,
      "Ġdrowned": 2598,
      "ĠSeeing": 2599,
      "ckoning": 2600,
      "osque": 2601,
      "Ġridicule": 2602,
      "Peace": 2603,
      "Ġtroops": 2604,
      "ĠTorah": 2605,
      "aac": 2606,
      "kes": 2607,
      "lo": 2608,
      "pet": 2609,
      "rist": 2610,
      "und": 2611,
      "wise": 2612,
      "Ġtakes": 2613,
      "rew": 2614,
      "reed": 2615,
      "Ġdro": 2616,
      "Ġcra": 2617,
      "Ġcare": 2618,
      "Ġpal": 2619,
      "Ġparable": 2620,
      "verted": 2621,
      "rigin": 2622,
      "vest": 2623,
      "Ġthree": 2624,
      "ĠSp": 2625,
      "ĠSu": 2626,
      "lihood": 2627,
      "ĠMeem": 2628,
      "Ġstead": 2629,
      "omon": 2630,
      "ention": 2631,
      "ones": 2632,
      "Ġexch": 2633,
      "Ġexcellent": 2634,
      "Ġonce": 2635,
      "Ġalso": 2636,
      "Ġalthough": 2637,
      "lace": 2638,
      "Ġmarry": 2639,
      "Ġargue": 2640,
      "Ġweight": 2641,
      "Ġbelieves": 2642,
      "Ġwrath": 2643,
      "ĠWhy": 2644,
      "ĠIsaac": 2645,
      "Ġrepaid": 2646,
      "Ġdevils": 2647,
      "Ġexpect": 2648,
      "aches": 2649,
      "Ġentered": 2650,
      "Ġsecurity": 2651,
      "Ġconsider": 2652,
      "Ġfirm": 2653,
      "Ġlivelihood": 2654,
      "Ġstayed": 2655,
      "Ġenjoyment": 2656,
      "Ġvirtuous": 2657,
      "Ġcorruption": 2658,
      "Ġhardship": 2659,
      "Ġescape": 2660,
      "Shall": 2661,
      "ĠJews": 2662,
      "ĠChrist": 2663,
      "Ġconcerning": 2664,
      "!\"": 2665,
      "Go": 2666,
      "aco": 2667,
      "come": 2668,
      "fully": 2669,
      "ile": 2670,
      "iah": 2671,
      "lomon": 2672,
      "pel": 2673,
      "ual": 2674,
      "under": 2675,
      "ump": 2676,
      "wa": 2677,
      "ying": 2678,
      "Ġavoid": 2679,
      "ins": 2680,
      "iness": 2681,
      "res": 2682,
      "aring": 2683,
      "Ġcut": 2684,
      "Ġtold": 2685,
      "isions": 2686,
      "Ġpairs": 2687,
      "ense": 2688,
      "Ġinjust": 2689,
      "ries": 2690,
      "Ġgrow": 2691,
      "Ġmult": 2692,
      "Ġmaking": 2693,
      "stock": 2694,
      "ĠOmn": 2695,
      "nter": 2696,
      "ĠMosque": 2697,
      "Ġdoing": 2698,
      "Ġabs": 2699,
      "Ġable": 2700,
      "ĠBla": 2701,
      "ents": 2702,
      "ĠNone": 2703,
      "Ġspouse": 2704,
      "ĠSolomon": 2705,
      "Ġbeliever": 2706,
      "ĠJud": 2707,
      "ĠDav": 2708,
      "Ġrun": 2709,
      "Ġpermit": 2710,
      "Ġforgot": 2711,
      "ters": 2712,
      "Ġcover": 2713,
      "Ġappreciative": 2714,
      "Ġdue": 2715,
      "Ġwherein": 2716,
      "Ġgreet": 2717,
      "Ġpersec": 2718,
      "Ġcommits": 2719,
      "ĠWhomever": 2720,
      "Ġpreced": 2721,
      "Ġfears": 2722,
      "Ġcalls": 2723,
      "Ġclouds": 2724,
      "Ġrecon": 2725,
      "Ġrecall": 2726,
      "ĠForgiver": 2727,
      "Ġdecree": 2728,
      "Ġdecision": 2729,
      "Ġstrike": 2730,
      "Ġcharitable": 2731,
      "Ġrespons": 2732,
      "Ġidols": 2733,
      "ĠProtect": 2734,
      "Ġunable": 2735,
      "Ġlivestock": 2736,
      "ĠHearer": 2737,
      "Ġdescendants": 2738,
      "Ġafflicted": 2739,
      "Ġidolaters": 2740,
      "Ġignorant": 2741,
      "Ġquestioned": 2742,
      "Ġcompensation": 2743,
      "worthy": 2744,
      "Ġaccepted": 2745,
      "acob": 2746,
      "Ġinjustice": 2747,
      "ĠDavid": 2748,
      "Bring": 2749,
      "Yes": 2750,
      "bl": 2751,
      "bli": 2752,
      "dden": 2753,
      "ep": 2754,
      "eps": 2755,
      "fast": 2756,
      "ma": 2757,
      "ogether": 2758,
      "oted": 2759,
      "oers": 2760,
      "ris": 2761,
      "ting": 2762,
      "ues": 2763,
      "wh": 2764,
      "Ġtree": 2765,
      "edu": 2766,
      "Ġsist": 2767,
      "Ġside": 2768,
      "Ġsel": 2769,
      "Ġsedu": 2770,
      "erate": 2771,
      "Ġfill": 2772,
      "Ġfate": 2773,
      "Ġfour": 2774,
      "reg": 2775,
      "Ġcau": 2776,
      "Ġcase": 2777,
      "ats": 2778,
      "ormed": 2779,
      "mend": 2780,
      "Ġlim": 2781,
      "Ġpious": 2782,
      "Ġmer": 2783,
      "Ġease": 2784,
      "Ġthrow": 2785,
      "seen": 2786,
      "Ġfeet": 2787,
      "chie": 2788,
      "Ġliar": 2789,
      "ĠOb": 2790,
      "Ġreckoning": 2791,
      "uty": 2792,
      "ĠWhi": 2793,
      "Ġabund": 2794,
      "ĠBl": 2795,
      "Ġsudden": 2796,
      "Ġfoot": 2797,
      "Ġcoming": 2798,
      "Ġkinds": 2799,
      "ĠJacob": 2800,
      "Ġdeb": 2801,
      "Ġdeaf": 2802,
      "Ġalmost": 2803,
      "Ġclay": 2804,
      "Ġfaithless": 2805,
      "tern": 2806,
      "ĠCapable": 2807,
      "Ġallies": 2808,
      "laim": 2809,
      "Ġwherever": 2810,
      "Ġearn": 2811,
      "Ġears": 2812,
      "Ġmyself": 2813,
      "Ġadul": 2814,
      "Ġevild": 2815,
      "Ġobvious": 2816,
      "Ġsettle": 2817,
      "Ġreform": 2818,
      "Ġtested": 2819,
      "Ġattain": 2820,
      "Ġblessing": 2821,
      "Ġsufficient": 2822,
      "Ġincl": 2823,
      "Ġrepentance": 2824,
      "Ġadvoc": 2825,
      "Ġdefi": 2826,
      "Ġwhenever": 2827,
      "Ġcursed": 2828,
      "Ġcertainly": 2829,
      "Ġappoint": 2830,
      "Ġextend": 2831,
      "Ġgranted": 2832,
      "Ġaltogether": 2833,
      "Ġencount": 2834,
      "ĠWhenever": 2835,
      "ompass": 2836,
      "Ġlawful": 2837,
      "Ġattribute": 2838,
      "Ġscripture": 2839,
      ".'\"": 2840,
      "Ġships": 2841,
      "Ġprosper": 2842,
      "ĠSpirit": 2843,
      "Ġsteadfast": 2844,
      "ĠBlaze": 2845,
      "ĠProtector": 2846,
      "Ġsuddenly": 2847,
      "Ġevildoers": 2848,
      "Had": 2849,
      "To": 2850,
      "eg": 2851,
      "ging": 2852,
      "ject": 2853,
      "oined": 2854,
      "Ġwarned": 2855,
      "Ġsanct": 2856,
      "Ġfin": 2857,
      "Ġfast": 2858,
      "Ġbones": 2859,
      "itute": 2860,
      "Ġduty": 2861,
      "Ġlying": 2862,
      "Ġpure": 2863,
      "Ġhid": 2864,
      "Ġhur": 2865,
      "Ġinn": 2866,
      "Ġgar": 2867,
      "Ġmind": 2868,
      "Ġthous": 2869,
      "Ġut": 2870,
      "imil": 2871,
      "ows": 2872,
      "uled": 2873,
      "Ġwithd": 2874,
      "uture": 2875,
      "Then": 2876,
      "Ġshame": 2877,
      "Ġsust": 2878,
      "Ġspee": 2879,
      "Ġagony": 2880,
      "Ġcomfort": 2881,
      "Ġexcu": 2882,
      "Ġdep": 2883,
      "Ġdelight": 2884,
      "Ġhasten": 2885,
      "ively": 2886,
      "ĠRec": 2887,
      "ĠNot": 2888,
      "Ġvision": 2889,
      "osen": 2890,
      "Ġsorc": 2891,
      "Ġconse": 2892,
      "aff": 2893,
      "othe": 2894,
      "Ġprefer": 2895,
      "Ġchosen": 2896,
      "Ġservice": 2897,
      "Ġassigned": 2898,
      "Ġdevil": 2899,
      "Ġrecite": 2900,
      "Ġsubst": 2901,
      "Ġtestim": 2902,
      "ifying": 2903,
      "Ġinvoke": 2904,
      "Ġsecure": 2905,
      "Ġproduces": 2906,
      "Ġdispute": 2907,
      "Ġprotector": 2908,
      "formed": 2909,
      "Ġfalls": 2910,
      "obi": 2911,
      "Ġpayment": 2912,
      "Ġtouch": 2913,
      "Ġmagici": 2914,
      "Ġvirtue": 2915,
      "Ġimmor": 2916,
      "Ġmeeting": 2917,
      "Ġwoman": 2918,
      "Ġpursued": 2919,
      "bedient": 2920,
      "Ġrecompen": 2921,
      "Ġexchange": 2922,
      "Ġspouses": 2923,
      "Ġadulter": 2924,
      "Ġthousand": 2925,
      "Ġspeech": 2926,
      "\"?": 2927,
      "Praise": 2928,
      "Your": 2929,
      "ali": 2930,
      "cc": 2931,
      "claim": 2932,
      "ef": 2933,
      "em": 2934,
      "ept": 2935,
      "iced": 2936,
      "lay": 2937,
      "nced": 2938,
      "with": 2939,
      "what": 2940,
      "xt": 2941,
      "your": 2942,
      "Ġtrou": 2943,
      "Ġfuture": 2944,
      "itter": 2945,
      "rees": 2946,
      "Ġcr": 2947,
      "Ġcity": 2948,
      "ishes": 2949,
      "ingu": 2950,
      "men": 2951,
      "Ġlow": 2952,
      "Ġlord": 2953,
      "Ġbeware": 2954,
      "Ġmain": 2955,
      "Ġmaster": 2956,
      "Ġthrew": 2957,
      "ĠLet": 2958,
      "ĠLam": 2959,
      "imate": 2960,
      "Ġfell": 2961,
      "Ġfeared": 2962,
      "sts": 2963,
      "steps": 2964,
      "uly": 2965,
      "ĠGo": 2966,
      "ĠGu": 2967,
      "ĠGreat": 2968,
      "ĠGlory": 2969,
      "ution": 2970,
      "These": 2971,
      "lter": 2972,
      "Ġaband": 2973,
      "ĠEn": 2974,
      "Ġwoe": 2975,
      "Ġsprings": 2976,
      "Ġvain": 2977,
      "quest": 2978,
      "Ġperpet": 2979,
      "Ġdisc": 2980,
      "ales": 2981,
      "ĠAlif": 2982,
      "Ġpatiently": 2983,
      "ĠPowerful": 2984,
      "Ġmessages": 2985,
      "Ġrevelation": 2986,
      "Ġremit": 2987,
      "Ġrejoice": 2988,
      "Ġmisled": 2989,
      "Ġdiv": 2990,
      "Ġdevoted": 2991,
      "Ġdecl": 2992,
      "ably": 2993,
      "Ġreminded": 2994,
      "Ġapproval": 2995,
      "Ġtowns": 2996,
      "Ġbenefits": 2997,
      "Ġacts": 2998,
      "Ġfruit": 2999,
      "Ġpleased": 3000,
      "Ġsubmitted": 3001,
      "Ġtouched": 3002,
      "rains": 3003,
      "Ġmothers": 3004,
      "Ġplanned": 3005,
      "Ġpurify": 3006,
      "Ġrevive": 3007,
      "Ġscheme": 3008,
      "Ġstrengthen": 3009,
      "Ġevidence": 3010,
      "except": 3011,
      "nounce": 3012,
      "Ġkingdom": 3013,
      "Ġdifficult": 3014,
      "ĠChristians": 3015,
      "Ġpermitted": 3016,
      "Ġresponsible": 3017,
      "Ġlimits": 3018,
      "Ġencounter": 3019,
      "imilar": 3020,
      "Ġmaint": 3021,
      "Ġabandon": 3022,
      "di": 3023,
      "hma": 3024,
      "ner": 3025,
      "oked": 3026,
      "ped": 3027,
      "ran": 3028,
      "rant": 3029,
      "rating": 3030,
      "vate": 3031,
      "voy": 3032,
      "Ġve": 3033,
      "hend": 3034,
      "Ġage": 3035,
      "Ġsit": 3036,
      "Ġfl": 3037,
      "Ġfought": 3038,
      "Ġbod": 3039,
      "rehend": 3040,
      "arn": 3041,
      "Ġdied": 3042,
      "Ġca": 3043,
      "Ġchild": 3044,
      "attered": 3045,
      "Ġorigin": 3046,
      "ising": 3047,
      "isible": 3048,
      "member": 3049,
      "Ġlasting": 3050,
      "Ġpour": 3051,
      "Ġhide": 3052,
      "ases": 3053,
      "vey": 3054,
      "Ġmobi": 3055,
      "Ġeff": 3056,
      "rab": 3057,
      "ract": 3058,
      "ĠAn": 3059,
      "ĠAr": 3060,
      "oday": 3061,
      "stru": 3062,
      "ĠSa": 3063,
      "Ġwithhold": 3064,
      "thren": 3065,
      "Ġlift": 3066,
      "ĠGos": 3067,
      "Ġsavi": 3068,
      "Ġrele": 3069,
      "arded": 3070,
      "ĠMed": 3071,
      "Ġstory": 3072,
      "Ġshort": 3073,
      "Ġnoble": 3074,
      "Ġloss": 3075,
      "ĠEvil": 3076,
      "ently": 3077,
      "oney": 3078,
      "Ġnext": 3079,
      "Ġplot": 3080,
      "Ġleg": 3081,
      "lieve": 3082,
      "okes": 3083,
      "usion": 3084,
      "Ġdeed": 3085,
      "ĠDe": 3086,
      "Ġrush": 3087,
      "Ġturning": 3088,
      "Ġdislike": 3089,
      "Ġworst": 3090,
      "aib": 3091,
      "Ġunderstanding": 3092,
      "Ġsepar": 3093,
      "Ġdeta": 3094,
      "Ġproclaim": 3095,
      "Ġforgives": 3096,
      "Ġcourse": 3097,
      "Ġharvest": 3098,
      "ossess": 3099,
      "Ġsorrow": 3100,
      "Ġconsp": 3101,
      "Ġconvey": 3102,
      "Ġmidst": 3103,
      "Ġwalk": 3104,
      "Ġdisbelieving": 3105,
      "Ġwrite": 3106,
      "Ġado": 3107,
      "Ġunle": 3108,
      "Ġrighteously": 3109,
      "Ġcalling": 3110,
      "ĠIshma": 3111,
      "cribed": 3112,
      "Ġrepay": 3113,
      "Ġreprie": 3114,
      "Ġprovisions": 3115,
      "Ġwarning": 3116,
      "Ġdivor": 3117,
      "Ġrecord": 3118,
      "Ġinformed": 3119,
      "Ġattention": 3120,
      "Ġcontin": 3121,
      "ĠRem": 3122,
      "Ġassociates": 3123,
      "Ġtruly": 3124,
      "Ġcommunities": 3125,
      "Ġpossessed": 3126,
      "Ġconsume": 3127,
      "Ġrespond": 3128,
      "Ġordained": 3129,
      "Why": 3130,
      "Ġguardian": 3131,
      "Ġfemales": 3132,
      "Ġridiculed": 3133,
      "Ġexplain": 3134,
      "Ġprostrate": 3135,
      "Ġheedless": 3136,
      "Ġscheming": 3137,
      "Ġstruck": 3138,
      "Ġstrength": 3139,
      "Ġevident": 3140,
      "Ġconfirming": 3141,
      "Ġdefeated": 3142,
      "Ġbrethren": 3143,
      "Ġorphans": 3144,
      "Ġaggression": 3145,
      "Ġslave": 3146,
      "Ġreconci": 3147,
      "Ġselves": 3148,
      "Ġcaused": 3149,
      "Ġabundant": 3150,
      "Ġhidden": 3151,
      "Ġinnoc": 3152,
      "Ġutter": 3153,
      "Ġtestimony": 3154,
      "Ġrecompense": 3155,
      "ĠGospel": 3156,
      "ĠIshmael": 3157,
      "How": 3158,
      "Woe": 3159,
      "app": 3160,
      "cul": 3161,
      "een": 3162,
      "olt": 3163,
      "pent": 3164,
      "pret": 3165,
      "side": 3166,
      "uaib": 3167,
      "Ġ2": 3168,
      "Ġ3": 3169,
      "Ġ4": 3170,
      "Ġ5": 3171,
      "Ġ6": 3172,
      "Ġ7": 3173,
      "Ġ8": 3174,
      "Ġ9": 3175,
      "Ġ`": 3176,
      "Ġawa": 3177,
      "inent": 3178,
      "aries": 3179,
      "Ġdign": 3180,
      "Ġce": 3181,
      "Ġcro": 3182,
      "Ġcol": 3183,
      "Ġcru": 3184,
      "Ġhus": 3185,
      "asses": 3186,
      "enance": 3187,
      "rier": 3188,
      "Ġmou": 3189,
      "Ġmoney": 3190,
      "ĠAb": 3191,
      "ĠAny": 3192,
      "ĠArab": 3193,
      "Ġfort": 3194,
      "ĠHas": 3195,
      "ode": 3196,
      "Ġhead": 3197,
      "live": 3198,
      "ppreciative": 3199,
      "ĠMan": 3200,
      "Ġsole": 3201,
      "Ġstaff": 3202,
      "Ġabiding": 3203,
      "Ġneg": 3204,
      "ionate": 3205,
      "plend": 3206,
      "Ġhelper": 3207,
      "ĠNe": 3208,
      "Ġtheirs": 3209,
      "Ġang": 3210,
      "wards": 3211,
      "Ġcomprehend": 3212,
      "Ġgoing": 3213,
      "Ġblood": 3214,
      "Ġpers": 3215,
      "Ġneedy": 3216,
      "ĠCompass": 3217,
      "ernal": 3218,
      "Ġdeser": 3219,
      "els": 3220,
      "orable": 3221,
      "orts": 3222,
      "Ġbestowed": 3223,
      "rust": 3224,
      "Ġsealed": 3225,
      "Ġprof": 3226,
      "Ġscattered": 3227,
      "Ġflee": 3228,
      "Ġflesh": 3229,
      "ĠPossess": 3230,
      "Ġcreates": 3231,
      "Ġheavy": 3232,
      "Ġprec": 3233,
      "lessed": 3234,
      "ĠDoes": 3235,
      "cribe": 3236,
      "Ġoblig": 3237,
      "Ġenvoy": 3238,
      "Ġworshiping": 3239,
      "Ġdevi": 3240,
      "Ġdecreed": 3241,
      "Ġdouble": 3242,
      "Ġrestri": 3243,
      "Ġsuffer": 3244,
      "Ġcontro": 3245,
      "Ġcontain": 3246,
      "Ġadvance": 3247,
      "ĠRemember": 3248,
      "Ġbrothers": 3249,
      "Ġdisputed": 3250,
      "Ġpraises": 3251,
      "Ġcommunic": 3252,
      "Ġrespite": 3253,
      "Ġprice": 3254,
      "gnizant": 3255,
      "Ġinterpret": 3256,
      "Ġrefuse": 3257,
      "Ġdwelling": 3258,
      "Ġstanding": 3259,
      "Ġproper": 3260,
      "Ġpropert": 3261,
      "ĠShuaib": 3262,
      "Ġsuccessors": 3263,
      "Ġopened": 3264,
      "Ġignorance": 3265,
      "Ġmonths": 3266,
      "Ġtriump": 3267,
      "Ġwombs": 3268,
      "Ġinvented": 3269,
      "Ġ10": 3270,
      "Ġdirection": 3271,
      "ĠStrong": 3272,
      "Ġintends": 3273,
      "ajest": 3274,
      "Ġsickness": 3275,
      "Ġsupreme": 3276,
      "Ġtreaty": 3277,
      "Ġbuild": 3278,
      "Ġindec": 3279,
      "Ġblasphem": 3280,
      "ĠPraiseworthy": 3281,
      "Ġsupported": 3282,
      "ĠLikewise": 3283,
      "Ġcreatures": 3284,
      "Ġmiracle": 3285,
      "Ġpenalty": 3286,
      "Ġprohibited": 3287,
      "ĠJudgment": 3288,
      "Ġpreceded": 3289,
      "rison": 3290,
      "ĠObser": 3291,
      "Ġadvocate": 3292,
      "Ġgarments": 3293,
      "Ġwithdra": 3294,
      "Ġsustenance": 3295,
      "Ġtrouble": 3296,
      "Ġunleas": 3297,
      "Ġinnocent": 3298,
      "ĠCompassionate": 3299,
      "ĠPossessor": 3300,
      "Ġtriumph": 3301,
      "By": 3302,
      "But": 3303,
      "Come": 3304,
      "Call": 3305,
      "Take": 3306,
      "Taste": 3307,
      "act": 3308,
      "band": 3309,
      "dition": 3310,
      "from": 3311,
      "iv": 3312,
      "ift": 3313,
      "ival": 3314,
      "ling": 3315,
      "lor": 3316,
      "lim": 3317,
      "pes": 3318,
      "sing": 3319,
      "spr": 3320,
      "ux": 3321,
      "head": 3322,
      "Ġtar": 3323,
      "Ġallow": 3324,
      "edic": 3325,
      "Ġsides": 3326,
      "Ġsix": 3327,
      "Ġfre": 3328,
      "Ġfat": 3329,
      "iter": 3330,
      "resses": 3331,
      "Ġdread": 3332,
      "Ġdedic": 3333,
      "Ġcri": 3334,
      "ator": 3335,
      "Ġobedient": 3336,
      "orn": 3337,
      "Ġled": 3338,
      "Ġlay": 3339,
      "Ġlux": 3340,
      "Ġpowerful": 3341,
      "Ġhour": 3342,
      "Ġbew": 3343,
      "Ġground": 3344,
      "velo": 3345,
      "Ġmock": 3346,
      "lected": 3347,
      "Ġthunder": 3348,
      "Ġnar": 3349,
      "Ġnames": 3350,
      "Ġnull": 3351,
      "amity": 3352,
      "Ġlives": 3353,
      "ĠGlor": 3354,
      "Ġsac": 3355,
      "Ġsafe": 3356,
      "Ġkept": 3357,
      "Ġrever": 3358,
      "Ġrely": 3359,
      "Ġrepe": 3360,
      "ĠMon": 3361,
      "ĠMus": 3362,
      "ĠMount": 3363,
      "ĠMaster": 3364,
      "ĠWit": 3365,
      "ĠWhere": 3366,
      "Ġdom": 3367,
      "Ġdoers": 3368,
      "Ġsting": 3369,
      "Ġstate": 3370,
      "Ġstrong": 3371,
      "alms": 3372,
      "antage": 3373,
      "Ġabode": 3374,
      "ender": 3375,
      "ĠBlessed": 3376,
      "ecause": 3377,
      "ĠEast": 3378,
      "Ġnecks": 3379,
      "Ġplain": 3380,
      "mbly": 3381,
      "Ġleast": 3382,
      "Ġfool": 3383,
      "ĠNow": 3384,
      "ĠName": 3385,
      "Ġspoke": 3386,
      "Ġvan": 3387,
      "Ġascend": 3388,
      "Ġexalted": 3389,
      "ushed": 3390,
      "ĠJust": 3391,
      "Ġdefer": 3392,
      "ĠDes": 3393,
      "Ġfail": 3394,
      "Ġblown": 3395,
      "Ġnearer": 3396,
      "Ġdisreg": 3397,
      "Ġdisapp": 3398,
      "Ġseeing": 3399,
      "ĠRight": 3400,
      "Ġcalf": 3401,
      "Ġcalamity": 3402,
      "Ġknown": 3403,
      "Ġdistingu": 3404,
      "Ġkneel": 3405,
      "Ġconcl": 3406,
      "mpet": 3407,
      "Ġrans": 3408,
      "Ġbefriend": 3409,
      "ifies": 3410,
      "ĠMessengers": 3411,
      "Ġserious": 3412,
      "Ġafterwards": 3413,
      "Ġcho": 3414,
      "Ġchose": 3415,
      "Ġchap": 3416,
      "Ġpromises": 3417,
      "Ġrepel": 3418,
      "Ġreplace": 3419,
      "Ġdeniers": 3420,
      "Ġtwice": 3421,
      "ledgeable": 3422,
      "Ġmisle": 3423,
      "Ġdevout": 3424,
      "Ġsubmiss": 3425,
      "Ġangel": 3426,
      "Ġwitnessed": 3427,
      "ĠExp": 3428,
      "ĠExalted": 3429,
      "Ġsuffice": 3430,
      "Ġcauses": 3431,
      "Ġadvice": 3432,
      "Ġadvantage": 3433,
      "Ġfamili": 3434,
      "Ġfighting": 3435,
      "ĠPeace": 3436,
      "Ġprior": 3437,
      "Ġinstru": 3438,
      "Ġplease": 3439,
      "Ġincreased": 3440,
      "Ġoppress": 3441,
      "Ġruin": 3442,
      "Ġsuccessful": 3443,
      "Ġpurifies": 3444,
      "Ġrevives": 3445,
      "Ġrecognized": 3446,
      "Ġprevented": 3447,
      "Ġhonor": 3448,
      "ĠTruth": 3449,
      "ĠWhether": 3450,
      "Ġdefeat": 3451,
      "Ġintercession": 3452,
      "Ġbreaks": 3453,
      "Ġdraw": 3454,
      "Ġanswered": 3455,
      "Ġdisobeyed": 3456,
      "ĠClear": 3457,
      "ĠClement": 3458,
      "Ġdrive": 3459,
      "Ġbeautiful": 3460,
      "Ġstrayed": 3461,
      "Ġseduce": 3462,
      "Ġfootsteps": 3463,
      "Ġconsequ": 3464,
      "Ġimmoral": 3465,
      "ĠMedian": 3466,
      "ĠReminder": 3467,
      "Ġhusband": 3468,
      "Ġmouths": 3469,
      "ĠArabic": 3470,
      "Ġpersist": 3471,
      "Ġenvoys": 3472,
      "Ġinterpretation": 3473,
      "Ġindecen": 3474,
      "spring": 3475,
      "ĠMuslim": 3476,
      "Ara": 3477,
      "Glory": 3478,
      "Where": 3479,
      "aked": 3480,
      "father": 3481,
      "grim": 3482,
      "ih": 3483,
      "ier": 3484,
      "lin": 3485,
      "mor": 3486,
      "nish": 3487,
      "oth": 3488,
      "oly": 3489,
      "rates": 3490,
      "une": 3491,
      "use": 3492,
      "whe": 3493,
      "Ġir": 3494,
      "Ġty": 3495,
      "Ġten": 3496,
      "Ġahead": 3497,
      "inion": 3498,
      "Ġsle": 3499,
      "Ġsla": 3500,
      "Ġsimilar": 3501,
      "ndred": 3502,
      "Ġfra": 3503,
      "ounced": 3504,
      "Ġbind": 3505,
      "itably": 3506,
      "Ġcir": 3507,
      "Ġcast": 3508,
      "Ġocc": 3509,
      "Ġlast": 3510,
      "Ġpron": 3511,
      "Ġhinder": 3512,
      "Ġgate": 3513,
      "Ġmad": 3514,
      "Ġmot": 3515,
      "Ġele": 3516,
      "Ġemb": 3517,
      "Ġeither": 3518,
      "ĠHa": 3519,
      "ĠHoly": 3520,
      "ĠSale": 3521,
      "ĠSab": 3522,
      "Ġheads": 3523,
      "Ġreli": 3524,
      "Ġresid": 3525,
      "ltimate": 3526,
      "ĠMis": 3527,
      "ĠMajest": 3528,
      "Ġsoon": 3529,
      "ilgrim": 3530,
      "Ġwillingly": 3531,
      "Ġloads": 3532,
      "Ġsusp": 3533,
      "Ġspring": 3534,
      "Ġvar": 3535,
      "Ġval": 3536,
      "Ġexh": 3537,
      "Ġexcl": 3538,
      "ource": 3539,
      "Ġdem": 3540,
      "ĠDec": 3541,
      "ĠInf": 3542,
      "ĠInformed": 3543,
      "Ġrise": 3544,
      "Ġboiling": 3545,
      "Ġclos": 3546,
      "Ġclot": 3547,
      "Ġways": 3548,
      "Ġhundred": 3549,
      "Ġworse": 3550,
      "ĠRather": 3551,
      "ĠCan": 3552,
      "ĠCreat": 3553,
      "Ġraise": 3554,
      "Ġalle": 3555,
      "Ġcovered": 3556,
      "Ġmanif": 3557,
      "Ġmanner": 3558,
      "Ġfollowing": 3559,
      "Ġwinds": 3560,
      "ĠTherefore": 3561,
      "Ġforefather": 3562,
      "Ġwage": 3563,
      "Ġsees": 3564,
      "Ġeye": 3565,
      "Ġshowed": 3566,
      "Ġdisbelieves": 3567,
      "Ġbellies": 3568,
      "Ġbetray": 3569,
      "Ġoutcome": 3570,
      "Ġunseen": 3571,
      "Ġgift": 3572,
      "ĠMessiah": 3573,
      "Ġacqu": 3574,
      "Ġsince": 3575,
      "Ġdenies": 3576,
      "Ġworshiped": 3577,
      "Ġprovides": 3578,
      "Ġassist": 3579,
      "Ġassum": 3580,
      "Ġassume": 3581,
      "Ġcommands": 3582,
      "Ġrefused": 3583,
      "Ġdiverse": 3584,
      "Ġevils": 3585,
      "Ġsending": 3586,
      "ĠKnowledgeable": 3587,
      "Ġkilling": 3588,
      "Ġshelter": 3589,
      "ĠQu": 3590,
      "Ġfactions": 3591,
      "Ġposition": 3592,
      "Ġresent": 3593,
      "Ġcontent": 3594,
      "Ġincur": 3595,
      "Ġdisput": 3596,
      "Ġequitably": 3597,
      "Ġdefied": 3598,
      "Ġoffspring": 3599,
      "ĠAlthough": 3600,
      "Ġleads": 3601,
      "Ġprivate": 3602,
      "Ġtremend": 3603,
      "Ġtouches": 3604,
      "Ġpersons": 3605,
      "Ġglorified": 3606,
      "Ġillum": 3607,
      "Ġobserved": 3608,
      "Ġaltern": 3609,
      "Ġsecrets": 3610,
      "Ġsecretly": 3611,
      "Ġcorrupt": 3612,
      "Ġtransgressors": 3613,
      "Ġdiffered": 3614,
      "ĠTrumpet": 3615,
      "Ġbarrier": 3616,
      "Ġquestion": 3617,
      "Ġviolate": 3618,
      "Ġgracious": 3619,
      "Ġfurnish": 3620,
      "Ġorphan": 3621,
      "Ġbefalls": 3622,
      "Ġelse": 3623,
      "Ġdeceive": 3624,
      "Ġtongue": 3625,
      "Ġtongues": 3626,
      "Ġregularly": 3627,
      "Ġpalm": 3628,
      "Ġfirmly": 3629,
      "Ġmultip": 3630,
      "Ġrunning": 3631,
      "Ġpersecution": 3632,
      "ĠBliss": 3633,
      "Ġexcuses": 3634,
      "otheist": 3635,
      "ĠGuard": 3636,
      "Ġmaintain": 3637,
      "ĠArk": 3638,
      "Ġreprieved": 3639,
      "ĠNeither": 3640,
      "Ġcontrol": 3641,
      "ĠWitness": 3642,
      "ĠDesert": 3643,
      "Ġransom": 3644,
      "Ġchapter": 3645,
      "Ġsubmissive": 3646,
      "ĠExpert": 3647,
      "Ġfamilies": 3648,
      "Ġconsequences": 3649,
      "Arabs": 3650,
      "whel": 3651,
      "Ġslander": 3652,
      "Ġmotion": 3653,
      "ĠSaleh": 3654,
      "Ġcloser": 3655,
      "Ġforefathers": 3656,
      "Ġtremendous": 3657,
      "Enter": 3658,
      "Lord": 3659,
      "St": 3660,
      "Will": 3661,
      "bly": 3662,
      "bolt": 3663,
      "came": 3664,
      "fy": 3665,
      "gg": 3666,
      "go": 3667,
      "gy": 3668,
      "have": 3669,
      "iver": 3670,
      "iod": 3671,
      "ict": 3672,
      "joy": 3673,
      "know": 3674,
      "mak": 3675,
      "nk": 3676,
      "nat": 3677,
      "nih": 3678,
      "ollow": 3679,
      "ognizant": 3680,
      "there": 3681,
      "uary": 3682,
      "vant": 3683,
      "vors": 3684,
      "Ġing": 3685,
      "Ġver": 3686,
      "Ġeng": 3687,
      "hear": 3688,
      "Ġtry": 3689,
      "Ġawe": 3690,
      "Ġaverted": 3691,
      "Ġalive": 3692,
      "Ġsli": 3693,
      "Ġswer": 3694,
      "Ġsplend": 3695,
      "Ġfu": 3696,
      "Ġbat": 3697,
      "Ġbreat": 3698,
      "iti": 3699,
      "itality": 3700,
      "render": 3701,
      "Ġdies": 3702,
      "Ġcry": 3703,
      "Ġoce": 3704,
      "ĠToday": 3705,
      "iscient": 3706,
      "Ġlag": 3707,
      "Ġleng": 3708,
      "Ġless": 3709,
      "Ġlower": 3710,
      "Ġpred": 3711,
      "Ġhigh": 3712,
      "asted": 3713,
      "enge": 3714,
      "lling": 3715,
      "aning": 3716,
      "Ġgrave": 3717,
      "Ġgain": 3718,
      "leb": 3719,
      "rained": 3720,
      "etermined": 3721,
      "Ġnur": 3722,
      "Ġnation": 3723,
      "Ġuse": 3724,
      "Ġunt": 3725,
      "Ġfors": 3726,
      "ĠHud": 3727,
      "iders": 3728,
      "Ġhere": 3729,
      "Ġsake": 3730,
      "Ġsacri": 3731,
      "rous": 3732,
      "Ġrequ": 3733,
      "Ġwhole": 3734,
      "irst": 3735,
      "Ġstated": 3736,
      "Ġstab": 3737,
      "Ġshade": 3738,
      "ĠEat": 3739,
      "ĠEach": 3740,
      "Ġnew": 3741,
      "gest": 3742,
      "Ġplants": 3743,
      "Ġvast": 3744,
      "aves": 3745,
      "Ġwants": 3746,
      "eemed": 3747,
      "Ġskins": 3748,
      "Ġannih": 3749,
      "Ġgras": 3750,
      "ĠKind": 3751,
      "Ġgoes": 3752,
      "Ġalms": 3753,
      "Ġboy": 3754,
      "Ġperish": 3755,
      "Ġperdition": 3756,
      "Ġperiod": 3757,
      "Ġarm": 3758,
      "Ġhung": 3759,
      "Ġdiscl": 3760,
      "olute": 3761,
      "ĠRi": 3762,
      "ĠCognizant": 3763,
      "vailed": 3764,
      "Ġponder": 3765,
      "uff": 3766,
      "riage": 3767,
      "aces": 3768,
      "ĠThereupon": 3769,
      "ptions": 3770,
      "Ġmarriage": 3771,
      "Ġusury": 3772,
      "Ġwaver": 3773,
      "Ġdistin": 3774,
      "Ġfeeding": 3775,
      "Ġsurrender": 3776,
      "ĠEverything": 3777,
      "Ġscales": 3778,
      "Ġswall": 3779,
      "Ġconst": 3780,
      "Ġemerge": 3781,
      "lets": 3782,
      "Ġinterc": 3783,
      "Ġpunishes": 3784,
      "ĠWhom": 3785,
      "them": 3786,
      "Ġprevail": 3787,
      "Ġcaller": 3788,
      "Ġlikeness": 3789,
      "Ġremove": 3790,
      "ables": 3791,
      "Ġdenial": 3792,
      "Ġrewarded": 3793,
      "ĠAsk": 3794,
      "Ġmisery": 3795,
      "Ġmischie": 3796,
      "Ġdivert": 3797,
      "Ġexperi": 3798,
      "Ġsubdu": 3799,
      "Ġsubmission": 3800,
      "Ġregret": 3801,
      "Ġattend": 3802,
      "Ġrestrained": 3803,
      "Ġobeyed": 3804,
      "Ġmaturity": 3805,
      "Ġprotectors": 3806,
      "Ġfathers": 3807,
      "Ġremained": 3808,
      "Ġenjoined": 3809,
      "Ġtreasure": 3810,
      "Ġinside": 3811,
      "Ġpresented": 3812,
      "Ġprevious": 3813,
      "Ġburdens": 3814,
      "Ġoppressed": 3815,
      "Ġafflict": 3816,
      "lightening": 3817,
      "Ġmentioned": 3818,
      "Ġidolatry": 3819,
      "Ġnumer": 3820,
      "Ġcompleted": 3821,
      "Ġprostrating": 3822,
      "Ġgets": 3823,
      "Ġoffering": 3824,
      "ajj": 3825,
      "luded": 3826,
      "Ġconfirm": 3827,
      "Ġpardoned": 3828,
      "erior": 3829,
      "Ġfurther": 3830,
      "Ġfabricate": 3831,
      "Ġhostility": 3832,
      "Ġhostile": 3833,
      "Ġfairly": 3834,
      "Ġcompletely": 3835,
      "Ġemigrated": 3836,
      "Ġdrop": 3837,
      "ĠSubli": 3838,
      "Ġgrows": 3839,
      "ĠOmnip": 3840,
      "ĠOmniscient": 3841,
      "Ġgreeting": 3842,
      "Ġsisters": 3843,
      "Ġfilled": 3844,
      "Ġmerges": 3845,
      "Ġdefiant": 3846,
      "Ġappointment": 3847,
      "Ġsubstitute": 3848,
      "Ġadultery": 3849,
      "Ġlords": 3850,
      "Ġdivided": 3851,
      "Ġrelease": 3852,
      "Ġseparate": 3853,
      "Ġawaits": 3854,
      "Ġcrops": 3855,
      "ĠObservant": 3856,
      "Ġwithdraw": 3857,
      "Ġthunderbolt": 3858,
      "Ġsacred": 3859,
      "Ġstingy": 3860,
      "Ġmislead": 3861,
      "Ġsuffices": 3862,
      "Ġbinding": 3863,
      "ĠMiserable": 3864,
      "Ġvarious": 3865,
      "ĠCreator": 3866,
      "Ġmanifest": 3867,
      "Ġassumptions": 3868,
      "Ġfurnishings": 3869,
      "Ġpredetermined": 3870,
      "Ġannihil": 3871,
      "Ġmischief": 3872,
      "ĠSublime": 3873,
      "\",": 3874,
      "As": 3875,
      "Ex": 3876,
      "Eat": 3877,
      "Even": 3878,
      "For": 3879,
      "Were": 3880,
      "ane": 3881,
      "bath": 3882,
      "cle": 3883,
      "cies": 3884,
      "cast": 3885,
      "ech": 3886,
      "fet": 3887,
      "give": 3888,
      "how": 3889,
      "iy": 3890,
      "iverse": 3891,
      "ibl": 3892,
      "jury": 3893,
      "lam": 3894,
      "look": 3895,
      "man": 3896,
      "oving": 3897,
      "pon": 3898,
      "pend": 3899,
      "place": 3900,
      "sie": 3901,
      "trees": 3902,
      "ub": 3903,
      "uded": 3904,
      "vent": 3905,
      "Ġachie": 3906,
      "Ġwinners": 3907,
      "ines": 3908,
      "eder": 3909,
      "Ġsect": 3910,
      "Ġsnat": 3911,
      "Ġsibl": 3912,
      "erer": 3913,
      "erse": 3914,
      "Ġfine": 3915,
      "Ġflu": 3916,
      "Ġbound": 3917,
      "Ġbus": 3918,
      "itaries": 3919,
      "arre": 3920,
      "ariah": 3921,
      "Ġdon": 3922,
      "Ġdow": 3923,
      "Ġcap": 3924,
      "Ġcaut": 3925,
      "Ġcities": 3926,
      "Ġop": 3927,
      "orned": 3928,
      "Ġlan": 3929,
      "Ġpaid": 3930,
      "Ġprison": 3931,
      "net": 3932,
      "Ġbesie": 3933,
      "Ġinward": 3934,
      "Ġgates": 3935,
      "Ġgrains": 3936,
      "Ġmod": 3937,
      "Ġmur": 3938,
      "Ġthreat": 3939,
      "Ġthrone": 3940,
      "ĠAfter": 3941,
      "ceive": 3942,
      "Ġnow": 3943,
      "Ġur": 3944,
      "Ġultimate": 3945,
      "Ġformer": 3946,
      "ĠHam": 3947,
      "ĠHajj": 3948,
      "ĠLe": 3949,
      "ĠLight": 3950,
      "imin": 3951,
      "idance": 3952,
      "ĠSup": 3953,
      "Ġheal": 3954,
      "Ġheels": 3955,
      "Ġhabit": 3956,
      "ĠOf": 3957,
      "Ġrelie": 3958,
      "Ġrenounce": 3959,
      "lied": 3960,
      "lict": 3961,
      "ards": 3962,
      "ĠWould": 3963,
      "Ġuphold": 3964,
      "Ġstern": 3965,
      "alf": 3966,
      "Ġthereafter": 3967,
      "Ġshack": 3968,
      "Ġloan": 3969,
      "ĠEnter": 3970,
      "atest": 3971,
      "Ġplag": 3972,
      "ĠFear": 3973,
      "istener": 3974,
      "Ġmet": 3975,
      "Ġvoice": 3976,
      "Ġagree": 3977,
      "Ġwaters": 3978,
      "Ġexcess": 3979,
      "ourse": 3980,
      "ĠWest": 3981,
      "usively": 3982,
      "Ġdevelo": 3983,
      "Ġdeluded": 3984,
      "Ġcompelled": 3985,
      "Ġfailed": 3986,
      "Ġfavors": 3987,
      "ĠIts": 3988,
      "Ġrul": 3989,
      "Ġrather": 3990,
      "ĠZech": 3991,
      "ances": 3992,
      "Ġperhaps": 3993,
      "Ġhappen": 3994,
      "Ġquick": 3995,
      "Ġspecified": 3996,
      "ĠRa": 3997,
      "ĠCr": 3998,
      "Ġradi": 3999,
      "hich": 4000,
      "Ġdesist": 4001,
      "Ġdesign": 4002,
      "Ġmans": 4003,
      "Ġpost": 4004,
      "Ġbrief": 4005,
      "ĠTherein": 4006,
      "Ġholds": 4007,
      "Ġsever": 4008,
      "Ġseal": 4009,
      "Ġbearer": 4010,
      "Ġgathers": 4011,
      "Ġprays": 4012,
      "Ġshown": 4013,
      "cture": 4014,
      "Ġcattle": 4015,
      "Ġcompany": 4016,
      "Ġcompanion": 4017,
      "Ġsatis": 4018,
      "Ġarrives": 4019,
      "Ġscre": 4020,
      "Ġscream": 4021,
      "deeds": 4022,
      "Ġswe": 4023,
      "Ġamid": 4024,
      "believe": 4025,
      "Ġredu": 4026,
      "Ġwishes": 4027,
      "ĠPer": 4028,
      "ĠPerm": 4029,
      "Ġpersevere": 4030,
      "Ġclearly": 4031,
      "Ġintent": 4032,
      "Ġpunished": 4033,
      "otent": 4034,
      "otten": 4035,
      "Ġpress": 4036,
      "Ġunf": 4037,
      "Ġunwill": 4038,
      "Ġgiving": 4039,
      "Ġretali": 4040,
      "Ġevents": 4041,
      "Ġenri": 4042,
      "Ġworshipers": 4043,
      "sesses": 4044,
      "Ġbelonged": 4045,
      "Ġrefrain": 4046,
      "Ġexpel": 4047,
      "Ġexposed": 4048,
      "Ġexpelled": 4049,
      "Ġbehold": 4050,
      "Ġentrust": 4051,
      "Ġpossesses": 4052,
      "Ġrestrain": 4053,
      "Ġrealized": 4054,
      "Ġcontribut": 4055,
      "Ġstrikes": 4056,
      "Ġplaces": 4057,
      "Ġrepents": 4058,
      "ĠReality": 4059,
      "ĠRepent": 4060,
      "Ġcharge": 4061,
      "Ġglory": 4062,
      "rounded": 4063,
      "Ġdisplay": 4064,
      "Ġdisperse": 4065,
      "Ġprotected": 4066,
      "Ġprotection": 4067,
      "Ġconfeder": 4068,
      "Ġequival": 4069,
      "Ġroast": 4070,
      "Ġapproaches": 4071,
      "Ġrelate": 4072,
      "Ġrelations": 4073,
      "ield": 4074,
      "Ġremains": 4075,
      "Ġmatters": 4076,
      "Ġpubli": 4077,
      "Ġtrees": 4078,
      "Ġinsult": 4079,
      "ĠBefore": 4080,
      "Ġpleas": 4081,
      "Ġseize": 4082,
      "Ġaccountable": 4083,
      "Ġincreases": 4084,
      "Ġburdened": 4085,
      "Ġdescends": 4086,
      "Ġextra": 4087,
      "Ġgroups": 4088,
      "ĠShall": 4089,
      "ĠShould": 4090,
      "Ġresurrect": 4091,
      "Ġpurified": 4092,
      "Ġopenly": 4093,
      "Ġexamples": 4094,
      "Believe": 4095,
      "Ġhonored": 4096,
      "Ġstrugg": 4097,
      "Ġstructure": 4098,
      "Ġbarren": 4099,
      "Ġgradu": 4100,
      "Ġintercessors": 4101,
      "Ġdevote": 4102,
      "Ġbegan": 4103,
      "Ġbegotten": 4104,
      "Ġmiracles": 4105,
      "Ġbeauty": 4106,
      "Ġrebell": 4107,
      "Ġclarify": 4108,
      "Ġmisguided": 4109,
      "resence": 4110,
      "who": 4111,
      "Ġsister": 4112,
      "ĠWhile": 4113,
      "Ġdefiance": 4114,
      "Ġminds": 4115,
      "Ġsorcery": 4116,
      "Ġmagician": 4117,
      "Ġmagicians": 4118,
      "mense": 4119,
      "Ġbodies": 4120,
      "Ġmobilize": 4121,
      "Ġefforts": 4122,
      "Ġlifted": 4123,
      "Ġsavior": 4124,
      "Ġadopted": 4125,
      "Ġdivorce": 4126,
      "Ġcontinue": 4127,
      "Ġdignitaries": 4128,
      "ĠAnyone": 4129,
      "Ġsolemn": 4130,
      "Ġangry": 4131,
      "Ġcomprehends": 4132,
      "Ġrestricts": 4133,
      "Ġproperties": 4134,
      "Ġunleashed": 4135,
      "Ġdedicated": 4136,
      "Ġbewit": 4137,
      "Ġmockery": 4138,
      "Ġreverence": 4139,
      "Ġrepeats": 4140,
      "Ġdominion": 4141,
      "Ġdisappo": 4142,
      "ĠMuslims": 4143,
      "ierce": 4144,
      "Ġsleep": 4145,
      "ĠSabbath": 4146,
      "Ġresidence": 4147,
      "Ġexclusively": 4148,
      "ĠGuardian": 4149,
      "camel": 4150,
      "Ġfuel": 4151,
      "Ġhunger": 4152,
      "Ġsubdued": 4153,
      "Ġpreviously": 4154,
      "ĠOmnipotent": 4155,
      "Ġsiblings": 4156,
      "Ġlangu": 4157,
      "ĠZechariah": 4158,
      "Ġconfederates": 4159,
      "Ġequivalent": 4160,
      "Ġpublic": 4161,
      "Bow": 4162,
      "En": 4163,
      "Mu": 4164,
      "Pro": 4165,
      "That": 4166,
      "Wor": 4167,
      "aq": 4168,
      "aan": 4169,
      "bility": 4170,
      "cent": 4171,
      "emp": 4172,
      "far": 4173,
      "fied": 4174,
      "gant": 4175,
      "has": 4176,
      "iven": 4177,
      "iles": 4178,
      "ibility": 4179,
      "king": 4180,
      "lock": 4181,
      "mad": 4182,
      "nsel": 4183,
      "oin": 4184,
      "othing": 4185,
      "pose": 4186,
      "pone": 4187,
      "rity": 4188,
      "range": 4189,
      "ratitude": 4190,
      "say": 4191,
      "sive": 4192,
      "uh": 4193,
      "umer": 4194,
      "uries": 4195,
      "vation": 4196,
      "visible": 4197,
      "when": 4198,
      "hest": 4199,
      "Ġtu": 4200,
      "Ġtaking": 4201,
      "Ġaid": 4202,
      "Ġweep": 4203,
      "Ġwretched": 4204,
      "Ġwild": 4205,
      "Ġwaves": 4206,
      "iny": 4207,
      "Ġsinn": 4208,
      "Ġfled": 4209,
      "Ġfals": 4210,
      "Ġfasting": 4211,
      "ounce": 4212,
      "Ġband": 4213,
      "Ġbowed": 4214,
      "Ġbitter": 4215,
      "itation": 4216,
      "Ġdam": 4217,
      "Ġchi": 4218,
      "Ġcites": 4219,
      "atory": 4220,
      "ĠTell": 4221,
      "ĠTree": 4222,
      "Ġlar": 4223,
      "Ġlat": 4224,
      "Ġlose": 4225,
      "Ġlack": 4226,
      "Ġport": 4227,
      "Ġpilgrim": 4228,
      "Ġharden": 4229,
      "enced": 4230,
      "anqu": 4231,
      "Ġinqu": 4232,
      "Ġiniti": 4233,
      "rived": 4234,
      "Ġgri": 4235,
      "Ġgue": 4236,
      "Ġgush": 4237,
      "Ġmine": 4238,
      "Ġmix": 4239,
      "Ġemp": 4240,
      "Ġetern": 4241,
      "Ġthrown": 4242,
      "raised": 4243,
      "ĠAc": 4244,
      "ĠAppreciative": 4245,
      "Ġnons": 4246,
      "Ġforce": 4247,
      "ĠHigh": 4248,
      "ĠSeen": 4249,
      "Ġhera": 4250,
      "ching": 4251,
      "third": 4252,
      "thood": 4253,
      "ĠOther": 4254,
      "illed": 4255,
      "Ġkin": 4256,
      "Ġkings": 4257,
      "Ġreal": 4258,
      "Ġrevert": 4259,
      "Ġreaches": 4260,
      "utual": 4261,
      "iration": 4262,
      "They": 4263,
      "urning": 4264,
      "ltered": 4265,
      "Ġdoors": 4266,
      "Ġthereof": 4267,
      "ends": 4268,
      "Ġshadow": 4269,
      "Ġshirt": 4270,
      "Ġwilling": 4271,
      "Ġlooked": 4272,
      "ĠBring": 4273,
      "ĠEden": 4274,
      "ĠEtern": 4275,
      "ples": 4276,
      "Ġplent": 4277,
      "ĠFight": 4278,
      "ĠFaces": 4279,
      "Ġleve": 4280,
      "Ġjoined": 4281,
      "Ġhelpers": 4282,
      "Ġnote": 4283,
      "Ġnotables": 4284,
      "Ġspent": 4285,
      "Ġspirit": 4286,
      "Ġvig": 4287,
      "Ġexem": 4288,
      "Ġannou": 4289,
      "Ġdeg": 4290,
      "Ġdeli": 4291,
      "Ġcompel": 4292,
      "ection": 4293,
      "ĠInvisible": 4294,
      "Ġfaction": 4295,
      "Ġgover": 4296,
      "Ġbliss": 4297,
      "Ġblunder": 4298,
      "Ġrising": 4299,
      "ĠYes": 4300,
      "Ġquarre": 4301,
      "venge": 4302,
      "Ġdish": 4303,
      "Ġdiso": 4304,
      "Ġdisci": 4305,
      "Ġnights": 4306,
      "Ġwonders": 4307,
      "Ġrich": 4308,
      "Ġride": 4309,
      "ighest": 4310,
      "Ġworry": 4311,
      "ĠCertain": 4312,
      "Ġally": 4313,
      "Ġconde": 4314,
      "erno": 4315,
      "Ġatom": 4316,
      "Ġoverwhel": 4317,
      "Ġoverlook": 4318,
      "Ġdescribe": 4319,
      "vagant": 4320,
      "Ġpoet": 4321,
      "Ġposs": 4322,
      "Ġdumb": 4323,
      "Ġhoard": 4324,
      "Ġtimes": 4325,
      "Ġdistort": 4326,
      "Ġargued": 4327,
      "Ġhouses": 4328,
      "born": 4329,
      "Ġgreatest": 4330,
      "Ġscor": 4331,
      "Ġswift": 4332,
      "Ġconvers": 4333,
      "Ġyear": 4334,
      "Ġredeem": 4335,
      "Ġsilk": 4336,
      "Ġranks": 4337,
      "ĠPardon": 4338,
      "ĠPresence": 4339,
      "Ġlaugh": 4340,
      "Ġcrimin": 4341,
      "version": 4342,
      "Ġhatred": 4343,
      "ifiers": 4344,
      "Ġwrit": 4345,
      "Ġwriting": 4346,
      "Ġintell": 4347,
      "Ġinteg": 4348,
      "Ġheav": 4349,
      "Ġadhere": 4350,
      "Ġadorned": 4351,
      "Ġfearful": 4352,
      "Ġunited": 4353,
      "icit": 4354,
      "ical": 4355,
      "Ġretreat": 4356,
      "ĠUpon": 4357,
      "Ġchang": 4358,
      "Ġlikely": 4359,
      "ĠIslam": 4360,
      "Ġenlightening": 4361,
      "Ġsought": 4362,
      "Ġassign": 4363,
      "Ġmisdeeds": 4364,
      "Ġrefer": 4365,
      "Ġdestiny": 4366,
      "Those": 4367,
      "Ġtorn": 4368,
      "Ġinfant": 4369,
      "acity": 4370,
      "Ġresol": 4371,
      "Ġrestored": 4372,
      "Ġobeys": 4373,
      "Ġsuffered": 4374,
      "Ġdoubts": 4375,
      "Ġconfused": 4376,
      "Ġequitable": 4377,
      "Hearing": 4378,
      "Ġaffir": 4379,
      "Ġaffection": 4380,
      "Ġrocks": 4381,
      "Ġendowed": 4382,
      "Ġdrinking": 4383,
      "ields": 4384,
      "Ġforbade": 4385,
      "ĠWorship": 4386,
      "Ġaccordance": 4387,
      "Ġinspiration": 4388,
      "Ġtransp": 4389,
      "Ġgrief": 4390,
      "Ġgriev": 4391,
      "Ġimmense": 4392,
      "Ġinsight": 4393,
      "Ġaunts": 4394,
      "Ġcertainty": 4395,
      "Ġadmitted": 4396,
      "Ġwickedness": 4397,
      "Ġarrogantly": 4398,
      "Ġignore": 4399,
      "Ġproport": 4400,
      "Ġacceptance": 4401,
      "avi": 4402,
      "ĠIndepend": 4403,
      "Ġrule": 4404,
      "Ġsupports": 4405,
      "Ġsuccession": 4406,
      "Ġimmort": 4407,
      "Ġimminent": 4408,
      "Ġillicit": 4409,
      "Ġexplan": 4410,
      "Ġmonth": 4411,
      "Ġtransgressed": 4412,
      "Ġhonorable": 4413,
      "Ġ11": 4414,
      "ĠWithout": 4415,
      "Ġdirect": 4416,
      "Ġattributes": 4417,
      "Ġsuperior": 4418,
      "Ġbui": 4419,
      "Ġindul": 4420,
      "Ġmales": 4421,
      "Ġadds": 4422,
      "Ġdifferences": 4423,
      "Ġdevoting": 4424,
      "Ġdevotion": 4425,
      "Ġsupporters": 4426,
      "Ġsucceeded": 4427,
      "bedience": 4428,
      "Ġemigrate": 4429,
      "ront": 4430,
      "Ġdriven": 4431,
      "ĠUnless": 4432,
      "Ġhumiliation": 4433,
      "Ġhumiliating": 4434,
      "Ġdespaired": 4435,
      "Ġabsolute": 4436,
      "Ġforgotten": 4437,
      "Ġdebt": 4438,
      "Ġincline": 4439,
      "Ġscriptures": 4440,
      "Ġprosperity": 4441,
      "Ġsanctuary": 4442,
      "Ġmindful": 4443,
      "Ġsorcerer": 4444,
      "Ġpreferred": 4445,
      "Ġcrushed": 4446,
      "Ġdiscord": 4447,
      "Ġdeclar": 4448,
      "Ġconspire": 4449,
      "Ġreconcile": 4450,
      "Ġutterly": 4451,
      "Ġceleb": 4452,
      "Ġcolors": 4453,
      "Ġcruci": 4454,
      "Ġneglected": 4455,
      "Ġdeserved": 4456,
      "Ġfatig": 4457,
      "iterion": 4458,
      "Ġcrime": 4459,
      "Ġnarrate": 4460,
      "ĠMonotheist": 4461,
      "Ġvanity": 4462,
      "Ġdisregarded": 4463,
      "Ġdistinguished": 4464,
      "Ġindecencies": 4465,
      "lining": 4466,
      "Ġtyrant": 4467,
      "Ġpronounced": 4468,
      "Ġelev": 4469,
      "ĠMajestic": 4470,
      "ĠInferno": 4471,
      "Ġincurred": 4472,
      "Ġprivately": 4473,
      "Ġingratitude": 4474,
      "Ġslip": 4475,
      "Ġbreathed": 4476,
      "Ġforsake": 4477,
      "Ġsacrif": 4478,
      "ĠRich": 4479,
      "ufficient": 4480,
      "Ġswallow": 4481,
      "Ġnumerous": 4482,
      "Ġannihilated": 4483,
      "Ġbusiness": 4484,
      "Ġcapacity": 4485,
      "ĠHamaan": 4486,
      "ĠSupreme": 4487,
      "Ġplague": 4488,
      "Ġexcessive": 4489,
      "Ġdeveloped": 4490,
      "Ġmansions": 4491,
      "ĠRepentance": 4492,
      "Ġextravagant": 4493,
      "Ġgradually": 4494,
      "Ġbewitched": 4495,
      "Ġlanguage": 4496,
      "Ġsinner": 4497,
      "Ġchief": 4498,
      "Ġnonsense": 4499,
      "ĠCertainly": 4500,
      "Ġintegrity": 4501,
      "ĠIndependent": 4502,
      ",'": 4503,
      "All": 4504,
      "Father": 4505,
      "Give": 4506,
      "Perhaps": 4507,
      "See": 4508,
      "Trave": 4509,
      "ached": 4510,
      "ails": 4511,
      "because": 4512,
      "cher": 4513,
      "der": 4514,
      "ding": 4515,
      "iq": 4516,
      "iving": 4517,
      "iliz": 4518,
      "lar": 4519,
      "name": 4520,
      "nific": 4521,
      "op": 4522,
      "off": 4523,
      "olytheists": 4524,
      "pro": 4525,
      "palms": 4526,
      "rass": 4527,
      "rites": 4528,
      "salms": 4529,
      "ued": 4530,
      "umed": 4531,
      "vid": 4532,
      "vitable": 4533,
      "wd": 4534,
      "wo": 4535,
      "which": 4536,
      "xic": 4537,
      "zz": 4538,
      "Ġrow": 4539,
      "Ġtasted": 4540,
      "Ġaw": 4541,
      "Ġawful": 4542,
      "Ġalike": 4543,
      "Ġavailed": 4544,
      "Ġaversion": 4545,
      "Ġwall": 4546,
      "inations": 4547,
      "inating": 4548,
      "Ġsell": 4549,
      "Ġsource": 4550,
      "erned": 4551,
      "erial": 4552,
      "Ġfing": 4553,
      "Ġfro": 4554,
      "Ġfront": 4555,
      "Ġbi": 4556,
      "Ġban": 4557,
      "Ġble": 4558,
      "Ġbag": 4559,
      "Ġbrace": 4560,
      "itent": 4561,
      "itted": 4562,
      "itory": 4563,
      "ituted": 4564,
      "rehen": 4565,
      "Ġdate": 4566,
      "Ġdeep": 4567,
      "Ġdaz": 4568,
      "Ġcite": 4569,
      "Ġcited": 4570,
      "Ġcult": 4571,
      "Ġcapable": 4572,
      "ators": 4573,
      "Ġomen": 4574,
      "isive": 4575,
      "isans": 4576,
      "orse": 4577,
      "orted": 4578,
      "meaning": 4579,
      "Ġlured": 4580,
      "Ġpie": 4581,
      "Ġhist": 4582,
      "enity": 4583,
      "vering": 4584,
      "verty": 4585,
      "Ġbequest": 4586,
      "Ġine": 4587,
      "Ġgro": 4588,
      "Ġgame": 4589,
      "Ġgains": 4590,
      "Ġmere": 4591,
      "Ġmort": 4592,
      "Ġmates": 4593,
      "Ġmud": 4594,
      "Ġmali": 4595,
      "Ġmutual": 4596,
      "onse": 4597,
      "onah": 4598,
      "Ġthrong": 4599,
      "raced": 4600,
      "sembly": 4601,
      "eting": 4602,
      "Ġnine": 4603,
      "Ġnaked": 4604,
      "Ġforces": 4605,
      "ĠIm": 4606,
      "Ġfeud": 4607,
      "owered": 4608,
      "ulty": 4609,
      "Ġheif": 4610,
      "among": 4611,
      "amation": 4612,
      "ammad": 4613,
      "Ġlied": 4614,
      "Ġlikes": 4615,
      "ĠGive": 4616,
      "ĠOver": 4617,
      "ĠOrigin": 4618,
      "Ġrect": 4619,
      "Ġrevere": 4620,
      "liation": 4621,
      "urned": 4622,
      "ĠMak": 4623,
      "ĠMag": 4624,
      "ĠMuh": 4625,
      "key": 4626,
      "Ġsold": 4627,
      "ĠWas": 4628,
      "Ġdoor": 4629,
      "Ġstat": 4630,
      "Ġstub": 4631,
      "alance": 4632,
      "Ġabom": 4633,
      "Ġshad": 4634,
      "Ġloc": 4635,
      "ĠEgy": 4636,
      "Ġplant": 4637,
      "ĠFull": 4638,
      "Ġfinds": 4639,
      "mbled": 4640,
      "Ġlearn": 4641,
      "getation": 4642,
      "Ġjoke": 4643,
      "Ġcarav": 4644,
      "Ġsug": 4645,
      "ĠNever": 4646,
      "fted": 4647,
      "Ġspi": 4648,
      "Ġspared": 4649,
      "Ġspok": 4650,
      "Ġspare": 4651,
      "Ġsprites": 4652,
      "Ġvenge": 4653,
      "Ġvines": 4654,
      "quent": 4655,
      "quel": 4656,
      "Ġpaternal": 4657,
      "Ġexemp": 4658,
      "ĠWell": 4659,
      "Ġannounce": 4660,
      "Ġkindly": 4661,
      "Ġorname": 4662,
      "Ġbelief": 4663,
      "ĠJoh": 4664,
      "ĠJonah": 4665,
      "Ġdel": 4666,
      "Ġdeal": 4667,
      "Ġdepart": 4668,
      "Ġdelay": 4669,
      "Ġdemeaning": 4670,
      "ĠKing": 4671,
      "ĠLiving": 4672,
      "Ġclosed": 4673,
      "Ġclothing": 4674,
      "Ġperjury": 4675,
      "Ġperceive": 4676,
      "Ġwayfar": 4677,
      "Ġhumbly": 4678,
      "Ġdisag": 4679,
      "Ġdisaster": 4680,
      "Ġspecific": 4681,
      "Ġforgiven": 4682,
      "ĠCall": 4683,
      "ĠClar": 4684,
      "Ġrace": 4685,
      "Ġrage": 4686,
      "Ġrained": 4687,
      "Ġalleg": 4688,
      "Ġate": 4689,
      "Ġatone": 4690,
      "Ġdesired": 4691,
      "Ġdesigned": 4692,
      "Ġdesiring": 4693,
      "elve": 4694,
      "Ġcalcul": 4695,
      "Ġpoint": 4696,
      "Ġpoverty": 4697,
      "Ġappreci": 4698,
      "Ġpathways": 4699,
      "Ġhosp": 4700,
      "Ġmarried": 4701,
      "Ġparty": 4702,
      "Ġbestow": 4703,
      "Ġsequel": 4704,
      "Ġdistra": 4705,
      "Ġdeter": 4706,
      "Ġlightened": 4707,
      "Ġknees": 4708,
      "Ġprocl": 4709,
      "Ġproject": 4710,
      "olded": 4711,
      "Ġshows": 4712,
      "Ġsparing": 4713,
      "Ġcatch": 4714,
      "Ġjourneyed": 4715,
      "Ġsurrounded": 4716,
      "Ġgrew": 4717,
      "Ġforwarded": 4718,
      "Ġweigh": 4719,
      "bearing": 4720,
      "Ġswine": 4721,
      "Ġpurpose": 4722,
      "Ġguess": 4723,
      "Ġjustified": 4724,
      "Ġredeemed": 4725,
      "Ġrank": 4726,
      "ĠPre": 4727,
      "ĠPat": 4728,
      "ĠPray": 4729,
      "ĠPraised": 4730,
      "ĠPsalms": 4731,
      "Ġcounsel": 4732,
      "Ġflowing": 4733,
      "Ġintense": 4734,
      "Ġrights": 4735,
      "Ġoutcast": 4736,
      "Ġwrongs": 4737,
      "Ġadm": 4738,
      "Ġfearing": 4739,
      "ĠMessage": 4740,
      "icted": 4741,
      "Ġsentence": 4742,
      "Ġretain": 4743,
      "ĠForgive": 4744,
      "Ġevict": 4745,
      "Ġevicted": 4746,
      "Ġobl": 4747,
      "Ġobt": 4748,
      "Ġremorse": 4749,
      "Ġenumer": 4750,
      "Ġrewards": 4751,
      "Ġtwelve": 4752,
      "Ġproviders": 4753,
      "Ġwither": 4754,
      "giance": 4755,
      "giving": 4756,
      "oods": 4757,
      "Ġaccuse": 4758,
      "Ġmisfort": 4759,
      "ĠOnly": 4760,
      "Ġasking": 4761,
      "Ġdict": 4762,
      "Ġwarners": 4763,
      "Ġexpose": 4764,
      "Ġdestitute": 4765,
      "ize": 4766,
      "Ġreciting": 4767,
      "Ġsubject": 4768,
      "Ġseeks": 4769,
      "Ġseekers": 4770,
      "duce": 4771,
      "Ġtests": 4772,
      "Ġreturns": 4773,
      "Ġbehave": 4774,
      "acher": 4775,
      "Ġattack": 4776,
      "Ġattained": 4777,
      "Ġpartisans": 4778,
      "Ġinvite": 4779,
      "Ġinvited": 4780,
      "Ġmaternal": 4781,
      "Ġmaterial": 4782,
      "Ġadvise": 4783,
      "Ġadvised": 4784,
      "Ġglo": 4785,
      "Ġconfid": 4786,
      "Ġeating": 4787,
      "Ġtranqu": 4788,
      "Ġaffairs": 4789,
      "Ġrock": 4790,
      "Ġdefend": 4791,
      "Ġburn": 4792,
      "Ġdrinks": 4793,
      "Ġrelent": 4794,
      "Ġreceives": 4795,
      "Ġrespect": 4796,
      "Ġresponse": 4797,
      "Ġoffered": 4798,
      "Ġspeaks": 4799,
      "Ġerr": 4800,
      "Ġunappreciative": 4801,
      "Ġdelivers": 4802,
      "Ġleaders": 4803,
      "Ġfallen": 4804,
      "Ġpride": 4805,
      "Ġfulfilling": 4806,
      "Ġarrogance": 4807,
      "Ġtreas": 4808,
      "Ġpaying": 4809,
      "Ġinscribed": 4810,
      "Ġplead": 4811,
      "Ġunjustly": 4812,
      "Ġoppose": 4813,
      "Ġguarded": 4814,
      "Ġenjoyments": 4815,
      "Ġspreads": 4816,
      "Ġaffliction": 4817,
      "Ġafflicts": 4818,
      "Ġdwellers": 4819,
      "Ġextract": 4820,
      "Ġruined": 4821,
      "Ġdespised": 4822,
      "Ġexplains": 4823,
      "Ġtrial": 4824,
      "Ġpenitent": 4825,
      "Ġinvents": 4826,
      "ĠTrue": 4827,
      "ompasses": 4828,
      "Ġconcerned": 4829,
      "Ġinheritance": 4830,
      "Ġcarrying": 4831,
      "Ġestablish": 4832,
      "Ġintercessor": 4833,
      "Ġfalsehoods": 4834,
      "Ġdrag": 4835,
      "Ġdrawn": 4836,
      "Ġfabricated": 4837,
      "Ġbefallen": 4838,
      "Ġthoughts": 4839,
      "Ġdeceit": 4840,
      "Ġovertakes": 4841,
      "Ġovertaken": 4842,
      "ĠUnseen": 4843,
      "Ġdifficulty": 4844,
      "Ġpalms": 4845,
      "Ġcovering": 4846,
      "Ġpersecuted": 4847,
      "whoever": 4848,
      "ĠWhich": 4849,
      "ĠBlast": 4850,
      "Ġextends": 4851,
      "Ġhurt": 4852,
      "Ġshameful": 4853,
      "Ġexcuse": 4854,
      "ĠRecall": 4855,
      "ĠReclining": 4856,
      "Ġsubstituted": 4857,
      "Ġperpetrate": 4858,
      "Ġperpetrated": 4859,
      "Ġvegetation": 4860,
      "Ġbody": 4861,
      "Ġcapt": 4862,
      "Ġcapture": 4863,
      "Ġoriginated": 4864,
      "Ġpouring": 4865,
      "Ġsaviors": 4866,
      "Ġdetail": 4867,
      "Ġdetailed": 4868,
      "Ġproclaimed": 4869,
      "Ġadopt": 4870,
      "Ġreconciliation": 4871,
      "ĠAbout": 4872,
      "ĠMany": 4873,
      "Ġneglect": 4874,
      "Ġprecise": 4875,
      "Ġobligatory": 4876,
      "Ġdeviate": 4877,
      "Ġcommunication": 4878,
      "Ġcommunications": 4879,
      "Ġblasphemy": 4880,
      "Ġblasphemers": 4881,
      "Ġtarried": 4882,
      "Ġfresh": 4883,
      "ĠGlorious": 4884,
      "Ġfools": 4885,
      "Ġdeferred": 4886,
      "Ġconcluded": 4887,
      "Ġchooses": 4888,
      "Ġinstructed": 4889,
      "Ġhusbands": 4890,
      "Ġiron": 4891,
      "Ġcircul": 4892,
      "Ġvalue": 4893,
      "Ġdemand": 4894,
      "Ġallegiance": 4895,
      "Ġacquired": 4896,
      "Ġalternation": 4897,
      "makers": 4898,
      "Ġswerved": 4899,
      "Ġbattle": 4900,
      "Ġinterced": 4901,
      "Forgiving": 4902,
      "Ġfluid": 4903,
      "Ġdonkey": 4904,
      "Ġcautious": 4905,
      "Ġbesieged": 4906,
      "Ġurge": 4907,
      "Ġagreement": 4908,
      "Ġruling": 4909,
      "ĠCriterion": 4910,
      "Ġpostpone": 4911,
      "Ġamidst": 4912,
      "Ġintentions": 4913,
      "Ġunwillingly": 4914,
      "Ġentrusted": 4915,
      "Ġrelationship": 4916,
      "Ġdisappointed": 4917,
      "Worship": 4918,
      "Ġfalsifiers": 4919,
      "Ġhardened": 4920,
      "Ġguests": 4921,
      "Ġleveled": 4922,
      "Ġvigil": 4923,
      "Ġexemption": 4924,
      "Ġgovern": 4925,
      "Ġdishonest": 4926,
      "Ġdisciples": 4927,
      "ĠPardoning": 4928,
      "Ġcriminals": 4929,
      "Ġreferred": 4930,
      "Ġgrievous": 4931,
      "Ġproportioned": 4932,
      "avior": 4933,
      "Ġexplanation": 4934,
      "Ġbuilt": 4935,
      "Ġcelebrate": 4936,
      "Ġfatigue": 4937,
      "Travel": 4938,
      "nificent": 4939,
      "Ġbracelets": 4940,
      "rehensive": 4941,
      "Ġpieces": 4942,
      "Ġhistory": 4943,
      "ĠOriginator": 4944,
      "ĠMaker": 4945,
      "ĠMuhammad": 4946,
      "ĠEgypt": 4947,
      "Ġcaravan": 4948,
      "Ġspoken": 4949,
      "Ġvengeance": 4950,
      "ĠJohn": 4951,
      "Ġwayfarer": 4952,
      "Ġhospitality": 4953,
      "Ġproclamation": 4954,
      "Ġmisfortune": 4955,
      ";\"": 4956,
      "?'": 4957,
      "An": 4958,
      "Follow": 4959,
      "Good": 4960,
      "Here": 4961,
      "Kill": 4962,
      "Now": 4963,
      "Put": 4964,
      "Set": 4965,
      "Today": 4966,
      "Was": 4967,
      "aven": 4968,
      "avor": 4969,
      "ba": 4970,
      "bis": 4971,
      "bes": 4972,
      "berate": 4973,
      "che": 4974,
      "con": 4975,
      "cra": 4976,
      "ccess": 4977,
      "dis": 4978,
      "dle": 4979,
      "ger": 4980,
      "good": 4981,
      "his": 4982,
      "ij": 4983,
      "lary": 4984,
      "mity": 4985,
      "mish": 4986,
      "ping": 4987,
      "pse": 4988,
      "pter": 4989,
      "qar": 4990,
      "rang": 4991,
      "rants": 4992,
      "sion": 4993,
      "sue": 4994,
      "unt": 4995,
      "umb": 4996,
      "until": 4997,
      "uation": 4998,
      "ually": 4999,
      "vin": 5000,
      "vals": 5001,
      "zy": 5002,
      "Ġought": 5003,
      "Ġtrace": 5004,
      "Ġtales": 5005,
      "Ġant": 5006,
      "Ġavert": 5007,
      "Ġwra": 5008,
      "Ġwound": 5009,
      "Ġwel": 5010,
      "Ġwine": 5011,
      "inions": 5012,
      "inite": 5013,
      "infor": 5014,
      "erve": 5015,
      "erness": 5016,
      "Ġfit": 5017,
      "Ġfly": 5018,
      "Ġfla": 5019,
      "Ġfierce": 5020,
      "Ġbeds": 5021,
      "ital": 5022,
      "itors": 5023,
      "arch": 5024,
      "aroon": 5025,
      "Ġdry": 5026,
      "Ġdru": 5027,
      "Ġcried": 5028,
      "Ġcrow": 5029,
      "Ġcred": 5030,
      "atch": 5031,
      "Ġoli": 5032,
      "Ġtop": 5033,
      "Ġtomor": 5034,
      "ĠTa": 5035,
      "ism": 5036,
      "isy": 5037,
      "Ġlod": 5038,
      "Ġlend": 5039,
      "Ġlad": 5040,
      "Ġlust": 5041,
      "Ġlump": 5042,
      "Ġpit": 5043,
      "Ġpill": 5044,
      "Ġpard": 5045,
      "Ġpick": 5046,
      "Ġpair": 5047,
      "Ġham": 5048,
      "lled": 5049,
      "ancy": 5050,
      "Ġbeings": 5051,
      "Ġbegin": 5052,
      "Ġinvest": 5053,
      "rive": 5054,
      "rion": 5055,
      "rike": 5056,
      "riment": 5057,
      "riarch": 5058,
      "Ġgam": 5059,
      "Ġgang": 5060,
      "Ġgrain": 5061,
      "vement": 5062,
      "Ġmate": 5063,
      "Ġmove": 5064,
      "Ġmaid": 5065,
      "Ġmoving": 5066,
      "Ġmolded": 5067,
      "oned": 5068,
      "only": 5069,
      "oniz": 5070,
      "Ġeight": 5071,
      "Ġela": 5072,
      "Ġyokes": 5073,
      "Ġthirst": 5074,
      "Ġyouth": 5075,
      "Ġyouths": 5076,
      "ral": 5077,
      "rand": 5078,
      "raigned": 5079,
      "racing": 5080,
      "ĠAt": 5081,
      "ĠAcc": 5082,
      "see": 5083,
      "Ġwhit": 5084,
      "Ġforty": 5085,
      "ĠLa": 5086,
      "ĠLook": 5087,
      "ster": 5088,
      "owing": 5089,
      "ĠSe": 5090,
      "ulate": 5091,
      "ults": 5092,
      "Ġhes": 5093,
      "Ġheat": 5094,
      "this": 5095,
      "Ġhair": 5096,
      "Ġhalf": 5097,
      "esides": 5098,
      "Ġissu": 5099,
      "ĠOwn": 5100,
      "ĠOnce": 5101,
      "Ġsand": 5102,
      "Ġsail": 5103,
      "Ġreced": 5104,
      "Ġrevenge": 5105,
      "Ġreinfor": 5106,
      "lic": 5107,
      "ppor": 5108,
      "urn": 5109,
      "urs": 5110,
      "ĠMar": 5111,
      "ĠWoods": 5112,
      "Ġste": 5113,
      "Ġstream": 5114,
      "Ġstret": 5115,
      "Ġstud": 5116,
      "Ġability": 5117,
      "ended": 5118,
      "Ġshaken": 5119,
      "Ġloft": 5120,
      "ĠBey": 5121,
      "ĠBount": 5122,
      "ĠBecause": 5123,
      "ĠBesides": 5124,
      "ĠEver": 5125,
      "ĠEli": 5126,
      "ĠEmb": 5127,
      "enting": 5128,
      "romise": 5129,
      "Ġpenet": 5130,
      "ĠFirst": 5131,
      "Ġlewd": 5132,
      "Ġjoin": 5133,
      "Ġcarve": 5134,
      "Ġcarries": 5135,
      "Ġcarrion": 5136,
      "isted": 5137,
      "Ġsuch": 5138,
      "Ġfold": 5139,
      "Ġfooth": 5140,
      "ĠNight": 5141,
      "ĠNames": 5142,
      "Ġmeat": 5143,
      "Ġspl": 5144,
      "Ġvol": 5145,
      "Ġvows": 5146,
      "ĠThough": 5147,
      "Ġagoniz": 5148,
      "aust": 5149,
      "Ġasy": 5150,
      "Ġaside": 5151,
      "Ġexces": 5152,
      "Ġgrants": 5153,
      "usions": 5154,
      "Ġorde": 5155,
      "ĠJob": 5156,
      "Ġfacing": 5157,
      "Ġboat": 5158,
      "Ġclan": 5159,
      "Ġclust": 5160,
      "Ġteaches": 5161,
      "ĠYa": 5162,
      "Ġarbit": 5163,
      "Ġarraigned": 5164,
      "Ġhappens": 5165,
      "Ġquake": 5166,
      "Ġdiss": 5167,
      "Ġdisown": 5168,
      "ands": 5169,
      "enerous": 5170,
      "Ġdreams": 5171,
      "Ġgeneration": 5172,
      "Ġrivals": 5173,
      "Ġtravelling": 5174,
      "igate": 5175,
      "ĠCon": 5176,
      "Ġgoods": 5177,
      "ersed": 5178,
      "Ġcovers": 5179,
      "Ġovercome": 5180,
      "Ġfollowers": 5181,
      "ĠNothing": 5182,
      "ĠNoble": 5183,
      "ĠNote": 5184,
      "Ġapprehensive": 5185,
      "aging": 5186,
      "Ġforego": 5187,
      "Ġbestows": 5188,
      "Ġknowingly": 5189,
      "Ġwander": 5190,
      "Ġsex": 5191,
      "Ġseas": 5192,
      "Ġseet": 5193,
      "guided": 5194,
      "Ġdetriment": 5195,
      "Ġlightning": 5196,
      "Ins": 5197,
      "Informed": 5198,
      "Ġpraying": 5199,
      "Ġkeepers": 5200,
      "olds": 5201,
      "Ġvisible": 5202,
      "Ġcheat": 5203,
      "Ġcheap": 5204,
      "Ġappealed": 5205,
      "Ġargues": 5206,
      "Ġrabbis": 5207,
      "Ġimpro": 5208,
      "Ġimpost": 5209,
      "Ġimpress": 5210,
      "Ġimprison": 5211,
      "Ġharsh": 5212,
      "Ġstop": 5213,
      "Ġhousehold": 5214,
      "osition": 5215,
      "Ġsadden": 5216,
      "Ġbased": 5217,
      "Ġperfected": 5218,
      "Ġweap": 5219,
      "before": 5220,
      "Ġswore": 5221,
      "Ġsworn": 5222,
      "merce": 5223,
      "Ġconfer": 5224,
      "Ġconverse": 5225,
      "Ġconstru": 5226,
      "Ġconvin": 5227,
      "Ġlovely": 5228,
      "Ġpurer": 5229,
      "Ġpurity": 5230,
      "Ġfleeting": 5231,
      "Ġwalks": 5232,
      "Ġwished": 5233,
      "ĠPolytheists": 5234,
      "Ġlaun": 5235,
      "Ġbefell": 5236,
      "Ġstarted": 5237,
      "Ġclean": 5238,
      "Ġrightly": 5239,
      "Ġguiding": 5240,
      "Ġoutst": 5241,
      "Ġoutward": 5242,
      "Ġoutrage": 5243,
      "Ġoutright": 5244,
      "ĠOurs": 5245,
      "Ġintoxic": 5246,
      "lessly": 5247,
      "Ġunc": 5248,
      "icing": 5249,
      "Ġourselves": 5250,
      "Ġchaste": 5251,
      "Ġchains": 5252,
      "Ġchoice": 5253,
      "ĠForbearing": 5254,
      "Ġprominent": 5255,
      "Ġenra": 5256,
      "Ġenvy": 5257,
      "Ġrejo": 5258,
      "Ġassa": 5259,
      "evere": 5260,
      "ests": 5261,
      "Ġrejects": 5262,
      "Ġrejection": 5263,
      "Ġbringing": 5264,
      "Ġbelongings": 5265,
      "Ġaccur": 5266,
      "Ġaccomp": 5267,
      "ulled": 5268,
      "Ġdivers": 5269,
      "Ġdiverted": 5270,
      "Ġdevast": 5271,
      "Ġdestined": 5272,
      "Ġdecor": 5273,
      "Ġdecide": 5274,
      "Ġdecisions": 5275,
      "Throw": 5276,
      "Ġtesting": 5277,
      "Ġkills": 5278,
      "Ġsheep": 5279,
      "Ġsheltered": 5280,
      "Ġinflict": 5281,
      "Ġbehalf": 5282,
      "ĠResp": 5283,
      "Ġentering": 5284,
      "Ġresort": 5285,
      "Ġresurrection": 5286,
      "Ġresting": 5287,
      "Ġbroke": 5288,
      "Ġcontents": 5289,
      "Ġdenying": 5290,
      "Ġinvokes": 5291,
      "Ġstrives": 5292,
      "Ġstriking": 5293,
      "Ġprescribed": 5294,
      "Ġrepented": 5295,
      "Ġdoubled": 5296,
      "Ġsupplied": 5297,
      "Ġglance": 5298,
      "Ġglitter": 5299,
      "Ġconfusion": 5300,
      "Ġeats": 5301,
      "Ġeaten": 5302,
      "Ġassociated": 5303,
      "Ġassociations": 5304,
      "Ġassociating": 5305,
      "Ġaffair": 5306,
      "Ġroom": 5307,
      "Ġrope": 5308,
      "Ġroot": 5309,
      "Ġido": 5310,
      "Ġapprove": 5311,
      "Ġende": 5312,
      "Ġdefy": 5313,
      "Ġdefender": 5314,
      "Ġwealthy": 5315,
      "udes": 5316,
      "Ġburning": 5317,
      "Ġrelative": 5318,
      "Ġconsult": 5319,
      "Ġtrusts": 5320,
      "Ġtrustworthy": 5321,
      "Ġconceals": 5322,
      "Ġpriests": 5323,
      "Ġterror": 5324,
      "Ġtremble": 5325,
      "ĠBeaut": 5326,
      "ĠBelieve": 5327,
      "Ġrecollect": 5328,
      "Ġpresents": 5329,
      "ĠVisible": 5330,
      "Ġconcealed": 5331,
      "Ġopposed": 5332,
      "Ġguardians": 5333,
      "Ġhypocrite": 5334,
      "autions": 5335,
      "Ġbounties": 5336,
      "Ġspreading": 5337,
      "Ġdwellings": 5338,
      "righteous": 5339,
      "Ġavailable": 5340,
      "Ġterms": 5341,
      "Ġvictors": 5342,
      "Ġexplained": 5343,
      "Ġrevived": 5344,
      "Ġworkers": 5345,
      "Ġsetting": 5346,
      "Ġprevents": 5347,
      "ĠWords": 5348,
      "Ġjudges": 5349,
      "Ġencompasses": 5350,
      "Ġregulates": 5351,
      "Ġbarred": 5352,
      "Ġdirected": 5353,
      "Ġofferings": 5354,
      "Ġpasture": 5355,
      "Ġviolated": 5356,
      "Knowledge": 5357,
      "Ġanimal": 5358,
      "Ġtelling": 5359,
      "Ġcondition": 5360,
      "Ġpracticed": 5361,
      "icip": 5362,
      "Ġindiv": 5363,
      "Ġaddress": 5364,
      "Ġaddition": 5365,
      "Ġdifferent": 5366,
      "Ġtrade": 5367,
      "Ġbreast": 5368,
      "ĠJew": 5369,
      "Ġfabricates": 5370,
      "Ġblasphemer": 5371,
      "Ġscribe": 5372,
      "ification": 5373,
      "Ġsupporter": 5374,
      "Ġbowing": 5375,
      "Ġreasonable": 5376,
      "Ġfairness": 5377,
      "Ġslaught": 5378,
      "Ġcounter": 5379,
      "Ġelite": 5380,
      "Ġdeceived": 5381,
      "Ġovertook": 5382,
      "Ġweakness": 5383,
      "ĠUniverse": 5384,
      "Ġpenalize": 5385,
      "Ġpenalized": 5386,
      "Ġfreeing": 5387,
      "Ġrebelled": 5388,
      "Ġstrays": 5389,
      "Ġclarifies": 5390,
      "Ġhumiliated": 5391,
      "Ġmisguide": 5392,
      "Ġmisguides": 5393,
      "Ġrecommend": 5394,
      "Ġparables": 5395,
      "ĠSuccess": 5396,
      "ĠSuppor": 5397,
      "Ġmultitude": 5398,
      "Ġabsence": 5399,
      "Ġgreeted": 5400,
      "Ġprecedent": 5401,
      "ĠObey": 5402,
      "Ġdebts": 5403,
      "Ġdebris": 5404,
      "Ġearns": 5405,
      "Ġsanctity": 5406,
      "Ġdeprived": 5407,
      "Ġconsec": 5408,
      "Ġimmorality": 5409,
      "Ġlowest": 5410,
      "Ġdiscourse": 5411,
      "Ġdeclare": 5412,
      "Ġschemes": 5413,
      "Ġstrengthened": 5414,
      "Ġabandoned": 5415,
      "Ġveil": 5416,
      "Ġsituation": 5417,
      "Ġoriginates": 5418,
      "Ġmobilized": 5419,
      "ĠSaqar": 5420,
      "Ġwithholds": 5421,
      "Ġplotted": 5422,
      "ĠDevil": 5423,
      "Ġrushing": 5424,
      "Ġconveyed": 5425,
      "Ġcease": 5426,
      "Ġcolor": 5427,
      "ĠAbiding": 5428,
      "Ġfortune": 5429,
      "Ġanger": 5430,
      "Ġdeserving": 5431,
      "Ġprofit": 5432,
      "Ġprecautions": 5433,
      "Ġproperty": 5434,
      "Ġunleash": 5435,
      "Ġallowed": 5436,
      "Ġlays": 5437,
      "Ġlayers": 5438,
      "Ġluxu": 5439,
      "Ġluxury": 5440,
      "Ġnullify": 5441,
      "ĠWhereupon": 5442,
      "ĠEasts": 5443,
      "Ġascends": 5444,
      "Ġdisregard": 5445,
      "Ġdistinguish": 5446,
      "Ġoppressive": 5447,
      "Ġindecency": 5448,
      "Ġmadness": 5449,
      "Ġallege": 5450,
      "ĠQuaroon": 5451,
      "Ġresentment": 5452,
      "Ġdisputes": 5453,
      "Ġillumination": 5454,
      "Ġmultiply": 5455,
      "Ġmotionless": 5456,
      "Strike": 5457,
      "Ġengulf": 5458,
      "Ġsplendor": 5459,
      "Ġsplendid": 5460,
      "Ġocean": 5461,
      "Ġoceans": 5462,
      "Ġlagged": 5463,
      "Ġlength": 5464,
      "Ġgraves": 5465,
      "Ġnursing": 5466,
      "Ġstabiliz": 5467,
      "Ġgrasp": 5468,
      "Ġdisclose": 5469,
      "Ġdisclosed": 5470,
      "Ġdistinct": 5471,
      "Ġdistinction": 5472,
      "Ġsurrendered": 5473,
      "Ġexperienced": 5474,
      "Ġtreasures": 5475,
      "Ġconfirmation": 5476,
      "Ġbounds": 5477,
      "Ġdowry": 5478,
      "Ġopinions": 5479,
      "Ġinwardly": 5480,
      "Ġthreaten": 5481,
      "ĠLeft": 5482,
      "Ġhealing": 5483,
      "Ġhabitat": 5484,
      "Ġshackles": 5485,
      "isteners": 5486,
      "Ġscreened": 5487,
      "Ġscreaming": 5488,
      "Ġsweet": 5489,
      "Ġretaliate": 5490,
      "Ġdisplayed": 5491,
      "Ġpleasing": 5492,
      "Ġstruggled": 5493,
      "Ġrebellion": 5494,
      "Ġpublicly": 5495,
      "Enjoy": 5496,
      "Produce": 5497,
      "Ġweeping": 5498,
      "Ġlarge": 5499,
      "Ġinquiring": 5500,
      "Ġgrip": 5501,
      "Ġeternally": 5502,
      "Ġkingship": 5503,
      "ĠEternity": 5504,
      "Ġdeliberate": 5505,
      "Ġdisobedient": 5506,
      "Ġpossible": 5507,
      "Ġconversation": 5508,
      "Ġwritten": 5509,
      "Ġintellig": 5510,
      "Ġheaviness": 5511,
      "Ġresolve": 5512,
      "Ġaffirm": 5513,
      "Ġillicitly": 5514,
      "Ġindulged": 5515,
      "Ġdeclarations": 5516,
      "Ġcrucify": 5517,
      "Ġelevated": 5518,
      "Ġsacrifice": 5519,
      "Ġchiefs": 5520,
      "Seeing": 5521,
      "Ġblemish": 5522,
      "Ġcultiv": 5523,
      "Ġinevitable": 5524,
      "Ġnakedness": 5525,
      "ĠImran": 5526,
      "Ġheifer": 5527,
      "Ġrectitude": 5528,
      "Ġstatues": 5529,
      "Ġstubborn": 5530,
      "Ġsuggest": 5531,
      "Ġspikes": 5532,
      "Ġexemplary": 5533,
      "Ġornaments": 5534,
      "Ġallegations": 5535,
      "ĠPatriarch": 5536,
      "Ġsubjected": 5537,
      "Ġmaterials": 5538,
      "Ġgloom": 5539,
      "Ġconfident": 5540,
      "Ġtranquility": 5541,
      "Ġtreasuries": 5542,
      "chever": 5543,
      "Ġdrunk": 5544,
      "Ġcrowd": 5545,
      "Ġcredit": 5546,
      "Ġolives": 5547,
      "Ġtomorrow": 5548,
      "Ġpardons": 5549,
      "Ġelabor": 5550,
      "ĠAccount": 5551,
      "Ġlofty": 5552,
      "ĠBeyond": 5553,
      "Ġlewdness": 5554,
      "Ġfoothold": 5555,
      "Ġagonizing": 5556,
      "Ġexcesses": 5557,
      "Ġordeal": 5558,
      "Ġweapons": 5559,
      "Ġindivid": 5560,
      "Ġstabilizers": 5561,
      "ĠPatriarchs": 5562,
      "-'": 5563,
      "Bu": 5564,
      "His": 5565,
      "Joseph": 5566,
      "Merc": 5567,
      "Ob": 5568,
      "On": 5569,
      "Qarn": 5570,
      "Rather": 5571,
      "Sy": 5572,
      "Such": 5573,
      "Sufficient": 5574,
      "aly": 5575,
      "aved": 5576,
      "aving": 5577,
      "bing": 5578,
      "bet": 5579,
      "bert": 5580,
      "bled": 5581,
      "bring": 5582,
      "cer": 5583,
      "cers": 5584,
      "cade": 5585,
      "cup": 5586,
      "every": 5587,
      "fies": 5588,
      "form": 5589,
      "gain": 5590,
      "gran": 5591,
      "grant": 5592,
      "hing": 5593,
      "hor": 5594,
      "him": 5595,
      "half": 5596,
      "ient": 5597,
      "iate": 5598,
      "ierc": 5599,
      "ipe": 5600,
      "icious": 5601,
      "jah": 5602,
      "jac": 5603,
      "kens": 5604,
      "little": 5605,
      "land": 5606,
      "lish": 5607,
      "lore": 5608,
      "lvation": 5609,
      "mned": 5610,
      "mrah": 5611,
      "mine": 5612,
      "nant": 5613,
      "ncing": 5614,
      "og": 5615,
      "over": 5616,
      "oths": 5617,
      "power": 5618,
      "pters": 5619,
      "pitality": 5620,
      "qman": 5621,
      "rres": 5622,
      "six": 5623,
      "tt": 5624,
      "tal": 5625,
      "take": 5626,
      "ture": 5627,
      "tree": 5628,
      "vol": 5629,
      "vations": 5630,
      "was": 5631,
      "were": 5632,
      "warned": 5633,
      "wers": 5634,
      "xing": 5635,
      "zed": 5636,
      "zing": 5637,
      "Ġrou": 5638,
      "Ġide": 5639,
      "Ġround": 5640,
      "Ġverse": 5641,
      "held": 5642,
      "Ġties": 5643,
      "Ġtied": 5644,
      "Ġtender": 5645,
      "Ġaf": 5646,
      "Ġaim": 5647,
      "Ġath": 5648,
      "Ġamb": 5649,
      "Ġapes": 5650,
      "Ġaching": 5651,
      "Ġwed": 5652,
      "Ġwre": 5653,
      "Ġwing": 5654,
      "Ġwid": 5655,
      "Ġwings": 5656,
      "Ġwipe": 5657,
      "ince": 5658,
      "inate": 5659,
      "inter": 5660,
      "Ġsen": 5661,
      "erted": 5662,
      "Ġfrown": 5663,
      "Ġfif": 5664,
      "Ġfright": 5665,
      "ouched": 5666,
      "ourage": 5667,
      "Ġbir": 5668,
      "Ġbord": 5669,
      "Ġbare": 5670,
      "Ġbrains": 5671,
      "Ġbaked": 5672,
      "Ġbrass": 5673,
      "Ġbalance": 5674,
      "Ġbrand": 5675,
      "itions": 5676,
      "itudes": 5677,
      "rep": 5678,
      "rent": 5679,
      "rect": 5680,
      "reated": 5681,
      "arant": 5682,
      "arian": 5683,
      "ariq": 5684,
      "Ġdates": 5685,
      "Ġdimin": 5686,
      "Ġchin": 5687,
      "Ġcroo": 5688,
      "atient": 5689,
      "Ġtore": 5690,
      "Ġtoss": 5691,
      "Ġtomb": 5692,
      "ĠTake": 5693,
      "ĠTwo": 5694,
      "ison": 5695,
      "orious": 5696,
      "orize": 5697,
      "Ġling": 5698,
      "Ġlas": 5699,
      "Ġlame": 5700,
      "Ġloud": 5701,
      "Ġpome": 5702,
      "Ġpiles": 5703,
      "Ġpulled": 5704,
      "Ġhated": 5705,
      "Ġhighest": 5706,
      "ash": 5707,
      "asm": 5708,
      "ashed": 5709,
      "asured": 5710,
      "nets": 5711,
      "neither": 5712,
      "lly": 5713,
      "Ġinact": 5714,
      "riel": 5715,
      "Ġgir": 5716,
      "Ġgained": 5717,
      "Ġwash": 5718,
      "Ġmass": 5719,
      "Ġmighty": 5720,
      "Ġmolt": 5721,
      "Ġmasses": 5722,
      "onish": 5723,
      "Ġeld": 5724,
      "Ġeased": 5725,
      "Ġeaster": 5726,
      "Ġyields": 5727,
      "Ġthor": 5728,
      "Ġthro": 5729,
      "Ġthird": 5730,
      "Ġthie": 5731,
      "ĠAss": 5732,
      "cepter": 5733,
      "Ġnice": 5734,
      "Ġupp": 5735,
      "Ġform": 5736,
      "Ġformed": 5737,
      "ĠHon": 5738,
      "ĠHighest": 5739,
      "ims": 5740,
      "ĠIrres": 5741,
      "Ġfeature": 5742,
      "stood": 5743,
      "strous": 5744,
      "owned": 5745,
      "owards": 5746,
      "ĠSc": 5747,
      "ĠSplend": 5748,
      "ĠSource": 5749,
      "ĠSufficient": 5750,
      "ĠSevere": 5751,
      "ulation": 5752,
      "ulsion": 5753,
      "Ġheir": 5754,
      "Ġheight": 5755,
      "amb": 5756,
      "aming": 5757,
      "Ġwithheld": 5758,
      "child": 5759,
      "chcra": 5760,
      "Ġliqu": 5761,
      "Ġissue": 5762,
      "ĠGab": 5763,
      "ĠGiver": 5764,
      "ĠGenerous": 5765,
      "ĠOut": 5766,
      "Ġsalty": 5767,
      "Ġsailing": 5768,
      "Ġsafet": 5769,
      "Ġsalvation": 5770,
      "Ġreverted": 5771,
      "lime": 5772,
      "lies": 5773,
      "liked": 5774,
      "liath": 5775,
      "licted": 5776,
      "utive": 5777,
      "utation": 5778,
      "cket": 5779,
      "Ġwholes": 5780,
      "pping": 5781,
      "irgin": 5782,
      "nto": 5783,
      "ĠMay": 5784,
      "Ġsoil": 5785,
      "ĠWatch": 5786,
      "Ġuproo": 5787,
      "Ġdoer": 5788,
      "Ġstol": 5789,
      "Ġstick": 5790,
      "Ġsteep": 5791,
      "Ġstreak": 5792,
      "Ġstair": 5793,
      "Ġstrate": 5794,
      "Ġstages": 5795,
      "Ġstron": 5796,
      "Ġstressed": 5797,
      "Ġstep": 5798,
      "Ġstrange": 5799,
      "Ġstrang": 5800,
      "Ġabst": 5801,
      "Ġtherefrom": 5802,
      "Ġsho": 5803,
      "Ġshun": 5804,
      "Ġshield": 5805,
      "ssip": 5806,
      "Ġloose": 5807,
      "Ġload": 5808,
      "ĠBet": 5809,
      "ĠBitter": 5810,
      "ĠEar": 5811,
      "ĠEle": 5812,
      "ĠEvid": 5813,
      "Ġwool": 5814,
      "Ġneck": 5815,
      "Ġneare": 5816,
      "Ġnecess": 5817,
      "Ġneigh": 5818,
      "ongreg": 5819,
      "Ġplans": 5820,
      "ĠFollow": 5821,
      "mbling": 5822,
      "ounded": 5823,
      "Ġlean": 5824,
      "Ġje": 5825,
      "istible": 5826,
      "Ġhelpless": 5827,
      "ĠNear": 5828,
      "ĠHelp": 5829,
      "ĠHeaven": 5830,
      "Ġnoticed": 5831,
      "Ġmeasured": 5832,
      "Ġsperm": 5833,
      "Ġsplin": 5834,
      "Ġvowed": 5835,
      "Ġvirgin": 5836,
      "ĠThrow": 5837,
      "Ġagreed": 5838,
      "Ġasp": 5839,
      "Ġascribe": 5840,
      "Ġassembly": 5841,
      "Ġcomb": 5842,
      "Ġcomfor": 5843,
      "Ġcommerce": 5844,
      "aded": 5845,
      "quently": 5846,
      "Ġpattern": 5847,
      "Ġwatcher": 5848,
      "Ġexc": 5849,
      "Ġexec": 5850,
      "Ġexisten": 5851,
      "Ġexult": 5852,
      "Ġfoundations": 5853,
      "ĠSovereignty": 5854,
      "eel": 5855,
      "Ġanx": 5856,
      "Ġanaly": 5857,
      "Ġkindle": 5858,
      "Ġgray": 5859,
      "Ġsmo": 5860,
      "Ġsmoke": 5861,
      "usive": 5862,
      "Ġdear": 5863,
      "Ġdealt": 5864,
      "ĠDwell": 5865,
      "Ġcompet": 5866,
      "Ġcompared": 5867,
      "Ġcomparable": 5868,
      "Ġfault": 5869,
      "Ġfails": 5870,
      "Ġgossip": 5871,
      "Ġrites": 5872,
      "Ġrum": 5873,
      "ĠZul": 5874,
      "ĠLuqman": 5875,
      "Ġbott": 5876,
      "Ġhasty": 5877,
      "Ġclothe": 5878,
      "Ġhappiness": 5879,
      "Ġquit": 5880,
      "Ġquails": 5881,
      "Ġnearly": 5882,
      "Ġnearness": 5883,
      "Ġthroughout": 5884,
      "Ġdisd": 5885,
      "Ġdismiss": 5886,
      "Ġdisowned": 5887,
      "Ġdisliked": 5888,
      "Ġlooks": 5889,
      "Ġspeculation": 5890,
      "Ġriches": 5891,
      "Ġcust": 5892,
      "ĠRet": 5893,
      "ĠRel": 5894,
      "ĠCity": 5895,
      "ĠCities": 5896,
      "Ġrarely": 5897,
      "Ġraises": 5898,
      "Ġalloc": 5899,
      "Ġcolla": 5900,
      "Ġcognizant": 5901,
      "Ġoverf": 5902,
      "Ġoversteps": 5903,
      "ĠGrand": 5904,
      "Ġmanna": 5905,
      "Ġpoll": 5906,
      "elling": 5907,
      "ellations": 5908,
      "iracy": 5909,
      "orably": 5910,
      "ager": 5911,
      "Ġpaths": 5912,
      "ardens": 5913,
      "ĠSamarian": 5914,
      "Ġundermine": 5915,
      "Ġunderstood": 5916,
      "Ġhoping": 5917,
      "Ġforeign": 5918,
      "Ġforelock": 5919,
      "Ġforewarned": 5920,
      "ermination": 5921,
      "Ġmarched": 5922,
      "Ġmarty": 5923,
      "Ġmarks": 5924,
      "Ġparts": 5925,
      "Ġwhereupon": 5926,
      "standing": 5927,
      "rud": 5928,
      "rue": 5929,
      "Ġknowing": 5930,
      "mediate": 5931,
      "Ġseals": 5932,
      "Ġselected": 5933,
      "Ġsevent": 5934,
      "Ġdistance": 5935,
      "Ġdistances": 5936,
      "Ġdetermination": 5937,
      "Ġprove": 5938,
      "Ġproven": 5939,
      "Ġproceed": 5940,
      "Ġhoriz": 5941,
      "Ġeyesight": 5942,
      "Ġproudly": 5943,
      "Ġeager": 5944,
      "Ġgently": 5945,
      "Ġteachings": 5946,
      "Ġimpressed": 5947,
      "Ġimpatient": 5948,
      "Ġsurf": 5949,
      "Ġstore": 5950,
      "osite": 5951,
      "ository": 5952,
      "ospitality": 5953,
      "Ġsounded": 5954,
      "Ġarrive": 5955,
      "Ġbiggest": 5956,
      "Ġtempt": 5957,
      "Ġharbored": 5958,
      "Ġwear": 5959,
      "Ġweaning": 5960,
      "Ġscald": 5961,
      "Ġworthy": 5962,
      "Ġearly": 5963,
      "Ġswarm": 5964,
      "Ġswept": 5965,
      "Ġmoral": 5966,
      "Ġconquest": 5967,
      "Ġmiddle": 5968,
      "Ġamp": 5969,
      "Ġguarant": 5970,
      "Ġpersevered": 5971,
      "unate": 5972,
      "unity": 5973,
      "unish": 5974,
      "unless": 5975,
      "Ġsilent": 5976,
      "lettered": 5977,
      "ĠPilgrim": 5978,
      "Ġdisbeliever": 5979,
      "Ġblackened": 5980,
      "Ġtrunk": 5981,
      "ceptor": 5982,
      "ires": 5983,
      "Ġcreating": 5984,
      "Ġintimate": 5985,
      "astity": 5986,
      "ĠMercy": 5987,
      "Ġcommon": 5988,
      "Ġheap": 5989,
      "Ġoutp": 5990,
      "Ġwronging": 5991,
      "igns": 5992,
      "Ġprepar": 5993,
      "Ġprevailed": 5994,
      "Ġadded": 5995,
      "Ġunint": 5996,
      "Ġuniverse": 5997,
      "Ġserved": 5998,
      "Ġserpent": 5999,
      "Ġserenity": 6000,
      "icable": 6001,
      "others": 6002,
      "Ġreveals": 6003,
      "Ġacted": 6004,
      "ĠUmrah": 6005,
      "Ġchance": 6006,
      "Ġchastity": 6007,
      "Ġmistreat": 6008,
      "Ġevent": 6009,
      "Ġevade": 6010,
      "cription": 6011,
      "Ġprompt": 6012,
      "Ġobsc": 6013,
      "Ġreputation": 6014,
      "Ġremnant": 6015,
      "Ġdenounced": 6016,
      "Ġdenounce": 6017,
      "Ġtwist": 6018,
      "Ġprovoked": 6019,
      "ĠYourself": 6020,
      "Ġwitchcra": 6021,
      "Ġlands": 6022,
      "Ġrejecters": 6023,
      "Ġsets": 6024,
      "Ġmiss": 6025,
      "ĠBooks": 6026,
      "Ġasks": 6027,
      "ustrates": 6028,
      "Ġdiver": 6029,
      "Ġdevised": 6030,
      "Ġexpands": 6031,
      "ized": 6032,
      "Ġrecites": 6033,
      "Ġrecitation": 6034,
      "Ġsublime": 6035,
      "Ġdecay": 6036,
      "Ġdecided": 6037,
      "Ġdecides": 6038,
      "Ġdecisive": 6039,
      "Ġherded": 6040,
      "Ġherself": 6041,
      "Ġinflicted": 6042,
      "Ġbehavior": 6043,
      "ĠQaf": 6044,
      "gnant": 6045,
      "Ġenters": 6046,
      "Ġentice": 6047,
      "Ġentire": 6048,
      "Ġattains": 6049,
      "ablets": 6050,
      "ĠExcellent": 6051,
      "Ġparties": 6052,
      "cession": 6053,
      "Ġreside": 6054,
      "Ġrestore": 6055,
      "Ġbrocade": 6056,
      "Ġincite": 6057,
      "Ġincumb": 6058,
      "Ġinvites": 6059,
      "Ġreligions": 6060,
      "Ġstrivers": 6061,
      "Ġstriving": 6062,
      "Ġcommitting": 6063,
      "Ġrepentant": 6064,
      "Ġmenstru": 6065,
      "Ġadvis": 6066,
      "Ġadvanced": 6067,
      "Ġdoubted": 6068,
      "ĠReckoning": 6069,
      "Ġglass": 6070,
      "Ġdisposed": 6071,
      "Ġdispersed": 6072,
      "Ġconflict": 6073,
      "Ġequate": 6074,
      "Ġequals": 6075,
      "Ġequating": 6076,
      "Ġafflu": 6077,
      "although": 6078,
      "Ġdestroys": 6079,
      "aphor": 6080,
      "Ġroof": 6081,
      "Ġroaring": 6082,
      "Ġropes": 6083,
      "Ġharms": 6084,
      "Ġharmed": 6085,
      "Ġapproved": 6086,
      "Ġapproached": 6087,
      "Ġended": 6088,
      "parted": 6089,
      "Ġdefra": 6090,
      "Ġburst": 6091,
      "Ġreluct": 6092,
      "Ġconsum": 6093,
      "Ġconsumed": 6094,
      "Ġpassing": 6095,
      "Ġleader": 6096,
      "Ġinforming": 6097,
      "Ġinformation": 6098,
      "Whoever": 6099,
      "Whatever": 6100,
      "Ġconceives": 6101,
      "Ġforbids": 6102,
      "Ġputs": 6103,
      "ocker": 6104,
      "Ġfulfillment": 6105,
      "Ġimmediate": 6106,
      "Ġterrif": 6107,
      "Ġtreacher": 6108,
      "Ġactions": 6109,
      "Ġinsist": 6110,
      "Ġinsults": 6111,
      "ĠBene": 6112,
      "ĠBehold": 6113,
      "Ġplanets": 6114,
      "Ġmarvel": 6115,
      "Ġmarveled": 6116,
      "Ġadmits": 6117,
      "Ġcorrect": 6118,
      "Ġstaying": 6119,
      "Ġseizes": 6120,
      "Ġaccounts": 6121,
      "Ġsubmits": 6122,
      "ĠVict": 6123,
      "Ġopposes": 6124,
      "Ġopposite": 6125,
      "Ġguards": 6126,
      "Ġenjoyed": 6127,
      "Ġhypocrit": 6128,
      "Ġhypocrisy": 6129,
      "Ġdescended": 6130,
      "Ġplanning": 6131,
      "Ġextingu": 6132,
      "Ġaccepts": 6133,
      "ĠShocker": 6134,
      "Ġpledged": 6135,
      "Ġpledging": 6136,
      "Ġrub": 6137,
      "Ġruins": 6138,
      "Ġdespairs": 6139,
      "Ġdespicable": 6140,
      "Ġvictorious": 6141,
      "Ġillustrates": 6142,
      "Ġidolater": 6143,
      "Ġnudge": 6144,
      "Ġprostrated": 6145,
      "Ġmonotheist": 6146,
      "Ġmonstrous": 6147,
      "Ġschemed": 6148,
      "Ġtribe": 6149,
      "Ġhonorably": 6150,
      "Ġhardly": 6151,
      "Ġsights": 6152,
      "Ġjudged": 6153,
      "Ġencompass": 6154,
      "Ġencourage": 6155,
      "Ġregulated": 6156,
      "Ġbarring": 6157,
      "Ġintended": 6158,
      "Ġinheritors": 6159,
      "Ġlaw": 6160,
      "Ġlaws": 6161,
      "iracies": 6162,
      "Ġviolent": 6163,
      "Ġviolence": 6164,
      "Ġescort": 6165,
      "Ġescap": 6166,
      "Ġthankless": 6167,
      "Ġdisgraced": 6168,
      "Ġpursuit": 6169,
      "Ġpursues": 6170,
      "Ġsinfulness": 6171,
      "Ġtrading": 6172,
      "Ġbreaking": 6173,
      "uredly": 6174,
      "Ġblaspheme": 6175,
      "Ġblasphemed": 6176,
      "ifications": 6177,
      "Ġbegg": 6178,
      "Ġforgets": 6179,
      "Ġaggressors": 6180,
      "Ġcompensate": 6181,
      "Ġdisobeys": 6182,
      "Ġemigrating": 6183,
      "Ġlessons": 6184,
      "Ġelimin": 6185,
      "Ġappearance": 6186,
      "Ġclaimed": 6187,
      "Ġrebu": 6188,
      "Ġstilled": 6189,
      "Ġclarifying": 6190,
      "Ġclarifications": 6191,
      "Ġmisguidance": 6192,
      "Ġdrove": 6193,
      "Ġcrack": 6194,
      "Ġcraft": 6195,
      "Ġcracks": 6196,
      "Ġcrazy": 6197,
      "Ġcareful": 6198,
      "Ġexchang": 6199,
      "Ġweights": 6200,
      "resent": 6201,
      "Ġmultitudes": 6202,
      "Ġabsor": 6203,
      "Ġabsent": 6204,
      "Ġresponsibility": 6205,
      "bling": 6206,
      "Ġself": 6207,
      "Ġseduced": 6208,
      "ĠWhichever": 6209,
      "Ġabundance": 6210,
      "Ġsettlement": 6211,
      "Ġreforms": 6212,
      "Ġinclude": 6213,
      "Ġadvocates": 6214,
      "Ġprosperous": 6215,
      "Ġfinal": 6216,
      "Ġfinery": 6217,
      "Ġfinality": 6218,
      "Ġhurry": 6219,
      "Ġwithdrew": 6220,
      "Ġdelights": 6221,
      "Ġdelighted": 6222,
      "ĠRecord": 6223,
      "Ġadulterer": 6224,
      "Ġadulteress": 6225,
      "Ġcrit": 6226,
      "Ġlowly": 6227,
      "Ġmasters": 6228,
      "ĠGoliath": 6229,
      "ĠEnjoy": 6230,
      "question": 6231,
      "Ġperpetual": 6232,
      "dict": 6233,
      "rann": 6234,
      "Ġsitting": 6235,
      "Ġflood": 6236,
      "Ġpoured": 6237,
      "Ġeffect": 6238,
      "strung": 6239,
      "ĠSaad": 6240,
      "Ġreleased": 6241,
      "Ġnobles": 6242,
      "Ġlegal": 6243,
      "ĠDeaf": 6244,
      "ĠDelight": 6245,
      "Ġconspiracy": 6246,
      "Ġrepayment": 6247,
      "Ġreprieve": 6248,
      "Ġdivorces": 6249,
      "Ġrecorded": 6250,
      "Ġslaves": 6251,
      "Ġabundantly": 6252,
      "Ġcross": 6253,
      "Ġsolely": 6254,
      "Ġprofess": 6255,
      "Ġobligation": 6256,
      "Ġobligations": 6257,
      "Ġdeviation": 6258,
      "Ġrestricted": 6259,
      "Ġcontaining": 6260,
      "Ġfrequently": 6261,
      "Ġdreadful": 6262,
      "Ġdedicate": 6263,
      "Ġcrib": 6264,
      "Ġbewild": 6265,
      "Ġnullified": 6266,
      "ĠGlorified": 6267,
      "Ġreverent": 6268,
      "Ġrepeat": 6269,
      "ĠMonth": 6270,
      "ĠWherever": 6271,
      "Ġstatement": 6272,
      "Ġstatements": 6273,
      "Ġstronger": 6274,
      "Ġfoolish": 6275,
      "ĠJustice": 6276,
      "Ġchoose": 6277,
      "Ġinstruct": 6278,
      "Ġoppression": 6279,
      "Ġoppressors": 6280,
      "Ġdrawing": 6281,
      "Ġtyrann": 6282,
      "Ġfragment": 6283,
      "Ġcircle": 6284,
      "Ġoccurs": 6285,
      "Ġpronounce": 6286,
      "Ġmadman": 6287,
      "Ġreliant": 6288,
      "Ġreliable": 6289,
      "ĠMajesty": 6290,
      "Ġsuspended": 6291,
      "Ġexhort": 6292,
      "Ġexhorted": 6293,
      "Ġexhaust": 6294,
      "ĠDecree": 6295,
      "ĠDecision": 6296,
      "ĠInform": 6297,
      "Ġclothes": 6298,
      "Ġgifts": 6299,
      "Ġassistance": 6300,
      "Ġdisputing": 6301,
      "Ġalternate": 6302,
      "Stay": 6303,
      "maker": 6304,
      "Ġverses": 6305,
      "Ġverdict": 6306,
      "Ġengage": 6307,
      "hearted": 6308,
      "hearts": 6309,
      "Ġtrying": 6310,
      "Ġnurse": 6311,
      "Ġunto": 6312,
      "Ġuntrue": 6313,
      "Ġrequite": 6314,
      "Ġrequital": 6315,
      "Ġgrasped": 6316,
      "Ġarmies": 6317,
      "Ġconstant": 6318,
      "Ġconstellations": 6319,
      "Ġintercourse": 6320,
      "Ġexperience": 6321,
      "Ġthunderbolts": 6322,
      "Except": 6323,
      "fetched": 6324,
      "Ġachievement": 6325,
      "Ġsects": 6326,
      "Ġsnatches": 6327,
      "Ġdowries": 6328,
      "Ġmodest": 6329,
      "Ġmoderate": 6330,
      "Ġmurder": 6331,
      "Ġrelieved": 6332,
      "Ġrenounces": 6333,
      "Ġmetaphor": 6334,
      "Ġvoices": 6335,
      "Ġradiant": 6336,
      "Ġradiance": 6337,
      "Ġdesignated": 6338,
      "Ġsatisfy": 6339,
      "Ġsatisfied": 6340,
      "Ġscreen": 6341,
      "Ġreduced": 6342,
      "ĠPermitted": 6343,
      "Ġunfair": 6344,
      "Ġenrich": 6345,
      "Ġcontributions": 6346,
      "Ġpleasant": 6347,
      "Ġstruggle": 6348,
      "Ġrebellious": 6349,
      "Ġtumble": 6350,
      "Ġwilderness": 6351,
      "Ġlater": 6352,
      "Ġlacks": 6353,
      "Ġportion": 6354,
      "Ġinitiated": 6355,
      "Ġmixture": 6356,
      "Ġempowered": 6357,
      "ĠAccepter": 6358,
      "ĠAcceptor": 6359,
      "Ġherald": 6360,
      "Ġheralds": 6361,
      "thirds": 6362,
      "ĠOtherwise": 6363,
      "Ġshadows": 6364,
      "Ġplenty": 6365,
      "Ġannounced": 6366,
      "Ġdegree": 6367,
      "Ġdegrees": 6368,
      "Ġblundering": 6369,
      "Ġcondemn": 6370,
      "Ġcondemned": 6371,
      "Ġoverwhelmed": 6372,
      "Ġscorch": 6373,
      "Ġchanging": 6374,
      "Ġimmortal": 6375,
      "prov": 6376,
      "Ġfingers": 6377,
      "Ġfroth": 6378,
      "Ġbiased": 6379,
      "Ġgroan": 6380,
      "Ġmerely": 6381,
      "Ġmortals": 6382,
      "Ġmalice": 6383,
      "ĠOverwhel": 6384,
      "ĠMagnificent": 6385,
      "Ġabominations": 6386,
      "Ġdelusion": 6387,
      "Ġdisagree": 6388,
      "ĠClarifying": 6389,
      "Ġatonement": 6390,
      "Ġcalculation": 6391,
      "Ġdeterrent": 6392,
      "Ġprojectile": 6393,
      "Ġguessing": 6394,
      "Ġadmonish": 6395,
      "ĠForgiveness": 6396,
      "Ġobliter": 6397,
      "Ġobtain": 6398,
      "Ġenumerated": 6399,
      "Ġdictate": 6400,
      "Ġdeceitful": 6401,
      "Ġcaptive": 6402,
      "Ġintercede": 6403,
      "Ġvigilant": 6404,
      "Ġgovernor": 6405,
      "Ġdishonestly": 6406,
      "disbelieve": 6407,
      "Ġanticip": 6408,
      "Ġwelcome": 6409,
      "Ġfitting": 6410,
      "Ġladen": 6411,
      "Ġpillars": 6412,
      "Ġhamstrung": 6413,
      "Ġinvestigate": 6414,
      "Ġgambling": 6415,
      "Ġthirsty": 6416,
      "ĠLaw": 6417,
      "ĠSepar": 6418,
      "Ġstudy": 6419,
      "ĠBounteous": 6420,
      "ĠElijah": 6421,
      "ĠEmbracing": 6422,
      "Ġsplits": 6423,
      "Ġvolunt": 6424,
      "Ġclusters": 6425,
      "Ġsexual": 6426,
      "Ġseething": 6427,
      "Ġconferred": 6428,
      "Ġconstructed": 6429,
      "Ġconvinced": 6430,
      "Ġlaunched": 6431,
      "Ġoutstretched": 6432,
      "Ġoutrageous": 6433,
      "Ġenrages": 6434,
      "Ġaccurate": 6435,
      "Ġdecorated": 6436,
      "ĠBeautiful": 6437,
      "ĠSuccessful": 6438,
      "Ġconsecutive": 6439,
      "Ġluxurious": 6440,
      "Ġintelligence": 6441,
      "Build": 6442,
      "Merciful": 6443,
      "Qarnain": 6444,
      "berty": 6445,
      "granates": 6446,
      "iercing": 6447,
      "sixth": 6448,
      "Ġfifth": 6449,
      "Ġbirth": 6450,
      "Ġborders": 6451,
      "Ġdiminish": 6452,
      "Ġchins": 6453,
      "Ġcrooked": 6454,
      "Ġtombs": 6455,
      "Ġlashes": 6456,
      "Ġpomegranates": 6457,
      "Ġinactive": 6458,
      "Ġmolten": 6459,
      "Ġeastern": 6460,
      "ĠIrresistible": 6461,
      "Ġfeatures": 6462,
      "children": 6463,
      "Ġliquid": 6464,
      "ĠGabriel": 6465,
      "Ġsafety": 6466,
      "Ġwholesome": 6467,
      "Ġuprooted": 6468,
      "Ġstolen": 6469,
      "Ġsteeped": 6470,
      "Ġstrategy": 6471,
      "ĠBitterness": 6472,
      "Ġnearest": 6473,
      "Ġnecessity": 6474,
      "Ġneighbor": 6475,
      "ongregation": 6476,
      "Ġcomforted": 6477,
      "Ġexistence": 6478,
      "Ġanalyzed": 6479,
      "Ġbottom": 6480,
      "ĠRelenting": 6481,
      "Ġseventy": 6482,
      "ĠPilgrimage": 6483,
      "Ġwitchcraft": 6484,
      "Ġincumbent": 6485,
      "Ġreluctant": 6486,
      "Ġconsuming": 6487,
      "\".": 6488,
      "'d": 6489,
      "'m": 6490,
      "'t": 6491,
      "-\"": 6492,
      "Ad": 6493,
      "Ah": 6494,
      "Al": 6495,
      "Am": 6496,
      "Abraham": 6497,
      "Can": 6498,
      "Dis": 6499,
      "Day": 6500,
      "Die": 6501,
      "Each": 6502,
      "Get": 6503,
      "Giver": 6504,
      "Hell": 6505,
      "Hold": 6506,
      "Le": 6507,
      "Let": 6508,
      "Lot": 6509,
      "Leg": 6510,
      "Ma": 6511,
      "Mess": 6512,
      "Nur": 6513,
      "None": 6514,
      "Ro": 6515,
      "Say": 6516,
      "Son": 6517,
      "Send": 6518,
      "Satan": 6519,
      "Surely": 6520,
      "Tak": 6521,
      "Tariq": 6522,
      "Un": 6523,
      "Wa": 6524,
      "Whe": 6525,
      "Wise": 6526,
      "Warn": 6527,
      "Which": 6528,
      "Yet": 6529,
      "ail": 6530,
      "ander": 6531,
      "aab": 6532,
      "ailing": 6533,
      "bod": 6534,
      "bur": 6535,
      "back": 6536,
      "bones": 6537,
      "barded": 6538,
      "cre": 6539,
      "cor": 6540,
      "can": 6541,
      "com": 6542,
      "call": 6543,
      "count": 6544,
      "cue": 6545,
      "cated": 6546,
      "dd": 6547,
      "dro": 6548,
      "des": 6549,
      "dleb": 6550,
      "eight": 6551,
      "even": 6552,
      "eers": 6553,
      "evil": 6554,
      "found": 6555,
      "fall": 6556,
      "four": 6557,
      "fire": 6558,
      "gs": 6559,
      "gone": 6560,
      "gate": 6561,
      "gave": 6562,
      "gence": 6563,
      "gerate": 6564,
      "gresses": 6565,
      "had": 6566,
      "hases": 6567,
      "hospitality": 6568,
      "iqu": 6569,
      "irah": 6570,
      "iel": 6571,
      "ilet": 6572,
      "ivers": 6573,
      "ivor": 6574,
      "ibly": 6575,
      "jeen": 6576,
      "kh": 6577,
      "kiel": 6578,
      "lame": 6579,
      "lity": 6580,
      "laught": 6581,
      "loy": 6582,
      "lations": 6583,
      "lum": 6584,
      "lasting": 6585,
      "lerate": 6586,
      "lorable": 6587,
      "mo": 6588,
      "mar": 6589,
      "may": 6590,
      "muring": 6591,
      "mothers": 6592,
      "no": 6593,
      "nction": 6594,
      "nks": 6595,
      "oo": 6596,
      "och": 6597,
      "oast": 6598,
      "ogi": 6599,
      "pl": 6600,
      "pre": 6601,
      "pay": 6602,
      "pri": 6603,
      "pol": 6604,
      "pers": 6605,
      "pla": 6606,
      "perhaps": 6607,
      "peri": 6608,
      "prous": 6609,
      "powered": 6610,
      "promise": 6611,
      "punish": 6612,
      "rs": 6613,
      "rations": 6614,
      "rons": 6615,
      "ritory": 6616,
      "sou": 6617,
      "some": 6618,
      "soever": 6619,
      "surely": 6620,
      "said": 6621,
      "sanct": 6622,
      "slaught": 6623,
      "tes": 6624,
      "tily": 6625,
      "trust": 6626,
      "uj": 6627,
      "uity": 6628,
      "uable": 6629,
      "uwa": 6630,
      "ural": 6631,
      "ukh": 6632,
      "vive": 6633,
      "vial": 6634,
      "vates": 6635,
      "wed": 6636,
      "wes": 6637,
      "wood": 6638,
      "wrong": 6639,
      "wift": 6640,
      "yn": 6641,
      "yal": 6642,
      "zar": 6643,
      "zled": 6644,
      "Ġed": 6645,
      "Ġima": 6646,
      "Ġves": 6647,
      "Ġrounded": 6648,
      "Ġtas": 6649,
      "Ġtim": 6650,
      "Ġtal": 6651,
      "Ġtall": 6652,
      "Ġtight": 6653,
      "Ġtale": 6654,
      "Ġtie": 6655,
      "Ġtiring": 6656,
      "Ġtablets": 6657,
      "Ġav": 6658,
      "Ġaz": 6659,
      "Ġack": 6660,
      "Ġalig": 6661,
      "Ġaided": 6662,
      "Ġapol": 6663,
      "Ġwon": 6664,
      "Ġwro": 6665,
      "Ġwreak": 6666,
      "Ġwages": 6667,
      "ina": 6668,
      "ining": 6669,
      "inet": 6670,
      "inal": 6671,
      "inous": 6672,
      "iney": 6673,
      "inai": 6674,
      "inence": 6675,
      "inated": 6676,
      "inhabit": 6677,
      "edee": 6678,
      "Ġsy": 6679,
      "Ġsan": 6680,
      "Ġske": 6681,
      "Ġshed": 6682,
      "Ġsqu": 6683,
      "Ġsink": 6684,
      "Ġsway": 6685,
      "Ġsort": 6686,
      "Ġsways": 6687,
      "Ġsense": 6688,
      "eror": 6689,
      "erst": 6690,
      "erive": 6691,
      "erun": 6692,
      "erving": 6693,
      "errible": 6694,
      "ervation": 6695,
      "ndous": 6696,
      "nduct": 6697,
      "ndrous": 6698,
      "Ġfed": 6699,
      "Ġfain": 6700,
      "Ġfive": 6701,
      "Ġfig": 6702,
      "Ġfount": 6703,
      "Ġflight": 6704,
      "Ġfix": 6705,
      "Ġflo": 6706,
      "Ġfift": 6707,
      "Ġfield": 6708,
      "Ġfields": 6709,
      "Ġfancy": 6710,
      "Ġbit": 6711,
      "Ġbom": 6712,
      "Ġbent": 6713,
      "Ġbite": 6714,
      "Ġbrink": 6715,
      "Ġbought": 6716,
      "Ġbully": 6717,
      "Ġborn": 6718,
      "itate": 6719,
      "iters": 6720,
      "itates": 6721,
      "iterate": 6722,
      "itution": 6723,
      "rel": 6724,
      "rest": 6725,
      "resh": 6726,
      "rema": 6727,
      "arrass": 6728,
      "arison": 6729,
      "Ġdim": 6730,
      "Ġdome": 6731,
      "Ġdur": 6732,
      "Ġdried": 6733,
      "Ġdise": 6734,
      "Ġderive": 6735,
      "Ġci": 6736,
      "Ġcli": 6737,
      "Ġcav": 6738,
      "Ġcush": 6739,
      "Ġcows": 6740,
      "Ġcongregation": 6741,
      "att": 6742,
      "atter": 6743,
      "atural": 6744,
      "Ġoil": 6745,
      "Ġolive": 6746,
      "Ġobedience": 6747,
      "Ġodd": 6748,
      "Ġtopp": 6749,
      "Ġtotal": 6750,
      "Ġtoilet": 6751,
      "ĠTr": 6752,
      "ĠTaught": 6753,
      "ĠTub": 6754,
      "ĠTurning": 6755,
      "ĠTouched": 6756,
      "ĠTowards": 6757,
      "ĠTuwa": 6758,
      "ĠTerrible": 6759,
      "isers": 6760,
      "isdom": 6761,
      "isively": 6762,
      "inging": 6763,
      "Ġlect": 6764,
      "Ġlink": 6765,
      "Ġlure": 6766,
      "Ġlaz": 6767,
      "Ġloses": 6768,
      "Ġline": 6769,
      "Ġlowed": 6770,
      "Ġlasted": 6771,
      "Ġlisteners": 6772,
      "Ġpan": 6773,
      "Ġpow": 6774,
      "Ġpants": 6775,
      "Ġpiercing": 6776,
      "Ġphases": 6777,
      "Ġhate": 6778,
      "Ġhateful": 6779,
      "Ġhig": 6780,
      "Ġhides": 6781,
      "Ġhiding": 6782,
      "ayer": 6783,
      "asions": 6784,
      "asible": 6785,
      "neel": 6786,
      "lliy": 6787,
      "any": 6788,
      "verage": 6789,
      "Ġbeac": 6790,
      "Ġbeside": 6791,
      "Ġinterf": 6792,
      "Ġinjury": 6793,
      "Ġiniqu": 6794,
      "rid": 6795,
      "Ġgrown": 6796,
      "Ġgrim": 6797,
      "Ġgarl": 6798,
      "Ġgushed": 6799,
      "velations": 6800,
      "Ġmu": 6801,
      "Ġmin": 6802,
      "Ġmil": 6803,
      "Ġmira": 6804,
      "Ġmaj": 6805,
      "Ġmosqu": 6806,
      "Ġmosque": 6807,
      "Ġmajest": 6808,
      "lege": 6809,
      "Ġitself": 6810,
      "onies": 6811,
      "Ġewe": 6812,
      "Ġejac": 6813,
      "Ġewes": 6814,
      "Ġyield": 6815,
      "gholds": 6816,
      "Ġthir": 6817,
      "Ġthick": 6818,
      "Ġthorn": 6819,
      "raf": 6820,
      "raments": 6821,
      "ĠApp": 6822,
      "ĠAls": 6823,
      "ĠAbs": 6824,
      "ĠAvoid": 6825,
      "ĠAgain": 6826,
      "ĠAyn": 6827,
      "seed": 6828,
      "sequent": 6829,
      "rodu": 6830,
      "roval": 6831,
      "Ġnatural": 6832,
      "Ġdaylight": 6833,
      "Ġforci": 6834,
      "Ġforerun": 6835,
      "ĠHonest": 6836,
      "ĠHum": 6837,
      "odians": 6838,
      "ĠLand": 6839,
      "ĠLost": 6840,
      "ĠLoving": 6841,
      "ĠListener": 6842,
      "ĠImm": 6843,
      "ĠInto": 6844,
      "ider": 6845,
      "Ġfee": 6846,
      "Ġfest": 6847,
      "Ġfellow": 6848,
      "Ġfewer": 6849,
      "Ġfeasible": 6850,
      "stal": 6851,
      "stern": 6852,
      "stic": 6853,
      "stead": 6854,
      "stery": 6855,
      "ĠSou": 6856,
      "ĠSec": 6857,
      "ĠSel": 6858,
      "ĠSort": 6859,
      "ĠSaf": 6860,
      "ĠSaid": 6861,
      "ĠSanct": 6862,
      "ĠSij": 6863,
      "ĠSigns": 6864,
      "ĠSwift": 6865,
      "ĠSinai": 6866,
      "ĠServing": 6867,
      "ular": 6868,
      "ulated": 6869,
      "ulently": 6870,
      "Ġhell": 6871,
      "amp": 6872,
      "chand": 6873,
      "lying": 6874,
      "heritors": 6875,
      "Ġliable": 6876,
      "Ġhail": 6877,
      "ĠGent": 6878,
      "ĠGather": 6879,
      "ĠGood": 6880,
      "ĠOft": 6881,
      "ĠOvert": 6882,
      "ĠObedience": 6883,
      "Ġsaves": 6884,
      "illing": 6885,
      "Ġrear": 6886,
      "Ġrender": 6887,
      "Ġreass": 6888,
      "Ġreally": 6889,
      "Ġreckon": 6890,
      "Ġrenou": 6891,
      "Ġrequest": 6892,
      "liar": 6893,
      "lifies": 6894,
      "cked": 6895,
      "cken": 6896,
      "ckery": 6897,
      "Ġwholly": 6898,
      "urance": 6899,
      "urred": 6900,
      "ursed": 6901,
      "ĠMen": 6902,
      "ĠMight": 6903,
      "ĠMine": 6904,
      "Ġsoc": 6905,
      "Ġsooths": 6906,
      "ĠWay": 6907,
      "ĠWisdom": 6908,
      "Ġupset": 6909,
      "Ġupside": 6910,
      "Ġstir": 6911,
      "Ġstare": 6912,
      "Ġstage": 6913,
      "Ġstature": 6914,
      "Ġstun": 6915,
      "Ġsteps": 6916,
      "Ġstoned": 6917,
      "omers": 6918,
      "alry": 6919,
      "alaq": 6920,
      "anting": 6921,
      "Ġabol": 6922,
      "Ġtherefore": 6923,
      "endents": 6924,
      "Ġshr": 6925,
      "Ġshy": 6926,
      "Ġshout": 6927,
      "Ġshrink": 6928,
      "Ġshock": 6929,
      "Ġshape": 6930,
      "ilah": 6931,
      "Ġnose": 6932,
      "Ġlots": 6933,
      "Ġloath": 6934,
      "Ġloyal": 6935,
      "ĠBa": 6936,
      "ĠBad": 6937,
      "ĠBoth": 6938,
      "ĠBurning": 6939,
      "ĠBalance": 6940,
      "ecific": 6941,
      "ecomers": 6942,
      "ĠEither": 6943,
      "ĠEze": 6944,
      "ĠEvent": 6945,
      "ĠElliy": 6946,
      "entral": 6947,
      "Ġwondrous": 6948,
      "romised": 6949,
      "romisers": 6950,
      "Ġplun": 6951,
      "Ġplac": 6952,
      "Ġplowing": 6953,
      "ĠFar": 6954,
      "ĠFulfill": 6955,
      "ĠFierce": 6956,
      "ĠFinal": 6957,
      "mbark": 6958,
      "Ġleaving": 6959,
      "Ġleprous": 6960,
      "Ġfriendship": 6961,
      "Ġcarpet": 6962,
      "Ġfoster": 6963,
      "Ġnotice": 6964,
      "fts": 6965,
      "allenge": 6966,
      "Ġspo": 6967,
      "Ġspite": 6968,
      "Ġspider": 6969,
      "liest": 6970,
      "Ġvent": 6971,
      "Ġvener": 6972,
      "Ġviney": 6973,
      "aunt": 6974,
      "Ġashes": 6975,
      "Ġascribed": 6976,
      "Ġascent": 6977,
      "ado": 6978,
      "aining": 6979,
      "ainted": 6980,
      "queror": 6981,
      "Ġexist": 6982,
      "Ġexag": 6983,
      "Ġexceed": 6984,
      "Ġexile": 6985,
      "Ġexact": 6986,
      "ourge": 6987,
      "ources": 6988,
      "ourished": 6989,
      "oking": 6990,
      "Ġfounds": 6991,
      "ĠSovere": 6992,
      "eems": 6993,
      "ĠWests": 6994,
      "Ġonslaught": 6995,
      "Ġskill": 6996,
      "Ġskilled": 6997,
      "Ġanch": 6998,
      "mbers": 6999,
      "ahab": 7000,
      "Ġkindled": 7001,
      "usher": 7002,
      "Ġorg": 7003,
      "Ġorbit": 7004,
      "Ġdeity": 7005,
      "Ġdecept": 7006,
      "Ġdeparted": 7007,
      "ĠDivor": 7008,
      "Ġcompl": 7009,
      "Ġcompromise": 7010,
      "Ġcompulsion": 7011,
      "Ġcomparison": 7012,
      "Ġcompromisers": 7013,
      "ords": 7014,
      "ĠKaab": 7015,
      "ĠIniti": 7016,
      "ĠInheritors": 7017,
      "Ġfalter": 7018,
      "Ġfaltered": 7019,
      "Ġblaz": 7020,
      "Ġblamed": 7021,
      "Ġblowing": 7022,
      "Ġblaming": 7023,
      "Ġrushed": 7024,
      "Ġhastily": 7025,
      "Ġclasses": 7026,
      "Ġclashed": 7027,
      "Ġtears": 7028,
      "Ġturmo": 7029,
      "Ġwhatsoever": 7030,
      "Ġperple": 7031,
      "Ġpermiss": 7032,
      "Ġarise": 7033,
      "Ġarms": 7034,
      "Ġbackb": 7035,
      "Ġbacked": 7036,
      "Ġhomeland": 7037,
      "Ġhappily": 7038,
      "Ġhappened": 7039,
      "Ġhumbled": 7040,
      "Ġtooth": 7041,
      "inking": 7042,
      "inkling": 7043,
      "Ġdishear": 7044,
      "ieties": 7045,
      "impsed": 7046,
      "Ġlookout": 7047,
      "anded": 7048,
      "anding": 7049,
      "Ġforgo": 7050,
      "Ġforged": 7051,
      "Ġwonderful": 7052,
      "Ġrival": 7053,
      "Ġtravelled": 7054,
      "nowledge": 7055,
      "Ġjunction": 7056,
      "igrants": 7057,
      "lowing": 7058,
      "Ġworked": 7059,
      "oled": 7060,
      "olate": 7061,
      "olars": 7062,
      "ĠRaging": 7063,
      "ĠRedee": 7064,
      "ĠCat": 7065,
      "ĠCry": 7066,
      "arent": 7067,
      "Ġraven": 7068,
      "Ġracing": 7069,
      "Ġraging": 7070,
      "Ġraising": 7071,
      "Ġallot": 7072,
      "Ġcoop": 7073,
      "Ġoverpowered": 7074,
      "lawful": 7075,
      "laxing": 7076,
      "assed": 7077,
      "assing": 7078,
      "Ġdescent": 7079,
      "Ġdescription": 7080,
      "Ġdesolate": 7081,
      "nace": 7082,
      "idelity": 7083,
      "Ġpocket": 7084,
      "Ġapparent": 7085,
      "Ġbricks": 7086,
      "aged": 7087,
      "Ġhollow": 7088,
      "Ġhoarded": 7089,
      "Ġhopes": 7090,
      "Ġhovering": 7091,
      "Ġforesee": 7092,
      "ptic": 7093,
      "biter": 7094,
      "Ġmarch": 7095,
      "Ġparaded": 7096,
      "Ġowned": 7097,
      "Ġowners": 7098,
      "ruction": 7099,
      "ruption": 7100,
      "Ġseason": 7101,
      "guard": 7102,
      "Ġdistribution": 7103,
      "Ġdistract": 7104,
      "Ġdetest": 7105,
      "Ġlightly": 7106,
      "Ġlightening": 7107,
      "Ġbearing": 7108,
      "Ġgatherings": 7109,
      "Ġproved": 7110,
      "Ġproble": 7111,
      "Ġkeeps": 7112,
      "Ġhorror": 7113,
      "Ġshares": 7114,
      "Ġshowing": 7115,
      "Ġshowoff": 7116,
      "Ġvisions": 7117,
      "Ġvisibility": 7118,
      "Ġlistens": 7119,
      "Ġlistened": 7120,
      "Ġlistening": 7121,
      "Ġfeeds": 7122,
      "Ġsparks": 7123,
      "Ġchests": 7124,
      "Ġsmaller": 7125,
      "Ġfarfetched": 7126,
      "Ġgenerously": 7127,
      "Ġjourneys": 7128,
      "Ġcourses": 7129,
      "Ġarguing": 7130,
      "Ġgaze": 7131,
      "Ġimpresses": 7132,
      "Ġimplore": 7133,
      "Ġalongside": 7134,
      "Ġsurvive": 7135,
      "Ġstood": 7136,
      "boring": 7137,
      "osing": 7138,
      "Ġsaddleb": 7139,
      "Ġgreed": 7140,
      "Ġbash": 7141,
      "Ġbasis": 7142,
      "Ġlonger": 7143,
      "Ġsummoned": 7144,
      "Ġcollectively": 7145,
      "Ġsoften": 7146,
      "Ġmarketpla": 7147,
      "Ġwestern": 7148,
      "Ġarguments": 7149,
      "Ġscum": 7150,
      "Ġscourge": 7151,
      "Ġscholars": 7152,
      "Ġmemorize": 7153,
      "beans": 7154,
      "conduct": 7155,
      "Ġconject": 7156,
      "Ġamic": 7157,
      "Ġamuse": 7158,
      "Ġpurist": 7159,
      "Ġemerges": 7160,
      "Ġwhip": 7161,
      "ĠDays": 7162,
      "Ġjustly": 7163,
      "Ġjustification": 7164,
      "Ġredeems": 7165,
      "Ġyellowing": 7166,
      "ĠPut": 7167,
      "ĠPower": 7168,
      "ĠPromised": 7169,
      "ĠPassing": 7170,
      "Ġcompassionate": 7171,
      "bless": 7172,
      "versity": 7173,
      "Ġcouple": 7174,
      "Ġcouches": 7175,
      "Ġtrunks": 7176,
      "Ġwhispers": 7177,
      "Ġstaring": 7178,
      "Ġclement": 7179,
      "Ġcleans": 7180,
      "Ġmyths": 7181,
      "Ġmystery": 7182,
      "Ġcreed": 7183,
      "Ġcreators": 7184,
      "iffer": 7185,
      "Ġintere": 7186,
      "Ġhears": 7187,
      "Ġhearkens": 7188,
      "orming": 7189,
      "Ġamongst": 7190,
      "ĠWhose": 7191,
      "Ġrightful": 7192,
      "ote": 7193,
      "Ġouter": 7194,
      "Ġoutside": 7195,
      "Ġoutstanding": 7196,
      "Ġwrongfully": 7197,
      "thest": 7198,
      "ignific": 7199,
      "Ġpreoc": 7200,
      "Ġpreacher": 7201,
      "Ġpregnant": 7202,
      "eousness": 7203,
      "Ġunite": 7204,
      "Ġunsp": 7205,
      "Ġunknow": 7206,
      "Ġuncle": 7207,
      "Ġunrighteous": 7208,
      "Ġuninhabit": 7209,
      "Ġunlawful": 7210,
      "icion": 7211,
      "ically": 7212,
      "Ġrevealing": 7213,
      "Ġaccess": 7214,
      "ĠDoer": 7215,
      "ĠUltimate": 7216,
      "Ġchokes": 7217,
      "Ġchallenge": 7218,
      "Ġmistake": 7219,
      "Ġmistaken": 7220,
      "Ġmistreated": 7221,
      "Ġlikewise": 7222,
      "Ġcoolness": 7223,
      "spiring": 7224,
      "spiracies": 7225,
      "Ġsinfully": 7226,
      "sided": 7227,
      "Ġprompted": 7228,
      "Ġreports": 7229,
      "Ġrepository": 7230,
      "Ġreprodu": 7231,
      "Ġremits": 7232,
      "Ġenmity": 7233,
      "Ġworships": 7234,
      "Ġtwinkling": 7235,
      "Ġlifeless": 7236,
      "ĠAssembly": 7237,
      "Ġassumed": 7238,
      "Ġasserted": 7239,
      "Ġwary": 7240,
      "psed": 7241,
      "Ġletter": 7242,
      "oughly": 7243,
      "Ġlandmar": 7244,
      "Ġrejecting": 7245,
      "Ġaccused": 7246,
      "Ġmissing": 7247,
      "usts": 7248,
      "Ġrefresh": 7249,
      "mitted": 7250,
      "Ġexped": 7251,
      "Ġexpress": 7252,
      "Ġdestruction": 7253,
      "ization": 7254,
      "Ġhanded": 7255,
      "Ġhandle": 7256,
      "ĠWisest": 7257,
      "Ġsubser": 7258,
      "Ġsubsequent": 7259,
      "Ġsubsided": 7260,
      "Ġdecent": 7261,
      "Ġdecad": 7262,
      "Ġdecrees": 7263,
      "Ġdecisively": 7264,
      "ĠHellfire": 7265,
      "Thus": 7266,
      "Three": 7267,
      "Ġwrongdoer": 7268,
      "Ġherd": 7269,
      "Ġherbs": 7270,
      "Ġregions": 7271,
      "Ġinfants": 7272,
      "Ġinflu": 7273,
      "Ġinferior": 7274,
      "Ġinfinite": 7275,
      "Ġinfidelity": 7276,
      "Ġentertain": 7277,
      "Ġenticed": 7278,
      "Ġgreatly": 7279,
      "Ġwitnessing": 7280,
      "Ġattract": 7281,
      "Ġattached": 7282,
      "abled": 7283,
      "abeel": 7284,
      "ĠExt": 7285,
      "Ġparting": 7286,
      "Ġpartly": 7287,
      "Ġpartition": 7288,
      "Ġpartner": 7289,
      "Ġresult": 7290,
      "Ġrescue": 7291,
      "ission": 7292,
      "Ġrealiz": 7293,
      "Ġcontains": 7294,
      "Ġcontribution": 7295,
      "Ġcontract": 7296,
      "Ġcontact": 7297,
      "Ġcontrived": 7298,
      "Ġincapable": 7299,
      "Ġinviting": 7300,
      "Ġinvisible": 7301,
      "Ġsecl": 7302,
      "Ġsecond": 7303,
      "Ġstrip": 7304,
      "Ġstrict": 7305,
      "Ġstricken": 7306,
      "Ġcommitments": 7307,
      "Ġpreserve": 7308,
      "Ġsupposed": 7309,
      "ĠRef": 7310,
      "ĠRead": 7311,
      "ĠReckon": 7312,
      "ĠRepel": 7313,
      "ĠReceive": 7314,
      "ĠRevelations": 7315,
      "ĠRelaxing": 7316,
      "Ġcharities": 7317,
      "Ġglam": 7318,
      "Ġglances": 7319,
      "Ġglimpsed": 7320,
      "Ġproducing": 7321,
      "Ġvie": 7322,
      "Ġvile": 7323,
      "Ġdispat": 7324,
      "Ġdisposition": 7325,
      "Ġprotecting": 7326,
      "Ġconfound": 7327,
      "Ġconform": 7328,
      "Ġequally": 7329,
      "Ġpraised": 7330,
      "Ġreminding": 7331,
      "Ġreminders": 7332,
      "Ġpossessor": 7333,
      "Ġpossession": 7334,
      "Ġrose": 7335,
      "Ġroam": 7336,
      "Ġroads": 7337,
      "Ġrooted": 7338,
      "Ġident": 7339,
      "Ġapproves": 7340,
      "Ġappropri": 7341,
      "Ġenduring": 7342,
      "Ġendured": 7343,
      "Ġendurance": 7344,
      "Ġprophecy": 7345,
      "Ġprophethood": 7346,
      "Ġtruthfulness": 7347,
      "parts": 7348,
      "Ġdefies": 7349,
      "Ġdefers": 7350,
      "Ġdefinite": 7351,
      "uding": 7352,
      "Ġbury": 7353,
      "Ġdrinkers": 7354,
      "Ġrelated": 7355,
      "Ġrelating": 7356,
      "Ġreceiving": 7357,
      "Ġspeck": 7358,
      "Ġconsent": 7359,
      "Ġconsist": 7360,
      "Ġconsign": 7361,
      "Ġfights": 7362,
      "Ġdoubtful": 7363,
      "Ġremaining": 7364,
      "Ġoffers": 7365,
      "ĠAlas": 7366,
      "Ġerred": 7367,
      "Ġwells": 7368,
      "Ġparent": 7369,
      "Ġtrustee": 7370,
      "Ġordin": 7371,
      "Ġordain": 7372,
      "Ġinspires": 7373,
      "Ġinforms": 7374,
      "Ġstrained": 7375,
      "Ġfalling": 7376,
      "Ġpuberty": 7377,
      "Ġprivates": 7378,
      "vailing": 7379,
      "Ġtranscri": 7380,
      "Ġfulfills": 7381,
      "Ġcurses": 7382,
      "Ġterritory": 7383,
      "Ġtremor": 7384,
      "Ġactual": 7385,
      "Ġactiv": 7386,
      "Ġpays": 7387,
      "Ġinscribe": 7388,
      "Ġinsane": 7389,
      "Ġinsignific": 7390,
      "Ġinstilled": 7391,
      "ĠBeing": 7392,
      "Ġplanet": 7393,
      "Ġpleasure": 7394,
      "Ġlosing": 7395,
      "Ġcorpse": 7396,
      "Ġrecover": 7397,
      "Ġstays": 7398,
      "Ġblinded": 7399,
      "Ġblindness": 7400,
      "Ġseizing": 7401,
      "akened": 7402,
      "Ġfirewood": 7403,
      "Ġoppone": 7404,
      "Ġmagnificent": 7405,
      "Ġbountiful": 7406,
      "Ġprepare": 7407,
      "Ġstands": 7408,
      "Ġplanners": 7409,
      "Ġextent": 7410,
      "Ġpropels": 7411,
      "ĠShow": 7412,
      "Ġseverely": 7413,
      "Ġglorifies": 7414,
      "Ġauthorization": 7415,
      "avors": 7416,
      "ĠAmid": 7417,
      "Ġpledges": 7418,
      "Ġmentions": 7419,
      "Ġrules": 7420,
      "Ġvictim": 7421,
      "Ġimmature": 7422,
      "Ġimmunity": 7423,
      "Ġdarkens": 7424,
      "Ġidolatress": 7425,
      "Ġalter": 7426,
      "Ġprostrates": 7427,
      "Ġprostitution": 7428,
      "Ġcorrupters": 7429,
      "Ġignored": 7430,
      "into": 7431,
      "Ġinherited": 7432,
      "Ġtransgressing": 7433,
      "Ġtransgression": 7434,
      "Beware": 7435,
      "Begone": 7436,
      "Ġtriple": 7437,
      "Ġtrivial": 7438,
      "Ġtrickery": 7439,
      "Ġwomb": 7440,
      "Ġharder": 7441,
      "Ġesteemed": 7442,
      "Ġestrange": 7443,
      "ĠLotus": 7444,
      "ĠSheba": 7445,
      "ĠProphethood": 7446,
      "ĠTrust": 7447,
      "Ġperforms": 7448,
      "Ġdirects": 7449,
      "ĠStakes": 7450,
      "ĠStrive": 7451,
      "ĠStorming": 7452,
      "Ġpastime": 7453,
      "Ġadversary": 7454,
      "Ġadversaries": 7455,
      "Ġattributed": 7456,
      "Ġviolations": 7457,
      "Ġviolently": 7458,
      "lumber": 7459,
      "Ġgraze": 7460,
      "Ġgrapes": 7461,
      "Ġmustard": 7462,
      "Ġreaching": 7463,
      "Ġsuperst": 7464,
      "Ġsuprema": 7465,
      "Ġanswers": 7466,
      "Ġconfirms": 7467,
      "Ġcovenanted": 7468,
      "icize": 7469,
      "Ġdifferently": 7470,
      "Show": 7471,
      "Shaff": 7472,
      "Ġtrained": 7473,
      "Ġtraced": 7474,
      "Ġtradition": 7475,
      "Ġfury": 7476,
      "Ġbreach": 7477,
      "Ġwasteful": 7478,
      "Ġfabrication": 7479,
      "ĠChar": 7480,
      "ĠChamb": 7481,
      "Ġhosts": 7482,
      "Ġhostage": 7483,
      "Ġdevotions": 7484,
      "Ġapproaching": 7485,
      "Ġbows": 7486,
      "Ġaggressor": 7487,
      "Ġridicules": 7488,
      "Ġmentioning": 7489,
      "Ġconcerns": 7490,
      "Ġemigrants": 7491,
      "Ġovertake": 7492,
      "Ġoverturned": 7493,
      "Ġweaker": 7494,
      "ĠUnlettered": 7495,
      "ĠUnquestion": 7496,
      "Ġpractices": 7497,
      "Ġclaims": 7498,
      "vient": 7499,
      "Ġfreely": 7500,
      "Ġrebel": 7501,
      "Ġready": 7502,
      "Ġstraying": 7503,
      "Ġshifts": 7504,
      "Ġprospered": 7505,
      "Ġprohibits": 7506,
      "Ġhumiliate": 7507,
      "Ġaccelerate": 7508,
      "load": 7509,
      "petuity": 7510,
      "Ġdropped": 7511,
      "Ġdroves": 7512,
      "Ġdrops": 7513,
      "Ġcrawl": 7514,
      "Ġcrafted": 7515,
      "Ġpalace": 7516,
      "entional": 7517,
      "Ġmarrying": 7518,
      "Ġexpected": 7519,
      "Ġexpecting": 7520,
      "ĠChristian": 7521,
      "Ġcuts": 7522,
      "ĠJudges": 7523,
      "Ġruns": 7524,
      "Ġcoverings": 7525,
      "Ġpersecute": 7526,
      "Ġreconc": 7527,
      "Ġinjustices": 7528,
      "whomever": 7529,
      "Ġseducers": 7530,
      "Ġfourth": 7531,
      "Ġcausing": 7532,
      "Ġmerge": 7533,
      "Ġmerged": 7534,
      "Ġmerchand": 7535,
      "Ġdeafness": 7536,
      "Ġearnings": 7537,
      "Ġobviously": 7538,
      "Ġsettles": 7539,
      "Ġreformers": 7540,
      "Ġattainment": 7541,
      "Ġinclined": 7542,
      "Ġinclinations": 7543,
      "Ġincluding": 7544,
      "Ġextended": 7545,
      "Ġencountered": 7546,
      "Ġsanctified": 7547,
      "Ġfinest": 7548,
      "Ġhurled": 7549,
      "Ġgarment": 7550,
      "Ġsustain": 7551,
      "Ġdeplorable": 7552,
      "Ġdependents": 7553,
      "Ġdelightful": 7554,
      "Ġtestimonies": 7555,
      "obilize": 7556,
      "Ġrecompensed": 7557,
      "Ġtroubled": 7558,
      "Ġcrush": 7559,
      "Ġlowliest": 7560,
      "ĠGog": 7561,
      "ĠGuide": 7562,
      "ĠGuidance": 7563,
      "ĠEnlightening": 7564,
      "ĠEnoch": 7565,
      "Ġdiscrep": 7566,
      "Ġdivision": 7567,
      "Ġmaintained": 7568,
      "Ġmaintains": 7569,
      "Ġflourished": 7570,
      "Ġcaved": 7571,
      "Ġoriginal": 7572,
      "Ġeffort": 7573,
      "ĠAnother": 7574,
      "ĠAncient": 7575,
      "struct": 7576,
      "ĠSaul": 7577,
      "ĠSabeans": 7578,
      "ĠMedina": 7579,
      "Ġlegs": 7580,
      "Ġlegends": 7581,
      "Ġsorrowing": 7582,
      "Ġwalking": 7583,
      "Ġcontinuous": 7584,
      "Ġcontinued": 7585,
      "ĠRemaining": 7586,
      "Ġawait": 7587,
      "Ġdignity": 7588,
      "Ġdignified": 7589,
      "Ġcrumble": 7590,
      "Ġfortified": 7591,
      "Ġfortresses": 7592,
      "Ġfortunate": 7593,
      "Ġheading": 7594,
      "ĠMankind": 7595,
      "Ġprofound": 7596,
      "Ġdeviators": 7597,
      "Ġbuilding": 7598,
      "Ġwithdrawn": 7599,
      "Ġtroublemaker": 7600,
      "Ġtriumphant": 7601,
      "Ġtarget": 7602,
      "Ġsixth": 7603,
      "Ġfrequent": 7604,
      "Ġluxuries": 7605,
      "Ġnarrow": 7606,
      "Ġnullifies": 7607,
      "ĠGlorifying": 7608,
      "Ġsacraments": 7609,
      "Ġsafely": 7610,
      "Ġsafeguard": 7611,
      "Ġstinginess": 7612,
      "Ġplainly": 7613,
      "Ġdisapproval": 7614,
      "ĠRighteousness": 7615,
      "Ġconclude": 7616,
      "Ġconclusive": 7617,
      "Ġbefriended": 7618,
      "Ġbefriending": 7619,
      "Ġchoosing": 7620,
      "Ġmisleads": 7621,
      "Ġinstructs": 7622,
      "Ġpersistently": 7623,
      "Ġirri": 7624,
      "Ġfraud": 7625,
      "Ġoccup": 7626,
      "Ġoccasions": 7627,
      "Ġelevate": 7628,
      "Ġembry": 7629,
      "Ġembraced": 7630,
      "Ġembarrass": 7631,
      "Ġsuspicious": 7632,
      "Ġsuspicion": 7633,
      "Ġvalued": 7634,
      "Ġexclusion": 7635,
      "ĠDeciders": 7636,
      "Ġbetrayed": 7637,
      "Ġacquainted": 7638,
      "Ġassistant": 7639,
      "ĠQura": 7640,
      "ĠQuick": 7641,
      "Ġresentful": 7642,
      "Ġdisputants": 7643,
      "Ġilluminating": 7644,
      "Ġquestioning": 7645,
      "Ġorphaned": 7646,
      "Ġmultiplied": 7647,
      "Ġmultiplies": 7648,
      "Ġingrate": 7649,
      "Ġverifying": 7650,
      "Ġswerve": 7651,
      "Ġlengthen": 7652,
      "Ġlengthy": 7653,
      "Ġlesser": 7654,
      "Ġuseful": 7655,
      "Ġforsaken": 7656,
      "Ġsacrilege": 7657,
      "Ġwholehearted": 7658,
      "Ġstability": 7659,
      "Ġboys": 7660,
      "Ġarmy": 7661,
      "ĠRivers": 7662,
      "Ġswallowed": 7663,
      "Ġconstri": 7664,
      "Ġregrets": 7665,
      "Ġregretful": 7666,
      "Ġattendants": 7667,
      "Ġnumerical": 7668,
      "Ġdefiantly": 7669,
      "Ask": 7670,
      "Expel": 7671,
      "anence": 7672,
      "iyah": 7673,
      "venter": 7674,
      "Ġachieved": 7675,
      "Ġachieves": 7676,
      "Ġsnatch": 7677,
      "Ġsnatched": 7678,
      "Ġcautions": 7679,
      "Ġopinion": 7680,
      "Ġprisoners": 7681,
      "Ġbesiege": 7682,
      "Ġthreats": 7683,
      "Ġformerly": 7684,
      "ĠLeave": 7685,
      "Ġrelief": 7686,
      "Ġrelieves": 7687,
      "Ġshackle": 7688,
      "ĠCrusher": 7689,
      "Ġseverity": 7690,
      "Ġswears": 7691,
      "Ġreduce": 7692,
      "ĠPerish": 7693,
      "ĠPerform": 7694,
      "ĠPerpetuity": 7695,
      "ĠPermission": 7696,
      "ĠPermanence": 7697,
      "Ġunfolds": 7698,
      "Ġunwilling": 7699,
      "Ġretaliation": 7700,
      "Ġenriched": 7701,
      "Ġenriches": 7702,
      "Ġbeholders": 7703,
      "Ġrestraining": 7704,
      "Ġcontributed": 7705,
      "Ġdevotees": 7706,
      "Ġdisappoint": 7707,
      "Proceed": 7708,
      "saying": 7709,
      "Ġtufted": 7710,
      "Ġdamned": 7711,
      "Ġlarger": 7712,
      "Ġlatecomers": 7713,
      "Ġinquire": 7714,
      "Ġinitiates": 7715,
      "Ġgripped": 7716,
      "Ġgushing": 7717,
      "Ġmixed": 7718,
      "ĠOthers": 7719,
      "Ġkinship": 7720,
      "ĠBringing": 7721,
      "ĠEternal": 7722,
      "Ġannouncing": 7723,
      "Ġdelicious": 7724,
      "Ġquarrel": 7725,
      "Ġquarrelling": 7726,
      "Ġdisobedience": 7727,
      "Ġhoardings": 7728,
      "Ġswiftly": 7729,
      "Ġconversed": 7730,
      "Ġintellect": 7731,
      "Ġheavily": 7732,
      "Ġchanged": 7733,
      "Ġtornado": 7734,
      "Ġresolved": 7735,
      "Ġaffirms": 7736,
      "Ġtransport": 7737,
      "Ġtransported": 7738,
      "Ġdirectly": 7739,
      "Ġsuperiority": 7740,
      "Ġindulge": 7741,
      "Ġdebtor": 7742,
      "Ġdeclaration": 7743,
      "Ġcrucified": 7744,
      "Ġcrimes": 7745,
      "Ġelevates": 7746,
      "zzle": 7747,
      "Ġawake": 7748,
      "Ġawakened": 7749,
      "Ġfingert": 7750,
      "Ġfrost": 7751,
      "Ġbias": 7752,
      "Ġbank": 7753,
      "Ġbanished": 7754,
      "Ġdeeply": 7755,
      "Ġdazed": 7756,
      "Ġdazzled": 7757,
      "Ġgross": 7758,
      "Ġmortal": 7759,
      "Ġmalicious": 7760,
      "Ġthrongs": 7761,
      "Ġfeuding": 7762,
      "ĠMagog": 7763,
      "Ġsoldiers": 7764,
      "Ġabomination": 7765,
      "Ġshaded": 7766,
      "Ġshades": 7767,
      "Ġlocation": 7768,
      "Ġlocusts": 7769,
      "Ġdelusions": 7770,
      "ĠKingdom": 7771,
      "Ġdisagreed": 7772,
      "ĠCaller": 7773,
      "ĠClarification": 7774,
      "Ġcalculate": 7775,
      "Ġappreciate": 7776,
      "Ġappreciated": 7777,
      "Ġdistraction": 7778,
      "Ġdistracts": 7779,
      "Ġdeterring": 7780,
      "ĠPreventer": 7781,
      "ĠPrayer": 7782,
      "ĠPrayers": 7783,
      "Ġobliterate": 7784,
      "Ġobtained": 7785,
      "Ġenumerate": 7786,
      "Ġwithered": 7787,
      "Ġpleading": 7788,
      "Ġdragged": 7789,
      "Ġprecisely": 7790,
      "Ġcirculate": 7791,
      "Ġintercedes": 7792,
      "Ġdonkeys": 7793,
      "Ġrelationships": 7794,
      "?'\"": 7795,
      "Settle": 7796,
      "Ġtraces": 7797,
      "Ġwraps": 7798,
      "Ġflying": 7799,
      "Ġlodged": 7800,
      "Ġlodging": 7801,
      "Ġpaired": 7802,
      "Ġmovements": 7803,
      "Ġmaids": 7804,
      "Ġwhitened": 7805,
      "Ġhesitation": 7806,
      "Ġissued": 7807,
      "ĠOwner": 7808,
      "Ġrecedes": 7809,
      "Ġreinforced": 7810,
      "licit": 7811,
      "Ġsteals": 7812,
      "Ġstreams": 7813,
      "Ġstretching": 7814,
      "ĠEverlasting": 7815,
      "Ġpenetrates": 7816,
      "Ġfolding": 7817,
      "Ġasylum": 7818,
      "Ġarbiter": 7819,
      "Ġarbitrate": 7820,
      "Ġdissimilar": 7821,
      "ĠConqueror": 7822,
      "Insy": 7823,
      "Ġimprove": 7824,
      "Ġsaddened": 7825,
      "Ġintoxicants": 7826,
      "Ġuncles": 7827,
      "Ġrejoiced": 7828,
      "Ġrejoicing": 7829,
      "Ġassault": 7830,
      "Ġaccomplish": 7831,
      "Ġdiversified": 7832,
      "Ġdevastated": 7833,
      "ĠRespond": 7834,
      "ĠRespons": 7835,
      "Ġroots": 7836,
      "Ġidolize": 7837,
      "Ġidolized": 7838,
      "Ġendeavor": 7839,
      "Ġendeavors": 7840,
      "Ġconsultation": 7841,
      "ĠJewish": 7842,
      "Ġslaughtered": 7843,
      "Ġslaughtering": 7844,
      "Ġcounterparts": 7845,
      "ĠSupporter": 7846,
      "ĠSupporters": 7847,
      "Ġcoloring": 7848,
      "Ġfortunes": 7849,
      "Ġengulfed": 7850,
      "Ġdeliberately": 7851,
      "Ġcultivated": 7852,
      "Ġcultivation": 7853,
      "Ġsuggested": 7854,
      "Ġelaborated": 7855,
      "Ġindividual": 7856,
      "Ġindividually": 7857,
      "Obey": 7858,
      "Syu": 7859,
      "better": 7860,
      "bringing": 7861,
      "volent": 7862,
      "Ġaflame": 7863,
      "Ġaimlessly": 7864,
      "Ġambush": 7865,
      "Ġwidows": 7866,
      "Ġsensed": 7867,
      "Ġfrowned": 7868,
      "Ġfrighten": 7869,
      "Ġbarely": 7870,
      "Ġbranded": 7871,
      "Ġlingering": 7872,
      "Ġloudly": 7873,
      "asmuch": 7874,
      "Ġgirls": 7875,
      "Ġthoroughly": 7876,
      "Ġthroats": 7877,
      "Ġthieves": 7878,
      "ĠAssuredly": 7879,
      "Ġnicely": 7880,
      "Ġupper": 7881,
      "Ġformation": 7882,
      "ĠHonorable": 7883,
      "ĠScream": 7884,
      "ĠSplendor": 7885,
      "ĠWatchful": 7886,
      "Ġsticks": 7887,
      "Ġstairway": 7888,
      "Ġstrongholds": 7889,
      "Ġstrangers": 7890,
      "Ġabstain": 7891,
      "ĠBetween": 7892,
      "ĠEarth": 7893,
      "ĠElevations": 7894,
      "ĠEvidence": 7895,
      "Ġsplinter": 7896,
      "Ġvirgins": 7897,
      "Ġaspiring": 7898,
      "Ġexcused": 7899,
      "Ġexecute": 7900,
      "Ġanxious": 7901,
      "Ġsmooth": 7902,
      "ĠDwelling": 7903,
      "Ġcompete": 7904,
      "Ġdisdain": 7905,
      "Ġcustodians": 7906,
      "Ġallocate": 7907,
      "Ġcollapse": 7908,
      "Ġoverflowing": 7909,
      "Ġpolluted": 7910,
      "Ġmartyrs": 7911,
      "Ġhorizon": 7912,
      "Ġsurface": 7913,
      "Ġscalding": 7914,
      "Ġguarantee": 7915,
      "Ġunintentional": 7916,
      "Ġobscenity": 7917,
      "Ġdecayed": 7918,
      "Ġmenstruation": 7919,
      "Ġaffluent": 7920,
      "Ġdefraud": 7921,
      "Ġimmediately": 7922,
      "Ġterrified": 7923,
      "Ġtreacherous": 7924,
      "ĠBenevolent": 7925,
      "ĠBeholder": 7926,
      "ĠVictory": 7927,
      "Ġhypocritical": 7928,
      "Ġextinguish": 7929,
      "Ġrubble": 7930,
      "Ġencompassed": 7931,
      "Ġescapes": 7932,
      "Ġbeggar": 7933,
      "Ġeliminate": 7934,
      "Ġrebuked": 7935,
      "Ġexchanged": 7936,
      "Ġabsorb": 7937,
      "Ġcriticize": 7938,
      "Ġeffects": 7939,
      "Ġprofessing": 7940,
      "Ġbewilder": 7941,
      "Ġfoolishness": 7942,
      "Ġtyrannical": 7943,
      "Ġfragments": 7944,
      "Ġexhausted": 7945,
      "Ġcondemns": 7946,
      "provided": 7947,
      "ĠOverwhelming": 7948,
      "Ġobliterated": 7949,
      "ĠSeparation": 7950,
      "Ġvolunteers": 7951,
      "Alas": 7952,
      "Leave": 7953,
      "Legends": 7954,
      "Roam": 7955,
      "Unless": 7956,
      "Wait": 7957,
      "Whether": 7958,
      "body": 7959,
      "drop": 7960,
      "fourth": 7961,
      "ogize": 7962,
      "payment": 7963,
      "punishment": 7964,
      "Ġimag": 7965,
      "Ġvessel": 7966,
      "Ġtalk": 7967,
      "Ġtallied": 7968,
      "Ġacknowledge": 7969,
      "Ġapologize": 7970,
      "Ġwrote": 7971,
      "Ġsanction": 7972,
      "Ġskeptic": 7973,
      "Ġsquander": 7974,
      "Ġfainting": 7975,
      "Ġfountains": 7976,
      "Ġfixed": 7977,
      "Ġfifty": 7978,
      "Ġbombarded": 7979,
      "Ġdimmed": 7980,
      "Ġdomestic": 7981,
      "Ġduration": 7982,
      "Ġcliff": 7983,
      "Ġcavalry": 7984,
      "Ġcushions": 7985,
      "Ġtoppled": 7986,
      "ĠTubba": 7987,
      "Ġlecture": 7988,
      "Ġlazily": 7989,
      "Ġhigher": 7990,
      "Ġbeacon": 7991,
      "Ġiniquities": 7992,
      "Ġgarlanded": 7993,
      "Ġmilk": 7994,
      "Ġmirage": 7995,
      "Ġmajor": 7996,
      "Ġmosques": 7997,
      "Ġmajesty": 7998,
      "Ġthirty": 7999,
      "Ġthorns": 8000,
      "ĠAlso": 8001,
      "ĠAbsolute": 8002,
      "Ġforcibly": 8003,
      "Ġforerunners": 8004,
      "Ġfestival": 8005,
      "ĠSelf": 8006,
      "ĠSorting": 8007,
      "ĠSanctuary": 8008,
      "ĠSijjeen": 8009,
      "ĠGentle": 8010,
      "ĠOverturned": 8011,
      "Ġsoothsayer": 8012,
      "Ġupsets": 8013,
      "Ġstunned": 8014,
      "Ġloathing": 8015,
      "ĠEzekiel": 8016,
      "ĠElliyy": 8017,
      "Ġplunge": 8018,
      "Ġplacing": 8019,
      "Ġcarpets": 8020,
      "Ġvenerates": 8021,
      "Ġvineyards": 8022,
      "Ġexaggerate": 8023,
      "Ġexactly": 8024,
      "ĠSovereign": 8025,
      "ĠKaabah": 8026,
      "ĠInitiator": 8027,
      "Ġturmoil": 8028,
      "Ġpermissible": 8029,
      "Ġdishearten": 8030,
      "Ġrivalry": 8031,
      "ĠRedeemer": 8032,
      "Ġcooperate": 8033,
      "Ġsaddlebag": 8034,
      "Ġmarketplaces": 8035,
      "Ġconjecture": 8036,
      "Ġamicably": 8037,
      "Ġamusement": 8038,
      "Ġpreoccup": 8039,
      "Ġunspecific": 8040,
      "Ġunknown": 8041,
      "Ġuninhabited": 8042,
      "Ġlandmarks": 8043,
      "Ġrefreshing": 8044,
      "Ġsubservient": 8045,
      "Ġinfluence": 8046,
      "Ġentertainment": 8047,
      "Ġattractive": 8048,
      "Ġappropriate": 8049,
      "Ġdefinitely": 8050,
      "Ġactivities": 8051,
      "Ġinsignificant": 8052,
      "Ġsupremacy": 8053,
      "ĠUnquestionably": 8054,
      "Ġmerchandise": 8055,
      "Ġdiscrepancy": 8056,
      "Ġwholeheartedly": 8057,
      "\";": 8058,
      "'?\"": 8059,
      ";,": 8060,
      "Ab": 8061,
      "App": 8062,
      "Allow": 8063,
      "Ala": 8064,
      "Away": 8065,
      "Act": 8066,
      "After": 8067,
      "Ash": 8068,
      "Adi": 8069,
      "Arab": 8070,
      "Ank": 8071,
      "Again": 8072,
      "Bo": 8073,
      "Bay": 8074,
      "Bur": 8075,
      "Bal": 8076,
      "Blow": 8077,
      "Bear": 8078,
      "Blessed": 8079,
      "Because": 8080,
      "Baq": 8081,
      "Burn": 8082,
      "Con": 8083,
      "Cra": 8084,
      "Com": 8085,
      "Cond": 8086,
      "Dh": 8087,
      "Don": 8088,
      "Del": 8089,
      "Dead": 8090,
      "Dukh": 8091,
      "Dzar": 8092,
      "Ez": 8093,
      "Ent": 8094,
      "Edu": 8095,
      "Embark": 8096,
      "Fat": 8097,
      "Fur": 8098,
      "Fil": 8099,
      "Fall": 8100,
      "Fight": 8101,
      "Five": 8102,
      "Fath": 8103,
      "Fear": 8104,
      "Flight": 8105,
      "Faj": 8106,
      "Falaq": 8107,
      "Gh": 8108,
      "Gu": 8109,
      "Great": 8110,
      "Gardens": 8111,
      "Has": 8112,
      "Hand": 8113,
      "Hum": 8114,
      "Hasy": 8115,
      "High": 8116,
      "Hajj": 8117,
      "Haq": 8118,
      "Hij": 8119,
      "Huj": 8120,
      "Ik": 8121,
      "Imp": 8122,
      "Inde": 8123,
      "Ju": 8124,
      "Jinn": 8125,
      "Just": 8126,
      "Jum": 8127,
      "Jacob": 8128,
      "Jats": 8129,
      "Join": 8130,
      "Kind": 8131,
      "Kah": 8132,
      "Keep": 8133,
      "Kaf": 8134,
      "Kaut": 8135,
      "Kneel": 8136,
      "Lat": 8137,
      "Listen": 8138,
      "Look": 8139,
      "Lail": 8140,
      "Lahab": 8141,
      "Mar": 8142,
      "May": 8143,
      "Mul": 8144,
      "Make": 8145,
      "Mai": 8146,
      "Moses": 8147,
      "Mighty": 8148,
      "Mud": 8149,
      "Mum": 8150,
      "Mirac": 8151,
      "Mention": 8152,
      "Murs": 8153,
      "Mobilize": 8154,
      "Nis": 8155,
      "Nas": 8156,
      "Name": 8157,
      "Nam": 8158,
      "Nah": 8159,
      "Naz": 8160,
      "Nab": 8161,
      "Naj": 8162,
      "Nash": 8163,
      "Or": 8164,
      "Over": 8165,
      "Off": 8166,
      "Pay": 8167,
      "Pour": 8168,
      "Pray": 8169,
      "Perm": 8170,
      "Paradise": 8171,
      "Pardon": 8172,
      "Present": 8173,
      "Qar": 8174,
      "Qas": 8175,
      "Qam": 8176,
      "Qal": 8177,
      "Qad": 8178,
      "Quran": 8179,
      "Qiy": 8180,
      "Ra": 8181,
      "Re": 8182,
      "Rah": 8183,
      "Rest": 8184,
      "Read": 8185,
      "Rum": 8186,
      "Some": 8187,
      "Soon": 8188,
      "Swe": 8189,
      "Scri": 8190,
      "Saj": 8191
    },
    "merges": [
      [
        "h",
        "e"
      ],
      [
        "Ġ",
        "t"
      ],
      [
        "Ġ",
        "a"
      ],
      [
        "Ġt",
        "he"
      ],
      [
        "Ġ",
        "w"
      ],
      [
        "i",
        "n"
      ],
      [
        "e",
        "d"
      ],
      [
        "Ġ",
        "s"
      ],
      [
        "e",
        "r"
      ],
      [
        "n",
        "d"
      ],
      [
        "Ġ",
        "f"
      ],
      [
        "o",
        "u"
      ],
      [
        "Ġ",
        "b"
      ],
      [
        "i",
        "t"
      ],
      [
        "r",
        "e"
      ],
      [
        "a",
        "r"
      ],
      [
        "Ġ",
        "d"
      ],
      [
        "Ġ",
        "c"
      ],
      [
        "a",
        "t"
      ],
      [
        "Ġa",
        "nd"
      ],
      [
        "Ġ",
        "o"
      ],
      [
        "Ġt",
        "o"
      ],
      [
        "Ġ",
        "T"
      ],
      [
        "i",
        "s"
      ],
      [
        "in",
        "g"
      ],
      [
        "o",
        "r"
      ],
      [
        "m",
        "e"
      ],
      [
        "Ġ",
        "l"
      ],
      [
        "Ġ",
        "p"
      ],
      [
        "Ġ",
        "h"
      ],
      [
        "a",
        "y"
      ],
      [
        "a",
        "s"
      ],
      [
        "n",
        "e"
      ],
      [
        "ĠT",
        "he"
      ],
      [
        "e",
        "n"
      ],
      [
        "l",
        "l"
      ],
      [
        "a",
        "n"
      ],
      [
        "v",
        "er"
      ],
      [
        "Ġb",
        "e"
      ],
      [
        "Ġ",
        "in"
      ],
      [
        "r",
        "i"
      ],
      [
        "Ġ",
        "g"
      ],
      [
        "Ġw",
        "as"
      ],
      [
        "v",
        "e"
      ],
      [
        "Ġ",
        "m"
      ],
      [
        "l",
        "e"
      ],
      [
        "Ġ",
        "it"
      ],
      [
        "o",
        "n"
      ],
      [
        "Ġ",
        "e"
      ],
      [
        "Ġ",
        "y"
      ],
      [
        "g",
        "h"
      ],
      [
        "Ġt",
        "h"
      ],
      [
        "Ġo",
        "f"
      ],
      [
        "Ġy",
        "ou"
      ],
      [
        "r",
        "a"
      ],
      [
        "Ġ",
        "A"
      ],
      [
        "s",
        "e"
      ],
      [
        "r",
        "o"
      ],
      [
        "gh",
        "t"
      ],
      [
        "Ġw",
        "h"
      ],
      [
        "c",
        "e"
      ],
      [
        "Ġthe",
        "y"
      ],
      [
        "e",
        "t"
      ],
      [
        "it",
        "h"
      ],
      [
        "Ġ",
        "n"
      ],
      [
        "Ġ",
        "u"
      ],
      [
        "Ġd",
        "ay"
      ],
      [
        "Ġf",
        "or"
      ],
      [
        "Ġ",
        "H"
      ],
      [
        "o",
        "d"
      ],
      [
        "Ġ",
        "L"
      ],
      [
        "i",
        "m"
      ],
      [
        "ver",
        "y"
      ],
      [
        "l",
        "d"
      ],
      [
        "Ġ",
        "I"
      ],
      [
        "i",
        "d"
      ],
      [
        "Ġf",
        "e"
      ],
      [
        "s",
        "t"
      ],
      [
        "o",
        "w"
      ],
      [
        "Ġ",
        "S"
      ],
      [
        "a",
        "me"
      ],
      [
        "u",
        "l"
      ],
      [
        "in",
        "d"
      ],
      [
        "Ġ",
        "he"
      ],
      [
        "a",
        "m"
      ],
      [
        "Ġw",
        "ith"
      ],
      [
        "f",
        "ul"
      ],
      [
        "c",
        "h"
      ],
      [
        "t",
        "h"
      ],
      [
        "l",
        "y"
      ],
      [
        "he",
        "r"
      ],
      [
        "Ġl",
        "i"
      ],
      [
        "Ġh",
        "a"
      ],
      [
        "e",
        "s"
      ],
      [
        "o",
        "me"
      ],
      [
        "Ġ",
        "is"
      ],
      [
        "Ġ",
        "G"
      ],
      [
        "Ġ",
        "O"
      ],
      [
        "Ġs",
        "a"
      ],
      [
        "i",
        "ll"
      ],
      [
        "Ġ",
        "k"
      ],
      [
        "r",
        "ou"
      ],
      [
        "Ġ",
        "re"
      ],
      [
        "l",
        "i"
      ],
      [
        "u",
        "t"
      ],
      [
        "c",
        "k"
      ],
      [
        "v",
        "ed"
      ],
      [
        "Ġwh",
        "o"
      ],
      [
        "ar",
        "d"
      ],
      [
        "p",
        "p"
      ],
      [
        "i",
        "r"
      ],
      [
        "Ġthe",
        "m"
      ],
      [
        "T",
        "he"
      ],
      [
        "u",
        "r"
      ],
      [
        "l",
        "t"
      ],
      [
        "ĠG",
        "od"
      ],
      [
        "ĠThe",
        "y"
      ],
      [
        "n",
        "t"
      ],
      [
        "Ġ",
        "M"
      ],
      [
        "ou",
        "t"
      ],
      [
        "k",
        "e"
      ],
      [
        "Ġs",
        "o"
      ],
      [
        "Ġ",
        "W"
      ],
      [
        "Ġfe",
        "lt"
      ],
      [
        "Ġu",
        "p"
      ],
      [
        "Ġd",
        "o"
      ],
      [
        "Ġs",
        "t"
      ],
      [
        "o",
        "m"
      ],
      [
        "a",
        "l"
      ],
      [
        "an",
        "t"
      ],
      [
        "Ġa",
        "b"
      ],
      [
        "Ġthe",
        "re"
      ],
      [
        "Ġe",
        "very"
      ],
      [
        "e",
        "nd"
      ],
      [
        "Ġs",
        "h"
      ],
      [
        "i",
        "l"
      ],
      [
        "Ġab",
        "out"
      ],
      [
        "Ġn",
        "o"
      ],
      [
        "o",
        "se"
      ],
      [
        "s",
        "s"
      ],
      [
        "er",
        "e"
      ],
      [
        "Ġw",
        "ill"
      ],
      [
        "Ġl",
        "o"
      ],
      [
        "Ġ",
        "B"
      ],
      [
        "e",
        "c"
      ],
      [
        "Ġ",
        "E"
      ],
      [
        "Ġa",
        "re"
      ],
      [
        "ri",
        "end"
      ],
      [
        "Ġf",
        "riend"
      ],
      [
        "en",
        "t"
      ],
      [
        "l",
        "p"
      ],
      [
        "Ġw",
        "o"
      ],
      [
        "o",
        "ne"
      ],
      [
        "ro",
        "m"
      ],
      [
        "Ġ",
        "ne"
      ],
      [
        "Ġw",
        "ere"
      ],
      [
        "Ġsa",
        "id"
      ],
      [
        "g",
        "e"
      ],
      [
        "i",
        "on"
      ],
      [
        "on",
        "g"
      ],
      [
        "p",
        "le"
      ],
      [
        "a",
        "ck"
      ],
      [
        "at",
        "e"
      ],
      [
        "Ġc",
        "ame"
      ],
      [
        "Ġp",
        "l"
      ],
      [
        "Ġth",
        "at"
      ],
      [
        "Ġp",
        "e"
      ],
      [
        "Ġ",
        "F"
      ],
      [
        "nd",
        "er"
      ],
      [
        "Ġb",
        "rou"
      ],
      [
        "Ġbrou",
        "ght"
      ],
      [
        "Ġf",
        "ind"
      ],
      [
        "Ġ",
        "\""
      ],
      [
        "m",
        "b"
      ],
      [
        "ou",
        "nd"
      ],
      [
        "he",
        "d"
      ],
      [
        "Ġl",
        "e"
      ],
      [
        "g",
        "et"
      ],
      [
        "ĠO",
        "ne"
      ],
      [
        "get",
        "her"
      ],
      [
        "Ġ",
        "j"
      ],
      [
        "Ġfriend",
        "s"
      ],
      [
        "Ġc",
        "ar"
      ],
      [
        "k",
        "ed"
      ],
      [
        "ar",
        "ed"
      ],
      [
        "is",
        "t"
      ],
      [
        "Ġs",
        "u"
      ],
      [
        "Ġhe",
        "lp"
      ],
      [
        "ri",
        "ed"
      ],
      [
        "Ġf",
        "o"
      ],
      [
        "ra",
        "ve"
      ],
      [
        "Ġ",
        "N"
      ],
      [
        "Ġ",
        "i"
      ],
      [
        "ĠH",
        "e"
      ],
      [
        "Ġno",
        "t"
      ],
      [
        "he",
        "n"
      ],
      [
        "Ġ",
        "me"
      ],
      [
        "Ġpl",
        "ay"
      ],
      [
        "Ġo",
        "ne"
      ],
      [
        "Ġthe",
        "ir"
      ],
      [
        "f",
        "t"
      ],
      [
        "a",
        "ll"
      ],
      [
        "Ġs",
        "p"
      ],
      [
        "w",
        "n"
      ],
      [
        "li",
        "e"
      ],
      [
        "Ġbe",
        "c"
      ],
      [
        "i",
        "ght"
      ],
      [
        "Ġ",
        "v"
      ],
      [
        "ĠT",
        "h"
      ],
      [
        "ĠA",
        "nd"
      ],
      [
        "Ġf",
        "rom"
      ],
      [
        "Ġa",
        "g"
      ],
      [
        "a",
        "ve"
      ],
      [
        "a",
        "u"
      ],
      [
        "Ġa",
        "s"
      ],
      [
        "Ġc",
        "om"
      ],
      [
        "is",
        "e"
      ],
      [
        "ou",
        "s"
      ],
      [
        "a",
        "d"
      ],
      [
        "Ġha",
        "d"
      ],
      [
        "Ġb",
        "ut"
      ],
      [
        "a",
        "in"
      ],
      [
        "q",
        "u"
      ],
      [
        "c",
        "hed"
      ],
      [
        "Ġp",
        "at"
      ],
      [
        "ĠB",
        "ut"
      ],
      [
        "t",
        "le"
      ],
      [
        ".",
        "\""
      ],
      [
        "Ġw",
        "at"
      ],
      [
        "Ġbec",
        "ame"
      ],
      [
        "Ġe",
        "x"
      ],
      [
        "ou",
        "r"
      ],
      [
        "o",
        "k"
      ],
      [
        "Ġf",
        "ound"
      ],
      [
        "ĠS",
        "o"
      ],
      [
        "ou",
        "ld"
      ],
      [
        "Ġw",
        "ant"
      ],
      [
        "o",
        "e"
      ],
      [
        "Ġth",
        "ose"
      ],
      [
        "e",
        "e"
      ],
      [
        "Ġto",
        "gether"
      ],
      [
        "Ġli",
        "ved"
      ],
      [
        "ĠW",
        "e"
      ],
      [
        "Ġwant",
        "ed"
      ],
      [
        "Ġo",
        "n"
      ],
      [
        "Ġs",
        "k"
      ],
      [
        "Ġi",
        "f"
      ],
      [
        "Ġa",
        "n"
      ],
      [
        "th",
        "ing"
      ],
      [
        "mb",
        "er"
      ],
      [
        "Ġre",
        "me"
      ],
      [
        "a",
        "h"
      ],
      [
        "Ġk",
        "ind"
      ],
      [
        "Ġg",
        "r"
      ],
      [
        "Ġreme",
        "mber"
      ],
      [
        "Ġs",
        "m"
      ],
      [
        "Ġcar",
        "ried"
      ],
      [
        "u",
        "s"
      ],
      [
        "Ġo",
        "r"
      ],
      [
        "Ġb",
        "y"
      ],
      [
        "Ġsh",
        "ared"
      ],
      [
        "Ġbe",
        "lie"
      ],
      [
        "Ġ",
        "J"
      ],
      [
        "Ġd",
        "e"
      ],
      [
        "er",
        "c"
      ],
      [
        "k",
        "et"
      ],
      [
        "i",
        "a"
      ],
      [
        "Ġ",
        "D"
      ],
      [
        "w",
        "ard"
      ],
      [
        "Ġcom",
        "p"
      ],
      [
        "ec",
        "t"
      ],
      [
        "or",
        "d"
      ],
      [
        "Ġ",
        "K"
      ],
      [
        "ĠI",
        "n"
      ],
      [
        "r",
        "y"
      ],
      [
        "Ġf",
        "a"
      ],
      [
        "ĠThe",
        "n"
      ],
      [
        "Ġg",
        "o"
      ],
      [
        "o",
        "ple"
      ],
      [
        "Ġha",
        "ve"
      ],
      [
        "n",
        "ed"
      ],
      [
        "ar",
        "m"
      ],
      [
        "Ġb",
        "l"
      ],
      [
        "Ġyou",
        "r"
      ],
      [
        "Ġpe",
        "ople"
      ],
      [
        "Ġit",
        "s"
      ],
      [
        "ĠI",
        "t"
      ],
      [
        "Ġ",
        "r"
      ],
      [
        "Ġ",
        "Z"
      ],
      [
        "Ġa",
        "l"
      ],
      [
        "ĠL",
        "i"
      ],
      [
        "ĠL",
        "u"
      ],
      [
        "i",
        "es"
      ],
      [
        "Ġb",
        "o"
      ],
      [
        "Ġh",
        "as"
      ],
      [
        "Ġc",
        "l"
      ],
      [
        "Ġt",
        "e"
      ],
      [
        "b",
        "y"
      ],
      [
        "Ġt",
        "ur"
      ],
      [
        "m",
        "m"
      ],
      [
        "an",
        "ce"
      ],
      [
        "Ġw",
        "hen"
      ],
      [
        "ll",
        "ow"
      ],
      [
        "Ġ",
        "Y"
      ],
      [
        "ne",
        "ss"
      ],
      [
        "a",
        "ch"
      ],
      [
        "Ġwh",
        "at"
      ],
      [
        "he",
        "re"
      ],
      [
        "it",
        "y"
      ],
      [
        "Ġp",
        "er"
      ],
      [
        "Ġw",
        "ay"
      ],
      [
        "Ġa",
        "r"
      ],
      [
        "Ġb",
        "ack"
      ],
      [
        "Ġsk",
        "y"
      ],
      [
        "ĠL",
        "ord"
      ],
      [
        "Ġh",
        "ome"
      ],
      [
        "u",
        "ch"
      ],
      [
        "ou",
        "se"
      ],
      [
        "Ġha",
        "pp"
      ],
      [
        "au",
        "ght"
      ],
      [
        "Ġ",
        "qu"
      ],
      [
        "i",
        "ve"
      ],
      [
        "v",
        "en"
      ],
      [
        "rou",
        "gh"
      ],
      [
        "Ġne",
        "ar"
      ],
      [
        "Ġth",
        "rough"
      ],
      [
        "a",
        "ke"
      ],
      [
        "Ġh",
        "u"
      ],
      [
        "Ġm",
        "uch"
      ],
      [
        "Ġto",
        "o"
      ],
      [
        "Ġm",
        "erc"
      ],
      [
        "ate",
        "ful"
      ],
      [
        "in",
        "k"
      ],
      [
        "Ġd",
        "is"
      ],
      [
        "ar",
        "ned"
      ],
      [
        "i",
        "et"
      ],
      [
        "Ġt",
        "aught"
      ],
      [
        "Ġevery",
        "one"
      ],
      [
        "it",
        "tle"
      ],
      [
        "Ġn",
        "ight"
      ],
      [
        "im",
        "p"
      ],
      [
        "Ġlo",
        "ok"
      ],
      [
        "Ġl",
        "ittle"
      ],
      [
        "Ġne",
        "ed"
      ],
      [
        "n",
        "ce"
      ],
      [
        "ĠS",
        "ome"
      ],
      [
        "Ġgr",
        "ateful"
      ],
      [
        "t",
        "her"
      ],
      [
        "a",
        "nd"
      ],
      [
        "me",
        "nt"
      ],
      [
        "Ġ",
        "very"
      ],
      [
        "Ġb",
        "rave"
      ],
      [
        "Ġqu",
        "iet"
      ],
      [
        "Ġsu",
        "n"
      ],
      [
        "Ġag",
        "o"
      ],
      [
        "Ġsp",
        "ec"
      ],
      [
        "or",
        "ies"
      ],
      [
        "Ġli",
        "ked"
      ],
      [
        "Ġhe",
        "ld"
      ],
      [
        "i",
        "al"
      ],
      [
        "Ġfind",
        "ing"
      ],
      [
        "Ġwat",
        "ched"
      ],
      [
        "Ġfa",
        "ith"
      ],
      [
        "O",
        "nce"
      ],
      [
        "Ġle",
        "arned"
      ],
      [
        "Ġspec",
        "ial"
      ],
      [
        "at",
        "her"
      ],
      [
        "en",
        "er"
      ],
      [
        "re",
        "am"
      ],
      [
        "Ġwo",
        "ke"
      ],
      [
        "Ġpat",
        "i"
      ],
      [
        "Ġd",
        "ream"
      ],
      [
        "is",
        "h"
      ],
      [
        "Ġg",
        "ener"
      ],
      [
        "Ġfor",
        "g"
      ],
      [
        "e",
        "y"
      ],
      [
        "'",
        "s"
      ],
      [
        "Ġwo",
        "nder"
      ],
      [
        "t",
        "er"
      ],
      [
        "Ġ",
        "ri"
      ],
      [
        "Ġt",
        "rave"
      ],
      [
[...]
